. 8320
de 2381
je 2239
est 1812
@-@ 1800
pas 1551
il 1494
la 1460
? 1456
le 1407
que 1357
Ã 1350
vous 1252
, 1177
ne 1162
a 1089
l&apos; 1030
un 975
tu 933
n&apos; 864
j&apos; 852
ce 846
les 760
Tom 736
en 730
ai 702
une 691
nous 655
d&apos; 646
elle 538
qu&apos; 464
! 455
pour 442
c&apos; 436
suis 423
et 401
me 398
des 391
dans 383
y 331
qui 325
du 316
Ã§a 315
plus 313
s&apos; 298
faire 288
au 288
moi 286
m&apos; 281
Ã©tait 277
se 274
tout 264
avec 264
fait 252
te 251
mon 243
Ãªtre 229
sont 226
si 224
son 217
ils 204
sur 201
veux 200
&quot; 199
as 189
es 185
lui 184
trÃ¨s 180
temps 178
cette 173
Ãªtes 167
ont 164
Ã©tÃ© 161
ma 160
sa 159
votre 158
avez 156
on 152
par 151
oÃ¹ 147
pourquoi 140
peux 136
ici 136
mais 136
dit 136
jamais 134
bien 133
toi 129
comment 129
t&apos; 128
chose 127
pense 126
sais 121
tous 120
cela 118
comme 117
peut 114
avons 113
beaucoup 111
vraiment 110
t 109
dire 109
ton 109
ses 106
aime 105
avait 104
elles 104
trop 102
mÃªme 99
quelque 99
voir 96
avoir 96
rien 96
quand 95
mes 93
monde 91
deux 91
va 90
encore 90
besoin 89
parler 89
lÃ 86
aller 85
aux 85
sommes 85
personne 85
Ã©tais 84
homme 83
Ã© 82
peu 81
toujours 81
ta 80
Ã©e 78
dois 77
argent 77
tes 76
train 76
aussi 75
maison 74
bon 73
chez 73
soit 72
avais 72
Marie 72
fois 72
vu 71
Mary 71
re@@ 70
voiture 70
quoi 69
notre 69
quel 69
travail 69
avant 68
autre 68
dÃ©@@ 67
maintenant 66
arrive 66
vais 66
eu 66
vie 65
sans 65
dÃ©jÃ 64
ou 63
pÃ¨re 63
aujourd&apos; 62
hui 62
faut 61
quelle 59
combien 59
ons 58
plaÃ®t 58
ait 57
porte 57
ces 57
heures 57
toutes 56
grand 56
enfants 55
ent 55
Ã©cole 54
jour 54
aide 54
livre 53
air 53
aimerais 53
seul 53
toute 52
aprÃ¨s 51
hier 51
ez 51
er 51
bonne 51
cet 50
Sami 50
Ã©s 50
juste 49
anglais 49
petit 49
chien 49
demain 49
franÃ§ais 48
passÃ© 48
fut 48
mieux 47
venir 47
mal 47
in@@ 47
trois 46
eau 46
pouvez 46
aider 46
nuit 46
assez 46
parle 45
Ã©@@ 45
dÃ» 44
gens 44
ans 44
leur 44
seule 44
puis 43
prendre 43
femme 43
moins 43
fille 43
sait 42
choses 42
nouveau 41
fais 41
peur 41
quelqu&apos; 41
soir 41
depuis 41
mÃ¨re 41
veut 41
doit 40
savoir 40
ceci 40
voulais 40
ant 40
idÃ©e 40
heure 40
dis 40
quelques 40
non 40
voulez 40
pensais 40
vos 40
partir 39
manger 39
aurais 38
lire 38
trouve 38
heureux 38
simplement 37
demandÃ© 37
Ã©es 37
crois 37
semaine 36
eux 36
pendant 36
autres 36
devrais 36
souvent 35
faites 35
nom 35
allÃ© 35
acheter 35
vrai 34
entre 34
problÃ¨me 34
pris 34
part 33
jusqu&apos; 33
pays 33
lit 33
savais 33
sens 33
derniÃ¨re 33
retard 32
chambre 32
devons 32
lettre 32
mort 32
Ã©taient 32
pu 32
petite 31
facile 31
aient 31
perdu 31
sortir 31
famille 31
nos 30
semble 30
jours 30
en@@ 30
ville 30
tÃ´t 30
trouvÃ© 30
trouver 29
parents 29
aucun 29
ami 29
tÃ© 29
vÃ©ritÃ© 29
raison 29
ie 28
question 28
moment 28
apprendre 28
allez 28
sera 28
Ã¨rent 28
e 28
arrivÃ© 27
penses 27
vue 27
lorsque 27
tant 27
vivre 27
sous 27
passe 27
difficile 27
pourrais 27
loin 27
seulement 27
jeune 27
histoire 27
tard 27
pourrait 26
laisse 26
aucune 26
ques 26
piÃ¨ce 26
eur 26
livres 26
journÃ©e 26
sois 26
garÃ§on 26
dont 26
croire 26
p@@ 26
langue 26
filles 25
achetÃ© 25
point 25
voyage 25
celui 25
mis 25
tÃªte 25
donne 25
fÃªte 25
yeux 25
mot 25
parce 25
froid 25
travaille 25
arrÃªter 25
autant 25
con@@ 25
s@@ 25
cours 24
vient 24
dÃ©solÃ© 24
matin 24
nouvelle 24
vas 24
chaque 24
adore 24
sÃ»r 24
attention 24
vite 24
prÃ¨s 24
enfant 24
demande 24
main 24
ter 24
comprendre 24
donnÃ© 24
par@@ 23
voulait 23
connais 23
ensemble 23
accord 23
dix 23
longtemps 23
dÃ©jeuner 23
tÃ©lÃ©phone 23
premier 23
b@@ 23
soyez 23
Ã©crit 23
viens 23
prie 23
nourriture 23
devrait 23
frÃ¨re 23
dites 23
lorsqu&apos; 23
peine 23
beau 23
fort 23
chat 23
mÃ©decin 23
g@@ 22
r@@ 22
savez 22
travailler 22
joue 22
ante 22
dÃ©teste 22
grande 22
habitude 22
accident 22
ale 22
colÃ¨re 22
premiÃ¨re 22
presque 22
pouvons 22
photo 22
questions 22
essayer 22
vers 21
pensÃ© 21
fini 21
bureau 21
entendu 21
mettre 21
Boston 21
Japon 21
cheveux 21
amie 21
is 21
plutÃ´t 21
meilleur 21
sÅ“ur 21
allons 21
mois 21
cafÃ© 21
ation 21
dÃ®ner 21
sujet 21
jouer 21
occupÃ© 20
espÃ¨re 20
rÃ©@@ 20
rouge 20
chance 20
f@@ 20
contre 20
li@@ 20
ais 20
belle 20
serait 20
laisser 20
prÃªt 20
able 20
lait 20
chemin 19
partie 19
fils 19
cÅ“ur 19
m@@ 19
appelle 19
Ã©crire 19
rend 19
dehors 19
malade 19
regarde 19
lieu 19
oui 19
noir 19
itÃ© 19
ti@@ 19
compte 19
fin 19
oubliÃ© 19
car 19
venu 19
pouvoir 19
di@@ 19
regarder 19
tellement 19
possible 19
prÃ©@@ 19
santÃ© 19
fumer 19
dur 18
annÃ©e 18
an 18
nager 18
v@@ 18
ni 18
rester 18
entreprise 18
laquelle 18
plan 18
ci 18
puisse 18
place 18
vin 18
prix 18
vieux 18
vÃ©lo 18
amour 18
laissÃ© 18
problÃ¨mes 18
ch@@ 18
maniÃ¨re 18
langues 18
France 18
Dan 18
davantage 18
veuillez 18
importe 18
alors 18
rendre 18
ainsi 18
dormir 18
habite 18
sur@@ 18
mer 18
appris 18
devez 18
font 17
marche 17
feu 17
heureuse 17
c@@ 17
donc 17
serai 17
bus 17
vois 17
payer 17
n@@ 17
fit 17
parlez 17
Ã¨re 17
quatre 17
envie 17
pourriez 17
vit 17
derriÃ¨re 17
rencontrer 17
nouvelles 17
riche 17
peuvent 17
pensez 17
lu 17
mots 17
telle 17
amis 17
aimes 17
attendre 17
cinq 17
mangÃ© 17
che 17
entendre 17
devriez 17
serais 16
dÃ©t@@ 16
prochain 16
immÃ©diatement 16
faim 16
pouvait 16
l@@ 16
musique 16
fatiguÃ© 16
it 16
midi 16
faÃ§on 16
exactement 16
voudrais 16
ine 16
ignore 16
euse 16
av@@ 16
magasin 16
apprÃ©cie 16
mange 16
propos 16
chaud 16
professeur 16
boulot 16
bas 16
fenÃªtre 16
or@@ 16
im@@ 16
laissez 16
re 16
coup 16
biÃ¨re 16
mo@@ 15
amoureux 15
dernier 15
film 15
conduire 15
dÃ©solÃ©e 15
mauvais 15
Tatoeba 15
devrions 15
leurs 15
Ã¢ge 15
mains 15
parlÃ© 15
montre 15
tÃ©lÃ©vision 15
certains 15
verre 15
ferai 15
ceux 15
police 15
merci 15
endroit 15
aire 15
com@@ 15
Ã©tiez 15
ens 15
commencÃ© 15
important 15
nÃ©cessaire 15
l 15
nÃ© 15
sÃ»re 15
erreur 15
vacances 15
tÃ©s 14
bou@@ 14
ci@@ 14
capable 14
intention 14
rÃ©union 14
Dieu 14
compris 14
res@@ 14
sÃ©curitÃ© 14
ri@@ 14
era 14
essaie 14
ar@@ 14
cuisine 14
classe 14
instant 14
pouvais 14
cher 14
chats 14
em@@ 14
ts 14
sucre 14
voici 14
choix 14
; 14
an@@ 14
i@@ 14
is@@ 14
marchÃ© 14
personnes 14
terre 14
devant 14
utiliser 14
route 14
connaÃ®t 14
boire 14
expÃ©rience 14
chemise 14
t@@ 14
voulons 14
essayÃ© 14
hommes 14
ants 14
M 14
Terre 14
es@@ 14
arriver 14
bÃ©bÃ© 14
libre 14
situation 14
prends 14
ag@@ 14
ment 13
Ã‰@@ 13
irai 13
rencontrÃ© 13
confiance 13
rez 13
mit 13
qu@@ 13
souviens 13
rendu 13
Ã©tranger 13
allemand 13
serez 13
sorte 13
savait 13
passer 13
parfois 13
numÃ©ro 13
courant 13
droit 13
garÃ§ons 13
us 13
d@@ 13
suppose 13
minutes 13
sou@@ 13
tÃ©lÃ© 13
on@@ 13
restaurant 13
erai 13
bientÃ´t 13
boÃ®te 13
celle 13
aurait 13
tour 13
: 13
perdre 13
u 13
Ã©quipe 13
propre 13
ement 13
ressemble 13
hÃ´tel 13
dÃ©cidÃ© 13
cause 13
age 13
poser 13
poste 12
poisson 12
furent 12
venus 12
no@@ 12
ette 12
cr@@ 12
allait 12
hÃ´pital 12
faisons 12
pro@@ 12
Paris 12
probablement 12
porter 12
facilement 12
tomber 12
ordinateur 12
comprends 12
fleurs 12
reste 12
Ã©tudiants 12
gros 12
eurs 12
dispose 12
parviens 12
donnez 12
travers 12
arrÃªtÃ© 12
surpris 12
six 12
emploi 12
ver@@ 12
complÃ¨tement 12
nombre 12
changÃ© 12
garde 12
grosse 12
appelÃ© 12
gu@@ 12
occupÃ©e 12
espagnol 12
esprit 12
piano 12
visite 12
genre 12
ab@@ 12
vaut 12
revoir 11
manteau 11
ciel 11
soleil 11
anniversaire 11
rentrer 11
selon 11
japonais 11
marcher 11
Ã¨res 11
lo@@ 11
ad@@ 11
veulent 11
devenu 11
gare 11
Å“il 11
neige 11
i 11
adresse 11
sac 11
plusieurs 11
prÃªte 11
aires 11
ill@@ 11
du@@ 11
o@@ 11
discuter 11
tenir 11
fasse 11
lu@@ 11
res 11
attend 11
tennis 11
opinion 11
am@@ 11
NoÃ«l 11
penser 11
gr@@ 11
gÃ¢teau 11
secret 11
femmes 11
Ã©galement 11
moitiÃ© 11
cÃ´tÃ© 11
terminÃ© 11
marier 11
ant@@ 11
type 11
long 11
agit 11
sent 11
produit 11
blessÃ© 11
clÃ©s 11
10 11
sol 11
arme 11
cro@@ 11
Ã¢mes 11
commence 11
conseils 11
content 11
ins 11
savent 11
moindre 11
nombreux 11
C@@ 11
mets 11
donn@@ 11
prenez 11
chapeau 11
co@@ 11
bri@@ 11
hors 11
examen 11
ations 11
pire 11
allÃ©e 11
dort 11
ra 11
fera 11
dessus 11
taille 11
f 11
bibliothÃ¨que 10
manque 10
fou 10
end 10
dangereux 10
rÃ©pondre 10
jeu 10
Ã©tudier 10
enseignant 10
sentiments 10
prÃ©fÃ¨re 10
gi@@ 10
vis 10
tÃ©es 10
it@@ 10
phrase 10
costume 10
revenir 10
lis 10
dollars 10
... 10
Layla 10
vouloir 10
plupart 10
mauvaise 10
pleurer 10
parti 10
rapidement 10
stupide 10
ge 10
pied 10
lumiÃ¨re 10
Oh 10
ap@@ 10
appeler 10
carte 10
quÃ© 10
devoir 10
ettes 10
pluie 10
clÃ© 10
commencer 10
pl@@ 10
ler 10
tÃ©e 10
thÃ©orie 10
min@@ 10
portait 10
chaussures 10
rem@@ 10
pieds 10
ique 10
ferais 10
ayez 10
prÃ©fÃ©rÃ©e 10
mor@@ 10
chante 10
aise 10
dormi 10
jambes 10
mal@@ 10
faisait 10
au@@ 10
instituteur 10
voitures 10
Ã‰tats 10
Unis 10
prend 10
donner 10
ren@@ 10
si@@ 10
bout 10
pleut 10
table 10
per@@ 10
dÃ©sormais 10
mar@@ 10
ir@@ 10
ni@@ 10
lunettes 10
balle 10
information 10
tu@@ 10
pauvre 10
vieil 10
riviÃ¨re 10
ai@@ 10
A@@ 10
mari 10
suite 10
thÃ©Ã¢tre 10
changer 10
discours 10
er@@ 10
pain 10
ac@@ 10
h 10
affaire 10
bois 10
sommeil 10
Ã©tions 10
succÃ¨s 10
in 10
teur 10
Ã©couter 10
certain 9
rappeler 9
intÃ©rieur 9
men@@ 9
bl@@ 9
avenir 9
papier 9
fallu 9
huit 9
su@@ 9
ire 9
chanson 9
affaires 9
phrases 9
al@@ 9
rÃ© 9
chi@@ 9
amies 9
vol@@ 9
sauf 9
prochaine 9
sociÃ©tÃ© 9
autour 9
mÃ©@@ 9
ues 9
printemps 9
projet 9
regardÃ© 9
dÃ© 9
hiver 9
M@@ 9
Ã©t@@ 9
a@@ 9
cent 9
vingt 9
poids 9
el 9
guerre 9
vo@@ 9
efforts 9
tient 9
cadeau 9
cou@@ 9
enne 9
montagne 9
as@@ 9
parapluie 9
rencontre 9
montrer 9
rendez 9
u@@ 9
dis@@ 9
entrÃ©e 9
suffisamment 9
prit 9
R@@ 9
S@@ 9
ets 9
vieille 9
c 9
P@@ 9
for@@ 9
dictionnaire 9
demander 9
rÃ©soudre 9
ou@@ 9
quelconque 9
allÃ©s 9
afin 9
mariÃ© 9
village 9
bu 9
ue 9
viendra 9
plein 9
at@@ 9
avance 9
rÃ©ussi 9
oncle 9
levÃ© 9
dimanche 9
lequel 9
vont 9
devenir 9
intelligent 9
connaÃ®tre 9
journal 9
danger 9
ches 9
meilleure 9
face 9
groupe 9
tombÃ© 8
vivent 8
so@@ 8
viendrai 8
parc 8
cour@@ 8
ers 8
aimait 8
attrapÃ© 8
Ã©pouser 8
portÃ© 8
mourir 8
travaillÃ© 8
prÃ©fÃ©rÃ© 8
nÃ©e 8
ites 8
dÃ©couvert 8
venue 8
pe 8
dent 8
jardin 8
jeunes 8
Ã©trange 8
vÃ©cu 8
prise 8
prÃ©sident 8
lac 8
dev@@ 8
intÃ©ressant 8
restÃ© 8
croit 8
Ã©toiles 8
impossible 8
robe 8
coupe 8
dÃ©cision 8
baiser 8
humeur 8
danser 8
iste 8
choisir 8
coin 8
envoyÃ© 8
der 8
ass@@ 8
reÃ§u 8
dou@@ 8
existe 8
proposition 8
chanter 8
recherche 8
gauche 8
art 8
erreurs 8
tuÃ© 8
conseil 8
ArrÃªtez 8
leÃ§on 8
do@@ 8
quiconque 8
annÃ©es 8
vÃªtements 8
pommes 8
essay@@ 8
ferme 8
rire 8
aimÃ© 8
ds 8
voudriez 8
vi@@ 8
o 8
oublie 8
d 8
sommet 8
animaux 8
bu@@ 8
ages 8
raisons 8
correctement 8
jou@@ 8
piscine 8
tri@@ 8
seront 8
signe 8
voilÃ 8
ex@@ 8
sang 8
rÃ©ponse 8
mienne 8
dispos@@ 8
gagner 8
Australie 8
voyager 8
mon@@ 8
seras 8
tr@@ 8
haut 8
finalement 8
ter@@ 8
rait 8
docteur 8
prÃ©sent 8
aille 8
bÃ¢timent 8
moyen 8
portes 8
Å“ufs 8
honte 8
lundi 8
propres 8
soin 8
tique 8
proche 8
idiot 8
arrÃªte 8
rou@@ 8
week 8
pleuvoir 8
payÃ© 8
bateau 8
ance 8
manquer 8
prÃªter 8
pause 8
dents 8
bons 8
jeux 8
vidÃ©o 8
ouvert 8
rappelle 8
tuer 8
parlent 8
dÃ©pend 8
Ã©tat 8
ten@@ 8
tre 8
attends 8
dÃ©tails 7
ennemi 7
Ã¢@@ 7
devint 7
vendre 7
cru 7
larmes 7
scientifique 7
tÃ©@@ 7
article 7
ions 7
tent 7
nage 7
amoureuse 7
taxi 7
arrivÃ©e 7
Excusez 7
allais 7
arriÃ¨re 7
John 7
effet 7
fer@@ 7
semaines 7
touche 7
mille 7
serv@@ 7
connu 7
sembles 7
contente 7
rapport 7
embrasser 7
roman 7
corps 7
bizarre 7
marre 7
inconvÃ©nient 7
occasion 7
bouteille 7
lors 7
ements 7
mariage 7
tor@@ 7
pay@@ 7
lis@@ 7
portable 7
eut 7
doivent 7
se@@ 7
copine 7
J@@ 7
5 7
partout 7
lever 7
sal@@ 7
intÃ©rÃªt 7
forme 7
gouvernement 7
comm@@ 7
auriez 7
salle 7
ennuis 7
Ã©ri@@ 7
Ã©tudiant 7
sept 7
vide 7
produire 7
rue 7
tranquille 7
dÃ©couvrir 7
Ã©tage 7
espace 7
radio 7
fermer 7
responsable 7
expliquer 7
hasard 7
cl@@ 7
Tokyo 7
compagnie 7
lÃ© 7
auparavant 7
arbre 7
jolie 7
moral 7
Angleterre 7
perte 7
rent 7
disposez 7
aies 7
automne 7
avis 7
pomme 7
cas 7
amÃ©liorer 7
vendredi 7
disent 7
repas 7
30 7
plage 7
Ah 7
euses 7
jouÃ© 7
tour@@ 7
fenÃªtres 7
aimer 7
ise 7
Internet 7
AmÃ©rique 7
our@@ 7
sors 7
simple 7
espoir 7
tÃ¢che 7
maman 7
end@@ 7
parlait 7
cassÃ© 7
appartient 7
sache 7
morceau 7
ables 7
vraie 7
patron 7
to@@ 7
k@@ 7
sÃ©@@ 7
aimez 7
revenu 7
enti@@ 7
pen@@ 7
Ã©g@@ 7
ence 7
pou@@ 7
prÃ©senter 7
pour@@ 7
fl@@ 7
eu@@ 7
ve 7
laver 7
bonnes 7
dÃ©part 7
ess@@ 7
cri@@ 7
erais 7
lam@@ 7
ouvrir 7
retourner 7
timide 7
aiment 7
ard 7
rÃ©flÃ©chir 7
dÃ©but 7
nez 7
service 7
cherche 7
football 7
demanda 7
sÃ©rieux 7
us@@ 7
gagne 7
demi 7
esti@@ 6
nerveux 6
rÃ©jouis 6
arbres 6
feuilles 6
probable 6
devoirs 6
gl@@ 6
oubli@@ 6
souci 6
double 6
entre@@ 6
tenez 6
minute 6
rhume 6
emporter 6
dor@@ 6
plaisir 6
devient 6
ser@@ 6
cuisiner 6
sage 6
sa@@ 6
dÃ©cida 6
mi@@ 6
couple 6
mesure 6
nombreuses 6
difficultÃ©s 6
chang@@ 6
ais@@ 6
tou@@ 6
conduis@@ 6
y@@ 6
musÃ©e 6
quer 6
nique 6
tait 6
Espagne 6
ente 6
at 6
direction 6
ici@@ 6
tenu 6
rais 6
visiter 6
chiens 6
liste 6
met 6
accusÃ© 6
univers 6
nettoyer 6
message 6
courage 6
blanc 6
thÃ© 6
ec@@ 6
rends 6
intÃ©ressÃ© 6
app@@ 6
gÃ© 6
voyez 6
nulle 6
alcool 6
ru@@ 6
seuls 6
gÃ©rer 6
courir 6
Ã©r@@ 6
grandes 6
coÃ»t 6
gar@@ 6
po@@ 6
T@@ 6
papa 6
suivre 6
Ã©nergie 6
petites 6
st@@ 6
aurions 6
droite 6
absolument 6
pend@@ 6
tasse 6
j@@ 6
certaine 6
Ã©glise 6
aie 6
rarement 6
ras 6
venait 6
compl@@ 6
al 6
cache 6
accepter 6
bi@@ 6
compter 6
Ã©tudie 6
onn@@ 6
imagine 6
parles 6
ture 6
faute 6
fi@@ 6
imaginer 6
moutons 6
asseoir 6
politique 6
atten@@ 6
fr@@ 6
ier 6
soixante 6
rÃ©veillÃ© 6
inquiÃ¨te 6
semblez 6
port@@ 6
nouvel 6
pri@@ 6
vivant 6
passÃ©e 6
sortes 6
plan@@ 6
prÃ©parer 6
rons 6
ager 6
calme 6
appr@@ 6
tres 6
entends 6
contrat 6
pla@@ 6
admire 6
agent 6
rÃ´le 6
maladie 6
soyons 6
crÃ©@@ 6
aff@@ 6
souvenir 6
refaire 6
eus 6
rencontrÃ©e 6
frÃ¨res 6
fruits 6
be 6
invitÃ© 6
pos@@ 6
disait 6
rÃ¨gles 6
illes 6
loi 6
or 6
Ã©cl@@ 6
nes 6
onnÃ© 6
cinÃ©ma 6
ger 6
iez 6
coucher 6
nature 6
fromage 6
entrer 6
quitter 6
occupe 6
vis@@ 6
charge 6
montrez 6
pÃªcher 6
garder 6
douche 6
arrivent 6
Ã©p@@ 6
chanceux 6
Ã©viter 6
corriger 6
frÃ©qu@@ 6
ron@@ 6
gentil 6
consac@@ 6
ri 6
malheureusement 6
certaines 6
photos 6
trente 6
excuses 6
empÃªcher 6
boit 6
clairement 6
honnÃªte 6
cents 6
enfance 6
ju@@ 6
tion 6
poule 6
occuper 6
illÃ© 6
commenÃ§a 6
stes 6
Allemagne 6
soi 6
universitÃ© 6
esse 6
voy@@ 6
rÃ©parer 6
dure 6
aine 6
go@@ 6
car@@ 6
entend@@ 6
jouets 6
prÃªtes 6
Smith 6
tromp@@ 6
station 6
court 6
droits 6
ouverte 6
erait 6
ales 6
Jane 6
ev@@ 6
appareil 6
coÃ»te 6
pierre 6
s 6
Thomas 6
chercher 6
importantes 6
br@@ 6
alitÃ© 6
public 6
nu@@ 6
ellement 6
vues 6
cap@@ 6
admis 6
pÃ¢le 6
Ã©chec 6
permis 6
durant 6
battre 6
soif 6
gagnÃ© 6
planÃ¨te 6
ble 6
teurs 5
fonctionne 5
des@@ 5
hÃ©@@ 5
cÃ©lÃ¨bre 5
vus 5
cli@@ 5
apprends 5
atif 5
voulu 5
rÃ©flÃ©chi 5
Devine 5
espÃ©ranto 5
lou@@ 5
New 5
York 5
suicidÃ© 5
autrefois 5
avaient 5
joli 5
savons 5
satisfait 5
plu 5
organ@@ 5
Ã¯@@ 5
bonheur 5
Salut 5
prison 5
vienne 5
folle 5
retour 5
quement 5
occupÃ©s 5
remÃ¨de 5
pleu@@ 5
pique 5
Ã©lu 5
arrÃªt 5
fiÃ© 5
dÃ©cider 5
futur 5
bonjour 5
connaisse 5
conn@@ 5
prÃ©venu 5
quittÃ© 5
populaire 5
parla 5
soirÃ©e 5
tort 5
surprise 5
cheval 5
gue 5
souhaite 5
croient 5
lettres 5
Ã´@@ 5
demand@@ 5
Soleil 5
char@@ 5
fu@@ 5
ir 5
Ã¨rement 5
rÃ©aliser 5
Italie 5
possibilitÃ© 5
reti@@ 5
Ã¨me 5
diffÃ©rence 5
aurai 5
ouvrit 5
urgence 5
chan@@ 5
bor@@ 5
amusant 5
Quels 5
aliments 5
frais 5
beurre 5
vaches 5
traduire 5
dirai 5
riches 5
cu@@ 5
copain 5
trai@@ 5
bicyclette 5
humour 5
super 5
impli@@ 5
om@@ 5
totalement 5
centre 5
forte 5
distribu@@ 5
patience 5
enseigner 5
Ã©veillÃ© 5
dÃ©s@@ 5
matiÃ¨re 5
neuf 5
bat@@ 5
coÃ»ts 5
douleur 5
ent@@ 5
commande 5
impression 5
voudrait 5
connaissait 5
portÃ©e 5
press@@ 5
crise 5
Ã©tang 5
lÃ©@@ 5
servi 5
hÃ©ros 5
chaude 5
meubles 5
ences 5
antes 5
champ 5
sau@@ 5
population 5
importante 5
prÃªts 5
Ã©lÃ¨ves 5
croyez 5
poster 5
innocent 5
chÃ© 5
objectif 5
ents 5
Ã©toile 5
af@@ 5
position 5
alliez 5
comporte 5
tai@@ 5
saisir 5
fus 5
conduit 5
onne 5
entr@@ 5
senti 5
crime 5
parti@@ 5
enfin 5
chacun 5
bras 5
donna 5
silencieux 5
froide 5
accep@@ 5
acide 5
mu@@ 5
utile 5
hÃ¢te 5
ront 5
petits 5
diffÃ©rent 5
poche 5
patient 5
unique 5
sav@@ 5
rÃ©s 5
tombÃ©e 5
fro@@ 5
appelez 5
envoyer 5
rs 5
faits 5
Europe 5
mathÃ©matiques 5
ira 5
sortie 5
Ã¨te 5
cal@@ 5
Ã©cris 5
date 5
salaire 5
amuser 5
respecter 5
lÃ©g@@ 5
populaires 5
foi 5
lier 5
restÃ©e 5
ate 5
rÃ©pondu 5
iller 5
sel 5
feriez 5
rÃ©ellement 5
bo@@ 5
enseign@@ 5
oiseau 5
grands 5
chant@@ 5
dÃ©r@@ 5
sentez 5
coupÃ© 5
attendu 5
por@@ 5
sort 5
signifie 5
visage 5
mensonge 5
conscience 5
Ã§@@ 5
dÃ©Ã§u 5
Ã©rÃ© 5
voisins 5
niveau 5
sport 5
rÃ©sultats 5
viennent 5
dr@@ 5
dÃ©truit 5
march@@ 5
soldats 5
preuve 5
promesse 5
mien 5
tement 5
pÃ©@@ 5
met@@ 5
Ã©tudi@@ 5
bandes 5
fon@@ 5
cher@@ 5
couteau 5
ob@@ 5
promettre 5
site 5
rer 5
rend@@ 5
chocolat 5
toucher 5
il@@ 5
indiquer 5
mou@@ 5
remercier 5
Ã©cureuils 5
zoo 5
connaissez 5
dos 5
sandwich 5
tel 5
sentir 5
rejoindre 5
parie 5
magazine 5
animal 5
exc@@ 5
cartes 5
gars 5
jambe 5
ser 5
&apos; 5
certainement 5
fume 5
but 5
vendu 5
longues 5
concert 5
rencontrÃ©s 5
peuple 5
venez 5
foule 5
grÃ¢ce 5
comp@@ 5
cravate 5
gÃ©nÃ©ration 5
quelles 5
interdit 5
existence 5
traitÃ© 5
promesses 5
dÃ©si@@ 5
mettez 5
dÃ©range 5
attrape 5
pi@@ 5
e@@ 5
plait 5
conseillÃ© 5
trouver@@ 5
rÃ©solu 5
aque 5
page 5
tiens 5
bleu 5
stylo 5
ouvrez 5
lÃ¨ve 5
mariÃ©s 5
soup@@ 5
fou@@ 5
campagne 5
passez 5
cochon 5
/ 5
avocat 5
- 5
Ã©norme 5
mignonne 5
dus 5
parfait 5
soutien 5
mÃ©di@@ 5
terie 5
appar@@ 5
clair 5
base 5
ordinaire 5
suffit 5
marteau 5
oubliez 5
rumeur 5
ur@@ 5
environ 5
ace 5
voit 5
fermÃ© 5
volontÃ© 5
dirait 5
tionn@@ 5
ressources 5
regardez 5
tableau 5
dÃ©e 5
sienne 5
sion 5
systÃ¨me 4
tons 4
taire 4
traiter 4
critique 4
devraient 4
celles 4
ateurs 4
sÃ©rieusement 4
destination 4
abord 4
gÃ©nÃ©ral 4
franchement 4
aines 4
scientifiques 4
blesser 4
parmi 4
gentillesse 4
avions 4
mer@@ 4
USA 4
ach@@ 4
ignor@@ 4
films 4
horreur 4
douÃ© 4
sex@@ 4
finir 4
ates 4
rÃ©alitÃ© 4
dommage 4
correcte 4
horrible 4
ain 4
folie 4
protÃ©ger 4
sauver 4
seriez 4
Promettez 4
os 4
gÃ©nie 4
regard 4
bruit 4
sive 4
change 4
Ã®mes 4
prÃ©vu 4
pli@@ 4
exem@@ 4
endre 4
cass@@ 4
nul 4
Chine 4
plai@@ 4
exercice 4
ro@@ 4
bes 4
aimÃ©e 4
garage 4
eront 4
veuilles 4
cor@@ 4
fleur 4
lent 4
prÃ©fÃ©rerais 4
agir 4
cul@@ 4
faisais 4
interrom@@ 4
queue 4
diable 4
utilisez 4
auteur 4
contrÃ´le 4
capitaine 4
russe 4
vent 4
toit 4
Bob 4
spÃ©ci@@ 4
couverture 4
fin@@ 4
quit@@ 4
dises 4
lignes 4
Inde 4
uni@@ 4
beautÃ© 4
bal@@ 4
perdue 4
ul@@ 4
avion 4
poli@@ 4
billet 4
sub@@ 4
achÃ¨te 4
musicien 4
ateur 4
attendons 4
pes 4
batt@@ 4
assurance 4
prendra 4
seconde 4
cure 4
DÃ©@@ 4
pÃªche 4
crain@@ 4
terminer 4
Linda 4
mÃ©rite 4
fantÃ´mes 4
voie 4
BrÃ©sil 4
tombe 4
parlons 4
supporter 4
cieux 4
secrets 4
prudente 4
mat@@ 4
rideau 4
appÃ©tit 4
dise 4
chanteuse 4
permettre 4
veniez 4
tenait 4
rappelez 4
Ã¨ne 4
ite 4
augmentÃ© 4
prof 4
puni 4
utilisÃ© 4
lÃ¨@@ 4
ff@@ 4
Ã©vit@@ 4
entÃ© 4
attend@@ 4
brillante 4
peinture 4
dira 4
contr@@ 4
ennu@@ 4
brÃ»@@ 4
ut 4
riz 4
entrÃ© 4
Ã©clata 4
intelligente 4
ordres 4
sert 4
philosophie 4
promets 4
3 4
gÃ©@@ 4
nue 4
suggÃ¨re 4
impliquÃ© 4
terais 4
diffÃ©rences 4
atteint 4
aÃ®@@ 4
trouveras 4
couramment 4
tire 4
gÃ©nÃ©ralement 4
ordre 4
chansons 4
jette 4
jouent 4
physique 4
couper 4
volÃ© 4
mez 4
tentÃ© 4
forÃªt 4
L@@ 4
traductions 4
connaissais 4
soli@@ 4
humaine 4
sensÃ© 4
poli 4
lentement 4
mauvaises 4
poin@@ 4
habituÃ© 4
assu@@ 4
prÃ©par@@ 4
publique 4
truc 4
Ap@@ 4
bouton 4
lycÃ©e 4
travailles 4
devait 4
tente 4
directeur 4
prÃ©vois 4
int 4
trouvait 4
abandonner 4
doute 4
pr@@ 4
rant 4
comportement 4
invitÃ©es 4
fil@@ 4
espÃ¨ce 4
Ã©n@@ 4
mentir 4
genoux 4
fortune 4
aboie 4
constituent 4
pensent 4
plaisante 4
utilise 4
permission 4
Japonais 4
donnÃ©es 4
log@@ 4
chons 4
vouliez 4
traverser 4
all@@ 4
postale 4
censÃ© 4
vase 4
Ã©car@@ 4
salade 4
aisÃ© 4
baleine 4
In@@ 4
carriÃ¨re 4
ains 4
sÃ©rie 4
debout 4
Ã©te@@ 4
ticket 4
triste 4
tra 4
cesse 4
faux 4
ocÃ©an 4
risque 4
contributeur 4
apprÃ©ci@@ 4
amical 4
piÃ¨ces 4
produits 4
fer 4
oiseaux 4
quinze 4
donnent 4
concentr@@ 4
puissiez 4
trans@@ 4
crit 4
parfaitement 4
restez 4
bÅ“uf 4
rÃ©ponds 4
lÃ¢che 4
Ã©chou@@ 4
r 4
risques 4
els 4
congÃ© 4
insul@@ 4
yait 4
terriblement 4
diffÃ©rents 4
profonde 4
forcer 4
traduction 4
manqu@@ 4
Ã©tude 4
coÃ»tÃ© 4
mÃ© 4
bon@@ 4
prononcer 4
couleur 4
mari@@ 4
force 4
trouvent 4
prises 4
apprentissage 4
apporte 4
mignons 4
passeport 4
suivant 4
Ã©pou@@ 4
tien 4
pas@@ 4
noyÃ© 4
moyenne 4
sombre 4
circulation 4
conf@@ 4
inter@@ 4
Su@@ 4
brÃ»lÃ© 4
dessinÃ©es 4
blessÃ©e 4
joie 4
restes 4
iser 4
couteaux 4
banque 4
voix 4
hab@@ 4
Ã©conomie 4
lesquelles 4
mai@@ 4
menti 4
apprend 4
chaleur 4
endormi 4
ingÃ©nieurs 4
nier 4
vÃ©ritable 4
pression 4
coupable 4
Londres 4
prÃ©sent@@ 4
mÃªmes 4
empÃªchÃ© 4
objets 4
marron 4
chinois 4
bour@@ 4
cancer 4
complet 4
monte 4
poÃ¨me 4
rapide 4
bÃ¢@@ 4
Ã¢me 4
deuxiÃ¨me 4
dÃ©goÃ»@@ 4
bordel 4
prennent 4
orange 4
mise 4
sÃ»rement 4
faible 4
sÃ©chÃ© 4
casser 4
AmÃ©ricains 4
ma@@ 4
gri@@ 4
sortez 4
assis 4
fs 4
ayant 4
puissance 4
culture 4
touchÃ© 4
mÃ©moire 4
canapÃ© 4
Ã©cri@@ 4
aimerait 4
fautes 4
Ã©tant 4
fidÃ¨le 4
image 4
lar@@ 4
rement 4
trez 4
mÃ©tro 4
tante 4
note 4
peint 4
prendrai 4
pleure 4
ign@@ 4
dÃ©tec@@ 4
prudent 4
appel@@ 4
matins 4
sourire 4
lien 4
exig@@ 4
causÃ© 4
lÃ©gumes 4
Kate 4
cach@@ 4
naturel 4
fri@@ 4
caractÃ¨re 4
merveilleux 4
cru@@ 4
solution 4
gag@@ 4
ines 4
gorge 4
Ã©tudiante 4
raconter 4
peau 4
malgrÃ© 4
E@@ 4
atteindre 4
pein@@ 4
tendance 4
ss@@ 4
utilis@@ 4
heureuses 4
chanteur 4
ail 4
conversation 4
princesse 4
concentrer 4
attendais 4
Jouons 4
billets 4
condition 4
naissance 4
volant 4
fous 4
devenus 4
jet@@ 4
jean 4
forts 4
possÃ¨de 4
tur@@ 4
entier 4
reux 4
contact 4
semblait 4
quitte 4
tez 4
cam@@ 4
confÃ©rence 4
cÃ©libataire 4
phÃ©nomÃ¨ne 4
Ã©ti@@ 4
souri@@ 4
impatience 4
troisiÃ¨me 4
mÃ©ri@@ 4
commenc@@ 4
reconnaissante 4
oul@@ 4
guitare 4
forcÃ© 4
mecs 4
remettre 4
rec@@ 4
commun 4
viol@@ 4
appelÃ©e 4
invitÃ©s 4
erons 4
fallait 4
voleur 4
fier 4
privÃ© 4
environnement 4
parole 4
semblant 4
nÃ´tre 4
indi@@ 4
aÃ©roport 4
Ã©poque 4
longs 4
chanceuse 4
tation 4
connaissance 4
Jim 4
pars 4
refus@@ 4
emprunter 4
rique 4
rel@@ 4
Ha 4
dÃ©f@@ 4
ponctuel 4
gueule 3
gne 3
har@@ 3
absent 3
cis@@ 3
rÃ©di@@ 3
quasiment 3
irez 3
dÃ©passer 3
ligne 3
rier 3
fasses 3
sauter 3
monter 3
fallut 3
oc@@ 3
mangent 3
ic@@ 3
discutÃ© 3
tent@@ 3
rage 3
dÃ©couverte 3
Pro@@ 3
arrogants 3
indÃ©@@ 3
appartement 3
tiendra 3
cre@@ 3
aidera 3
vivait 3
Ã©prouve 3
esses 3
son@@ 3
vit@@ 3
tomba 3
promener 3
concerne 3
futon 3
Ã©checs 3
As@@ 3
convient 3
Bats 3
Ã©coute 3
verse 3
spir@@ 3
poignÃ©e 3
cacahuÃ¨tes 3
alent@@ 3
contient 3
poison 3
souv@@ 3
enez 3
apparu 3
pouvaient 3
extrÃªmement 3
ravi 3
pure 3
habitait 3
Cessez 3
ade 3
rÃ©veille 3
deviner 3
attraper 3
sign@@ 3
Ã©vi@@ 3
pratiquement 3
adop@@ 3
Ã©gard 3
dÃ©pourvu 3
promenade 3
nel 3
command@@ 3
bÃ©nÃ©@@ 3
Nancy 3
prÃ©fÃ¨res 3
emprunte 3
verres 3
brill@@ 3
Ver@@ 3
hypothÃ¨se 3
Diable 3
auprÃ¨s 3
sauv@@ 3
signification 3
cordes 3
excuser 3
termine 3
DÃ©gage 3
dro@@ 3
rÃªves 3
bagages 3
el@@ 3
Ã¨vre 3
Ã©lo@@ 3
pul@@ 3
gÃ©ni@@ 3
excÃ¨s 3
conseilla 3
joueurs 3
cad@@ 3
destin 3
prouv@@ 3
pleurait 3
situe 3
lor@@ 3
ger@@ 3
bles 3
ris 3
cuisinier 3
essayez 3
rejet@@ 3
rÃ©es 3
frontiÃ¨re 3
coffre 3
ciseaux 3
premiers 3
sÃ»res 3
avril 3
dÃ©c@@ 3
souffle 3
tÃ©moin 3
Bill 3
Pardonnez 3
ra@@ 3
domaine 3
alisation 3
bien@@ 3
remise 3
digne 3
ar 3
H@@ 3
science 3
I@@ 3
Ã©teindre 3
cul 3
ouilles 3
endu 3
trouverez 3
denti@@ 3
habituellement 3
sieste 3
matinÃ©e 3
Ã©chapp@@ 3
rai 3
refusÃ© 3
atomique 3
rac@@ 3
bouteilles 3
rÃ©cemment 3
publiÃ© 3
presse 3
absurde 3
dÃ©clar@@ 3
utiles 3
Ã©tudient 3
cho@@ 3
cassÃ©e 3
efficace 3
Apportez 3
expÃ©ri@@ 3
ment@@ 3
cerveau 3
jure 3
statue 3
fond@@ 3
rÃ©sistance 3
facture 3
mondiale 3
Anne 3
trou@@ 3
tran@@ 3
Ã©levÃ©s 3
aurez 3
ection 3
impressionn@@ 3
loyer 3
igner 3
secours 3
jeter 3
parl@@ 3
assure 3
habit@@ 3
projets 3
tempÃªte 3
mag@@ 3
caus@@ 3
tives 3
cin@@ 3
glÃ© 3
pÃ©trole 3
jeta 3
Ã©coutez 3
senti@@ 3
dÃ©conne 3
abondance 3
abandonn@@ 3
retrouvÃ© 3
cinÃ©@@ 3
volontaire 3
off@@ 3
rir 3
drÃ´le 3
ennuyeux 3
bande 3
moteur 3
explication 3
titre 3
continuÃ© 3
moquer 3
disparu 3
tremblement 3
envis@@ 3
rÃ©e 3
construction 3
accent 3
sud 3
idÃ©@@ 3
parliez 3
passage 3
convaincu 3
tures 3
En@@ 3
rich@@ 3
issez 3
vague 3
pizza 3
addition 3
entretenir 3
impatient 3
siÃ¨ge 3
bouche 3
invention 3
fonctionnÃ© 3
choisi 3
enf@@ 3
commentaire 3
gentleman 3
pose 3
idiote 3
rÃªve 3
mangez 3
imagination 3
assi@@ 3
pauvres 3
garderai 3
sacrÃ© 3
bat 3
comprennent 3
gel@@ 3
poÃ¨te 3
aimaient 3
devenue 3
const@@ 3
fausse 3
lune 3
miel 3
remonter 3
dÃ©cor@@ 3
prÃª@@ 3
dÃ©pÃªcher 3
gran@@ 3
tunnel 3
pensÃ©es 3
fo@@ 3
autoritÃ© 3
nerveu@@ 3
mang@@ 3
maths 3
rus@@ 3
virus 3
rie 3
cherchait 3
sÃ»rs 3
ition 3
sour@@ 3
enverrai 3
apparence 3
asse 3
sup@@ 3
Lavez 3
grandi 3
dirent 3
tueux 3
donnÃ©e 3
mourut 3
accor@@ 3
sions 3
Susan 3
dÃ©termination 3
symbole 3
voulaient 3
maisons 3
maj@@ 3
cuisiniÃ¨re 3
Ã©ch@@ 3
ath@@ 3
intelligents 3
montrent 3
quÃ©e 3
serrÃ© 3
fic@@ 3
saches 3
regrette 3
tempÃ©rature 3
hÃ©roÃ¯ne 3
arrose 3
riez 3
pigeons 3
Ã©coutes 3
SMS 3
eriez 3
tre@@ 3
pu@@ 3
nom@@ 3
amÃ©liorÃ© 3
unes 3
lles 3
haute 3
rempli 3
apporter 3
na 3
plaintes 3
sÅ“urs 3
guerrier 3
persÃ©vÃ©rance 3
ress@@ 3
tourner 3
architecte 3
tarte 3
diez 3
contraire 3
fournir 3
prudents 3
monnaie 3
fix@@ 3
actuellement 3
rentrÃ©e 3
sortons 3
fÃª@@ 3
vies 3
pal@@ 3
far@@ 3
prom@@ 3
persuader 3
mammifÃ¨re 3
solaire 3
survivants 3
obligÃ©e 3
dieu 3
rapporte 3
chambres 3
ires 3
allumer 3
chem@@ 3
igne 3
incalculable 3
dÃ©clarÃ© 3
prof@@ 3
posÃ© 3
ven@@ 3
difficultÃ© 3
poussÃ© 3
construit 3
ttes 3
promis 3
lais@@ 3
voler 3
conserv@@ 3
iciel 3
Ã©tudiÃ© 3
encourag@@ 3
con 3
avancÃ© 3
Å“uvre 3
changements 3
FranÃ§ais 3
assurer 3
collec@@ 3
ennes 3
manquÃ© 3
Nations 3
Unies 3
approche 3
dre 3
sorti 3
cÃ©@@ 3
refuse 3
intime 3
histoires 3
annulÃ©e 3
Ã»@@ 3
eusement 3
2 3
vement 3
prÃ©cieux 3
ay@@ 3
dÃ©couv@@ 3
rÃªv@@ 3
activitÃ© 3
vois@@ 3
envisage 3
ore 3
Monsieur 3
gea 3
perd 3
guÃ¨re 3
voulut 3
enfu@@ 3
arriver@@ 3
frappÃ© 3
difficiles 3
tais 3
aiss@@ 3
fournit 3
Canada 3
manquez 3
victoire 3
passa 3
amitiÃ© 3
travaillons 3
indique 3
crayon 3
viande 3
touristes 3
vÃª@@ 3
nor@@ 3
disputer 3
honneur 3
tal@@ 3
idÃ©es 3
publicitÃ© 3
fron@@ 3
options 3
glis@@ 3
natur@@ 3
pÃ©ril 3
bre 3
Con@@ 3
attirer 3
plu@@ 3
isme 3
citoyens 3
pratique 3
illez 3
croy@@ 3
exigÃ© 3
prÃ©sentÃ© 3
x 3
prÃ©voyez 3
objet 3
gÃ©ante 3
boivent 3
1@@ 3
litres 3
ignit 3
cible 3
habituer 3
fatiguÃ©e 3
scÃ¨ne 3
No@@ 3
opÃ©ration 3
N@@ 3
commenÃ§@@ 3
Ã©tagÃ¨re 3
nuages 3
actuelle 3
compatis 3
form@@ 3
venons 3
lÃ©ger 3
man@@ 3
Colomb 3
coupa 3
gardÃ© 3
autorisÃ© 3
pÃ©nÃ©trer 3
pÃ©riode 3
acti@@ 3
adorent 3
pardonn@@ 3
dÃ©pÃªchÃ© 3
file 3
longue 3
chouette 3
Ã©goÃ¯ste 3
professionnel 3
peindre 3
acc@@ 3
valeur 3
arrivÃ©s 3
nouveaux 3
points 3
La 3
consÃ©quences 3
zone 3
crÃ©Ã© 3
vivez 3
Å“uf 3
Ã©pousÃ© 3
employer 3
couvert 3
courageux 3
commentaires 3
fus@@ 3
dÃ©jeunÃ© 3
sortis 3
habill@@ 3
ader 3
dedans 3
pÃ©n@@ 3
entra 3
Bou@@ 3
pantalon 3
arrÃª@@ 3
salon 3
recommand@@ 3
tera 3
minimum 3
issons 3
quartier 3
apprÃ©cient 3
mondial 3
lapins 3
courte 3
itÃ©e 3
personnel 3
compÃ©t@@ 3
retourn@@ 3
soutenu 3
serons 3
mouvement 3
F@@ 3
achet@@ 3
maladies 3
sant 3
travaill@@ 3
vol 3
sse 3
placÃ© 3
Ã©cou@@ 3
intÃ©ressÃ©s 3
sez 3
Permettez 3
prÃ©sente 3
regarda 3
prÃ©venue 3
Ã©coutÃ© 3
reconn@@ 3
mour@@ 3
camion 3
ouvertes 3
disposais 3
rÃ©guliÃ¨rement 3
ann@@ 3
glace 3
lav@@ 3
visit@@ 3
tas 3
irait 3
eras 3
Ã©lÃ¨ve 3
su 3
sÃ©par@@ 3
fau@@ 3
opportunitÃ© 3
rÃ©colte 3
ile 3
ore@@ 3
ille 3
ps 3
matÃ©ri@@ 3
anc@@ 3
pass@@ 3
partira 3
essaya 3
fonc@@ 3
coups 3
ray@@ 3
conscient 3
nations 3
time 3
langage 3
eÃ»t 3
ole 3
seu@@ 3
chaussettes 3
morte 3
fÃ¢chÃ© 3
bres 3
entraÃ®ner 3
soudainement 3
dÃ©pensÃ© 3
aura 3
vÃ©ri@@ 3
chinoise 3
aisser 3
mÃ©daille 3
can@@ 3
cou 3
acceptÃ© 3
Ã©tend@@ 3
tar@@ 3
dÃ©cÃ©dÃ© 3
manuel 3
amen@@ 3
qu 3
allÃ©es 3
descend@@ 3
fÃ»mes 3
Ã¨s 3
texte 3
bÃ»@@ 3
rest@@ 3
ramassÃ© 3
derniÃ¨res 3
disposes 3
soucie 3
choc 3
2013 3
siÃ¨cle 3
cont@@ 3
Ã©tend 3
anges 3
pneu 3
dig@@ 3
silencieuse 3
frappa 3
vÃ©cut 3
suivi 3
pÃ¨se 3
frappe 3
assist@@ 3
menti@@ 3
emment 3
jaloux 3
dingue 3
dessert 3
bar 3
disposent 3
doutes 3
araignÃ©e 3
souff@@ 3
lave 3
travaillais 3
inqui@@ 3
hom@@ 3
n 3
conseille 3
sentait 3
trou 3
noire 3
diffÃ©rente 3
bas@@ 3
prÃ©visions 3
terme 3
enlÃ¨ve 3
col@@ 3
sale 3
tentation 3
nÃ©s 3
isÃ© 3
arrÃªtÃ©e 3
diffÃ¨re 3
supermarchÃ© 3
dÃ©sire 3
intÃ©resse 3
dentiste 3
ivre 3
tribunal 3
reprendre 3
aimerions 3
humains 3
rencontrons 3
doigt 3
latin 3
pan@@ 3
roi 3
ner@@ 3
connaÃ®@@ 3
effray@@ 3
sentiment 3
heurtÃ© 3
dÃ©so@@ 3
mec 3
cha 3
connaissent 3
Paul 3
semblent 3
trÃ©@@ 3
h@@ 3
insist@@ 3
juge 3
lente 3
effrayÃ© 3
Ã©chouÃ© 3
chauff@@ 3
soucier 3
Ã©lectronique 3
Ce 3
sÃ© 3
sÃ©e 3
envers 3
emmÃ¨ne 3
aimais 3
cacher 3
jupe 3
maÃ®tre 3
putain 3
lin 3
internationale 3
ferions 3
th@@ 3
he 3
dors 3
bel 3
amusante 3
arrivait 3
ris@@ 3
ram@@ 3
biscuits 3
lie 3
eaux 3
explo@@ 3
instructions 3
membre 3
venues 3
souhaiter 3
aides 3
gratu@@ 3
siÃ¨cles 3
corde 3
alentours 3
maÃ®tri@@ 3
sÃ©rieuse 3
G@@ 3
rÃ©pu@@ 3
onner 3
yens 3
cÃ© 3
fruit 3
tÃ©lÃ©phones 3
devais 3
Ã©rer 3
Ã¨tre 3
cir@@ 3
aimons 3
preuves 3
constamment 3
bizarrement 3
dÃ¨s 3
appelons 3
rÃ©pare 3
assise 3
vive 3
match 3
ball 3
gÃ©nies 3
etÃ© 3
regardes 3
copies 3
vitesse 3
boutique 3
prÃ©cipit@@ 3
pauvretÃ© 3
plaire 3
pleine 3
joindre 3
supplÃ©mentaire 3
erie 3
dez 3
ouvre 3
frapp@@ 3
miracle 3
attaquÃ©s 3
cÃ©rÃ©monie 3
considÃ©r@@ 3
clav@@ 3
angle 3
repasser 3
pareil 3
fiable 3
esp@@ 3
stre 3
rentr@@ 3
enseignÃ© 3
entiÃ¨re 3
compliquÃ© 3
V@@ 3
annu@@ 3
stupides 3
gues 3
rappelles 3
rap@@ 3
adorable 3
tromper 3
arriverait 3
invitÃ©e 3
tÃ©lÃ©@@ 3
crÃ©dit 3
da 3
mirent 3
reviendra 3
bar@@ 3
continuer 3
embarrass@@ 3
dÃ©gr@@ 3
quotidien 3
mariÃ©e 3
Ã§ons 3
Ã©gal 3
manquent 3
ambition 3
distance 3
viez 3
dÃ©licieux 3
exemple 3
circonstances 3
Ã©pais 3
B@@ 3
eables 3
pondu 3
suiv@@ 3
ino@@ 3
irais 3
parte 3
inst@@ 3
Kyoto 3
offen@@ 3
renvoy@@ 3
cherches 3
ta@@ 3
talent 3
coule 3
informations 3
regardant 3
zÃ©ro 3
suspecte 3
AlgÃ©rie 3
Ã©v@@ 3
pousse 3
bord 3
fran@@ 3
Ã©tudes 3
gentille 3
gau@@ 3
irs 3
fiÃ¨re 3
minuit 3
particuliÃ¨rement 3
sagesse 3
chon 3
critiques 3
aper@@ 3
rÃ©pÃ©tition 3
mÃ©tÃ©orologiques 3
quarante 3
D@@ 3
milliers 3
sible 3
rentrÃ© 3
tandis 3
chaise 3
manquait 3
partis 3
Ã©volution 3
supposÃ©s 3
tapis 3
souhaitez 3
rues 3
course 3
pousser 3
manques 3
pensait 3
dÃ©fi 3
colline 3
rÃ©fu@@ 3
condu@@ 3
chant 3
responsabilitÃ© 3
ottes 3
ridiculis@@ 3
europÃ©enne 3
per 3
abeilles 3
enn@@ 3
sensible 3
tut 3
Ã¨@@ 3
liez 3
oublier 3
dÃ©lic@@ 3
merde 3
couchÃ© 3
tra@@ 3
quotidienne 3
lise 3
Ã©galitÃ© 3
conclu 3
crÃ¨me 3
libertÃ© 3
plafond 3
dÃ©ch@@ 3
Ã©trangers 3
logique 3
justice 3
Ch@@ 3
dorment 3
Ã©puisÃ© 3
exploser 2
ancien 2
conten@@ 2
pressÃ©e 2
quels 2
nuage 2
pensÃ©e 2
rayons 2
aim@@ 2
vends 2
class@@ 2
devinette 2
dent@@ 2
inconnu 2
fermÃ©e 2
Ã©duc@@ 2
atives 2
pur 2
Pos@@ 2
fusil 2
ouv@@ 2
dÃ©barrasser 2
cess@@ 2
pourrions 2
grossi@@ 2
accro 2
dÃ©fini 2
vivions 2
contrain@@ 2
reconnaiss@@ 2
poulet 2
cercle 2
suelle 2
travaillez 2
Ã©cureuil 2
trouvons 2
y&apos; 2
solide 2
Ã¨le 2
dÃ©mÃ©nager 2
appellerai 2
ambulance 2
cruel 2
lion 2
progresser 2
mÃ©decine 2
moderne 2
veuille 2
dorÃ©navant 2
travaillerai 2
Ã©crirai 2
boutonne 2
veste 2
uels 2
soient 2
obs@@ 2
cur@@ 2
frapper 2
devinÃ© 2
hÃ¢@@ 2
indiffÃ©rent 2
matiques 2
introdu@@ 2
informatique 2
saper 2
rÃ©s@@ 2
larme 2
confron@@ 2
eante 2
aimable 2
surprendre 2
blancs 2
mons 2
terrible 2
Vo@@ 2
emmener 2
vil@@ 2
rassem@@ 2
boite 2
tournent 2
contribuer 2
lin@@ 2
Caire 2
pianiste 2
mÃ©ritons 2
destinÃ©e 2
intÃ©ressÃ©es 2
ingÃ©ni@@ 2
dÃ©clina 2
requÃªte 2
inspiration 2
archÃ©ty@@ 2
consommation 2
voyante 2
guÃ©ri 2
arti@@ 2
stique 2
opÃ©ra 2
passera 2
venant 2
recevoir 2
attitude 2
pati@@ 2
violon 2
Mike 2
attente 2
Ã®nmes 2
tif 2
diÃ© 2
sent@@ 2
assass@@ 2
inÃ©e 2
nord 2
numÃ©rique 2
un@@ 2
veu@@ 2
natation 2
Jackson 2
rencard 2
gal@@ 2
autoroute 2
aver@@ 2
rembourser 2
active 2
dÃ©putÃ© 2
publi@@ 2
biolog@@ 2
priori@@ 2
plainte 2
carrefour 2
my@@ 2
rÃ©alis@@ 2
adress@@ 2
tue 2
ina 2
imp@@ 2
civi@@ 2
arrivons 2
Ken 2
four@@ 2
dÃ©sin@@ 2
gouttelettes 2
pluriel 2
gen@@ 2
maligne 2
dan@@ 2
gÃ¢@@ 2
familier 2
humiliÃ©e 2
bag@@ 2
rÃ©pÃ©ter 2
pre 2
apprÃ©cierais 2
durent 2
procha 2
fixe 2
traversons 2
engrais 2
aison 2
microscope 2
enfuir 2
reporter 2
fourch@@ 2
proviennent 2
protÃ©@@ 2
vÃ©rifi@@ 2
contenu 2
coupent 2
normale 2
retour@@ 2
directement 2
Ã©cras@@ 2
passant 2
mions 2
rendrai 2
fiers 2
mÃ©prise 2
forcÃ©e 2
j 2
retourne 2
PrÃ©parez 2
vier 2
quat@@ 2
novembre 2
priv@@ 2
laine 2
biens 2
reprÃ©sentant 2
Cherchez 2
mai 2
Consi@@ 2
exacte 2
autorisa 2
fouilla 2
poches 2
ande 2
Ãªle 2
vitre 2
sentit 2
prÃ©occupation 2
perons 2
vivons 2
aidÃ© 2
confec@@ 2
tionner 2
poudre 2
Ã©mo@@ 2
sac@@ 2
rÃ©parÃ© 2
Corrigez 2
noms 2
laissa 2
accompli@@ 2
pleuve 2
utilisÃ©e 2
fins 2
pacifiques 2
hur@@ 2
compag@@ 2
ner 2
eille 2
viennes 2
abri 2
supporte 2
diagno@@ 2
sti@@ 2
monie 2
tations 2
agi@@ 2
fainÃ©@@ 2
inventer 2
aidÃ©s 2
bagar@@ 2
quÃ©s 2
adolescents 2
suni@@ 2
Ã§ant 2
kilos 2
rÃ©v@@ 2
adolescent 2
puisque 2
ridicule 2
dÃ©coll@@ 2
accue@@ 2
illir 2
lavage 2
grosses 2
universitaire 2
testament 2
Green 2
lon@@ 2
mordu 2
enrag@@ 2
tÃ©tan@@ 2
rure 2
pai@@ 2
irer 2
prouvez 2
couver@@ 2
demie 2
verrons 2
att@@ 2
agrÃ©able 2
estÃ© 2
tues 2
tox@@ 2
ication 2
chÅ“ur 2
onna 2
dom@@ 2
propriÃ©tÃ© 2
puits 2
paresseux 2
punition 2
bonbons 2
apprÃ©ciÃ© 2
ajou@@ 2
tai 2
siez 2
choux 2
piÃ©g@@ 2
ograp@@ 2
hi@@ 2
commerci@@ 2
Ã©vidence 2
termes 2
versitÃ© 2
dessous 2
milieu 2
besoins 2
contrariÃ© 2
vou@@ 2
rais@@ 2
industri@@ 2
prÃ©parÃ©es 2
dÃ©taill@@ 2
faibles 2
versÃ© 2
bol 2
bain 2
ty@@ 2
ennuyer 2
pencha 2
raient 2
vÃ´tre 2
goÃ»@@ 2
ati@@ 2
obtenir 2
accro@@ 2
tro@@ 2
bouillie 2
Nouv@@ 2
Ã©l@@ 2
amÃ©liorÃ©e 2
accuser 2
aliser 2
ignorais 2
cousine 2
professeurs 2
disponible 2
chrÃ©@@ 2
olÃ© 2
anne 2
intimidÃ©e 2
identification 2
saoul 2
jus@@ 2
entrÃ©es 2
considÃ©rablement 2
Amuse 2
onÃ©reuse 2
social 2
Osaka 2
avo@@ 2
balayer 2
rÃ©ponses 2
poupÃ©es 2
incendie 2
secondes 2
merveilleuse 2
estomac 2
ll@@ 2
Eiffel 2
tester 2
sÃ¨ches 2
herbe 2
intÃ©ressÃ©e 2
institutrice 2
sanglots 2
ouvris 2
admets 2
rentres 2
our 2
ix 2
sÃ©journer 2
couvertures 2
hor@@ 2
examiner 2
valable 2
mulÃ© 2
inet 2
rigoler 2
ajouter 2
crains 2
peintures 2
japonaises 2
exige 2
obligÃ© 2
dÃ©vas@@ 2
dirigea 2
yer 2
lab@@ 2
dÃ©cÃ¨s 2
laisses 2
trom@@ 2
excuse 2
faciles 2
connait 2
out 2
ador@@ 2
voleurs 2
ho@@ 2
acqu@@ 2
bananes 2
termin@@ 2
chute 2
U@@ 2
S 2
dÃ©sir 2
terait 2
Helen 2
aveugle 2
demandais 2
horloge 2
doucement 2
chirurgie 2
charme 2
arrogance 2
repos@@ 2
diplÃ´me 2
dansa 2
consom@@ 2
chercheurs 2
aus@@ 2
mur 2
mÃ¨@@ 2
surplomb@@ 2
quez 2
flatt@@ 2
vache 2
Ãªpes 2
venim@@ 2
inutile 2
Honni 2
dessin 2
hÃ©site 2
rompre 2
sensi@@ 2
impul@@ 2
Ã©tabli 2
race 2
dÃ©terminÃ© 2
briller 2
mouchoir 2
Voyons 2
anti@@ 2
git 2
respect 2
visitÃ© 2
trouva 2
close 2
vain@@ 2
approuv@@ 2
louer 2
prÃ©fÃ©rence 2
graines 2
tatouages 2
fumÃ©e 2
prennes 2
saviez 2
figure 2
admirÃ© 2
Pythagore 2
Mag@@ 2
secrÃ¨te 2
nombres 2
ras@@ 2
sure 2
partage 2
degrÃ©s 2
Celsius 2
garÃ© 2
fassiez 2
Ã©nigme 2
physi@@ 2
tivement 2
exam@@ 2
50 2
patients 2
raconte 2
parlais 2
yez 2
Sou@@ 2
composants 2
traver@@ 2
ensuite 2
survenir 2
trouvÃ¢mes 2
empre@@ 2
diffÃ©rentes 2
acquÃ©rir 2
prison@@ 2
robuste 2
White 2
Efforcez 2
ponctuelle 2
amant 2
formulaire 2
prÃ©fÃ¨rerais 2
zaine 2
afficher 2
jetez 2
prÃ©cisÃ©ment 2
fiche 2
endurer 2
papill@@ 2
diplomati@@ 2
comprendrai 2
irrÃ©gu@@ 2
liÃ¨re 2
gÃ©nial 2
coÃ»@@ 2
remu@@ 2
sÃ©paratistes 2
pens@@ 2
recherches 2
perd@@ 2
frappÃ©e 2
disposer 2
bague 2
fianÃ§ailles 2
cherchais 2
valise 2
gasp@@ 2
naviguer 2
Mar@@ 2
jouet 2
illÃ©gal 2
parv@@ 2
Ã©nerv@@ 2
brille 2
gardes 2
appropri@@ 2
tourne 2
pot 2
appu@@ 2
tenue 2
tricher 2
devions 2
appro@@ 2
visionn@@ 2
canard 2
regardait 2
feuille 2
prudentes 2
opÃ©rer 2
verrou@@ 2
dÃ©passÃ© 2
curiositÃ© 2
pari 2
spÃ©cial 2
traitez 2
camarades 2
loupÃ© 2
guÃ©ri@@ 2
robot 2
client 2
Ã©pingle 2
commettre 2
aidÃ©e 2
chÃ¨que 2
cal 2
cool 2
isa 2
mÃ©thode 2
conduite 2
envahi 2
Di@@ 2
rencontres 2
enver@@ 2
brev@@ 2
confirmÃ© 2
version 2
exister 2
aider@@ 2
personnellement 2
employÃ© 2
hiÃ©r@@ 2
dÃ©missionner 2
acceptable 2
bran@@ 2
proximitÃ© 2
rob@@ 2
cuir 2
dÃ©sastre 2
rentre 2
fortes 2
Ã´me 2
artif@@ 2
traversÃ© 2
rÃ©clamÃ© 2
statut 2
partager 2
menacÃ© 2
refusait 2
propos@@ 2
actif 2
rejo@@ 2
plats 2
irrÃ©proch@@ 2
royale 2
montrÃ© 2
tier 2
personnages 2
die 2
anci@@ 2
sportif 2
laitiers 2
club 2
espÃ©r@@ 2
Trouvez 2
laide 2
barre 2
autorisÃ©e 2
promet 2
vivement 2
Informez 2
dÃ©fauts 2
gÃ¢teaux 2
mystÃ¨re 2
tardif 2
tables 2
parties 2
autori@@ 2
athlÃ©@@ 2
tisme 2
danger@@ 2
poÃ©si@@ 2
ative 2
manipul@@ 2
mission 2
manuelle 2
pag@@ 2
inv@@ 2
exer@@ 2
secondaire 2
complÃ©ter 2
revenus 2
mÃ©dicaments 2
Turquie 2
maladro@@ 2
id@@ 2
mÃ¨nent 2
mesures 2
ours 2
Chili 2
meurtre 2
conditionnÃ© 2
exprimer 2
entendus 2
horaire 2
cÃ¢@@ 2
endroits 2
thÃ©@@ 2
dialecte 2
divorcer 2
apte 2
mence 2
excusÃ© 2
souhai@@ 2
brouillard 2
clients 2
prouver 2
commerce 2
prÃ©occup@@ 2
soudure 2
marrant 2
alibi 2
favorable 2
coul@@ 2
bug 2
fÃ©liciter 2
Ã©chantill@@ 2
produira 2
imaginÃ© 2
dÃ©clen@@ 2
ern@@ 2
ongles 2
pus 2
roir 2
conducteur 2
ramen@@ 2
trichÃ© 2
lundis 2
franÃ§aise 2
changera 2
locales 2
sÃ©ance 2
qui@@ 2
humanitÃ© 2
chutes 2
pierres 2
dem@@ 2
ois@@ 2
soirs 2
tueuse 2
sin@@ 2
ances 2
