{
  "version": "1.0",
  "truncation": null,
  "padding": null,
  "added_tokens": [
    {
      "id": 0,
      "content": "<s>",
      "single_word": false,
      "lstrip": false,
      "rstrip": false,
      "normalized": false,
      "special": true
    },
    {
      "id": 1,
      "content": "<pad>",
      "single_word": false,
      "lstrip": false,
      "rstrip": false,
      "normalized": false,
      "special": true
    },
    {
      "id": 2,
      "content": "</s>",
      "single_word": false,
      "lstrip": false,
      "rstrip": false,
      "normalized": false,
      "special": true
    },
    {
      "id": 3,
      "content": "<unk>",
      "single_word": false,
      "lstrip": false,
      "rstrip": false,
      "normalized": false,
      "special": true
    }
  ],
  "normalizer": null,
  "pre_tokenizer": {
    "type": "Whitespace"
  },
  "post_processor": null,
  "decoder": null,
  "model": {
    "type": "BPE",
    "dropout": null,
    "unk_token": "<unk>",
    "continuing_subword_prefix": null,
    "end_of_word_suffix": null,
    "fuse_unk": false,
    "byte_fallback": false,
    "ignore_merges": false,
    "vocab": {
      "<s>": 0,
      "<pad>": 1,
      "</s>": 2,
      "<unk>": 3,
      "!": 4,
      "$": 5,
      "&": 6,
      "(": 7,
      ")": 8,
      ",": 9,
      "-": 10,
      ".": 11,
      "/": 12,
      "0": 13,
      "1": 14,
      "2": 15,
      "3": 16,
      "4": 17,
      "5": 18,
      "6": 19,
      "7": 20,
      "8": 21,
      "9": 22,
      ":": 23,
      ";": 24,
      "?": 25,
      "@": 26,
      "A": 27,
      "B": 28,
      "C": 29,
      "D": 30,
      "E": 31,
      "F": 32,
      "G": 33,
      "H": 34,
      "I": 35,
      "J": 36,
      "K": 37,
      "L": 38,
      "M": 39,
      "N": 40,
      "O": 41,
      "P": 42,
      "Q": 43,
      "R": 44,
      "S": 45,
      "T": 46,
      "U": 47,
      "V": 48,
      "W": 49,
      "X": 50,
      "Y": 51,
      "Z": 52,
      "a": 53,
      "b": 54,
      "c": 55,
      "d": 56,
      "e": 57,
      "f": 58,
      "g": 59,
      "h": 60,
      "i": 61,
      "j": 62,
      "k": 63,
      "l": 64,
      "m": 65,
      "n": 66,
      "o": 67,
      "p": 68,
      "q": 69,
      "r": 70,
      "s": 71,
      "t": 72,
      "u": 73,
      "v": 74,
      "w": 75,
      "x": 76,
      "y": 77,
      "z": 78,
      "©": 79,
      "À": 80,
      "Â": 81,
      "Ã": 82,
      "É": 83,
      "Ô": 84,
      "à": 85,
      "á": 86,
      "â": 87,
      "ç": 88,
      "è": 89,
      "é": 90,
      "ê": 91,
      "ë": 92,
      "í": 93,
      "î": 94,
      "ï": 95,
      "ô": 96,
      "ù": 97,
      "û": 98,
      "œ": 99,
      "​": 100,
      "‽": 101,
      "⊂": 102,
      "th": 103,
      "ou": 104,
      "os": 105,
      "ap": 106,
      "re": 107,
      "apos": 108,
      "the": 109,
      "in": 110,
      "is": 111,
      "an": 112,
      "on": 113,
      "to": 114,
      "er": 115,
      "en": 116,
      "es": 117,
      "you": 118,
      "at": 119,
      "as": 120,
      "le": 121,
      "it": 122,
      "he": 123,
      "om": 124,
      "ar": 125,
      "ve": 126,
      "or": 127,
      "of": 128,
      "ll": 129,
      "ing": 130,
      "me": 131,
      "qu": 132,
      "de": 133,
      "no": 134,
      "ne": 135,
      "be": 136,
      "do": 137,
      "te": 138,
      "se": 139,
      "ha": 140,
      "ce": 141,
      "il": 142,
      "wh": 143,
      "ch": 144,
      "we": 145,
      "ent": 146,
      "la": 147,
      "Tom": 148,
      "li": 149,
      "st": 150,
      "et": 151,
      "go": 152,
      "ri": 153,
      "ke": 154,
      "that": 155,
      "ai": 156,
      "ay": 157,
      "est": 158,
      "al": 159,
      "have": 160,
      "ld": 161,
      "ver": 162,
      "je": 163,
      "ous": 164,
      "are": 165,
      "and": 166,
      "all": 167,
      "di": 168,
      "un": 169,
      "ti": 170,
      "was": 171,
      "wi": 172,
      "-@": 173,
      "@-@": 174,
      "que": 175,
      "ant": 176,
      "for": 177,
      "ed": 178,
      "don": 179,
      "ro": 180,
      "au": 181,
      "lo": 182,
      "out": 183,
      "su": 184,
      "this": 185,
      "our": 186,
      "pas": 187,
      "tr": 188,
      "ir": 189,
      "gh": 190,
      "my": 191,
      "us": 192,
      "pe": 193,
      "now": 194,
      "not": 195,
      "com": 196,
      "ma": 197,
      "what": 198,
      "tu": 199,
      "can": 200,
      "im": 201,
      "mo": 202,
      "one": 203,
      "your": 204,
      "she": 205,
      "ter": 206,
      "ta": 207,
      "ho": 208,
      "get": 209,
      "ion": 210,
      "ad": 211,
      "ght": 212,
      "ould": 213,
      "ut": 214,
      "vous": 215,
      "know": 216,
      "with": 217,
      "thing": 218,
      "am": 219,
      "ot": 220,
      "very": 221,
      "ther": 222,
      "ac": 223,
      "fe": 224,
      "did": 225,
      "his": 226,
      "ly": 227,
      "want": 228,
      "ag": 229,
      "any": 230,
      "ab": 231,
      "od": 232,
      "ple": 233,
      "ok": 234,
      "so": 235,
      "av": 236,
      "wor": 237,
      "les": 238,
      "like": 239,
      "ic": 240,
      "ais": 241,
      "here": 242,
      "ust": 243,
      "res": 244,
      "par": 245,
      "him": 246,
      "ink": 247,
      "end": 248,
      "ren": 249,
      "ait": 250,
      "there": 251,
      "time": 252,
      "ur": 253,
      "ment": 254,
      "ome": 255,
      "con": 256,
      "el": 257,
      "pr": 258,
      "quot": 259,
      "son": 260,
      "si": 261,
      "they": 262,
      "how": 263,
      "way": 264,
      "her": 265,
      "fr": 266,
      "ang": 267,
      "day": 268,
      "ave": 269,
      "has": 270,
      "co": 271,
      "think": 272,
      "une": 273,
      "ind": 274,
      "bo": 275,
      "ux": 276,
      "ain": 277,
      "vi": 278,
      "up": 279,
      "ans": 280,
      "ary": 281,
      "going": 282,
      "if": 283,
      "pour": 284,
      "some": 285,
      "pl": 286,
      "dé": 287,
      "app": 288,
      "ry": 289,
      "ul": 290,
      "ci": 291,
      "nous": 292,
      "man": 293,
      "pla": 294,
      "ard": 295,
      "more": 296,
      "sh": 297,
      "had": 298,
      "tre": 299,
      "per": 300,
      "good": 301,
      "will": 302,
      "ost": 303,
      "pro": 304,
      "tell": 305,
      "ate": 306,
      "ex": 307,
      "ble": 308,
      "ted": 309,
      "who": 310,
      "see": 311,
      "read": 312,
      "let": 313,
      "ten": 314,
      "were": 315,
      "just": 316,
      "du": 317,
      "sa": 318,
      "but": 319,
      "fo": 320,
      "ation": 321,
      "ni": 322,
      "der": 323,
      "Mary": 324,
      "lot": 325,
      "elle": 326,
      "po": 327,
      "des": 328,
      "ons": 329,
      "mon": 330,
      "every": 331,
      "oun": 332,
      "about": 333,
      "vo": 334,
      "lu": 335,
      "ine": 336,
      "ong": 337,
      "other": 338,
      "ally": 339,
      "ill": 340,
      "lit": 341,
      "didn": 342,
      "been": 343,
      "does": 344,
      "where": 345,
      "mb": 346,
      "té": 347,
      "when": 348,
      "than": 349,
      "age": 350,
      "ak": 351,
      "car": 352,
      "ven": 353,
      "hel": 354,
      "ase": 355,
      "from": 356,
      "help": 357,
      "las": 358,
      "why": 359,
      "ite": 360,
      "need": 361,
      "right": 362,
      "new": 363,
      "red": 364,
      "look": 365,
      "pen": 366,
      "tle": 367,
      "mu": 368,
      "come": 369,
      "would": 370,
      "could": 371,
      "ck": 372,
      "by": 373,
      "mes": 374,
      "work": 375,
      "mar": 376,
      "ose": 377,
      "ie": 378,
      "alk": 379,
      "should": 380,
      "aid": 381,
      "suis": 382,
      "bi": 383,
      "ts": 384,
      "ear": 385,
      "use": 386,
      "only": 387,
      "aire": 388,
      "ep": 389,
      "fi": 390,
      "por": 391,
      "never": 392,
      "take": 393,
      "little": 394,
      "spe": 395,
      "ish": 396,
      "che": 397,
      "ère": 398,
      "qui": 399,
      "sur": 400,
      "dans": 401,
      "mor": 402,
      "ame": 403,
      "much": 404,
      "too": 405,
      "happ": 406,
      "ge": 407,
      "sto": 408,
      "ess": 409,
      "please": 410,
      "ure": 411,
      "ance": 412,
      "fri": 413,
      "ach": 414,
      "really": 415,
      "ré": 416,
      "cho": 417,
      "dent": 418,
      "éta": 419,
      "try": 420,
      "tes": 421,
      "ked": 422,
      "comp": 423,
      "mp": 424,
      "dis": 425,
      "ople": 426,
      "people": 427,
      "mais": 428,
      "friend": 429,
      "ille": 430,
      "quel": 431,
      "ser": 432,
      "talk": 433,
      "ée": 434,
      "ather": 435,
      "gi": 436,
      "ol": 437,
      "wn": 438,
      "book": 439,
      "old": 440,
      "lie": 441,
      "tout": 442,
      "mi": 443,
      "plus": 444,
      "ça": 445,
      "ild": 446,
      "pos": 447,
      "wo": 448,
      "love": 449,
      "wat": 450,
      "got": 451,
      "af": 452,
      "jo": 453,
      "ree": 454,
      "bu": 455,
      "fait": 456,
      "lf": 457,
      "ng": 458,
      "ue": 459,
      "speak": 460,
      "mis": 461,
      "gir": 462,
      "long": 463,
      "ought": 464,
      "ct": 465,
      "faire": 466,
      "girl": 467,
      "mer": 468,
      "meet": 469,
      "world": 470,
      "must": 471,
      "bet": 472,
      "ready": 473,
      "gr": 474,
      "sor": 475,
      "moi": 476,
      "ack": 477,
      "gre": 478,
      "ra": 479,
      "ty": 480,
      "ils": 481,
      "gu": 482,
      "oney": 483,
      "mber": 484,
      "ès": 485,
      "beau": 486,
      "two": 487,
      "doesn": 488,
      "était": 489,
      "ours": 490,
      "child": 491,
      "something": 492,
      "money": 493,
      "ful": 494,
      "stu": 495,
      "cou": 496,
      "ound": 497,
      "fu": 498,
      "wr": 499,
      "most": 500,
      "ner": 501,
      "say": 502,
      "year": 503,
      "avec": 504,
      "pre": 505,
      "ami": 506,
      "fore": 507,
      "bus": 508,
      "last": 509,
      "home": 510,
      "ph": 511,
      "ried": 512,
      "teach": 513,
      "sure": 514,
      "find": 515,
      "self": 516,
      "eat": 517,
      "person": 518,
      "back": 519,
      "quest": 520,
      "pu": 521,
      "être": 522,
      "went": 523,
      "ont": 524,
      "row": 525,
      "great": 526,
      "oi": 527,
      "said": 528,
      "aren": 529,
      "able": 530,
      "ici": 531,
      "play": 532,
      "night": 533,
      "well": 534,
      "cau": 535,
      "question": 536,
      "sé": 537,
      "scho": 538,
      "anything": 539,
      "ff": 540,
      "arri": 541,
      "irst": 542,
      "dr": 543,
      "ise": 544,
      "live": 545,
      "mat": 546,
      "sp": 547,
      "won": 548,
      "tor": 549,
      "vr": 550,
      "ence": 551,
      "lear": 552,
      "ves": 553,
      "ide": 554,
      "under": 555,
      "room": 556,
      "temp": 557,
      "school": 558,
      "veux": 559,
      "cet": 560,
      "sont": 561,
      "min": 562,
      "ture": 563,
      "place": 564,
      "many": 565,
      "ody": 566,
      "make": 567,
      "teacher": 568,
      "belie": 569,
      "body": 570,
      "ouse": 571,
      "told": 572,
      "before": 573,
      "cr": 574,
      "ces": 575,
      "lang": 576,
      "ded": 577,
      "ways": 578,
      "ens": 579,
      "dog": 580,
      "hard": 581,
      "nu": 582,
      "always": 583,
      "give": 584,
      "cat": 585,
      "ough": 586,
      "feel": 587,
      "dit": 588,
      "ning": 589,
      "sent": 590,
      "first": 591,
      "kes": 592,
      "house": 593,
      "vie": 594,
      "pi": 595,
      "life": 596,
      "lui": 597,
      "put": 598,
      "ses": 599,
      "ited": 600,
      "temps": 601,
      "tou": 602,
      "quoi": 603,
      "still": 604,
      "Sami": 605,
      "father": 606,
      "ity": 607,
      "off": 608,
      "port": 609,
      "cha": 610,
      "mind": 611,
      "tion": 612,
      "pré": 613,
      "fam": 614,
      "vis": 615,
      "done": 616,
      "cold": 617,
      "late": 618,
      "them": 619,
      "leave": 620,
      "everything": 621,
      "better": 622,
      "ms": 623,
      "tro": 624,
      "art": 625,
      "bit": 626,
      "sle": 627,
      "rend": 628,
      "job": 629,
      "believe": 630,
      "ton": 631,
      "today": 632,
      "fin": 633,
      "lé": 634,
      "bien": 635,
      "buy": 636,
      "thought": 637,
      "ouve": 638,
      "without": 639,
      "happy": 640,
      "Eng": 641,
      "three": 642,
      "whi": 643,
      "Engl": 644,
      "toi": 645,
      "main": 646,
      "bre": 647,
      "ig": 648,
      "ers": 649,
      "again": 650,
      "word": 651,
      "hi": 652,
      "wee": 653,
      "care": 654,
      "lle": 655,
      "vé": 656,
      "nothing": 657,
      "langu": 658,
      "hand": 659,
      "br": 660,
      "took": 661,
      "after": 662,
      "ily": 663,
      "stand": 664,
      "meeting": 665,
      "ick": 666,
      "gar": 667,
      "lais": 668,
      "eas": 669,
      "avez": 670,
      "très": 671,
      "made": 672,
      "sais": 673,
      "wan": 674,
      "été": 675,
      "cause": 676,
      "pres": 677,
      "seen": 678,
      "rench": 679,
      "pris": 680,
      "week": 681,
      "ving": 682,
      "train": 683,
      "rest": 684,
      "ast": 685,
      "keep": 686,
      "already": 687,
      "vou": 688,
      "êtes": 689,
      "cette": 690,
      "French": 691,
      "best": 692,
      "their": 693,
      "English": 694,
      "cre": 695,
      "cor": 696,
      "isn": 697,
      "happen": 698,
      "student": 699,
      "wanted": 700,
      "cle": 701,
      "door": 702,
      "sou": 703,
      "diff": 704,
      "company": 705,
      "ez": 706,
      "Un": 707,
      "these": 708,
      "hu": 709,
      "name": 710,
      "proble": 711,
      "even": 712,
      "ys": 713,
      "sleep": 714,
      "mé": 715,
      "wait": 716,
      "stop": 717,
      "coun": 718,
      "water": 719,
      "children": 720,
      "afr": 721,
      "jour": 722,
      "may": 723,
      "ist": 724,
      "things": 725,
      "afraid": 726,
      "cer": 727,
      "pri": 728,
      "tri": 729,
      "sorry": 730,
      "bro": 731,
      "pay": 732,
      "otre": 733,
      "looking": 734,
      "xt": 735,
      "alone": 736,
      "led": 737,
      "ned": 738,
      "tru": 739,
      "cu": 740,
      "sm": 741,
      "som": 742,
      "votre": 743,
      "ins": 744,
      "member": 745,
      "kind": 746,
      "ru": 747,
      "enough": 748,
      "tur": 749,
      "same": 750,
      "ité": 751,
      "ved": 752,
      "ange": 753,
      "voir": 754,
      "vrai": 755,
      "Ear": 756,
      "cl": 757,
      "op": 758,
      "yes": 759,
      "anger": 760,
      "married": 761,
      "Earth": 762,
      "bon": 763,
      "hed": 764,
      "plan": 765,
      "cal": 766,
      "win": 767,
      "lles": 768,
      "coup": 769,
      "ctor": 770,
      "king": 771,
      "remember": 772,
      "dire": 773,
      "idea": 774,
      "Jap": 775,
      "où": 776,
      "tomor": 777,
      "comment": 778,
      "tomorrow": 779,
      "ja": 780,
      "mother": 781,
      "pense": 782,
      "understand": 783,
      "bor": 784,
      "call": 785,
      "tat": 786,
      "ati": 787,
      "met": 788,
      "aut": 789,
      "trav": 790,
      "bad": 791,
      "ft": 792,
      "ler": 793,
      "because": 794,
      "small": 795,
      "came": 796,
      "oin": 797,
      "oir": 798,
      "asked": 799,
      "United": 800,
      "next": 801,
      "used": 802,
      "watch": 803,
      "ire": 804,
      "air": 805,
      "busy": 806,
      "né": 807,
      "ask": 808,
      "left": 809,
      "doctor": 810,
      "trou": 811,
      "pourquoi": 812,
      "va": 813,
      "tired": 814,
      "act": 815,
      "phone": 816,
      "drink": 817,
      "paren": 818,
      "rais": 819,
      "down": 820,
      "peux": 821,
      "avoir": 822,
      "ense": 823,
      "ars": 824,
      "rent": 825,
      "matter": 826,
      "sho": 827,
      "vent": 828,
      "years": 829,
      "jamais": 830,
      "often": 831,
      "few": 832,
      "saw": 833,
      "books": 834,
      "beauti": 835,
      "parents": 836,
      "hur": 837,
      "id": 838,
      "sing": 839,
      "chose": 840,
      "fer": 841,
      "flo": 842,
      "show": 843,
      "stay": 844,
      "girls": 845,
      "ath": 846,
      "ever": 847,
      "wom": 848,
      "att": 849,
      "sed": 850,
      "aux": 851,
      "prom": 852,
      "future": 853,
      "which": 854,
      "language": 855,
      "beautiful": 856,
      "ction": 857,
      "ting": 858,
      "easy": 859,
      "morning": 860,
      "rain": 861,
      "vre": 862,
      "appe": 863,
      "into": 864,
      "ors": 865,
      "truth": 866,
      "bl": 867,
      "bes": 868,
      "being": 869,
      "puis": 870,
      "own": 871,
      "bed": 872,
      "sible": 873,
      "cess": 874,
      "hear": 875,
      "doing": 876,
      "Japan": 877,
      "fav": 878,
      "over": 879,
      "tous": 880,
      "dev": 881,
      "sup": 882,
      "far": 883,
      "wer": 884,
      "grand": 885,
      "learn": 886,
      "away": 887,
      "cela": 888,
      "aime": 889,
      "ester": 890,
      "comme": 891,
      "avons": 892,
      "parti": 893,
      "boy": 894,
      "letter": 895,
      "lass": 896,
      "rendre": 897,
      "cour": 898,
      "comple": 899,
      "avait": 900,
      "family": 901,
      "hom": 902,
      "ants": 903,
      "wants": 904,
      "country": 905,
      "found": 906,
      "lost": 907,
      "int": 908,
      "another": 909,
      "comm": 910,
      "mag": 911,
      "mine": 912,
      "yester": 913,
      "young": 914,
      "peut": 915,
      "yesterday": 916,
      "pain": 917,
      "vais": 918,
      "vers": 919,
      "cident": 920,
      "big": 921,
      "problem": 922,
      "cent": 923,
      "lad": 924,
      "true": 925,
      "cro": 926,
      "gent": 927,
      "jours": 928,
      "swi": 929,
      "inte": 930,
      "beaucoup": 931,
      "questions": 932,
      "vraiment": 933,
      "Stat": 934,
      "ince": 935,
      "accident": 936,
      "swim": 937,
      "States": 938,
      "mus": 939,
      "pon": 940,
      "ze": 941,
      "din": 942,
      "sit": 943,
      "import": 944,
      "diffic": 945,
      "fast": 946,
      "mê": 947,
      "cher": 948,
      "almost": 949,
      "favor": 950,
      "knew": 951,
      "open": 952,
      "heure": 953,
      "trop": 954,
      "ace": 955,
      "hours": 956,
      "pou": 957,
      "ête": 958,
      "avais": 959,
      "ress": 960,
      "difficul": 961,
      "ight": 962,
      "aller": 963,
      "peu": 964,
      "everyone": 965,
      "complete": 966,
      "ail": 967,
      "ated": 968,
      "tain": 969,
      "Ch": 970,
      "ob": 971,
      "its": 972,
      "ques": 973,
      "oc": 974,
      "iture": 975,
      "rien": 976,
      "party": 977,
      "break": 978,
      "important": 979,
      "eyes": 980,
      "pet": 981,
      "sis": 982,
      "sun": 983,
      "part": 984,
      "someone": 985,
      "quelque": 986,
      "wrong": 987,
      "même": 988,
      "yet": 989,
      "lez": 990,
      "leur": 991,
      "ions": 992,
      "ache": 993,
      "avant": 994,
      "nice": 995,
      "Bost": 996,
      "ef": 997,
      "knows": 998,
      "conn": 999,
      "side": 1000,
      "food": 1001,
      "Boston": 1002,
      "lives": 1003,
      "everybody": 1004,
      "ake": 1005,
      "lis": 1006,
      "pt": 1007,
      "quand": 1008,
      "deux": 1009,
      "early": 1010,
      "brother": 1011,
      "elles": 1012,
      "lar": 1013,
      "arr": 1014,
      "poli": 1015,
      "number": 1016,
      "favorite": 1017,
      "bab": 1018,
      "table": 1019,
      "core": 1020,
      "fice": 1021,
      "Mar": 1022,
      "mal": 1023,
      "smo": 1024,
      "past": 1025,
      "parler": 1026,
      "porte": 1027,
      "story": 1028,
      "dy": 1029,
      "glad": 1030,
      "nouve": 1031,
      "ante": 1032,
      "office": 1033,
      "seu": 1034,
      "weather": 1035,
      "lic": 1036,
      "str": 1037,
      "monde": 1038,
      "friends": 1039,
      "personne": 1040,
      "gg": 1041,
      "encore": 1042,
      "dow": 1043,
      "hope": 1044,
      "fois": 1045,
      "surpris": 1046,
      "possible": 1047,
      "miss": 1048,
      "Fr": 1049,
      "ball": 1050,
      "clo": 1051,
      "mil": 1052,
      "likes": 1053,
      "less": 1054,
      "called": 1055,
      "woman": 1056,
      "besoin": 1057,
      "enf": 1058,
      "talking": 1059,
      "là": 1060,
      "since": 1061,
      "sez": 1062,
      "high": 1063,
      "opin": 1064,
      "fun": 1065,
      "jou": 1066,
      "secre": 1067,
      "star": 1068,
      "myself": 1069,
      "jus": 1070,
      "vu": 1071,
      "key": 1072,
      "ages": 1073,
      "contr": 1074,
      "sommes": 1075,
      "sister": 1076,
      "dri": 1077,
      "père": 1078,
      "ward": 1079,
      "ital": 1080,
      "station": 1081,
      "times": 1082,
      "anymore": 1083,
      "étais": 1084,
      "happened": 1085,
      "window": 1086,
      "police": 1087,
      "mom": 1088,
      "sk": 1089,
      "walk": 1090,
      "days": 1091,
      "homme": 1092,
      "bla": 1093,
      "bought": 1094,
      "gard": 1095,
      "pend": 1096,
      "és": 1097,
      "ese": 1098,
      "chance": 1099,
      "rich": 1100,
      "trying": 1101,
      "write": 1102,
      "opinion": 1103,
      "mand": 1104,
      "ow": 1105,
      "ures": 1106,
      "ye": 1107,
      "offe": 1108,
      "hair": 1109,
      "seems": 1110,
      "toujours": 1111,
      "trip": 1112,
      "difficult": 1113,
      "cup": 1114,
      "gen": 1115,
      "lt": 1116,
      "light": 1117,
      "aur": 1118,
      "hot": 1119,
      "vice": 1120,
      "Dan": 1121,
      "ale": 1122,
      "class": 1123,
      "coffe": 1124,
      "ice": 1125,
      "those": 1126,
      "head": 1127,
      "wed": 1128,
      "aient": 1129,
      "aus": 1130,
      "writ": 1131,
      "arrive": 1132,
      "dinner": 1133,
      "coffee": 1134,
      "mble": 1135,
      "pic": 1136,
      "sick": 1137,
      "aper": 1138,
      "heart": 1139,
      "answer": 1140,
      "looks": 1141,
      "couldn": 1142,
      "careful": 1143,
      "hun": 1144,
      "nom": 1145,
      "argent": 1146,
      "dois": 1147,
      "chez": 1148,
      "quelle": 1149,
      "study": 1150,
      "free": 1151,
      "gave": 1152,
      "war": 1153,
      "ît": 1154,
      "ank": 1155,
      "unt": 1156,
      "ations": 1157,
      "venir": 1158,
      "wonder": 1159,
      "Marie": 1160,
      "eu": 1161,
      "nat": 1162,
      "ished": 1163,
      "beg": 1164,
      "maison": 1165,
      "turn": 1166,
      "aussi": 1167,
      "Ger": 1168,
      "TV": 1169,
      "gé": 1170,
      "game": 1171,
      "lat": 1172,
      "ings": 1173,
      "uni": 1174,
      "autre": 1175,
      "icy": 1176,
      "waiting": 1177,
      "floor": 1178,
      "surprised": 1179,
      "pé": 1180,
      "tal": 1181,
      "thank": 1182,
      "France": 1183,
      "ato": 1184,
      "dre": 1185,
      "dress": 1186,
      "fais": 1187,
      "toge": 1188,
      "ark": 1189,
      "deci": 1190,
      "alth": 1191,
      "wife": 1192,
      "utes": 1193,
      "soit": 1194,
      "voy": 1195,
      "mbre": 1196,
      "together": 1197,
      "bir": 1198,
      "ju": 1199,
      "tel": 1200,
      "chi": 1201,
      "seule": 1202,
      "ba": 1203,
      "cri": 1204,
      "ger": 1205,
      "inv": 1206,
      "iti": 1207,
      "voiture": 1208,
      "ffe": 1209,
      "fish": 1210,
      "men": 1211,
      "née": 1212,
      "run": 1213,
      "tour": 1214,
      "ention": 1215,
      "notre": 1216,
      "makes": 1217,
      "sol": 1218,
      "rested": 1219,
      "reading": 1220,
      "luck": 1221,
      "travail": 1222,
      "ali": 1223,
      "bicy": 1224,
      "danger": 1225,
      "hate": 1226,
      "ôt": 1227,
      "once": 1228,
      "around": 1229,
      "ween": 1230,
      "entre": 1231,
      "form": 1232,
      "ghter": 1233,
      "cket": 1234,
      "store": 1235,
      "milk": 1236,
      "cap": 1237,
      "ding": 1238,
      "lun": 1239,
      "heard": 1240,
      "aimer": 1241,
      "wasn": 1242,
      "advice": 1243,
      "prof": 1244,
      "tenant": 1245,
      "month": 1246,
      "news": 1247,
      "minutes": 1248,
      "secret": 1249,
      "moment": 1250,
      "fac": 1251,
      "char": 1252,
      "urs": 1253,
      "five": 1254,
      "pian": 1255,
      "maintenant": 1256,
      "turned": 1257,
      "born": 1258,
      "music": 1259,
      "In": 1260,
      "cé": 1261,
      "sans": 1262,
      "chang": 1263,
      "suc": 1264,
      "coming": 1265,
      "himself": 1266,
      "cook": 1267,
      "between": 1268,
      "raz": 1269,
      "finished": 1270,
      "sleeping": 1271,
      "large": 1272,
      "started": 1273,
      "..": 1274,
      "cted": 1275,
      "city": 1276,
      "jà": 1277,
      "post": 1278,
      "sci": 1279,
      "tried": 1280,
      "uation": 1281,
      "health": 1282,
      "ory": 1283,
      "déjà": 1284,
      "illed": 1285,
      "girlfriend": 1286,
      "pret": 1287,
      "situation": 1288,
      "black": 1289,
      "until": 1290,
      "Mr": 1291,
      "mmer": 1292,
      "tard": 1293,
      "demand": 1294,
      "change": 1295,
      "others": 1296,
      "hui": 1297,
      "cost": 1298,
      "dau": 1299,
      "pho": 1300,
      "pital": 1301,
      "sim": 1302,
      "forget": 1303,
      "aujour": 1304,
      "ager": 1305,
      "soon": 1306,
      "fran": 1307,
      "corre": 1308,
      "daughter": 1309,
      "aujourd": 1310,
      "00": 1311,
      "cti": 1312,
      "dou": 1313,
      "dark": 1314,
      "faut": 1315,
      "mas": 1316,
      "wine": 1317,
      "oss": 1318,
      "devr": 1319,
      "death": 1320,
      "nobody": 1321,
      "anyone": 1322,
      "six": 1323,
      "angry": 1324,
      "illes": 1325,
      "hurry": 1326,
      "blo": 1327,
      "cus": 1328,
      "four": 1329,
      "face": 1330,
      "gn": 1331,
      "hind": 1332,
      "pati": 1333,
      "leg": 1334,
      "med": 1335,
      "seul": 1336,
      "having": 1337,
      "wear": 1338,
      "while": 1339,
      "words": 1340,
      "attend": 1341,
      "piano": 1342,
      "dro": 1343,
      "fai": 1344,
      "ming": 1345,
      "sha": 1346,
      "étu": 1347,
      "theory": 1348,
      "lait": 1349,
      "combien": 1350,
      "fell": 1351,
      "exper": 1352,
      "connais": 1353,
      "Tato": 1354,
      "aw": 1355,
      "cas": 1356,
      "eba": 1357,
      "fut": 1358,
      "jet": 1359,
      "pose": 1360,
      "ème": 1361,
      "dec": 1362,
      "behind": 1363,
      "irt": 1364,
      "plaît": 1365,
      "might": 1366,
      "guess": 1367,
      "interested": 1368,
      "listen": 1369,
      "decided": 1370,
      "bicycle": 1371,
      "Tatoeba": 1372,
      "band": 1373,
      "bag": 1374,
      "cur": 1375,
      "den": 1376,
      "dor": 1377,
      "ier": 1378,
      "lors": 1379,
      "ét": 1380,
      "inst": 1381,
      "heures": 1382,
      "diffe": 1383,
      "yourself": 1384,
      "col": 1385,
      "derni": 1386,
      "télé": 1387,
      "smoking": 1388,
      "pp": 1389,
      "rou": 1390,
      "box": 1391,
      "propos": 1392,
      "exam": 1393,
      "fire": 1394,
      "essay": 1395,
      "toutes": 1396,
      "tonight": 1397,
      "students": 1398,
      "promise": 1399,
      "photo": 1400,
      "cry": 1401,
      "pul": 1402,
      "erre": 1403,
      "doll": 1404,
      "entend": 1405,
      "road": 1406,
      "auc": 1407,
      "ural": 1408,
      "cats": 1409,
      "restaur": 1410,
      "petit": 1411,
      "enfants": 1412,
      "German": 1413,
      "restaurant": 1414,
      "emp": 1415,
      "hat": 1416,
      "ious": 1417,
      "ken": 1418,
      "nor": 1419,
      "pare": 1420,
      "uter": 1421,
      "çais": 1422,
      "éco": 1423,
      "inté": 1424,
      "beer": 1425,
      "tement": 1426,
      "habit": 1427,
      "stup": 1428,
      "gover": 1429,
      "aide": 1430,
      "fort": 1431,
      "forgot": 1432,
      "pass": 1433,
      "movie": 1434,
      "getting": 1435,
      "fem": 1436,
      "computer": 1437,
      "problems": 1438,
      "occup": 1439,
      "experi": 1440,
      "école": 1441,
      "cut": 1442,
      "craz": 1443,
      "fall": 1444,
      "reas": 1445,
      "inter": 1446,
      "anim": 1447,
      "dead": 1448,
      "noon": 1449,
      "set": 1450,
      "haven": 1451,
      "ché": 1452,
      "living": 1453,
      "livre": 1454,
      "riez": 1455,
      "aider": 1456,
      "pect": 1457,
      "point": 1458,
      "ieux": 1459,
      "watching": 1460,
      "hung": 1461,
      "aimerais": 1462,
      "Par": 1463,
      "bli": 1464,
      "hos": 1465,
      "ique": 1466,
      "mit": 1467,
      "nment": 1468,
      "ness": 1469,
      "rès": 1470,
      "sait": 1471,
      "çon": 1472,
      "êt": 1473,
      "ences": 1474,
      "medi": 1475,
      "such": 1476,
      "passé": 1477,
      "trans": 1478,
      "probl": 1479,
      "vol": 1480,
      "mistake": 1481,
      "toute": 1482,
      "hands": 1483,
      "lucky": 1484,
      "simple": 1485,
      "étudi": 1486,
      "government": 1487,
      "hon": 1488,
      "nis": 1489,
      "pan": 1490,
      "oses": 1491,
      "après": 1492,
      "ref": 1493,
      "enne": 1494,
      "demain": 1495,
      "necess": 1496,
      "ticket": 1497,
      "felt": 1498,
      "working": 1499,
      "hier": 1500,
      "bonne": 1501,
      "Japanese": 1502,
      "Chr": 1503,
      "français": 1504,
      "crazy": 1505,
      "Lay": 1506,
      "ago": 1507,
      "eau": 1508,
      "inform": 1509,
      "semble": 1510,
      "forward": 1511,
      "yours": 1512,
      "takes": 1513,
      "soir": 1514,
      "plain": 1515,
      "shirt": 1516,
      "safe": 1517,
      "works": 1518,
      "choice": 1519,
      "visit": 1520,
      "trois": 1521,
      "ouvez": 1522,
      "attention": 1523,
      "pretty": 1524,
      "experience": 1525,
      "hospital": 1526,
      "Layla": 1527,
      "cul": 1528,
      "clear": 1529,
      "dance": 1530,
      "ile": 1531,
      "sû": 1532,
      "ées": 1533,
      "team": 1534,
      "aill": 1535,
      "cannot": 1536,
      "worry": 1537,
      "anglais": 1538,
      "dée": 1539,
      "produ": 1540,
      "poor": 1541,
      "premi": 1542,
      "juste": 1543,
      "written": 1544,
      "chien": 1545,
      "dollars": 1546,
      "bou": 1547,
      "emb": 1548,
      "kis": 1549,
      "non": 1550,
      "prendre": 1551,
      "usu": 1552,
      "thr": 1553,
      "rer": 1554,
      "suit": 1555,
      "termin": 1556,
      "hotel": 1557,
      "else": 1558,
      "boys": 1559,
      "viens": 1560,
      "appoin": 1561,
      "tennis": 1562,
      "venu": 1563,
      "lived": 1564,
      "natural": 1565,
      "bles": 1566,
      "cam": 1567,
      "eux": 1568,
      "mieux": 1569,
      "sea": 1570,
      "ject": 1571,
      "sugar": 1572,
      "respon": 1573,
      "ments": 1574,
      "contre": 1575,
      "exc": 1576,
      "exact": 1577,
      "spend": 1578,
      "afternoon": 1579,
      "hungry": 1580,
      "Paris": 1581,
      "hus": 1582,
      "pouvez": 1583,
      "thes": 1584,
      "assez": 1585,
      "teur": 1586,
      "secon": 1587,
      "lau": 1588,
      "died": 1589,
      "low": 1590,
      "coat": 1591,
      "thinking": 1592,
      "marry": 1593,
      "nuit": 1594,
      "baby": 1595,
      "correct": 1596,
      "husband": 1597,
      "aille": 1598,
      "moun": 1599,
      "leav": 1600,
      "net": 1601,
      "start": 1602,
      "tic": 1603,
      "summer": 1604,
      "parle": 1605,
      "rence": 1606,
      "probab": 1607,
      "foll": 1608,
      "longer": 1609,
      "arrived": 1610,
      "pouv": 1611,
      "Aust": 1612,
      "cy": 1613,
      "cked": 1614,
      "ds": 1615,
      "dû": 1616,
      "each": 1617,
      "gens": 1618,
      "sens": 1619,
      "wers": 1620,
      "then": 1621,
      "top": 1622,
      "ating": 1623,
      "ass": 1624,
      "near": 1625,
      "tez": 1626,
      "chat": 1627,
      "donne": 1628,
      "ately": 1629,
      "against": 1630,
      "hurt": 1631,
      "suppos": 1632,
      "completely": 1633,
      "later": 1634,
      "birth": 1635,
      "information": 1636,
      "bill": 1637,
      "cake": 1638,
      "dur": 1639,
      "fille": 1640,
      "nes": 1641,
      "sense": 1642,
      "vir": 1643,
      "ition": 1644,
      "trave": 1645,
      "peur": 1646,
      "moins": 1647,
      "agree": 1648,
      "ical": 1649,
      "prise": 1650,
      "thinks": 1651,
      "caught": 1652,
      "sentence": 1653,
      "interest": 1654,
      "swimming": 1655,
      "clothes": 1656,
      "picture": 1657,
      "lunch": 1658,
      "facile": 1659,
      "femme": 1660,
      "bé": 1661,
      "gy": 1662,
      "lose": 1663,
      "ste": 1664,
      "sal": 1665,
      "ude": 1666,
      "wish": 1667,
      "œur": 1668,
      "reci": 1669,
      "town": 1670,
      "least": 1671,
      "choses": 1672,
      "diction": 1673,
      "sub": 1674,
      "tra": 1675,
      "accor": 1676,
      "both": 1677,
      "popul": 1678,
      "press": 1679,
      "close": 1680,
      "crois": 1681,
      "arrê": 1682,
      "Austra": 1683,
      "God": 1684,
      "Oh": 1685,
      "bri": 1686,
      "ctu": 1687,
      "fé": 1688,
      "mère": 1689,
      "oked": 1690,
      "pie": 1691,
      "regard": 1692,
      "ene": 1693,
      "atis": 1694,
      "itch": 1695,
      "veut": 1696,
      "depuis": 1697,
      "half": 1698,
      "cep": 1699,
      "ili": 1700,
      "wash": 1701,
      "trouve": 1702,
      "known": 1703,
      "sold": 1704,
      "solu": 1705,
      "condu": 1706,
      "concer": 1707,
      "lasses": 1708,
      "iez": 1709,
      "quelqu": 1710,
      "learned": 1711,
      "vision": 1712,
      "languages": 1713,
      "price": 1714,
      "travaill": 1715,
      "nouveau": 1716,
      "necessary": 1717,
      "mountain": 1718,
      "probably": 1719,
      "travel": 1720,
      "bil": 1721,
      "fau": 1722,
      "hor": 1723,
      "hour": 1724,
      "idée": 1725,
      "killed": 1726,
      "manger": 1727,
      "na": 1728,
      "ps": 1729,
      "savoir": 1730,
      "tent": 1731,
      "vos": 1732,
      "ines": 1733,
      "order": 1734,
      "doit": 1735,
      "ceci": 1736,
      "lire": 1737,
      "keys": 1738,
      "maine": 1739,
      "imes": 1740,
      "park": 1741,
      "prin": 1742,
      "song": 1743,
      "sive": 1744,
      "pensais": 1745,
      "quelques": 1746,
      "sorti": 1747,
      "full": 1748,
      "crit": 1749,
      "préci": 1750,
      "voulais": 1751,
      "voulez": 1752,
      "clos": 1753,
      "women": 1754,
      "partir": 1755,
      "commen": 1756,
      "animal": 1757,
      "exactly": 1758,
      "birthday": 1759,
      "bar": 1760,
      "cours": 1761,
      "em": 1762,
      "fon": 1763,
      "pun": 1764,
      "paper": 1765,
      "smar": 1766,
      "uit": 1767,
      "rez": 1768,
      "quick": 1769,
      "become": 1770,
      "libr": 1771,
      "die": 1772,
      "dio": 1773,
      "forts": 1774,
      "acti": 1775,
      "pleas": 1776,
      "const": 1777,
      "eaten": 1778,
      "easily": 1779,
      "course": 1780,
      "clock": 1781,
      "invited": 1782,
      "supposed": 1783,
      "quickly": 1784,
      "Jo": 1785,
      "ado": 1786,
      "eded": 1787,
      "fil": 1788,
      "fro": 1789,
      "glass": 1790,
      "igh": 1791,
      "mir": 1792,
      "sound": 1793,
      "yo": 1794,
      "regar": 1795,
      "asse": 1796,
      "llage": 1797,
      "quit": 1798,
      "etimes": 1799,
      "river": 1800,
      "aurais": 1801,
      "comes": 1802,
      "util": 1803,
      "village": 1804,
      "whole": 1805,
      "mark": 1806,
      "vér": 1807,
      "sometimes": 1808,
      "trouver": 1809,
      "flowers": 1810,
      "heureux": 1811,
      "Christ": 1812,
      "through": 1813,
      "Amer": 1814,
      "ade": 1815,
      "bot": 1816,
      "sac": 1817,
      "vit": 1818,
      "val": 1819,
      "intell": 1820,
      "telle": 1821,
      "cei": 1822,
      "ches": 1823,
      "law": 1824,
      "looked": 1825,
      "advis": 1826,
      "fect": 1827,
      "vide": 1828,
      "mari": 1829,
      "aff": 1830,
      "build": 1831,
      "prefer": 1832,
      "rends": 1833,
      "present": 1834,
      "evening": 1835,
      "ative": 1836,
      "shoes": 1837,
      "breakfast": 1838,
      "scient": 1839,
      "demandé": 1840,
      "simplement": 1841,
      "Christmas": 1842,
      "intellig": 1843,
      "10": 1844,
      "Span": 1845,
      "egg": 1846,
      "imag": 1847,
      "kni": 1848,
      "nos": 1849,
      "yer": 1850,
      "ég": 1851,
      "thé": 1852,
      "ande": 1853,
      "era": 1854,
      "vel": 1855,
      "became": 1856,
      "semaine": 1857,
      "ced": 1858,
      "conse": 1859,
      "consi": 1860,
      "plu": 1861,
      "appreci": 1862,
      "perdu": 1863,
      "shouldn": 1864,
      "touch": 1865,
      "autres": 1866,
      "trouble": 1867,
      "opened": 1868,
      "pendant": 1869,
      "dangerous": 1870,
      "devrais": 1871,
      "wearing": 1872,
      "stupid": 1873,
      "second": 1874,
      "library": 1875,
      "Spanish": 1876,
      "An": 1877,
      "Mon": 1878,
      "az": 1879,
      "bur": 1880,
      "cla": 1881,
      "card": 1882,
      "da": 1883,
      "fact": 1884,
      "glasses": 1885,
      "ia": 1886,
      "ies": 1887,
      "kitch": 1888,
      "olo": 1889,
      "rait": 1890,
      "sc": 1891,
      "sau": 1892,
      "vant": 1893,
      "rel": 1894,
      "real": 1895,
      "teau": 1896,
      "jeun": 1897,
      "terri": 1898,
      "faites": 1899,
      "feelings": 1900,
      "toire": 1901,
      "clean": 1902,
      "souvent": 1903,
      "promis": 1904,
      "acheter": 1905,
      "efforts": 1906,
      "strong": 1907,
      "patient": 1908,
      "dernière": 1909,
      "follow": 1910,
      "smart": 1911,
      "kitchen": 1912,
      "bat": 1913,
      "cine": 1914,
      "ele": 1915,
      "eye": 1916,
      "gun": 1917,
      "ident": 1918,
      "snow": 1919,
      "ute": 1920,
      "zed": 1921,
      "apple": 1922,
      "ision": 1923,
      "enjo": 1924,
      "meille": 1925,
      "quite": 1926,
      "rie": 1927,
      "allé": 1928,
      "uses": 1929,
      "polit": 1930,
      "wouldn": 1931,
      "mess": 1932,
      "ched": 1933,
      "disappoin": 1934,
      "piè": 1935,
      "famous": 1936,
      "igno": 1937,
      "pays": 1938,
      "jusqu": 1939,
      "pped": 1940,
      "reason": 1941,
      "problème": 1942,
      "Australi": 1943,
      "ny": 1944,
      "owed": 1945,
      "savais": 1946,
      "test": 1947,
      "retard": 1948,
      "iness": 1949,
      "inside": 1950,
      "ane": 1951,
      "heav": 1952,
      "lla": 1953,
      "quer": 1954,
      "tele": 1955,
      "rir": 1956,
      "unk": 1957,
      "tax": 1958,
      "conf": 1959,
      "vient": 1960,
      "speaks": 1961,
      "saying": 1962,
      "certain": 1963,
      "tribu": 1964,
      "mettre": 1965,
      "trouvé": 1966,
      "shot": 1967,
      "began": 1968,
      "Joh": 1969,
      "building": 1970,
      "ech": 1971,
      "gne": 1972,
      "ière": 1973,
      "kid": 1974,
      "ras": 1975,
      "slow": 1976,
      "vres": 1977,
      "vite": 1978,
      "wro": 1979,
      "yez": 1980,
      "eng": 1981,
      "arti": 1982,
      "kept": 1983,
      "verse": 1984,
      "passe": 1985,
      "ush": 1986,
      "address": 1987,
      "acc": 1988,
      "indre": 1989,
      "cial": 1990,
      "telling": 1991,
      "seem": 1992,
      "lettre": 1993,
      "earth": 1994,
      "fied": 1995,
      "speech": 1996,
      "mort": 1997,
      "radio": 1998,
      "arrivé": 1999,
      "chambre": 2000,
      "devons": 2001,
      "drive": 2002,
      "sky": 2003,
      "changed": 2004,
      "ctive": 2005,
      "étaient": 2006,
      "different": 2007,
      "appreciate": 2008,
      "John": 2009,
      "wrote": 2010,
      "bite": 2011,
      "har": 2012,
      "kill": 2013,
      "lè": 2014,
      "mau": 2015,
      "pli": 2016,
      "ris": 2017,
      "sil": 2018,
      "umbre": 2019,
      "ép": 2020,
      "appréci": 2021,
      "tory": 2022,
      "vert": 2023,
      "rencontr": 2024,
      "mande": 2025,
      "shor": 2026,
      "penses": 2027,
      "join": 2028,
      "playing": 2029,
      "famille": 2030,
      "slept": 2031,
      "petite": 2032,
      "talked": 2033,
      "...": 2034,
      "legs": 2035,
      "sortir": 2036,
      "advised": 2037,
      "Ah": 2038,
      "cin": 2039,
      "cli": 2040,
      "caf": 2041,
      "flu": 2042,
      "grow": 2043,
      "hors": 2044,
      "idi": 2045,
      "land": 2046,
      "ran": 2047,
      "rather": 2048,
      "tôt": 2049,
      "uro": 2050,
      "ville": 2051,
      "reali": 2052,
      "donné": 2053,
      "making": 2054,
      "actu": 2055,
      "anybody": 2056,
      "sign": 2057,
      "pool": 2058,
      "montre": 2059,
      "stood": 2060,
      "serious": 2061,
      "présent": 2062,
      "maybe": 2063,
      "cute": 2064,
      "raison": 2065,
      "leurs": 2066,
      "yeux": 2067,
      "blood": 2068,
      "leaving": 2069,
      "closed": 2070,
      "vérité": 2071,
      "disappointed": 2072,
      "Euro": 2073,
      "Ne": 2074,
      "bas": 2075,
      "blic": 2076,
      "fit": 2077,
      "nent": 2078,
      "owe": 2079,
      "sy": 2080,
      "sous": 2081,
      "satis": 2082,
      "èrent": 2083,
      "recei": 2084,
      "esse": 2085,
      "tures": 2086,
      "admi": 2087,
      "lesson": 2088,
      "viend": 2089,
      "pois": 2090,
      "vois": 2091,
      "needs": 2092,
      "porter": 2093,
      "rée": 2094,
      "répon": 2095,
      "dist": 2096,
      "sera": 2097,
      "gros": 2098,
      "public": 2099,
      "ign": 2100,
      "weekend": 2101,
      "winter": 2102,
      "courage": 2103,
      "nombre": 2104,
      "solve": 2105,
      "aucun": 2106,
      "usual": 2107,
      "interesting": 2108,
      "dictionary": 2109,
      "mauvais": 2110,
      "umbrella": 2111,
      "Sun": 2112,
      "ban": 2113,
      "fine": 2114,
      "ither": 2115,
      "mou": 2116,
      "pau": 2117,
      "spr": 2118,
      "spo": 2119,
      "vas": 2120,
      "whe": 2121,
      "éc": 2122,
      "étr": 2123,
      "oubli": 2124,
      "reux": 2125,
      "ism": 2126,
      "iste": 2127,
      "mean": 2128,
      "sel": 2129,
      "ets": 2130,
      "alle": 2131,
      "also": 2132,
      "allez": 2133,
      "jeune": 2134,
      "uncle": 2135,
      "loin": 2136,
      "sul": 2137,
      "mala": 2138,
      "tails": 2139,
      "taken": 2140,
      "apprendre": 2141,
      "procha": 2142,
      "pensé": 2143,
      "mistakes": 2144,
      "guy": 2145,
      "icile": 2146,
      "plays": 2147,
      "matin": 2148,
      "feeling": 2149,
      "difficile": 2150,
      "travaille": 2151,
      "stayed": 2152,
      "suppose": 2153,
      "croire": 2154,
      "joue": 2155,
      "begin": 2156,
      "univers": 2157,
      "voyage": 2158,
      "emplo": 2159,
      "eggs": 2160,
      "knife": 2161,
      "enjoy": 2162,
      "19": 2163,
      "ber": 2164,
      "bread": 2165,
      "cir": 2166,
      "dres": 2167,
      "date": 2168,
      "dra": 2169,
      "gag": 2170,
      "hô": 2171,
      "pat": 2172,
      "rai": 2173,
      "sand": 2174,
      "um": 2175,
      "vac": 2176,
      "vend": 2177,
      "vue": 2178,
      "wal": 2179,
      "ères": 2180,
      "éti": 2181,
      "veu": 2182,
      "tem": 2183,
      "tears": 2184,
      "sell": 2185,
      "mot": 2186,
      "taking": 2187,
      "histoire": 2188,
      "parce": 2189,
      "près": 2190,
      "sons": 2191,
      "fruit": 2192,
      "vivre": 2193,
      "pourrais": 2194,
      "expect": 2195,
      "newsp": 2196,
      "fix": 2197,
      "quiet": 2198,
      "speaking": 2199,
      "sort": 2200,
      "view": 2201,
      "diffé": 2202,
      "cuis": 2203,
      "airs": 2204,
      "appelle": 2205,
      "Chin": 2206,
      "smoke": 2207,
      "strange": 2208,
      "seulement": 2209,
      "Inter": 2210,
      "success": 2211,
      "lorsque": 2212,
      "sûr": 2213,
      "embarr": 2214,
      "excuse": 2215,
      "utilis": 2216,
      "intelligent": 2217,
      "newspaper": 2218,
      "30": 2219,
      "ix": 2220,
      "mang": 2221,
      "nour": 2222,
      "send": 2223,
      "thir": 2224,
      "ener": 2225,
      "esp": 2226,
      "vez": 2227,
      "qué": 2228,
      "whose": 2229,
      "lig": 2230,
      "livres": 2231,
      "stre": 2232,
      "dont": 2233,
      "super": 2234,
      "impossible": 2235,
      "immedi": 2236,
      "accep": 2237,
      "feu": 2238,
      "sois": 2239,
      "avoi": 2240,
      "worked": 2241,
      "rencontre": 2242,
      "hasn": 2243,
      "pourrait": 2244,
      "déso": 2245,
      "déci": 2246,
      "déjeun": 2247,
      "tree": 2248,
      "cks": 2249,
      "couple": 2250,
      "fuck": 2251,
      "minute": 2252,
      "langue": 2253,
      "préfé": 2254,
      "garçon": 2255,
      "laisse": 2256,
      "médi": 2257,
      "journée": 2258,
      "certa": 2259,
      "Japon": 2260,
      "autant": 2261,
      "acheté": 2262,
      "conna": 2263,
      "aucune": 2264,
      "kiss": 2265,
      "piece": 2266,
      "froid": 2267,
      "market": 2268,
      "pièce": 2269,
      "Australia": 2270,
      "idiot": 2271,
      "New": 2272,
      "20": 2273,
      "May": 2274,
      "Tok": 2275,
      "fas": 2276,
      "fête": 2277,
      "filles": 2278,
      "gue": 2279,
      "hit": 2280,
      "nation": 2281,
      "sant": 2282,
      "tête": 2283,
      "ud": 2284,
      "vic": 2285,
      "zz": 2286,
      "écri": 2287,
      "îner": 2288,
      "oud": 2289,
      "ination": 2290,
      "ones": 2291,
      "ente": 2292,
      "asha": 2293,
      "dez": 2294,
      "nel": 2295,
      "celui": 2296,
      "lies": 2297,
      "ride": 2298,
      "outside": 2299,
      "sui": 2300,
      "suff": 2301,
      "trad": 2302,
      "liked": 2303,
      "coû": 2304,
      "vies": 2305,
      "ific": 2306,
      "shy": 2307,
      "expen": 2308,
      "loved": 2309,
      "cru": 2310,
      "sentences": 2311,
      "médec": 2312,
      "magaz": 2313,
      "obje": 2314,
      "windows": 2315,
      "decision": 2316,
      "essayer": 2317,
      "crying": 2318,
      "arrêter": 2319,
      "enemy": 2320,
      "adore": 2321,
      "ignore": 2322,
      "Europe": 2323,
      "sandwi": 2324,
      "walked": 2325,
      "Tokyo": 2326,
      "ashamed": 2327,
      "expensive": 2328,
      "Jane": 2329,
      "clu": 2330,
      "case": 2331,
      "either": 2332,
      "gone": 2333,
      "oo": 2334,
      "sof": 2335,
      "sli": 2336,
      "sav": 2337,
      "uf": 2338,
      "ète": 2339,
      "invol": 2340,
      "attr": 2341,
      "atta": 2342,
      "deal": 2343,
      "demande": 2344,
      "nez": 2345,
      "needed": 2346,
      "tee": 2347,
      "iling": 2348,
      "chan": 2349,
      "stars": 2350,
      "ric": 2351,
      "ries": 2352,
      "rions": 2353,
      "whatever": 2354,
      "hood": 2355,
      "absent": 2356,
      "abroad": 2357,
      "respect": 2358,
      "boat": 2359,
      "foot": 2360,
      "illé": 2361,
      "comprendre": 2362,
      "mid": 2363,
      "nervous": 2364,
      "prepare": 2365,
      "catch": 2366,
      "cated": 2367,
      "dition": 2368,
      "chaque": 2369,
      "broke": 2370,
      "rude": 2371,
      "commun": 2372,
      "nouvelle": 2373,
      "license": 2374,
      "enfant": 2375,
      "garden": 2376,
      "gener": 2377,
      "dream": 2378,
      "charge": 2379,
      "succe": 2380,
      "entendu": 2381,
      "popular": 2382,
      "travailler": 2383,
      "ologi": 2384,
      "realize": 2385,
      "admire": 2386,
      "spoke": 2387,
      "désolé": 2388,
      "No": 2389,
      "bout": 2390,
      "cts": 2391,
      "clé": 2392,
      "dge": 2393,
      "fen": 2394,
      "fat": 2395,
      "rare": 2396,
      "riture": 2397,
      "tin": 2398,
      "écrit": 2399,
      "rep": 2400,
      "report": 2401,
      "depend": 2402,
      "chur": 2403,
      "ents": 2404,
      "lake": 2405,
      "allowed": 2406,
      "dix": 2407,
      "peine": 2408,
      "tune": 2409,
      "amou": 2410,
      "feet": 2411,
      "soyez": 2412,
      "frère": 2413,
      "perfect": 2414,
      "volu": 2415,
      "choose": 2416,
      "teste": 2417,
      "dispos": 2418,
      "longtemps": 2419,
      "grande": 2420,
      "business": 2421,
      "played": 2422,
      "arriver": 2423,
      "drunk": 2424,
      "dites": 2425,
      "fini": 2426,
      "laisser": 2427,
      "voudr": 2428,
      "voulait": 2429,
      "prie": 2430,
      "ensemble": 2431,
      "shower": 2432,
      "grandmother": 2433,
      "heureuse": 2434,
      "contract": 2435,
      "nature": 2436,
      "universe": 2437,
      "devrait": 2438,
      "lorsqu": 2439,
      "instant": 2440,
      "téléphone": 2441,
      "premier": 2442,
      "accord": 2443,
      "punctu": 2444,
      "film": 2445,
      "video": 2446,
      "heavy": 2447,
      "accused": 2448,
      "received": 2449,
      "nourriture": 2450,
      "déjeuner": 2451,
      "médecin": 2452,
      "clas": 2453,
      "dest": 2454,
      "dden": 2455,
      "ip": 2456,
      "ican": 2457,
      "line": 2458,
      "ped": 2459,
      "ron": 2460,
      "swe": 2461,
      "savez": 2462,
      "tend": 2463,
      "ists": 2464,
      "ater": 2465,
      "ordin": 2466,
      "noir": 2467,
      "novel": 2468,
      "neigh": 2469,
      "beach": 2470,
      "teen": 2471,
      "weren": 2472,
      "ety": 2473,
      "aie": 2474,
      "rog": 2475,
      "sujet": 2476,
      "passer": 2477,
      "trust": 2478,
      "trait": 2479,
      "using": 2480,
      "mois": 2481,
      "move": 2482,
      "hold": 2483,
      "admit": 2484,
      "worst": 2485,
      "sibil": 2486,
      "somewhere": 2487,
      "déteste": 2488,
      "exist": 2489,
      "explain": 2490,
      "cars": 2491,
      "carry": 2492,
      "fight": 2493,
      "check": 2494,
      "survi": 2495,
      "given": 2496,
      "eating": 2497,
      "learning": 2498,
      "understood": 2499,
      "bring": 2500,
      "presque": 2501,
      "rester": 2502,
      "human": 2503,
      "broken": 2504,
      "mission": 2505,
      "studying": 2506,
      "running": 2507,
      "awake": 2508,
      "colère": 2509,
      "rouge": 2510,
      "habitude": 2511,
      "honest": 2512,
      "première": 2513,
      "responsible": 2514,
      "laugh": 2515,
      "pouvons": 2516,
      "pression": 2517,
      "consider": 2518,
      "terrible": 2519,
      "promises": 2520,
      "kids": 2521,
      "whether": 2522,
      "embarras": 2523,
      "immediately": 2524,
      "avoid": 2525,
      "Yor": 2526,
      "bure": 2527,
      "cré": 2528,
      "dîner": 2529,
      "fou": 2530,
      "ges": 2531,
      "lons": 2532,
      "pap": 2533,
      "sœur": 2534,
      "tant": 2535,
      "vin": 2536,
      "wing": 2537,
      "ér": 2538,
      "apologi": 2539,
      "iner": 2540,
      "inju": 2541,
      "ances": 2542,
      "atre": 2543,
      "ates": 2544,
      "arrog": 2545,
      "seat": 2546,
      "weight": 2547,
      "stairs": 2548,
      "rière": 2549,
      "allons": 2550,
      "sugg": 2551,
      "ussi": 2552,
      "terre": 2553,
      "utôt": 2554,
      "amie": 2555,
      "history": 2556,
      "abo": 2557,
      "absolu": 2558,
      "confi": 2559,
      "prit": 2560,
      "colle": 2561,
      "aine": 2562,
      "plutôt": 2563,
      "décou": 2564,
      "appor": 2565,
      "appro": 2566,
      "exer": 2567,
      "seeing": 2568,
      "cheveux": 2569,
      "illez": 2570,
      "mise": 2571,
      "merci": 2572,
      "grou": 2573,
      "gué": 2574,
      "guys": 2575,
      "homework": 2576,
      "finish": 2577,
      "jouer": 2578,
      "alement": 2579,
      "difference": 2580,
      "fortun": 2581,
      "Monday": 2582,
      "meilleur": 2583,
      "television": 2584,
      "taxi": 2585,
      "short": 2586,
      "café": 2587,
      "Internet": 2588,
      "church": 2589,
      "punctual": 2590,
      "York": 2591,
      "bureau": 2592,
      "injured": 2593,
      "Al": 2594,
      "Jim": 2595,
      "blu": 2596,
      "fati": 2597,
      "ient": 2598,
      "ial": 2599,
      "jam": 2600,
      "none": 2601,
      "nager": 2602,
      "oper": 2603,
      "ping": 2604,
      "pus": 2605,
      "pick": 2606,
      "rap": 2607,
      "rom": 2608,
      "squ": 2609,
      "tar": 2610,
      "tall": 2611,
      "zoo": 2612,
      "èmes": 2613,
      "thre": 2614,
      "ouver": 2615,
      "apon": 2616,
      "reg": 2617,
      "reco": 2618,
      "indi": 2619,
      "tomb": 2620,
      "envir": 2621,
      "espère": 2622,
      "asle": 2623,
      "arch": 2624,
      "determin": 2625,
      "details": 2626,
      "belle": 2627,
      "semb": 2628,
      "chant": 2629,
      "wel": 2630,
      "goes": 2631,
      "area": 2632,
      "pected": 2633,
      "movies": 2634,
      "gets": 2635,
      "ables": 2636,
      "aise": 2637,
      "conv": 2638,
      "content": 2639,
      "contribu": 2640,
      "prêt": 2641,
      "front": 2642,
      "project": 2643,
      "exac": 2644,
      "nie": 2645,
      "deser": 2646,
      "chemin": 2647,
      "serait": 2648,
      "mith": 2649,
      "wore": 2650,
      "grat": 2651,
      "irsty": 2652,
      "pied": 2653,
      "count": 2654,
      "shop": 2655,
      "single": 2656,
      "painting": 2657,
      "pouvoir": 2658,
      "avantage": 2659,
      "wedding": 2660,
      "writing": 2661,
      "péri": 2662,
      "profess": 2663,
      "patience": 2664,
      "shall": 2665,
      "occupé": 2666,
      "concert": 2667,
      "American": 2668,
      "bottle": 2669,
      "tellement": 2670,
      "message": 2671,
      "écout": 2672,
      "energy": 2673,
      "environ": 2674,
      "asleep": 2675,
      "Ar": 2676,
      "Spain": 2677,
      "cous": 2678,
      "cœur": 2679,
      "dad": 2680,
      "fa": 2681,
      "fils": 2682,
      "ghed": 2683,
      "hy": 2684,
      "ko": 2685,
      "mn": 2686,
      "mour": 2687,
      "mange": 2688,
      "pis": 2689,
      "pes": 2690,
      "rac": 2691,
      "sen": 2692,
      "ug": 2693,
      "ues": 2694,
      "oui": 2695,
      "retour": 2696,
      "ennu": 2697,
      "dehors": 2698,
      "tea": 2699,
      "habite": 2700,
      "chante": 2701,
      "dipl": 2702,
      "fortune": 2703,
      "rock": 2704,
      "log": 2705,
      "impro": 2706,
      "immédi": 2707,
      "worth": 2708,
      "ury": 2709,
      "condition": 2710,
      "coll": 2711,
      "viol": 2712,
      "exp": 2713,
      "tée": 2714,
      "compte": 2715,
      "dispose": 2716,
      "older": 2717,
      "lieu": 2718,
      "fumer": 2719,
      "dogs": 2720,
      "prices": 2721,
      "appeler": 2722,
      "partie": 2723,
      "musici": 2724,
      "secrets": 2725,
      "dormir": 2726,
      "instru": 2727,
      "intéres": 2728,
      "reasons": 2729,
      "sûre": 2730,
      "regarder": 2731,
      "pleased": 2732,
      "regarde": 2733,
      "affic": 2734,
      "spring": 2735,
      "oublié": 2736,
      "malade": 2737,
      "santé": 2738,
      "écrire": 2739,
      "sandwich": 2740,
      "involved": 2741,
      "De": 2742,
      "Smith": 2743,
      "US": 2744,
      "bable": 2745,
      "boss": 2746,
      "cs": 2747,
      "cise": 2748,
      "dence": 2749,
      "davantage": 2750,
      "eight": 2751,
      "fly": 2752,
      "gan": 2753,
      "ged": 2754,
      "gam": 2755,
      "hang": 2756,
      "iers": 2757,
      "iques": 2758,
      "ling": 2759,
      "pom": 2760,
      "pot": 2761,
      "ring": 2762,
      "ross": 2763,
      "sme": 2764,
      "sour": 2765,
      "thirsty": 2766,
      "appris": 2767,
      "regre": 2768,
      "inno": 2769,
      "ined": 2770,
      "intro": 2771,
      "issu": 2772,
      "année": 2773,
      "toys": 2774,
      "ering": 2775,
      "ats": 2776,
      "ority": 2777,
      "memor": 2778,
      "devez": 2779,
      "text": 2780,
      "sever": 2781,
      "iles": 2782,
      "laire": 2783,
      "laquelle": 2784,
      "eter": 2785,
      "gold": 2786,
      "alors": 2787,
      "andon": 2788,
      "auto": 2789,
      "loves": 2790,
      "trom": 2791,
      "traffic": 2792,
      "usted": 2793,
      "compl": 2794,
      "mage": 2795,
      "importe": 2796,
      "tait": 2797,
      "amé": 2798,
      "amour": 2799,
      "accus": 2800,
      "soci": 2801,
      "ics": 2802,
      "conom": 2803,
      "concent": 2804,
      "els": 2805,
      "pron": 2806,
      "sight": 2807,
      "herself": 2808,
      "cool": 2809,
      "ainsi": 2810,
      "manière": 2811,
      "trees": 2812,
      "proper": 2813,
      "tenir": 2814,
      "venus": 2815,
      "venue": 2816,
      "museu": 2817,
      "bike": 2818,
      "figu": 2819,
      "compli": 2820,
      "gives": 2821,
      "type": 2822,
      "space": 2823,
      "vieux": 2824,
      "famili": 2825,
      "England": 2826,
      "toilet": 2827,
      "mains": 2828,
      "vélo": 2829,
      "langues": 2830,
      "laissé": 2831,
      "prix": 2832,
      "payer": 2833,
      "rules": 2834,
      "puisse": 2835,
      "boyfriend": 2836,
      "intention": 2837,
      "command": 2838,
      "magas": 2839,
      "driving": 2840,
      "warned": 2841,
      "itive": 2842,
      "entreprise": 2843,
      "professe": 2844,
      "sooner": 2845,
      "problèmes": 2846,
      "usually": 2847,
      "constru": 2848,
      "lawyer": 2849,
      "article": 2850,
      "actually": 2851,
      "satisfied": 2852,
      "distance": 2853,
      "Sunday": 2854,
      "vacation": 2855,
      "veuillez": 2856,
      "Chinese": 2857,
      "volution": 2858,
      "neighbor": 2859,
      "fortunately": 2860,
      "regret": 2861,
      "introdu": 2862,
      "figured": 2863,
      "Can": 2864,
      "OK": 2865,
      "dom": 2866,
      "fus": 2867,
      "font": 2868,
      "gni": 2869,
      "ize": 2870,
      "lent": 2871,
      "lines": 2872,
      "rit": 2873,
      "save": 2874,
      "site": 2875,
      "task": 2876,
      "ène": 2877,
      "ape": 2878,
      "theater": 2879,
      "isir": 2880,
      "envie": 2881,
      "ata": 2882,
      "lly": 2883,
      "meur": 2884,
      "quatre": 2885,
      "cept": 2886,
      "stat": 2887,
      "riche": 2888,
      "aimes": 2889,
      "alis": 2890,
      "union": 2891,
      "tie": 2892,
      "tient": 2893,
      "fortable": 2894,
      "donc": 2895,
      "donner": 2896,
      "suspe": 2897,
      "mots": 2898,
      "amis": 2899,
      "agne": 2900,
      "worse": 2901,
      "ica": 2902,
      "parlez": 2903,
      "endro": 2904,
      "pourriez": 2905,
      "manager": 2906,
      "probable": 2907,
      "ateur": 2908,
      "derrière": 2909,
      "marche": 2910,
      "marché": 2911,
      "poser": 2912,
      "ners": 2913,
      "finally": 2914,
      "pressed": 2915,
      "brown": 2916,
      "pensez": 2917,
      "borrow": 2918,
      "nécess": 2919,
      "devriez": 2920,
      "cherche": 2921,
      "peuvent": 2922,
      "nouvelles": 2923,
      "thanks": 2924,
      "double": 2925,
      "attendre": 2926,
      "entendre": 2927,
      "camera": 2928,
      "laughed": 2929,
      "fault": 2930,
      "animals": 2931,
      "America": 2932,
      "cinq": 2933,
      "mangé": 2934,
      "rencontrer": 2935,
      "magazine": 2936,
      "depends": 2937,
      "blue": 2938,
      "immédiate": 2939,
      "smell": 2940,
      "Fri": 2941,
      "ama": 2942,
      "bal": 2943,
      "bul": 2944,
      "cos": 2945,
      "cand": 2946,
      "cteur": 2947,
      "event": 2948,
      "fur": 2949,
      "gare": 2950,
      "gure": 2951,
      "lap": 2952,
      "lan": 2953,
      "list": 2954,
      "nul": 2955,
      "pê": 2956,
      "pir": 2957,
      "pren": 2958,
      "pale": 2959,
      "smi": 2960,
      "scare": 2961,
      "twi": 2962,
      "ttes": 2963,
      "vor": 2964,
      "vée": 2965,
      "çons": 2966,
      "oub": 2967,
      "reed": 2968,
      "return": 2969,
      "incre": 2970,
      "leil": 2971,
      "itu": 2972,
      "hell": 2973,
      "meal": 2974,
      "devoir": 2975,
      "nement": 2976,
      "beat": 2977,
      "ilos": 2978,
      "chap": 2979,
      "lici": 2980,
      "ared": 2981,
      "sus": 2982,
      "compris": 2983,
      "complain": 2984,
      "comfortable": 2985,
      "impression": 2986,
      "moved": 2987,
      "tern": 2988,
      "amus": 2989,
      "amment": 2990,
      "across": 2991,
      "abandon": 2992,
      "pleu": 2993,
      "oken": 2994,
      "parlé": 2995,
      "conside": 2996,
      "cow": 2997,
      "cover": 2998,
      "dés": 2999,
      "apped": 3000,
      "shut": 3001,
      "trer": 3002,
      "prote": 3003,
      "expected": 3004,
      "expéri": 3005,
      "nivers": 3006,
      "power": 3007,
      "penser": 3008,
      "ieu": 3009,
      "bière": 3010,
      "figure": 3011,
      "choco": 3012,
      "serai": 3013,
      "serais": 3014,
      "midi": 3015,
      "possibil": 3016,
      "missed": 3017,
      "ground": 3018,
      "childhood": 3019,
      "spoken": 3020,
      "hardly": 3021,
      "numé": 3022,
      "sentim": 3023,
      "chaud": 3024,
      "ignor": 3025,
      "laissez": 3026,
      "weeks": 3027,
      "kindness": 3028,
      "clus": 3029,
      "appear": 3030,
      "painted": 3031,
      "musique": 3032,
      "brothers": 3033,
      "driver": 3034,
      "skin": 3035,
      "bird": 3036,
      "itié": 3037,
      "cooking": 3038,
      "science": 3039,
      "ctions": 3040,
      "faim": 3041,
      "route": 3042,
      "medicine": 3043,
      "boulot": 3044,
      "pouvait": 3045,
      "during": 3046,
      "fully": 3047,
      "apprécie": 3048,
      "poison": 3049,
      "prochain": 3050,
      "thirty": 3051,
      "soft": 3052,
      "teeth": 3053,
      "prepared": 3054,
      "fenêtre": 3055,
      "voudrais": 3056,
      "admitted": 3057,
      "laughing": 3058,
      "embarrassed": 3059,
      "suggest": 3060,
      "fatigué": 3061,
      "exactement": 3062,
      "façon": 3063,
      "innocent": 3064,
      "museum": 3065,
      "magasin": 3066,
      "professeur": 3067,
      "nécessaire": 3068,
      "immédiatement": 3069,
      "Friday": 3070,
      "twice": 3071,
      "considered": 3072,
      "Hi": 3073,
      "Ju": 3074,
      "cte": 3075,
      "cation": 3076,
      "crow": 3077,
      "fail": 3078,
      "gâ": 3079,
      "ides": 3080,
      "mic": 3081,
      "mill": 3082,
      "naire": 3083,
      "oph": 3084,
      "prend": 3085,
      "phot": 3086,
      "rê": 3087,
      "ror": 3088,
      "sport": 3089,
      "vil": 3090,
      "vrir": 3091,
      "yen": 3092,
      "âge": 3093,
      "çu": 3094,
      "éle": 3095,
      "œuf": 3096,
      "thous": 3097,
      "erai": 3098,
      "assu": 3099,
      "ara": 3100,
      "ari": 3101,
      "organ": 3102,
      "mets": 3103,
      "hammer": 3104,
      "ceux": 3105,
      "celle": 3106,
      "enty": 3107,
      "lax": 3108,
      "lay": 3109,
      "lid": 3110,
      "rid": 3111,
      "aires": 3112,
      "along": 3113,
      "verre": 3114,
      "tions": 3115,
      "autor": 3116,
      "sucre": 3117,
      "ghost": 3118,
      "cances": 3119,
      "uts": 3120,
      "pleure": 3121,
      "rendu": 3122,
      "prê": 3123,
      "sident": 3124,
      "size": 3125,
      "cop": 3126,
      "upstairs": 3127,
      "plenty": 3128,
      "désol": 3129,
      "ular": 3130,
      "cip": 3131,
      "ards": 3132,
      "exis": 3133,
      "pocket": 3134,
      "voit": 3135,
      "helped": 3136,
      "réf": 3137,
      "nerve": 3138,
      "tors": 3139,
      "chair": 3140,
      "chaus": 3141,
      "préf": 3142,
      "happening": 3143,
      "souci": 3144,
      "planet": 3145,
      "tats": 3146,
      "vacances": 3147,
      "singer": 3148,
      "ferai": 3149,
      "rains": 3150,
      "raining": 3151,
      "devrions": 3152,
      "grandfather": 3153,
      "pond": 3154,
      "postcard": 3155,
      "doub": 3156,
      "dernier": 3157,
      "télévision": 3158,
      "proposal": 3159,
      "erreur": 3160,
      "leaves": 3161,
      "donnez": 3162,
      "subject": 3163,
      "conduire": 3164,
      "commencé": 3165,
      "following": 3166,
      "étiez": 3167,
      "street": 3168,
      "certains": 3169,
      "Maybe": 3170,
      "national": 3171,
      "amoureux": 3172,
      "classe": 3173,
      "apologize": 3174,
      "exercise": 3175,
      "diplom": 3176,
      "endroit": 3177,
      "photos": 3178,
      "désolée": 3179,
      "Amé": 3180,
      "Dieu": 3181,
      "Ita": 3182,
      "Terre": 3183,
      "bâ": 3184,
      "bly": 3185,
      "bate": 3186,
      "base": 3187,
      "cue": 3188,
      "dle": 3189,
      "dred": 3190,
      "dange": 3191,
      "equ": 3192,
      "fla": 3193,
      "fic": 3194,
      "flat": 3195,
      "filled": 3196,
      "gres": 3197,
      "hide": 3198,
      "ige": 3199,
      "japon": 3200,
      "kno": 3201,
      "len": 3202,
      "lend": 3203,
      "loss": 3204,
      "mos": 3205,
      "mur": 3206,
      "oth": 3207,
      "pill": 3208,
      "paid": 3209,
      "prends": 3210,
      "rang": 3211,
      "sance": 3212,
      "wise": 3213,
      "éch": 3214,
      "équi": 3215,
      "ôle": 3216,
      "aps": 3217,
      "apart": 3218,
      "rem": 3219,
      "reach": 3220,
      "remain": 3221,
      "ino": 3222,
      "incon": 3223,
      "envoy": 3224,
      "escap": 3225,
      "itted": 3226,
      "held": 3227,
      "arms": 3228,
      "veget": 3229,
      "veille": 3230,
      "means": 3231,
      "bear": 3232,
      "white": 3233,
      "wears": 3234,
      "entire": 3235,
      "libre": 3236,
      "rique": 3237,
      "aim": 3238,
      "allow": 3239,
      "unfortunately": 3240,
      "waste": 3241,
      "forgive": 3242,
      "auth": 3243,
      "sudden": 3244,
      "passed": 3245,
      "irrel": 3246,
      "common": 3247,
      "mad": 3248,
      "maj": 3249,
      "tume": 3250,
      "cancer": 3251,
      "ters": 3252,
      "adv": 3253,
      "acked": 3254,
      "worried": 3255,
      "likely": 3256,
      "ressemble": 3257,
      "contin": 3258,
      "cove": 3259,
      "copi": 3260,
      "bother": 3261,
      "boire": 3262,
      "manu": 3263,
      "shar": 3264,
      "ship": 3265,
      "treated": 3266,
      "tence": 3267,
      "tended": 3268,
      "butter": 3269,
      "lots": 3270,
      "voici": 3271,
      "chemise": 3272,
      "moral": 3273,
      "essaie": 3274,
      "réunion": 3275,
      "choix": 3276,
      "personnes": 3277,
      "greatest": 3278,
      "sécur": 3279,
      "drank": 3280,
      "spent": 3281,
      "spir": 3282,
      "cros": 3283,
      "cris": 3284,
      "cras": 3285,
      "visited": 3286,
      "brought": 3287,
      "president": 3288,
      "voulons": 3289,
      "countri": 3290,
      "direct": 3291,
      "hurried": 3292,
      "sings": 3293,
      "favour": 3294,
      "devant": 3295,
      "letters": 3296,
      "hommes": 3297,
      "pouvais": 3298,
      "oblig": 3299,
      "occas": 3300,
      "funny": 3301,
      "policeman": 3302,
      "pictures": 3303,
      "hundred": 3304,
      "warm": 3305,
      "géné": 3306,
      "invité": 3307,
      "ities": 3308,
      "fishing": 3309,
      "capable": 3310,
      "costs": 3311,
      "000": 3312,
      "droit": 3313,
      "faith": 3314,
      "listening": 3315,
      "essayé": 3316,
      "intéress": 3317,
      "habitu": 3318,
      "transl": 3319,
      "respond": 3320,
      "chats": 3321,
      "bébé": 3322,
      "according": 3323,
      "population": 3324,
      "horri": 3325,
      "sounds": 3326,
      "imagine": 3327,
      "burst": 3328,
      "earthqu": 3329,
      "silent": 3330,
      "seriously": 3331,
      "beginning": 3332,
      "dressed": 3333,
      "hôtel": 3334,
      "vendre": 3335,
      "cuisine": 3336,
      "utiliser": 3337,
      "décidé": 3338,
      "connaît": 3339,
      "tradu": 3340,
      "succeeded": 3341,
      "absolute": 3342,
      "rapide": 3343,
      "squirrel": 3344,
      "recogni": 3345,
      "cousin": 3346,
      "memory": 3347,
      "familiar": 3348,
      "costume": 3349,
      "scared": 3350,
      "expérience": 3351,
      "thousand": 3352,
      "sécurité": 3353,
      "countries": 3354,
      "occasion": 3355,
      "11": 3356,
      "Ap": 3357,
      "Brit": 3358,
      "Es": 3359,
      "Ital": 3360,
      "War": 3361,
      "bank": 3362,
      "cô": 3363,
      "evi": 3364,
      "eff": 3365,
      "ga": 3366,
      "lou": 3367,
      "los": 3368,
      "lone": 3369,
      "lune": 3370,
      "nal": 3371,
      "nic": 3372,
      "nons": 3373,
      "nage": 3374,
      "obe": 3375,
      "pous": 3376,
      "pack": 3377,
      "ration": 3378,
      "savait": 3379,
      "tun": 3380,
      "vait": 3381,
      "âmes": 3382,
      "âche": 3383,
      "èque": 3384,
      "ètement": 3385,
      "ël": 3386,
      "îte": 3387,
      "ître": 3388,
      "reti": 3389,
      "remon": 3390,
      "requi": 3391,
      "invent": 3392,
      "isé": 3393,
      "orig": 3394,
      "llu": 3395,
      "serez": 3396,
      "ilt": 3397,
      "changer": 3398,
      "entôt": 3399,
      "rice": 3400,
      "altern": 3401,
      "allait": 3402,
      "dies": 3403,
      "tien": 3404,
      "tique": 3405,
      "suici": 3406,
      "irai": 3407,
      "math": 3408,
      "mach": 3409,
      "imp": 3410,
      "impressed": 3411,
      "tale": 3412,
      "accept": 3413,
      "fear": 3414,
      "agit": 3415,
      "reste": 3416,
      "parfois": 3417,
      "conten": 3418,
      "pru": 3419,
      "prête": 3420,
      "frapp": 3421,
      "anges": 3422,
      "boîte": 3423,
      "upset": 3424,
      "manque": 3425,
      "perdre": 3426,
      "permission": 3427,
      "propre": 3428,
      "projet": 3429,
      "exha": 3430,
      "express": 3431,
      "button": 3432,
      "ellement": 3433,
      "tés": 3434,
      "bientôt": 3435,
      "friendly": 3436,
      "served": 3437,
      "service": 3438,
      "sors": 3439,
      "sorte": 3440,
      "pire": 3441,
      "portun": 3442,
      "handle": 3443,
      "garçons": 3444,
      "prison": 3445,
      "souha": 3446,
      "souviens": 3447,
      "istance": 3448,
      "cuter": 3449,
      "kinds": 3450,
      "rumor": 3451,
      "opportun": 3452,
      "courant": 3453,
      "commence": 3454,
      "aurait": 3455,
      "Germany": 3456,
      "dormi": 3457,
      "parer": 3458,
      "refus": 3459,
      "refused": 3460,
      "Chris": 3461,
      "terminé": 3462,
      "blessé": 3463,
      "travers": 3464,
      "arrêté": 3465,
      "fonction": 3466,
      "considé": 3467,
      "épous": 3468,
      "rencontré": 3469,
      "viendra": 3470,
      "pauvre": 3471,
      "étranger": 3472,
      "allemand": 3473,
      "différen": 3474,
      "football": 3475,
      "confiance": 3476,
      "améli": 3477,
      "oublie": 3478,
      "protect": 3479,
      "numéro": 3480,
      "existence": 3481,
      "réflé": 3482,
      "japonais": 3483,
      "équipe": 3484,
      "Italy": 3485,
      "15": 3486,
      "Bob": 3487,
      "Kate": 3488,
      "Lon": 3489,
      "Lind": 3490,
      "Mi": 3491,
      "Russi": 3492,
      "Se": 3493,
      "Thom": 3494,
      "alive": 3495,
      "aded": 3496,
      "ben": 3497,
      "bright": 3498,
      "bby": 3499,
      "cot": 3500,
      "cès": 3501,
      "ccer": 3502,
      "dish": 3503,
      "fing": 3504,
      "fleurs": 3505,
      "gie": 3506,
      "haps": 3507,
      "ime": 3508,
      "lin": 3509,
      "nit": 3510,
      "pur": 3511,
      "pons": 3512,
      "ram": 3513,
      "round": 3514,
      "sw": 3515,
      "sla": 3516,
      "spor": 3517,
      "tres": 3518,
      "taller": 3519,
      "vase": 3520,
      "vable": 3521,
      "vaut": 3522,
      "wind": 3523,
      "wake": 3524,
      "yal": 3525,
      "zy": 3526,
      "âtre": 3527,
      "throw": 3528,
      "apé": 3529,
      "isme": 3530,
      "anti": 3531,
      "toes": 3532,
      "tomber": 3533,
      "ened": 3534,
      "enci": 3535,
      "ended": 3536,
      "esprit": 3537,
      "lead": 3538,
      "lebr": 3539,
      "iter": 3540,
      "argu": 3541,
      "veillé": 3542,
      "meant": 3543,
      "quo": 3544,
      "quar": 3545,
      "dered": 3546,
      "deep": 3547,
      "devenu": 3548,
      "nol": 3549,
      "note": 3550,
      "belong": 3551,
      "sex": 3552,
      "separ": 3553,
      "cell": 3554,
      "celebr": 3555,
      "chick": 3556,
      "weak": 3557,
      "entr": 3558,
      "lazy": 3559,
      "ette": 3560,
      "god": 3561,
      "rire": 3562,
      "divor": 3563,
      "force": 3564,
      "forced": 3565,
      "rob": 3566,
      "autu": 3567,
      "sures": 3568,
      "suite": 3569,
      "myst": 3570,
      "mail": 3571,
      "moon": 3572,
      "sheep": 3573,
      "taille": 3574,
      "tact": 3575,
      "adres": 3576,
      "ambit": 3577,
      "acted": 3578,
      "aged": 3579,
      "agreed": 3580,
      "agnol": 3581,
      "abil": 3582,
      "ably": 3583,
      "soccer": 3584,
      "resour": 3585,
      "resident": 3586,
      "paro": 3587,
      "parviens": 3588,
      "rentrer": 3589,
      "consu": 3590,
      "contro": 3591,
      "congrat": 3592,
      "practi": 3593,
      "proud": 3594,
      "frank": 3595,
      "bois": 3596,
      "désor": 3597,
      "ulent": 3598,
      "persu": 3599,
      "perhaps": 3600,
      "excus": 3601,
      "expli": 3602,
      "justice": 3603,
      "fool": 3604,
      "lumi": 3605,
      "marcher": 3606,
      "èrement": 3607,
      "surance": 3608,
      "comprends": 3609,
      "discus": 3610,
      "talks": 3611,
      "mign": 3612,
      "poste": 3613,
      "position": 3614,
      "wood": 3615,
      "watched": 3616,
      "guit": 3617,
      "furent": 3618,
      "says": 3619,
      "phys": 3620,
      "philos": 3621,
      "spi": 3622,
      "pizz": 3623,
      "touched": 3624,
      "offer": 3625,
      "visite": 3626,
      "brain": 3627,
      "garde": 3628,
      "keeps": 3629,
      "corri": 3630,
      "soul": 3631,
      "stopped": 3632,
      "curi": 3633,
      "calm": 3634,
      "direction": 3635,
      "understanding": 3636,
      "airport": 3637,
      "drinking": 3638,
      "enseig": 3639,
      "enseign": 3640,
      "matters": 3641,
      "flower": 3642,
      "appelé": 3643,
      "blank": 3644,
      "suppor": 3645,
      "parties": 3646,
      "effe": 3647,
      "foods": 3648,
      "blame": 3649,
      "geni": 3650,
      "genre": 3651,
      "wonderful": 3652,
      "faisons": 3653,
      "runs": 3654,
      "months": 3655,
      "changé": 3656,
      "healthy": 3657,
      "failed": 3658,
      "deny": 3659,
      "empê": 3660,
      "normal": 3661,
      "occupée": 3662,
      "translate": 3663,
      "étudiants": 3664,
      "produit": 3665,
      "kissed": 3666,
      "starting": 3667,
      "facilement": 3668,
      "solution": 3669,
      "princess": 3670,
      "activ": 3671,
      "scene": 3672,
      "elect": 3673,
      "rieur": 3674,
      "telephone": 3675,
      "lève": 3676,
      "risk": 3677,
      "growing": 3678,
      "poisson": 3679,
      "grosse": 3680,
      "selves": 3681,
      "sults": 3682,
      "university": 3683,
      "emploi": 3684,
      "draw": 3685,
      "hôpital": 3686,
      "temper": 3687,
      "espagnol": 3688,
      "201": 3689,
      "faster": 3690,
      "ordinateur": 3691,
      "above": 3692,
      "threw": 3693,
      "convince": 3694,
      "Americans": 3695,
      "explo": 3696,
      "musician": 3697,
      "games": 3698,
      "issue": 3699,
      "several": 3700,
      "complètement": 3701,
      "suspect": 3702,
      "probablement": 3703,
      "smile": 3704,
      "increas": 3705,
      "cows": 3706,
      "préfère": 3707,
      "covered": 3708,
      "favourite": 3709,
      "Linda": 3710,
      "Thomas": 3711,
      "chicken": 3712,
      "autumn": 3713,
      "congratul": 3714,
      "frankly": 3715,
      "philosoph": 3716,
      "Com": 3717,
      "Je": 3718,
      "Sus": 3719,
      "aver": 3720,
      "bais": 3721,
      "bres": 3722,
      "cter": 3723,
      "cade": 3724,
      "data": 3725,
      "fre": 3726,
      "fasse": 3727,
      "gau": 3728,
      "gment": 3729,
      "ires": 3730,
      "ible": 3731,
      "mbo": 3732,
      "mate": 3733,
      "ns": 3734,
      "ray": 3735,
      "rappor": 3736,
      "sage": 3737,
      "sys": 3738,
      "tas": 3739,
      "yons": 3740,
      "zar": 3741,
      "ède": 3742,
      "œil": 3743,
      "reuse": 3744,
      "revoir": 3745,
      "ina": 3746,
      "anc": 3747,
      "anto": 3748,
      "anci": 3749,
      "annivers": 3750,
      "tori": 3751,
      "ature": 3752,
      "heur": 3753,
      "arme": 3754,
      "arrested": 3755,
      "veulent": 3756,
      "quent": 3757,
      "neige": 3758,
      "chir": 3759,
      "stri": 3760,
      "alité": 3761,
      "allée": 3762,
      "dia": 3763,
      "ford": 3764,
      "dons": 3765,
      "aul": 3766,
      "local": 3767,
      "moindre": 3768,
      "moitié": 3769,
      "tail": 3770,
      "amp": 3771,
      "pleut": 3772,
      "soleil": 3773,
      "aven": 3774,
      "parfait": 3775,
      "conque": 3776,
      "fron": 3777,
      "coin": 3778,
      "vien": 3779,
      "plans": 3780,
      "ciel": 3781,
      "manche": 3782,
      "manteau": 3783,
      "peranto": 3784,
      "desk": 3785,
      "dessus": 3786,
      "monta": 3787,
      "marier": 3788,
      "ieurs": 3789,
      "bibli": 3790,
      "bizar": 3791,
      "surprise": 3792,
      "rés": 3793,
      "résou": 3794,
      "dents": 3795,
      "compag": 3796,
      "distribu": 3797,
      "discuter": 3798,
      "sert": 3799,
      "servi": 3800,
      "giving": 3801,
      "plusieurs": 3802,
      "affai": 3803,
      "race": 3804,
      "phen": 3805,
      "série": 3806,
      "isez": 3807,
      "minim": 3808,
      "chall": 3809,
      "believed": 3810,
      "garage": 3811,
      "huge": 3812,
      "journal": 3813,
      "paying": 3814,
      "somme": 3815,
      "clou": 3816,
      "atives": 3817,
      "fera": 3818,
      "blon": 3819,
      "ski": 3820,
      "walks": 3821,
      "judge": 3822,
      "crime": 3823,
      "crimin": 3824,
      "dort": 3825,
      "color": 3826,
      "examen": 3827,
      "femmes": 3828,
      "êtres": 3829,
      "culture": 3830,
      "salt": 3831,
      "soldiers": 3832,
      "fond": 3833,
      "scientif": 3834,
      "également": 3835,
      "théor": 3836,
      "conseils": 3837,
      "symbo": 3838,
      "nombreux": 3839,
      "selon": 3840,
      "certaine": 3841,
      "savent": 3842,
      "Noël": 3843,
      "clés": 3844,
      "arrogant": 3845,
      "profession": 3846,
      "intéressé": 3847,
      "smells": 3848,
      "chapeau": 3849,
      "chocolate": 3850,
      "crowd": 3851,
      "failure": 3852,
      "gâteau": 3853,
      "ghosts": 3854,
      "copies": 3855,
      "Esperanto": 3856,
      "côté": 3857,
      "tunnel": 3858,
      "origin": 3859,
      "Susan": 3860,
      "system": 3861,
      "anniversaire": 3862,
      "Braz": 3863,
      "Gre": 3864,
      "Nor": 3865,
      "Re": 3866,
      "Tur": 3867,
      "athe": 3868,
      "ahead": 3869,
      "bare": 3870,
      "bun": 3871,
      "bons": 3872,
      "bound": 3873,
      "balle": 3874,
      "cab": 3875,
      "cure": 3876,
      "ctement": 3877,
      "dry": 3878,
      "econom": 3879,
      "fs": 3880,
      "fle": 3881,
      "fir": 3882,
      "fair": 3883,
      "gl": 3884,
      "gs": 3885,
      "gas": 3886,
      "gal": 3887,
      "hen": 3888,
      "hill": 3889,
      "honey": 3890,
      "ian": 3891,
      "iest": 3892,
      "ied": 3893,
      "ivent": 3894,
      "ième": 3895,
      "jack": 3896,
      "mment": 3897,
      "py": 3898,
      "pin": 3899,
      "push": 3900,
      "rab": 3901,
      "rate": 3902,
      "rase": 3903,
      "range": 3904,
      "rank": 3905,
      "sat": 3906,
      "sad": 3907,
      "sang": 3908,
      "sain": 3909,
      "sche": 3910,
      "scre": 3911,
      "tan": 3912,
      "tles": 3913,
      "tment": 3914,
      "tong": 3915,
      "vête": 3916,
      "wha": 3917,
      "ying": 3918,
      "yed": 3919,
      "zing": 3920,
      "États": 3921,
      "éto": 3922,
      "éro": 3923,
      "ût": 3924,
      "though": 3925,
      "thick": 3926,
      "appar": 3927,
      "request": 3928,
      "remind": 3929,
      "recent": 3930,
      "revenir": 3931,
      "returned": 3932,
      "results": 3933,
      "ises": 3934,
      "istes": 3935,
      "anx": 3936,
      "toward": 3937,
      "ero": 3938,
      "espé": 3939,
      "atic": 3940,
      "atten": 3941,
      "assure": 3942,
      "levé": 3943,
      "omb": 3944,
      "arm": 3945,
      "orange": 3946,
      "oranges": 3947,
      "ller": 3948,
      "mel": 3949,
      "defe": 3950,
      "delici": 3951,
      "beef": 3952,
      "becoming": 3953,
      "seven": 3954,
      "search": 3955,
      "ceremon": 3956,
      "ching": 3957,
      "weir": 3958,
      "weigh": 3959,
      "lian": 3960,
      "lied": 3961,
      "state": 3962,
      "stick": 3963,
      "rivi": 3964,
      "aima": 3965,
      "ayez": 3966,
      "ests": 3967,
      "estim": 3968,
      "jeu": 3969,
      "diale": 3970,
      "timi": 3971,
      "eding": 3972,
      "loir": 3973,
      "tré": 3974,
      "tran": 3975,
      "tray": 3976,
      "iron": 3977,
      "peci": 3978,
      "mood": 3979,
      "moder": 3980,
      "hol": 3981,
      "hole": 3982,
      "holi": 3983,
      "hobby": 3984,
      "add": 3985,
      "advant": 3986,
      "advert": 3987,
      "within": 3988,
      "acy": 3989,
      "lying": 3990,
      "agent": 3991,
      "anywhere": 3992,
      "absur": 3993,
      "icon": 3994,
      "respons": 3995,
      "parap": 3996,
      "parked": 3997,
      "convers": 3998,
      "hero": 3999,
      "angles": 4000,
      "bored": 4001,
      "vious": 4002,
      "vidé": 4003,
      "upon": 4004,
      "somebody": 4005,
      "plant": 4006,
      "début": 4007,
      "décl": 4008,
      "goods": 4009,
      "willing": 4010,
      "tells": 4011,
      "expl": 4012,
      "due": 4013,
      "popu": 4014,
      "pollu": 4015,
      "desp": 4016,
      "everywhere": 4017,
      "ounce": 4018,
      "ounded": 4019,
      "volun": 4020,
      "illness": 4021,
      "agement": 4022,
      "carte": 4023,
      "venge": 4024,
      "helps": 4025,
      "usement": 4026,
      "useful": 4027,
      "fired": 4028,
      "portait": 4029,
      "spell": 4030,
      "special": 4031,
      "cheese": 4032,
      "happens": 4033,
      "stories": 4034,
      "compos": 4035,
      "disg": 4036,
      "discours": 4037,
      "gotten": 4038,
      "affaire": 4039,
      "built": 4040,
      "guil": 4041,
      "guard": 4042,
      "guests": 4043,
      "preu": 4044,
      "prenez": 4045,
      "forever": 4046,
      "phrase": 4047,
      "teaching": 4048,
      "puzz": 4049,
      "icial": 4050,
      "players": 4051,
      "harder": 4052,
      "vieil": 4053,
      "pigg": 4054,
      "champ": 4055,
      "président": 4056,
      "finite": 4057,
      "hiding": 4058,
      "standing": 4059,
      "caused": 4060,
      "vouloir": 4061,
      "create": 4062,
      "clever": 4063,
      "doors": 4064,
      "Unis": 4065,
      "sleepy": 4066,
      "waited": 4067,
      "stopping": 4068,
      "truck": 4069,
      "calling": 4070,
      "smaller": 4071,
      "nées": 4072,
      "drinks": 4073,
      "singing": 4074,
      "ferais": 4075,
      "bedroom": 4076,
      "support": 4077,
      "court": 4078,
      "cents": 4079,
      "difficulty": 4080,
      "occur": 4081,
      "owes": 4082,
      "headache": 4083,
      "faisait": 4084,
      "decide": 4085,
      "itiz": 4086,
      "bicyc": 4087,
      "changing": 4088,
      "succès": 4089,
      "demander": 4090,
      "custo": 4091,
      "drop": 4092,
      "share": 4093,
      "awa": 4094,
      "futon": 4095,
      "listened": 4096,
      "institu": 4097,
      "pping": 4098,
      "stupide": 4099,
      "falling": 4100,
      "étudier": 4101,
      "clearly": 4102,
      "danced": 4103,
      "boute": 4104,
      "embras": 4105,
      "appointment": 4106,
      "camp": 4107,
      "excited": 4108,
      "followed": 4109,
      "traveling": 4110,
      "horse": 4111,
      "psy": 4112,
      "commencer": 4113,
      "active": 4114,
      "scientific": 4115,
      "théâtre": 4116,
      "pluie": 4117,
      "plupart": 4118,
      "cards": 4119,
      "terribly": 4120,
      "elected": 4121,
      "polite": 4122,
      "engine": 4123,
      "fluent": 4124,
      "répondre": 4125,
      "mauvaise": 4126,
      "banan": 4127,
      "étions": 4128,
      "selling": 4129,
      "préférée": 4130,
      "suffis": 4131,
      "cruel": 4132,
      "club": 4133,
      "generation": 4134,
      "succeed": 4135,
      "rarely": 4136,
      "destination": 4137,
      "Alger": 4138,
      "jambes": 4139,
      "pushed": 4140,
      "regular": 4141,
      "determined": 4142,
      "determination": 4143,
      "welcome": 4144,
      "deserve": 4145,
      "pieds": 4146,
      "écouter": 4147,
      "environment": 4148,
      "improve": 4149,
      "neighbors": 4150,
      "candy": 4151,
      "pêcher": 4152,
      "sentiments": 4153,
      "pleurer": 4154,
      "voitures": 4155,
      "chaussures": 4156,
      "bâti": 4157,
      "dangereux": 4158,
      "equal": 4159,
      "othèque": 4160,
      "escape": 4161,
      "advance": 4162,
      "continu": 4163,
      "earthquake": 4164,
      "absolutely": 4165,
      "rapidement": 4166,
      "squirrels": 4167,
      "recognize": 4168,
      "British": 4169,
      "evidence": 4170,
      "losing": 4171,
      "lonely": 4172,
      "lunettes": 4173,
      "nonsense": 4174,
      "exhausted": 4175,
      "opportunity": 4176,
      "benef": 4177,
      "finger": 4178,
      "adresse": 4179,
      "control": 4180,
      "désormais": 4181,
      "lumière": 4182,
      "physical": 4183,
      "enseignant": 4184,
      "convinced": 4185,
      "Jean": 4186,
      "average": 4187,
      "bibliothèque": 4188,
      "bizarre": 4189,
      "sommeil": 4190,
      "théorie": 4191,
      "firm": 4192,
      "schedu": 4193,
      "delicious": 4194,
      "rivière": 4195,
      "conversation": 4196,
      "piggy": 4197,
      "instituteur": 4198,
      "12": 4199,
      "200": 4200,
      "60": 4201,
      "Ak": 4202,
      "Be": 4203,
      "Co": 4204,
      "Cath": 4205,
      "Ex": 4206,
      "Kyo": 4207,
      "Mo": 4208,
      "Nan": 4209,
      "Nations": 4210,
      "Pro": 4211,
      "Paul": 4212,
      "Rep": 4213,
      "Sal": 4214,
      "Tan": 4215,
      "You": 4216,
      "bone": 4217,
      "cen": 4218,
      "cil": 4219,
      "fend": 4220,
      "fie": 4221,
      "gon": 4222,
      "glis": 4223,
      "iko": 4224,
      "jard": 4225,
      "jury": 4226,
      "ka": 4227,
      "nais": 4228,
      "nête": 4229,
      "nations": 4230,
      "ore": 4231,
      "oise": 4232,
      "orer": 4233,
      "page": 4234,
      "rus": 4235,
      "rage": 4236,
      "rami": 4237,
      "rappe": 4238,
      "rappeler": 4239,
      "sir": 4240,
      "scar": 4241,
      "tte": 4242,
      "uck": 4243,
      "vain": 4244,
      "vont": 4245,
      "éri": 4246,
      "éche": 4247,
      "éner": 4248,
      "état": 4249,
      "évit": 4250,
      "oux": 4251,
      "rejo": 4252,
      "inqui": 4253,
      "influ": 4254,
      "onne": 4255,
      "oncle": 4256,
      "toy": 4257,
      "total": 4258,
      "atte": 4259,
      "ash": 4260,
      "leman": 4261,
      "lequel": 4262,
      "velo": 4263,
      "quant": 4264,
      "quée": 4265,
      "devenir": 4266,
      "tech": 4267,
      "haut": 4268,
      "ceau": 4269,
      "ilà": 4270,
      "entra": 4271,
      "entrée": 4272,
      "stru": 4273,
      "rific": 4274,
      "allés": 4275,
      "diag": 4276,
      "dimanche": 4277,
      "tive": 4278,
      "tidi": 4279,
      "timid": 4280,
      "quelles": 4281,
      "forme": 4282,
      "augment": 4283,
      "sult": 4284,
      "comic": 4285,
      "comporte": 4286,
      "mam": 4287,
      "impatient": 4288,
      "impli": 4289,
      "ada": 4290,
      "adap": 4291,
      "acle": 4292,
      "action": 4293,
      "accent": 4294,
      "plein": 4295,
      "oko": 4296,
      "avis": 4297,
      "avance": 4298,
      "respe": 4299,
      "ends": 4300,
      "endor": 4301,
      "rendr": 4302,
      "rendez": 4303,
      "conclus": 4304,
      "prun": 4305,
      "prati": 4306,
      "siè": 4307,
      "signe": 4308,
      "angers": 4309,
      "ains": 4310,
      "déc": 4311,
      "cible": 4312,
      "plais": 4313,
      "dure": 4314,
      "poin": 4315,
      "poet": 4316,
      "poid": 4317,
      "descri": 4318,
      "luie": 4319,
      "tées": 4320,
      "geons": 4321,
      "réussi": 4322,
      "quelconque": 4323,
      "afin": 4324,
      "grap": 4325,
      "guer": 4326,
      "gues": 4327,
      "guerre": 4328,
      "couver": 4329,
      "amies": 4330,
      "phras": 4331,
      "phones": 4332,
      "pull": 4333,
      "publi": 4334,
      "mater": 4335,
      "match": 4336,
      "vieille": 4337,
      "visage": 4338,
      "hiver": 4339,
      "gars": 4340,
      "pressure": 4341,
      "vingt": 4342,
      "voudri": 4343,
      "huit": 4344,
      "options": 4345,
      "mettez": 4346,
      "autour": 4347,
      "blind": 4348,
      "complex": 4349,
      "gentleman": 4350,
      "effect": 4351,
      "Fran": 4352,
      "voyez": 4353,
      "changes": 4354,
      "daughters": 4355,
      "intérieur": 4356,
      "fallu": 4357,
      "virus": 4358,
      "dictionnaire": 4359,
      "traver": 4360,
      "printemps": 4361,
      "emprun": 4362,
      "miracle": 4363,
      "regardé": 4364,
      "marié": 4365,
      "imagination": 4366,
      "clair": 4367,
      "sauf": 4368,
      "meilleure": 4369,
      "confis": 4370,
      "silenci": 4371,
      "ciné": 4372,
      "montrer": 4373,
      "symp": 4374,
      "viendrai": 4375,
      "prochaine": 4376,
      "197": 4377,
      "198": 4378,
      "accepter": 4379,
      "connaître": 4380,
      "objective": 4381,
      "chanson": 4382,
      "surviv": 4383,
      "papier": 4384,
      "group": 4385,
      "groupe": 4386,
      "pickpocket": 4387,
      "archite": 4388,
      "sembles": 4389,
      "hypo": 4390,
      "racon": 4391,
      "instructions": 4392,
      "société": 4393,
      "pronon": 4394,
      "construction": 4395,
      "Canada": 4396,
      "statue": 4397,
      "prêter": 4398,
      "baseball": 4399,
      "gressive": 4400,
      "Russian": 4401,
      "quotidi": 4402,
      "expliquer": 4403,
      "pizza": 4404,
      "2013": 4405,
      "cadeau": 4406,
      "avenir": 4407,
      "viennent": 4408,
      "montagne": 4409,
      "résoudre": 4410,
      "affaires": 4411,
      "minimum": 4412,
      "challen": 4413,
      "pyrami": 4414,
      "parapluie": 4415,
      "explos": 4416,
      "guilty": 4417,
      "suffisamment": 4418,
      "Kyoto": 4419,
      "Nancy": 4420,
      "poids": 4421,
      "phrases": 4422,
      "Alle": 4423,
      "App": 4424,
      "He": 4425,
      "Ho": 4426,
      "La": 4427,
      "President": 4428,
      "Sh": 4429,
      "Tu": 4430,
      "The": 4431,
      "What": 4432,
      "bath": 4433,
      "cit": 4434,
      "cta": 4435,
      "cred": 4436,
      "cast": 4437,
      "citiz": 4438,
      "dating": 4439,
      "eur": 4440,
      "emer": 4441,
      "evolution": 4442,
      "evil": 4443,
      "fout": 4444,
      "flies": 4445,
      "gth": 4446,
      "gle": 4447,
      "gay": 4448,
      "glo": 4449,
      "gif": 4450,
      "gence": 4451,
      "han": 4452,
      "hér": 4453,
      "ized": 4454,
      "image": 4455,
      "jok": 4456,
      "lour": 4457,
      "mous": 4458,
      "mons": 4459,
      "nam": 4460,
      "nose": 4461,
      "pit": 4462,
      "pants": 4463,
      "packed": 4464,
      "rand": 4465,
      "rons": 4466,
      "rose": 4467,
      "rise": 4468,
      "rête": 4469,
      "rappelle": 4470,
      "sin": 4471,
      "twent": 4472,
      "uti": 4473,
      "van": 4474,
      "vons": 4475,
      "wit": 4476,
      "ware": 4477,
      "wild": 4478,
      "ément": 4479,
      "élu": 4480,
      "économ": 4481,
      "ouvr": 4482,
      "ouvre": 4483,
      "ouvert": 4484,
      "aped": 4485,
      "apparti": 4486,
      "rele": 4487,
      "repe": 4488,
      "reac": 4489,
      "rely": 4490,
      "relie": 4491,
      "reconnais": 4492,
      "recherche": 4493,
      "removed": 4494,
      "reçu": 4495,
      "relax": 4496,
      "themat": 4497,
      "infor": 4498,
      "intended": 4499,
      "insurance": 4500,
      "istic": 4501,
      "années": 4502,
      "ond": 4503,
      "ony": 4504,
      "ery": 4505,
      "eny": 4506,
      "enon": 4507,
      "esome": 4508,
      "especi": 4509,
      "atin": 4510,
      "leçon": 4511,
      "level": 4512,
      "ites": 4513,
      "heat": 4514,
      "omenon": 4515,
      "arily": 4516,
      "veau": 4517,
      "veill": 4518,
      "ord": 4519,
      "quicon": 4520,
      "del": 4521,
      "dear": 4522,
      "depar": 4523,
      "definite": 4524,
      "noti": 4525,
      "bel": 4526,
      "behave": 4527,
      "beating": 4528,
      "betray": 4529,
      "docteur": 4530,
      "tex": 4531,
      "tead": 4532,
      "tered": 4533,
      "teaux": 4534,
      "seas": 4535,
      "cean": 4536,
      "ceiling": 4537,
      "whis": 4538,
      "chon": 4539,
      "chie": 4540,
      "web": 4541,
      "wealth": 4542,
      "enti": 4543,
      "enter": 4544,
      "lac": 4545,
      "labor": 4546,
      "laires": 4547,
      "lif": 4548,
      "lier": 4549,
      "sty": 4550,
      "stren": 4551,
      "rige": 4552,
      "aies": 4553,
      "aired": 4554,
      "aimé": 4555,
      "ailles": 4556,
      "alous": 4557,
      "alco": 4558,
      "jeux": 4559,
      "jealous": 4560,
      "dir": 4561,
      "diet": 4562,
      "unless": 4563,
      "tire": 4564,
      "ties": 4565,
      "washed": 4566,
      "wide": 4567,
      "edu": 4568,
      "role": 4569,
      "robe": 4570,
      "aught": 4571,
      "lock": 4572,
      "locked": 4573,
      "logy": 4574,
      "outer": 4575,
      "outons": 4576,
      "susp": 4577,
      "pein": 4578,
      "pean": 4579,
      "peace": 4580,
      "commer": 4581,
      "mathemat": 4582,
      "tué": 4583,
      "tuer": 4584,
      "moyen": 4585,
      "shelf": 4586,
      "terms": 4587,
      "tatoes": 4588,
      "adu": 4589,
      "ader": 4590,
      "addi": 4591,
      "admis": 4592,
      "among": 4593,
      "ots": 4594,
      "feed": 4595,
      "fection": 4596,
      "ference": 4597,
      "agé": 4598,
      "aggressive": 4599,
      "odd": 4600,
      "soin": 4601,
      "social": 4602,
      "avail": 4603,
      "usting": 4604,
      "parc": 4605,
      "pardon": 4606,
      "parlent": 4607,
      "endure": 4608,
      "thered": 4609,
      "mention": 4610,
      "connu": 4611,
      "angle": 4612,
      "coward": 4613,
      "bow": 4614,
      "board": 4615,
      "vivent": 4616,
      "dépend": 4617,
      "apparen": 4618,
      "manded": 4619,
      "manquer": 4620,
      "shi": 4621,
      "shit": 4622,
      "hadn": 4623,
      "treat": 4624,
      "prove": 4625,
      "provi": 4626,
      "proche": 4627,
      "propres": 4628,
      "ateurs": 4629,
      "existe": 4630,
      "excell": 4631,
      "wered": 4632,
      "saf": 4633,
      "salad": 4634,
      "nique": 4635,
      "poem": 4636,
      "potatoes": 4637,
      "voice": 4638,
      "voilà": 4639,
      "akes": 4640,
      "vented": 4641,
      "rights": 4642,
      "portes": 4643,
      "danser": 4644,
      "happiness": 4645,
      "réus": 4646,
      "réalis": 4647,
      "choisir": 4648,
      "discount": 4649,
      "serve": 4650,
      "giant": 4651,
      "mienne": 4652,
      "afford": 4653,
      "bug": 4654,
      "merveille": 4655,
      "gram": 4656,
      "grew": 4657,
      "green": 4658,
      "guide": 4659,
      "beauty": 4660,
      "studied": 4661,
      "coupe": 4662,
      "pregn": 4663,
      "foreign": 4664,
      "selfish": 4665,
      "eats": 4666,
      "personal": 4667,
      "rowned": 4668,
      "spot": 4669,
      "spread": 4670,
      "belief": 4671,
      "believes": 4672,
      "crat": 4673,
      "crush": 4674,
      "cesse": 4675,
      "finalement": 4676,
      "breath": 4677,
      "vécu": 4678,
      "brû": 4679,
      "brush": 4680,
      "resté": 4681,
      "keeping": 4682,
      "created": 4683,
      "correspond": 4684,
      "Union": 4685,
      "humor": 4686,
      "humeur": 4687,
      "priv": 4688,
      "payé": 4689,
      "cured": 4690,
      "sommet": 4691,
      "instead": 4692,
      "rule": 4693,
      "ruined": 4694,
      "plane": 4695,
      "winning": 4696,
      "boring": 4697,
      "badly": 4698,
      "troubles": 4699,
      "valid": 4700,
      "raised": 4701,
      "raisons": 4702,
      "shoot": 4703,
      "showed": 4704,
      "ferme": 4705,
      "fermer": 4706,
      "fermé": 4707,
      "staying": 4708,
      "athle": 4709,
      "committed": 4710,
      "maged": 4711,
      "younger": 4712,
      "paint": 4713,
      "croit": 4714,
      "ponctu": 4715,
      "opening": 4716,
      "object": 4717,
      "sunny": 4718,
      "arrête": 4719,
      "higher": 4720,
      "highly": 4721,
      "skirt": 4722,
      "yell": 4723,
      "gency": 4724,
      "lights": 4725,
      "picnic": 4726,
      "wondering": 4727,
      "talent": 4728,
      "voyager": 4729,
      "birds": 4730,
      "jump": 4731,
      "invit": 4732,
      "solved": 4733,
      "captain": 4734,
      "lundi": 4735,
      "profit": 4736,
      "charac": 4737,
      "charged": 4738,
      "musical": 4739,
      "Inde": 4740,
      "India": 4741,
      "pretend": 4742,
      "correctement": 4743,
      "sixty": 4744,
      "attends": 4745,
      "shame": 4746,
      "awesome": 4747,
      "curtain": 4748,
      "denied": 4749,
      "proposition": 4750,
      "erreurs": 4751,
      "empty": 4752,
      "forgotten": 4753,
      "passport": 4754,
      "password": 4755,
      "fallen": 4756,
      "animaux": 4757,
      "étudiant": 4758,
      "honte": 4759,
      "honnête": 4760,
      "refle": 4761,
      "kissing": 4762,
      "spending": 4763,
      "sensitive": 4764,
      "step": 4765,
      "Australie": 4766,
      "washing": 4767,
      "concern": 4768,
      "concerned": 4769,
      "travaillé": 4770,
      "billet": 4771,
      "songs": 4772,
      "barbe": 4773,
      "punished": 4774,
      "pleasure": 4775,
      "bottles": 4776,
      "scientists": 4777,
      "knives": 4778,
      "conseil": 4779,
      "burned": 4780,
      "claire": 4781,
      "related": 4782,
      "jeunes": 4783,
      "promised": 4784,
      "cinema": 4785,
      "political": 4786,
      "taxes": 4787,
      "slowly": 4788,
      "artif": 4789,
      "satisfait": 4790,
      "réponse": 4791,
      "mouth": 4792,
      "mourir": 4793,
      "pause": 4794,
      "étrange": 4795,
      "gagne": 4796,
      "gagner": 4797,
      "China": 4798,
      "fucking": 4799,
      "préféré": 4800,
      "entered": 4801,
      "suivre": 4802,
      "ification": 4803,
      "magazines": 4804,
      "European": 4805,
      "sofa": 4806,
      "slip": 4807,
      "slipped": 4808,
      "attrapé": 4809,
      "attacked": 4810,
      "middle": 4811,
      "communic": 4812,
      "repair": 4813,
      "repaired": 4814,
      "découvert": 4815,
      "threat": 4816,
      "tombé": 4817,
      "chanter": 4818,
      "convain": 4819,
      "contributor": 4820,
      "Arrête": 4821,
      "piscine": 4822,
      "ugly": 4823,
      "USA": 4824,
      "hanging": 4825,
      "pommes": 4826,
      "society": 4827,
      "properly": 4828,
      "introduce": 4829,
      "introduced": 4830,
      "saved": 4831,
      "hello": 4832,
      "pleuvoir": 4833,
      "possibility": 4834,
      "appearance": 4835,
      "œufs": 4836,
      "doubts": 4837,
      "bateau": 4838,
      "envoyé": 4839,
      "vegetables": 4840,
      "allows": 4841,
      "suddenly": 4842,
      "sharp": 4843,
      "crossed": 4844,
      "crisis": 4845,
      "intéressant": 4846,
      "translations": 4847,
      "horrible": 4848,
      "gathered": 4849,
      "alternative": 4850,
      "machine": 4851,
      "souhaite": 4852,
      "épouser": 4853,
      "London": 4854,
      "dishes": 4855,
      "sports": 4856,
      "deeply": 4857,
      "ability": 4858,
      "guitar": 4859,
      "temperature": 4860,
      "philosophy": 4861,
      "baiser": 4862,
      "gauche": 4863,
      "phenomenon": 4864,
      "symbol": 4865,
      "Brazil": 4866,
      "economy": 4867,
      "rabbit": 4868,
      "tongue": 4869,
      "vêtements": 4870,
      "whale": 4871,
      "étoiles": 4872,
      "ceremony": 4873,
      "weird": 4874,
      "aimait": 4875,
      "tranqu": 4876,
      "holiday": 4877,
      "advantage": 4878,
      "vidéo": 4879,
      "pollution": 4880,
      "engineers": 4881,
      "bâtiment": 4882,
      "schedule": 4883,
      "YouTu": 4884,
      "gonna": 4885,
      "jardin": 4886,
      "techno": 4887,
      "décision": 4888,
      "voudriez": 4889,
      "sympath": 4890,
      "twenty": 4891,
      "reached": 4892,
      "especially": 4893,
      "quiconque": 4894,
      "strength": 4895,
      "alcohol": 4896,
      "mathematics": 4897,
      "available": 4898,
      "Arrêtez": 4899,
      "Ang": 4900,
      "Cap": 4901,
      "Jack": 4902,
      "King": 4903,
      "Pré": 4904,
      "Qu": 4905,
      "Res": 4906,
      "SM": 4907,
      "So": 4908,
      "Sach": 4909,
      "adi": 4910,
      "ator": 4911,
      "cuse": 4912,
      "cach": 4913,
      "cée": 4914,
      "gin": 4915,
      "gor": 4916,
      "gla": 4917,
      "gest": 4918,
      "gouver": 4919,
      "hâ": 4920,
      "idé": 4921,
      "ky": 4922,
      "lise": 4923,
      "mne": 4924,
      "mul": 4925,
      "mille": 4926,
      "mée": 4927,
      "ois": 4928,
      "pâ": 4929,
      "pti": 4930,
      "rè": 4931,
      "rat": 4932,
      "rue": 4933,
      "rhu": 4934,
      "rêt": 4935,
      "sno": 4936,
      "sée": 4937,
      "sache": 4938,
      "tâche": 4939,
      "ule": 4940,
      "vine": 4941,
      "yé": 4942,
      "ysi": 4943,
      "èle": 4944,
      "éte": 4945,
      "écou": 4946,
      "énor": 4947,
      "thod": 4948,
      "ouvrir": 4949,
      "reli": 4950,
      "repas": 4951,
      "revenu": 4952,
      "relig": 4953,
      "insul": 4954,
      "totale": 4955,
      "err": 4956,
      "encourage": 4957,
      "atti": 4958,
      "lever": 4959,
      "leterre": 4960,
      "arbre": 4961,
      "ingé": 4962,
      "meu": 4963,
      "quences": 4964,
      "demi": 4965,
      "noise": 4966,
      "neu": 4967,
      "doivent": 4968,
      "semain": 4969,
      "section": 4970,
      "sept": 4971,
      "cel": 4972,
      "chic": 4973,
      "chons": 4974,
      "chino": 4975,
      "laver": 4976,
      "laid": 4977,
      "liver": 4978,
      "liber": 4979,
      "lièrement": 4980,
      "ettes": 4981,
      "rieux": 4982,
      "aig": 4983,
      "aiment": 4984,
      "jeans": 4985,
      "allais": 4986,
      "diam": 4987,
      "quement": 4988,
      "eds": 4989,
      "donna": 4990,
      "aupar": 4991,
      "auriez": 4992,
      "usion": 4993,
      "pelle": 4994,
      "maman": 4995,
      "mobi": 4996,
      "motion": 4997,
      "ambul": 4998,
      "ague": 4999,
      "soif": 5000,
      "solid": 5001,
      "iche": 5002,
      "partout": 5003,
      "parlait": 5004,
      "conne": 5005,
      "conscience": 5006,
      "songe": 5007,
      "sire": 5008,
      "siez": 5009,
      "hasard": 5010,
      "indust": 5011,
      "vivant": 5012,
      "détru": 5013,
      "départ": 5014,
      "détermin": 5015,
      "détails": 5016,
      "plage": 5017,
      "plaisir": 5018,
      "perte": 5019,
      "tenu": 5020,
      "sale": 5021,
      "nient": 5022,
      "poir": 5023,
      "desc": 5024,
      "desig": 5025,
      "dessert": 5026,
      "aka": 5027,
      "venait": 5028,
      "marre": 5029,
      "porté": 5030,
      "morceau": 5031,
      "gement": 5032,
      "stock": 5033,
      "ureu": 5034,
      "résul": 5035,
      "étage": 5036,
      "disent": 5037,
      "dispar": 5038,
      "serv": 5039,
      "seras": 5040,
      "seront": 5041,
      "liez": 5042,
      "poss": 5043,
      "jolie": 5044,
      "phon": 5045,
      "sérieux": 5046,
      "arrière": 5047,
      "arrivée": 5048,
      "mature": 5049,
      "matiques": 5050,
      "spé": 5051,
      "craf": 5052,
      "criti": 5053,
      "pigeons": 5054,
      "touche": 5055,
      "prépar": 5056,
      "légu": 5057,
      "vés": 5058,
      "vénient": 5059,
      "corps": 5060,
      "humil": 5061,
      "humour": 5062,
      "ités": 5063,
      "vraie": 5064,
      "oppos": 5065,
      "bonnes": 5066,
      "planning": 5067,
      "calme": 5068,
      "jail": 5069,
      "promet": 5070,
      "appel": 5071,
      "blin": 5072,
      "devint": 5073,
      "aimez": 5074,
      "countryside": 5075,
      "magne": 5076,
      "centre": 5077,
      "croy": 5078,
      "objet": 5079,
      "larmes": 5080,
      "gging": 5081,
      "joué": 5082,
      "capit": 5083,
      "demanda": 5084,
      "cassé": 5085,
      "intérêt": 5086,
      "occuper": 5087,
      "refuse": 5088,
      "ennemi": 5089,
      "produire": 5090,
      "netto": 5091,
      "assist": 5092,
      "virgin": 5093,
      "salle": 5094,
      "brill": 5095,
      "ception": 5096,
      "biles": 5097,
      "emporter": 5098,
      "mariage": 5099,
      "Anne": 5100,
      "présenter": 5101,
      "écureu": 5102,
      "circu": 5103,
      "patron": 5104,
      "différent": 5105,
      "cuisin": 5106,
      "espace": 5107,
      "coûte": 5108,
      "fenêtres": 5109,
      "amoureuse": 5110,
      "destin": 5111,
      "découvrir": 5112,
      "roman": 5113,
      "retourner": 5114,
      "ennuis": 5115,
      "violent": 5116,
      "disposez": 5117,
      "pomme": 5118,
      "automne": 5119,
      "assume": 5120,
      "copine": 5121,
      "Amérique": 5122,
      "échou": 5123,
      "inconvénient": 5124,
      "major": 5125,
      "vendredi": 5126,
      "effet": 5127,
      "invention": 5128,
      "suicide": 5129,
      "impact": 5130,
      "contente": 5131,
      "améliorer": 5132,
      "réfléchir": 5133,
      "ambition": 5134,
      "rapport": 5135,
      "compagnie": 5136,
      "scientifique": 5137,
      "timide": 5138,
      "responsable": 5139,
      "preuve": 5140,
      "bouteille": 5141,
      "embrasser": 5142,
      "Excuse": 5143,
      "cinéma": 5144,
      "utile": 5145,
      "appartient": 5146,
      "tranquille": 5147,
      "Angleterre": 5148,
      "gouvernement": 5149,
      "semaines": 5150,
      "auparavant": 5151,
      "mobile": 5152,
      "humili": 5153,
      "Excusez": 5154,
      "18": 5155,
      "28": 5156,
      "40": 5157,
      "Apr": 5158,
      "Afri": 5159,
      "Ber": 5160,
      "Bar": 5161,
      "Cho": 5162,
      "Col": 5163,
      "Cont": 5164,
      "Di": 5165,
      "Dé": 5166,
      "En": 5167,
      "Eif": 5168,
      "Esp": 5169,
      "Grand": 5170,
      "Hen": 5171,
      "Har": 5172,
      "Hel": 5173,
      "Is": 5174,
      "Ito": 5175,
      "Jav": 5176,
      "Jones": 5177,
      "Ke": 5178,
      "Ken": 5179,
      "Latin": 5180,
      "Mos": 5181,
      "Men": 5182,
      "Mat": 5183,
      "Mag": 5184,
      "Mars": 5185,
      "Osa": 5186,
      "Py": 5187,
      "Per": 5188,
      "Peter": 5189,
      "RI": 5190,
      "Ro": 5191,
      "Sou": 5192,
      "Ste": 5193,
      "To": 5194,
      "Tr": 5195,
      "This": 5196,
      "Tony": 5197,
      "Wh": 5198,
      "Yu": 5199,
      "Yoko": 5200,
      "aj": 5201,
      "aled": 5202,
      "aunt": 5203,
      "bin": 5204,
      "bis": 5205,
      "bra": 5206,
      "barr": 5207,
      "ca": 5208,
      "cture": 5209,
      "cache": 5210,
      "classes": 5211,
      "dut": 5212,
      "dust": 5213,
      "dried": 5214,
      "drowned": 5215,
      "eut": 5216,
      "euse": 5217,
      "ems": 5218,
      "eigh": 5219,
      "fal": 5220,
      "fab": 5221,
      "gles": 5222,
      "gré": 5223,
      "gress": 5224,
      "hé": 5225,
      "hes": 5226,
      "hous": 5227,
      "io": 5228,
      "ker": 5229,
      "kara": 5230,
      "link": 5231,
      "lts": 5232,
      "loses": 5233,
      "loud": 5234,
      "mbe": 5235,
      "moutons": 5236,
      "nap": 5237,
      "nad": 5238,
      "nait": 5239,
      "noun": 5240,
      "niture": 5241,
      "native": 5242,
      "nuts": 5243,
      "ode": 5244,
      "oil": 5245,
      "ocean": 5246,
      "pa": 5247,
      "pha": 5248,
      "pal": 5249,
      "pone": 5250,
      "path": 5251,
      "pneu": 5252,
      "rm": 5253,
      "ros": 5254,
      "ril": 5255,
      "ral": 5256,
      "rup": 5257,
      "rough": 5258,
      "rôle": 5259,
      "sse": 5260,
      "sion": 5261,
      "sions": 5262,
      "sante": 5263,
      "swear": 5264,
      "sApp": 5265,
      "tit": 5266,
      "tren": 5267,
      "tasse": 5268,
      "taught": 5269,
      "ually": 5270,
      "uits": 5271,
      "uko": 5272,
      "wre": 5273,
      "wis": 5274,
      "wais": 5275,
      "wol": 5276,
      "wound": 5277,
      "warri": 5278,
      "zero": 5279,
      "èse": 5280,
      "élo": 5281,
      "écl": 5282,
      "écras": 5283,
      "ôtre": 5284,
      "ômes": 5285,
      "thy": 5286,
      "thie": 5287,
      "thunder": 5288,
      "oul": 5289,
      "osen": 5290,
      "redu": 5291,
      "refaire": 5292,
      "replace": 5293,
      "recomm": 5294,
      "recher": 5295,
      "remark": 5296,
      "remerci": 5297,
      "retar": 5298,
      "result": 5299,
      "thesis": 5300,
      "iné": 5301,
      "income": 5302,
      "independ": 5303,
      "incible": 5304,
      "iss": 5305,
      "ising": 5306,
      "ister": 5307,
      "isée": 5308,
      "isions": 5309,
      "island": 5310,
      "issors": 5311,
      "annul": 5312,
      "online": 5313,
      "erve": 5314,
      "error": 5315,
      "ented": 5316,
      "ency": 5317,
      "espoir": 5318,
      "attemp": 5319,
      "asy": 5320,
      "asure": 5321,
      "aside": 5322,
      "aspir": 5323,
      "itself": 5324,
      "itude": 5325,
      "arma": 5326,
      "arles": 5327,
      "arbres": 5328,
      "orable": 5329,
      "ordered": 5330,
      "meat": 5331,
      "mechan": 5332,
      "method": 5333,
      "dete": 5334,
      "decor": 5335,
      "depri": 5336,
      "decei": 5337,
      "devient": 5338,
      "delay": 5339,
      "demanded": 5340,
      "neare": 5341,
      "nelle": 5342,
      "bees": 5343,
      "beha": 5344,
      "beur": 5345,
      "becomes": 5346,
      "docu": 5347,
      "tear": 5348,
      "sevent": 5349,
      "secur": 5350,
      "hama": 5351,
      "whom": 5352,
      "whiche": 5353,
      "chess": 5354,
      "chosen": 5355,
      "weapon": 5356,
      "entré": 5357,
      "lable": 5358,
      "lack": 5359,
      "lion": 5360,
      "liking": 5361,
      "stan": 5362,
      "stone": 5363,
      "etite": 5364,
      "etition": 5365,
      "etime": 5366,
      "rier": 5367,
      "ridi": 5368,
      "aight": 5369,
      "estab": 5370,
      "alo": 5371,
      "als": 5372,
      "alcool": 5373,
      "alpha": 5374,
      "verty": 5375,
      "jelly": 5376,
      "ares": 5377,
      "areil": 5378,
      "andra": 5379,
      "alliez": 5380,
      "dig": 5381,
      "undance": 5382,
      "unknown": 5383,
      "tight": 5384,
      "tiger": 5385,
      "wasting": 5386,
      "forbi": 5387,
      "forms": 5388,
      "forcé": 5389,
      "roof": 5390,
      "rowed": 5391,
      "robot": 5392,
      "rocks": 5393,
      "ropes": 5394,
      "aurions": 5395,
      "loi": 5396,
      "lover": 5397,
      "load": 5398,
      "trunk": 5399,
      "trusted": 5400,
      "trapped": 5401,
      "ira": 5402,
      "irait": 5403,
      "irré": 5404,
      "ushed": 5405,
      "compla": 5406,
      "commande": 5407,
      "male": 5408,
      "mathé": 5409,
      "iment": 5410,
      "immor": 5411,
      "yourselves": 5412,
      "term": 5413,
      "tery": 5414,
      "termine": 5415,
      "tains": 5416,
      "hoping": 5417,
      "ionaire": 5418,
      "added": 5419,
      "admir": 5420,
      "addressed": 5421,
      "knowled": 5422,
      "thern": 5423,
      "acif": 5424,
      "acid": 5425,
      "actic": 5426,
      "fel": 5427,
      "lymp": 5428,
      "agawa": 5429,
      "aby": 5430,
      "absor": 5431,
      "abstr": 5432,
      "abundance": 5433,
      "oker": 5434,
      "soi": 5435,
      "soix": 5436,
      "soyons": 5437,
      "avi": 5438,
      "avo": 5439,
      "worn": 5440,
      "icer": 5441,
      "aised": 5442,
      "resist": 5443,
      "rescu": 5444,
      "resistance": 5445,
      "parla": 5446,
      "parta": 5447,
      "parles": 5448,
      "urin": 5449,
      "consac": 5450,
      "contact": 5451,
      "prêtes": 5452,
      "practic": 5453,
      "praised": 5454,
      "silly": 5455,
      "heroin": 5456,
      "fré": 5457,
      "fray": 5458,
      "frères": 5459,
      "fruits": 5460,
      "cope": 5461,
      "copain": 5462,
      "boit": 5463,
      "vier": 5464,
      "answered": 5465,
      "ifie": 5466,
      "plément": 5467,
      "déli": 5468,
      "apples": 5469,
      "appetite": 5470,
      "appareil": 5471,
      "uler": 5472,
      "ulous": 5473,
      "cious": 5474,
      "ciation": 5475,
      "manqu": 5476,
      "managed": 5477,
      "shine": 5478,
      "perspe": 5479,
      "permis": 5480,
      "permit": 5481,
      "persever": 5482,
      "goodby": 5483,
      "proof": 5484,
      "proté": 5485,
      "propri": 5486,
      "program": 5487,
      "extre": 5488,
      "explan": 5489,
      "exchange": 5490,
      "reads": 5491,
      "lette": 5492,
      "letting": 5493,
      "tenez": 5494,
      "duck": 5495,
      "nies": 5496,
      "poems": 5497,
      "poverty": 5498,
      "desire": 5499,
      "dessin": 5500,
      "everyday": 5501,
      "vote": 5502,
      "voted": 5503,
      "voie": 5504,
      "lumb": 5505,
      "liters": 5506,
      "wherever": 5507,
      "aki": 5508,
      "venez": 5509,
      "fromage": 5510,
      "pencil": 5511,
      "tled": 5512,
      "mum": 5513,
      "mesure": 5514,
      "workers": 5515,
      "biolo": 5516,
      "earlier": 5517,
      "portable": 5518,
      "portée": 5519,
      "cheer": 5520,
      "cheating": 5521,
      "surface": 5522,
      "morgue": 5523,
      "tool": 5524,
      "tooth": 5525,
      "stolen": 5526,
      "storm": 5527,
      "esses": 5528,
      "révé": 5529,
      "réjou": 5530,
      "réparer": 5531,
      "réveillé": 5532,
      "dentist": 5533,
      "compter": 5534,
      "dise": 5535,
      "disait": 5536,
      "dispu": 5537,
      "disting": 5538,
      "discovered": 5539,
      "friendship": 5540,
      "illegal": 5541,
      "series": 5542,
      "servic": 5543,
      "woke": 5544,
      "lovely": 5545,
      "gotta": 5546,
      "joke": 5547,
      "mistook": 5548,
      "mistaken": 5549,
      "misunderstanding": 5550,
      "cting": 5551,
      "mercy": 5552,
      "grab": 5553,
      "gradu": 5554,
      "sortes": 5555,
      "raw": 5556,
      "rale": 5557,
      "stuff": 5558,
      "studies": 5559,
      "coucher": 5560,
      "courir": 5561,
      "fuel": 5562,
      "nerveux": 5563,
      "predi": 5564,
      "prevented": 5565,
      "precious": 5566,
      "forecast": 5567,
      "physi": 5568,
      "pharma": 5569,
      "backs": 5570,
      "ician": 5571,
      "sépar": 5572,
      "scholar": 5573,
      "arrives": 5574,
      "arrivent": 5575,
      "rooms": 5576,
      "minded": 5577,
      "teachers": 5578,
      "crap": 5579,
      "cross": 5580,
      "feels": 5581,
      "senti": 5582,
      "sentir": 5583,
      "pierre": 5584,
      "toucher": 5585,
      "officer": 5586,
      "chau": 5587,
      "préparer": 5588,
      "visions": 5589,
      "lately": 5590,
      "themselves": 5591,
      "bitter": 5592,
      "lég": 5593,
      "toile": 5594,
      "igne": 5595,
      "carefully": 5596,
      "handsome": 5597,
      "easier": 5598,
      "cream": 5599,
      "souvenir": 5600,
      "métro": 5601,
      "counter": 5602,
      "prior": 5603,
      "cupe": 5604,
      "smiling": 5605,
      "rub": 5606,
      "planète": 5607,
      "director": 5608,
      "border": 5609,
      "borrowed": 5610,
      "calls": 5611,
      "nés": 5612,
      "downtown": 5613,
      "shock": 5614,
      "shopping": 5615,
      "attitude": 5616,
      "rained": 5617,
      "appeared": 5618,
      "blanc": 5619,
      "besides": 5620,
      "suppli": 5621,
      "supplément": 5622,
      "grandes": 5623,
      "grandma": 5624,
      "aimed": 5625,
      "intend": 5626,
      "painful": 5627,
      "bigger": 5628,
      "century": 5629,
      "lady": 5630,
      "gentil": 5631,
      "musée": 5632,
      "sitting": 5633,
      "chercher": 5634,
      "favorable": 5635,
      "poule": 5636,
      "poured": 5637,
      "ressour": 5638,
      "difficultés": 5639,
      "Charles": 5640,
      "obvious": 5641,
      "observe": 5642,
      "occupe": 5643,
      "importantes": 5644,
      "effort": 5645,
      "effray": 5646,
      "liste": 5647,
      "lished": 5648,
      "larger": 5649,
      "arrêt": 5650,
      "Maria": 5651,
      "malheureuse": 5652,
      "nouvel": 5653,
      "stranger": 5654,
      "strangers": 5655,
      "straight": 5656,
      "enfance": 5657,
      "jouets": 5658,
      "vues": 5659,
      "contrat": 5660,
      "contrary": 5661,
      "sisters": 5662,
      "walking": 5663,
      "garder": 5664,
      "chanceux": 5665,
      "writer": 5666,
      "picked": 5667,
      "warn": 5668,
      "warming": 5669,
      "begins": 5670,
      "gérer": 5671,
      "atomic": 5672,
      "arks": 5673,
      "chiens": 5674,
      "invincible": 5675,
      "alibi": 5676,
      "entrer": 5677,
      "capital": 5678,
      "profon": 5679,
      "faces": 5680,
      "Invite": 5681,
      "cookies": 5682,
      "postpone": 5683,
      "sciences": 5684,
      "pretti": 5685,
      "ctif": 5686,
      "douche": 5687,
      "master": 5688,
      "gnes": 5689,
      "medal": 5690,
      "seuls": 5691,
      "drove": 5692,
      "droite": 5693,
      "droits": 5694,
      "dropped": 5695,
      "shaking": 5696,
      "cash": 5697,
      "casser": 5698,
      "bags": 5699,
      "dente": 5700,
      "proposed": 5701,
      "examination": 5702,
      "entends": 5703,
      "petites": 5704,
      "hates": 5705,
      "passion": 5706,
      "passée": 5707,
      "internet": 5708,
      "international": 5709,
      "volcan": 5710,
      "étudie": 5711,
      "necessarily": 5712,
      "tickets": 5713,
      "visiter": 5714,
      "cultures": 5715,
      "product": 5716,
      "products": 5717,
      "responsibil": 5718,
      "spends": 5719,
      "correctly": 5720,
      "nearly": 5721,
      "durant": 5722,
      "stepped": 5723,
      "salary": 5724,
      "subway": 5725,
      "closely": 5726,
      "conduct": 5727,
      "faute": 5728,
      "faults": 5729,
      "commença": 5730,
      "barking": 5731,
      "pleasant": 5732,
      "constant": 5733,
      "asseoir": 5734,
      "quitter": 5735,
      "sacrific": 5736,
      "intelligence": 5737,
      "imaginer": 5738,
      "égal": 5739,
      "église": 5740,
      "burn": 5741,
      "daily": 5742,
      "damaged": 5743,
      "scary": 5744,
      "scissors": 5745,
      "reality": 5746,
      "cleaned": 5747,
      "stronger": 5748,
      "battre": 5749,
      "battle": 5750,
      "enjoys": 5751,
      "politique": 5752,
      "ignored": 5753,
      "Australian": 5754,
      "heavily": 5755,
      "certaines": 5756,
      "certainly": 5757,
      "engagement": 5758,
      "harm": 5759,
      "rencontrée": 5760,
      "shorter": 5761,
      "cafeter": 5762,
      "realized": 5763,
      "montrez": 5764,
      "nombreuses": 5765,
      "wheel": 5766,
      "maladie": 5767,
      "université": 5768,
      "gagné": 5769,
      "cuisiner": 5770,
      "third": 5771,
      "streets": 5772,
      "supermarket": 5773,
      "accepted": 5774,
      "acceptable": 5775,
      "feuilles": 5776,
      "décider": 5777,
      "décida": 5778,
      "Mayuko": 5779,
      "victi": 5780,
      "victory": 5781,
      "suivant": 5782,
      "suffer": 5783,
      "coût": 5784,
      "saving": 5785,
      "attack": 5786,
      "teered": 5787,
      "generally": 5788,
      "rarement": 5789,
      "tiny": 5790,
      "perfectly": 5791,
      "sweat": 5792,
      "sweet": 5793,
      "explained": 5794,
      "fighting": 5795,
      "survive": 5796,
      "papa": 5797,
      "apologized": 5798,
      "arrogance": 5799,
      "absolument": 5800,
      "approve": 5801,
      "operate": 5802,
      "operation": 5803,
      "target": 5804,
      "tallest": 5805,
      "ouverte": 5806,
      "deserves": 5807,
      "professor": 5808,
      "Arab": 5809,
      "sensible": 5810,
      "logical": 5811,
      "USB": 5812,
      "flying": 5813,
      "accusé": 5814,
      "concentrate": 5815,
      "complicated": 5816,
      "Canadi": 5817,
      "status": 5818,
      "amazing": 5819,
      "events": 5820,
      "eventually": 5821,
      "further": 5822,
      "furniture": 5823,
      "laptop": 5824,
      "nulle": 5825,
      "meals": 5826,
      "devoirs": 5827,
      "beaten": 5828,
      "complaining": 5829,
      "complaints": 5830,
      "sentiment": 5831,
      "ignorance": 5832,
      "skinny": 5833,
      "micros": 5834,
      "rêve": 5835,
      "organized": 5836,
      "doubt": 5837,
      "Améric": 5838,
      "Italian": 5839,
      "knock": 5840,
      "pills": 5841,
      "échapp": 5842,
      "apartment": 5843,
      "remained": 5844,
      "entirely": 5845,
      "author": 5846,
      "authority": 5847,
      "majority": 5848,
      "manual": 5849,
      "crossing": 5850,
      "crashed": 5851,
      "faithful": 5852,
      "thousands": 5853,
      "requires": 5854,
      "prudent": 5855,
      "expressions": 5856,
      "Christop": 5857,
      "150": 5858,
      "Mike": 5859,
      "belongs": 5860,
      "celebrate": 5861,
      "entrance": 5862,
      "resource": 5863,
      "resources": 5864,
      "practical": 5865,
      "persuade": 5866,
      "excuses": 5867,
      "discussed": 5868,
      "spider": 5869,
      "corriger": 5870,
      "curios": 5871,
      "enseigner": 5872,
      "blanket": 5873,
      "supported": 5874,
      "genius": 5875,
      "geniuses": 5876,
      "empêcher": 5877,
      "activity": 5878,
      "electri": 5879,
      "increased": 5880,
      "congratulations": 5881,
      "parfaite": 5882,
      "clouds": 5883,
      "blonde": 5884,
      "criminal": 5885,
      "professional": 5886,
      "Green": 5887,
      "barely": 5888,
      "recently": 5889,
      "anxious": 5890,
      "modern": 5891,
      "advertise": 5892,
      "despise": 5893,
      "volunteered": 5894,
      "disgusting": 5895,
      "puzzle": 5896,
      "customer": 5897,
      "psychic": 5898,
      "Algeria": 5899,
      "regularly": 5900,
      "advanced": 5901,
      "Columb": 5902,
      "Repetition": 5903,
      "Salut": 5904,
      "Tanaka": 5905,
      "field": 5906,
      "échec": 5907,
      "énergie": 5908,
      "éviter": 5909,
      "inquiète": 5910,
      "diagnos": 5911,
      "mammal": 5912,
      "conclusions": 5913,
      "guessed": 5914,
      "material": 5915,
      "survivors": 5916,
      "pickpockets": 5917,
      "architect": 5918,
      "hypothesis": 5919,
      "challenge": 5920,
      "explosion": 5921,
      "Allemagne": 5922,
      "WhatsApp": 5923,
      "credit": 5924,
      "citizens": 5925,
      "global": 5926,
      "gift": 5927,
      "handed": 5928,
      "witness": 5929,
      "repeat": 5930,
      "departure": 5931,
      "notice": 5932,
      "website": 5933,
      "wealthy": 5934,
      "lifetime": 5935,
      "dirty": 5936,
      "suspic": 5937,
      "peanuts": 5938,
      "addicted": 5939,
      "safety": 5940,
      "réaliser": 5941,
      "pregnant": 5942,
      "private": 5943,
      "barbecue": 5944,
      "clairement": 5945,
      "artificial": 5946,
      "rabbits": 5947,
      "YouTube": 5948,
      "gorge": 5949,
      "pâle": 5950,
      "règles": 5951,
      "rhume": 5952,
      "religion": 5953,
      "pelled": 5954,
      "ambulance": 5955,
      "nettoyer": 5956,
      "circum": 5957,
      "April": 5958,
      "Chopin": 5959,
      "Eiffel": 5960,
      "Espagne": 5961,
      "Helen": 5962,
      "Isra": 5963,
      "Java": 5964,
      "Mennad": 5965,
      "Osaka": 5966,
      "Pyth": 5967,
      "Tower": 5968,
      "White": 5969,
      "Yuk": 5970,
      "Yokohama": 5971,
      "duty": 5972,
      "eighteen": 5973,
      "false": 5974,
      "houses": 5975,
      "trente": 5976,
      "wisdom": 5977,
      "waist": 5978,
      "warrior": 5979,
      "thief": 5980,
      "recommend": 5981,
      "independent": 5982,
      "deprived": 5983,
      "nearest": 5984,
      "seventy": 5985,
      "security": 5986,
      "whichever": 5987,
      "established": 5988,
      "alphabet": 5989,
      "forbidden": 5990,
      "soixante": 5991,
      "rescued": 5992,
      "perseverance": 5993,
      "goodbye": 5994,
      "explanation": 5995,
      "réjouis": 5996,
      "distingu": 5997,
      "services": 5998,
      "obviously": 5999,
      "malheureusement": 6000,
      "responsibility": 6001,
      "sacrifices": 6002,
      "cafeteria": 6003,
      "microscope": 6004,
      "Columbus": 6005,
      "14": 6006,
      "17": 6007,
      "100": 6008,
      "300": 6009,
      "At": 6010,
      "All": 6011,
      "BC": 6012,
      "Cre": 6013,
      "Con": 6014,
      "Cor": 6015,
      "Centr": 6016,
      "Hon": 6017,
      "Hop": 6018,
      "Kobe": 6019,
      "My": 6020,
      "Mil": 6021,
      "Por": 6022,
      "Univers": 6023,
      "Wi": 6024,
      "Way": 6025,
      "ah": 6026,
      "ax": 6027,
      "aî": 6028,
      "bour": 6029,
      "bask": 6030,
      "bars": 6031,
      "cun": 6032,
      "cac": 6033,
      "cali": 6034,
      "dos": 6035,
      "dus": 6036,
      "dèle": 6037,
      "eus": 6038,
      "fant": 6039,
      "fres": 6040,
      "flas": 6041,
      "foss": 6042,
      "gri": 6043,
      "gain": 6044,
      "idio": 6045,
      "ji": 6046,
      "jong": 6047,
      "kil": 6048,
      "lant": 6049,
      "mans": 6050,
      "mie": 6051,
      "mmed": 6052,
      "pil": 6053,
      "pai": 6054,
      "pure": 6055,
      "ption": 6056,
      "pacif": 6057,
      "rant": 6058,
      "rag": 6059,
      "sout": 6060,
      "savons": 6061,
      "sente": 6062,
      "tap": 6063,
      "tiling": 6064,
      "umer": 6065,
      "var": 6066,
      "vest": 6067,
      "vus": 6068,
      "vage": 6069,
      "vach": 6070,
      "vital": 6071,
      "vague": 6072,
      "xim": 6073,
      "yenne": 6074,
      "zone": 6075,
      "âce": 6076,
      "èce": 6077,
      "ètes": 6078,
      "èvre": 6079,
      "év": 6080,
      "épuis": 6081,
      "élè": 6082,
      "écris": 6083,
      "éveillé": 6084,
      "étoile": 6085,
      "îne": 6086,
      "îtr": 6087,
      "thro": 6088,
      "reur": 6089,
      "refu": 6090,
      "remettre": 6091,
      "retrait": 6092,
      "recommand": 6093,
      "inclu": 6094,
      "inspir": 6095,
      "issez": 6096,
      "onté": 6097,
      "ert": 6098,
      "erais": 6099,
      "enver": 6100,
      "enfu": 6101,
      "enfin": 6102,
      "assis": 6103,
      "vement": 6104,
      "quin": 6105,
      "qués": 6106,
      "quali": 6107,
      "neuf": 6108,
      "hall": 6109,
      "habill": 6110,
      "chers": 6111,
      "entière": 6112,
      "ligne": 6113,
      "goû": 6114,
      "alent": 6115,
      "dic": 6116,
      "divers": 6117,
      "dirait": 6118,
      "dirai": 6119,
      "dirige": 6120,
      "tiens": 6121,
      "anta": 6122,
      "forte": 6123,
      "rope": 6124,
      "audi": 6125,
      "loyal": 6126,
      "passez": 6127,
      "tron": 6128,
      "trous": 6129,
      "compar": 6130,
      "mato": 6131,
      "mobiles": 6132,
      "tais": 6133,
      "addition": 6134,
      "acide": 6135,
      "accompli": 6136,
      "agi": 6137,
      "agres": 6138,
      "pleur": 6139,
      "plement": 6140,
      "sole": 6141,
      "avate": 6142,
      "avaient": 6143,
      "ustion": 6144,
      "parie": 6145,
      "ender": 6146,
      "rentr": 6147,
      "rences": 6148,
      "urgent": 6149,
      "urgence": 6150,
      "confé": 6151,
      "conclu": 6152,
      "conspir": 6153,
      "prouve": 6154,
      "sienne": 6155,
      "frais": 6156,
      "cochon": 6157,
      "indé": 6158,
      "villes": 6159,
      "vienne": 6160,
      "décé": 6161,
      "délici": 6162,
      "déçu": 6163,
      "dérange": 6164,
      "applic": 6165,
      "apprends": 6166,
      "civil": 6167,
      "mani": 6168,
      "plait": 6169,
      "tremb": 6170,
      "tremble": 6171,
      "perman": 6172,
      "expi": 6173,
      "exig": 6174,
      "extra": 6175,
      "exem": 6176,
      "bleu": 6177,
      "lettres": 6178,
      "salaire": 6179,
      "foi": 6180,
      "foo": 6181,
      "folle": 6182,
      "niveau": 6183,
      "poche": 6184,
      "monte": 6185,
      "monie": 6186,
      "volé": 6187,
      "illa": 6188,
      "iller": 6189,
      "mbres": 6190,
      "cartes": 6191,
      "caract": 6192,
      "marteau": 6193,
      "specta": 6194,
      "cheval": 6195,
      "rég": 6196,
      "rép": 6197,
      "répar": 6198,
      "rédu": 6199,
      "répé": 6200,
      "réellement": 6201,
      "chois": 6202,
      "mien": 6203,
      "poster": 6204,
      "joli": 6205,
      "jogging": 6206,
      "longues": 6207,
      "grâce": 6208,
      "moire": 6209,
      "radi": 6210,
      "couteau": 6211,
      "fume": 6212,
      "futur": 6213,
      "phan": 6214,
      "causes": 6215,
      "ffle": 6216,
      "drag": 6217,
      "matière": 6218,
      "spati": 6219,
      "tort": 6220,
      "torture": 6221,
      "crut": 6222,
      "crise": 6223,
      "cravate": 6224,
      "ension": 6225,
      "touché": 6226,
      "offre": 6227,
      "chait": 6228,
      "chaude": 6229,
      "chacun": 6230,
      "prévenu": 6231,
      "visi": 6232,
      "visible": 6233,
      "finir": 6234,
      "igner": 6235,
      "bras": 6236,
      "saisir": 6237,
      "restée": 6238,
      "voulu": 6239,
      "corde": 6240,
      "corpus": 6241,
      "soud": 6242,
      "soup": 6243,
      "soutien": 6244,
      "méd": 6245,
      "rug": 6246,
      "rumeur": 6247,
      "turb": 6248,
      "vraient": 6249,
      "opé": 6250,
      "bonjour": 6251,
      "bonheur": 6252,
      "calcu": 6253,
      "coupé": 6254,
      "feriez": 6255,
      "athy": 6256,
      "promesse": 6257,
      "promesses": 6258,
      "appell": 6259,
      "appelez": 6260,
      "grands": 6261,
      "magn": 6262,
      "croyez": 6263,
      "croient": 6264,
      "gentilles": 6265,
      "importante": 6266,
      "peuple": 6267,
      "obs": 6268,
      "petits": 6269,
      "tableau": 6270,
      "miles": 6271,
      "opinions": 6272,
      "riches": 6273,
      "aurai": 6274,
      "anks": 6275,
      "euro": 6276,
      "unique": 6277,
      "autrefois": 6278,
      "jug": 6279,
      "juge": 6280,
      "mensonge": 6281,
      "aliments": 6282,
      "célè": 6283,
      "douleur": 6284,
      "blog": 6285,
      "attendu": 6286,
      "connaisse": 6287,
      "connaissez": 6288,
      "connaissait": 6289,
      "bandes": 6290,
      "étend": 6291,
      "étang": 6292,
      "proposes": 6293,
      "habits": 6294,
      "passage": 6295,
      "occupés": 6296,
      "interdit": 6297,
      "interrup": 6298,
      "transpor": 6299,
      "volont": 6300,
      "volonté": 6301,
      "semblez": 6302,
      "soirée": 6303,
      "gypti": 6304,
      "steak": 6305,
      "salon": 6306,
      "félic": 6307,
      "soldats": 6308,
      "conduis": 6309,
      "conduit": 6310,
      "princip": 6311,
      "sortie": 6312,
      "constitu": 6313,
      "froide": 6314,
      "regardez": 6315,
      "quitté": 6316,
      "vérit": 6317,
      "sacré": 6318,
      "mariés": 6319,
      "conseillé": 6320,
      "épais": 6321,
      "rencontrés": 6322,
      "ranto": 6323,
      "signifie": 6324,
      "voisins": 6325,
      "répondu": 6326,
      "distant": 6327,
      "vendu": 6328,
      "différence": 6329,
      "International": 6330,
      "embarrass": 6331,
      "Japonais": 6332,
      "marketing": 6333,
      "nationale": 6334,
      "suivi": 6335,
      "suffit": 6336,
      "tradition": 6337,
      "coûts": 6338,
      "objectif": 6339,
      "attrape": 6340,
      "bouton": 6341,
      "disposes": 6342,
      "voudrait": 6343,
      "ordinaire": 6344,
      "foule": 6345,
      "apporter": 6346,
      "jambe": 6347,
      "indiquer": 6348,
      "tombée": 6349,
      "environnement": 6350,
      "sentez": 6351,
      "Devine": 6352,
      "automobile": 6353,
      "prendr": 6354,
      "amuser": 6355,
      "amusant": 6356,
      "abandonner": 6357,
      "chocolat": 6358,
      "possibilité": 6359,
      "prêts": 6360,
      "diplomat": 6361,
      "Italie": 6362,
      "remède": 6363,
      "envoyer": 6364,
      "génération": 6365,
      "traduire": 6366,
      "alternatives": 6367,
      "suicidé": 6368,
      "Christi": 6369,
      "fonctionne": 6370,
      "amélior": 6371,
      "oubliez": 6372,
      "réfléchi": 6373,
      "divorce": 6374,
      "mignonne": 6375,
      "effective": 6376,
      "strict": 6377,
      "certainement": 6378,
      "original": 6379,
      "espéranto": 6380,
      "populaire": 6381,
      "populaires": 6382,
      "champagne": 6383,
      "bicyclette": 6384,
      "campagne": 6385,
      "censé": 6386,
      "oiseau": 6387,
      "rejoindre": 6388,
      "influence": 6389,
      "respecter": 6390,
      "rendrai": 6391,
      "points": 6392,
      "silencieux": 6393,
      "quotidienne": 6394,
      "héros": 6395,
      "ouvrit": 6396,
      "ouvrez": 6397,
      "stylo": 6398,
      "réussir": 6399,
      "communication": 6400,
      "Quels": 6401,
      "SMS": 6402,
      "Soleil": 6403,
      "hâte": 6404,
      "multiling": 6405,
      "énorme": 6406,
      "totalement": 6407,
      "ingénie": 6408,
      "meubles": 6409,
      "détruit": 6410,
      "descend": 6411,
      "résultats": 6412,
      "spécial": 6413,
      "craft": 6414,
      "promettre": 6415,
      "assistant": 6416,
      "écureuils": 6417,
      "Royal": 6418,
      "remercier": 6419,
      "beurre": 6420,
      "digital": 6421,
      "mathématiques": 6422,
      "avocat": 6423,
      "perspective": 6424,
      "ralement": 6425,
      "ressources": 6426,
      "Central": 6427,
      "Portu": 6428,
      "basket": 6429,
      "kilom": 6430,
      "vaches": 6431,
      "élèves": 6432,
      "refuge": 6433,
      "célèbre": 6434,
      "multilingu": 6435,
      "2K": 6436,
      "4000": 6437,
      "50": 6438,
      "AT": 6439,
      "Achie": 6440,
      "Bur": 6441,
      "Bré": 6442,
      "Bye": 6443,
      "Cle": 6444,
      "Cai": 6445,
      "Cel": 6446,
      "Chi": 6447,
      "Dis": 6448,
      "Dro": 6449,
      "Egypti": 6450,
      "Fill": 6451,
      "Grou": 6452,
      "Goo": 6453,
      "Ha": 6454,
      "His": 6455,
      "Hun": 6456,
      "Howe": 6457,
      "ID": 6458,
      "Jou": 6459,
      "June": 6460,
      "LO": 6461,
      "Mac": 6462,
      "Olymp": 6463,
      "Pe": 6464,
      "Po": 6465,
      "Pr": 6466,
      "Pre": 6467,
      "Prom": 6468,
      "Que": 6469,
      "Son": 6470,
      "Sat": 6471,
      "Scot": 6472,
      "Suck": 6473,
      "Th": 6474,
      "Tha": 6475,
      "Vo": 6476,
      "Ven": 6477,
      "Wor": 6478,
      "Who": 6479,
      "Year": 6480,
      "Y2K": 6481,
      "abe": 6482,
      "amy": 6483,
      "aked": 6484,
      "aéro": 6485,
      "awoke": 6486,
      "bs": 6487,
      "bt": 6488,
      "bac": 6489,
      "bage": 6490,
      "bish": 6491,
      "bast": 6492,
      "bless": 6493,
      "bale": 6494,
      "bass": 6495,
      "bœuf": 6496,
      "bomb": 6497,
      "bounce": 6498,
      "barks": 6499,
      "cis": 6500,
      "cles": 6501,
      "cté": 6502,
      "cils": 6503,
      "cried": 6504,
      "cist": 6505,
      "cath": 6506,
      "cities": 6507,
      "dout": 6508,
      "dam": 6509,
      "dwell": 6510,
      "dwar": 6511,
      "ek": 6512,
      "eper": 6513,
      "eager": 6514,
      "eeny": 6515,
      "fû": 6516,
      "fis": 6517,
      "fto": 6518,
      "fous": 6519,
      "fed": 6520,
      "fain": 6521,
      "fif": 6522,
      "fate": 6523,
      "fright": 6524,
      "fence": 6525,
      "faux": 6526,
      "fleur": 6527,
      "fake": 6528,
      "flight": 6529,
      "freed": 6530,
      "founded": 6531,
      "gout": 6532,
      "gang": 6533,
      "gate": 6534,
      "gones": 6535,
      "hion": 6536,
      "hated": 6537,
      "hits": 6538,
      "ive": 6539,
      "ior": 6540,
      "ima": 6541,
      "ians": 6542,
      "idit": 6543,
      "iled": 6544,
      "jal": 6545,
      "jure": 6546,
      "ks": 6547,
      "kin": 6548,
      "kne": 6549,
      "kward": 6550,
      "kilos": 6551,
      "lens": 6552,
      "lâche": 6553,
      "mè": 6554,
      "map": 6555,
      "mall": 6556,
      "mun": 6557,
      "mant": 6558,
      "maid": 6559,
      "mouve": 6560,
      "mété": 6561,
      "mallows": 6562,
      "nas": 6563,
      "nar": 6564,
      "nai": 6565,
      "nine": 6566,
      "nue": 6567,
      "nick": 6568,
      "nail": 6569,
      "nôtre": 6570,
      "olic": 6571,
      "phere": 6572,
      "pound": 6573,
      "pint": 6574,
      "puni": 6575,
      "pstick": 6576,
      "rite": 6577,
      "rack": 6578,
      "rist": 6579,
      "rated": 6580,
      "rings": 6581,
      "rush": 6582,
      "sn": 6583,
      "san": 6584,
      "sam": 6585,
      "sink": 6586,
      "sins": 6587,
      "sages": 6588,
      "slight": 6589,
      "sank": 6590,
      "scri": 6591,
      "scol": 6592,
      "swing": 6593,
      "scrat": 6594,
      "tos": 6595,
      "tai": 6596,
      "tly": 6597,
      "tation": 6598,
      "tons": 6599,
      "taire": 6600,
      "tili": 6601,
      "twel": 6602,
      "uine": 6603,
      "uable": 6604,
      "vy": 6605,
      "vated": 6606,
      "wall": 6607,
      "wave": 6608,
      "wars": 6609,
      "yait": 6610,
      "yond": 6611,
      "zen": 6612,
      "âme": 6613,
      "âché": 6614,
      "én": 6615,
      "éan": 6616,
      "égo": 6617,
      "éter": 6618,
      "épo": 6619,
      "écar": 6620,
      "énom": 6621,
      "îmes": 6622,
      "ôme": 6623,
      "œurs": 6624,
      "thus": 6625,
      "osse": 6626,
      "requ": 6627,
      "rece": 6628,
      "remo": 6629,
      "rement": 6630,
      "repro": 6631,
      "remar": 6632,
      "remp": 6633,
      "repos": 6634,
      "retired": 6635,
      "rerais": 6636,
      "refer": 6637,
      "reconn": 6638,
      "reward": 6639,
      "recommen": 6640,
      "represent": 6641,
      "représent": 6642,
      "reporter": 6643,
      "revolution": 6644,
      "revenge": 6645,
      "theless": 6646,
      "theatre": 6647,
      "inf": 6648,
      "inspi": 6649,
      "incorri": 6650,
      "injury": 6651,
      "iser": 6652,
      "isure": 6653,
      "issait": 6654,
      "issage": 6655,
      "anno": 6656,
      "anity": 6657,
      "anions": 6658,
      "ancé": 6659,
      "ancial": 6660,
      "announ": 6661,
      "onz": 6662,
      "onto": 6663,
      "onents": 6664,
      "toe": 6665,
      "toit": 6666,
      "tomi": 6667,
      "tomed": 6668,
      "tocks": 6669,
      "towel": 6670,
      "tombe": 6671,
      "erfuck": 6672,
      "enor": 6673,
      "eness": 6674,
      "encour": 6675,
      "enious": 6676,
      "envisage": 6677,
      "encounter": 6678,
      "envy": 6679,
      "atri": 6680,
      "atra": 6681,
      "ased": 6682,
      "aster": 6683,
      "asts": 6684,
      "assé": 6685,
      "ashed": 6686,
      "asking": 6687,
      "assurance": 6688,
      "leather": 6689,
      "leaf": 6690,
      "lemons": 6691,
      "leaped": 6692,
      "lefto": 6693,
      "leisure": 6694,
      "itate": 6695,
      "itage": 6696,
      "itions": 6697,
      "height": 6698,
      "heels": 6699,
      "headed": 6700,
      "omi": 6701,
      "arthe": 6702,
      "arse": 6703,
      "arrest": 6704,
      "artic": 6705,
      "aries": 6706,
      "argue": 6707,
      "vember": 6708,
      "ori": 6709,
      "oras": 6710,
      "orus": 6711,
      "ordre": 6712,
      "ordres": 6713,
      "ingenious": 6714,
      "mez": 6715,
      "mere": 6716,
      "mely": 6717,
      "mecs": 6718,
      "meeny": 6719,
      "measure": 6720,
      "deaf": 6721,
      "degre": 6722,
      "decl": 6723,
      "decent": 6724,
      "decep": 6725,
      "debout": 6726,
      "devenus": 6727,
      "debate": 6728,
      "defend": 6729,
      "develo": 6730,
      "devoted": 6731,
      "devraient": 6732,
      "debt": 6733,
      "detai": 6734,
      "noyé": 6735,
      "nego": 6736,
      "neck": 6737,
      "neither": 6738,
      "bee": 6739,
      "bead": 6740,
      "beans": 6741,
      "beard": 6742,
      "behaving": 6743,
      "beyond": 6744,
      "teurs": 6745,
      "teering": 6746,
      "tetan": 6747,
      "sec": 6748,
      "seld": 6749,
      "seeds": 6750,
      "hab": 6751,
      "cement": 6752,
      "celles": 6753,
      "whites": 6754,
      "chou": 6755,
      "chée": 6756,
      "chunk": 6757,
      "wet": 6758,
      "weld": 6759,
      "enten": 6760,
      "entier": 6761,
      "ential": 6762,
      "lave": 6763,
      "lade": 6764,
      "lamp": 6765,
      "lator": 6766,
      "laient": 6767,
      "lien": 6768,
      "liar": 6769,
      "lide": 6770,
      "liqui": 6771,
      "lict": 6772,
      "ligé": 6773,
      "libat": 6774,
      "lignes": 6775,
      "stare": 6776,
      "stall": 6777,
      "stun": 6778,
      "stain": 6779,
      "stème": 6780,
      "stances": 6781,
      "stacked": 6782,
      "stamp": 6783,
      "ettez": 6784,
      "goo": 6785,
      "goût": 6786,
      "riz": 6787,
      "riages": 6788,
      "rifle": 6789,
      "keeper": 6790,
      "aic": 6791,
      "aigne": 6792,
      "ayant": 6793,
      "alert": 6794,
      "verte": 6795,
      "verrou": 6796,
      "jean": 6797,
      "areas": 6798,
      "diary": 6799,
      "dira": 6800,
      "diable": 6801,
      "unes": 6802,
      "uncomfortable": 6803,
      "unlikely": 6804,
      "unhealthy": 6805,
      "unciation": 6806,
      "tip": 6807,
      "timate": 6808,
      "wasted": 6809,
      "wire": 6810,
      "wider": 6811,
      "wimp": 6812,
      "widow": 6813,
      "queue": 6814,
      "antes": 6815,
      "antal": 6816,
      "forty": 6817,
      "forces": 6818,
      "forcer": 6819,
      "forêt": 6820,
      "forgiven": 6821,
      "eday": 6822,
      "donnent": 6823,
      "rol": 6824,
      "roy": 6825,
      "root": 6826,
      "rown": 6827,
      "roast": 6828,
      "auté": 6829,
      "auteur": 6830,
      "loan": 6831,
      "logi": 6832,
      "loving": 6833,
      "loop": 6834,
      "located": 6835,
      "loyed": 6836,
      "suy": 6837,
      "suffe": 6838,
      "passing": 6839,
      "trap": 6840,
      "triste": 6841,
      "irts": 6842,
      "irregular": 6843,
      "ghted": 6844,
      "peau": 6845,
      "peint": 6846,
      "nowhere": 6847,
      "notes": 6848,
      "comb": 6849,
      "compromise": 6850,
      "comfort": 6851,
      "compelled": 6852,
      "tue": 6853,
      "canapé": 6854,
      "cancel": 6855,
      "ims": 6856,
      "impul": 6857,
      "impatience": 6858,
      "implement": 6859,
      "moe": 6860,
      "moves": 6861,
      "moving": 6862,
      "model": 6863,
      "moyenne": 6864,
      "sheer": 6865,
      "terie": 6866,
      "tack": 6867,
      "tables": 6868,
      "advent": 6869,
      "amer": 6870,
      "ament": 6871,
      "ambo": 6872,
      "amoun": 6873,
      "amused": 6874,
      "amical": 6875,
      "actor": 6876,
      "access": 6877,
      "accro": 6878,
      "female": 6879,
      "lycée": 6880,
      "wanting": 6881,
      "agir": 6882,
      "agers": 6883,
      "aggress": 6884,
      "agoras": 6885,
      "anyway": 6886,
      "abon": 6887,
      "abat": 6888,
      "abor": 6889,
      "abdu": 6890,
      "abuse": 6891,
      "abord": 6892,
      "pleine": 6893,
      "plets": 6894,
      "okay": 6895,
      "sow": 6896,
      "socks": 6897,
      "avion": 6898,
      "avions": 6899,
      "lesquelles": 6900,
      "ically": 6901,
      "aisé": 6902,
      "usterfuck": 6903,
      "restez": 6904,
      "respected": 6905,
      "rescue": 6906,
      "pars": 6907,
      "parmi": 6908,
      "parlons": 6909,
      "inkled": 6910,
      "endom": 6911,
      "endings": 6912,
      "rented": 6913,
      "rents": 6914,
      "rennent": 6915,
      "uré": 6916,
      "urday": 6917,
      "urges": 6918,
      "urged": 6919,
      "menti": 6920,
      "mentir": 6921,
      "contain": 6922,
      "congé": 6923,
      "conscient": 6924,
      "confection": 6925,
      "conference": 6926,
      "conserv": 6927,
      "prou": 6928,
      "praise": 6929,
      "sies": 6930,
      "sius": 6931,
      "sieur": 6932,
      "hers": 6933,
      "frust": 6934,
      "covery": 6935,
      "coins": 6936,
      "unemp": 6937,
      "uneasy": 6938,
      "bowed": 6939,
      "vio": 6940,
      "vior": 6941,
      "answers": 6942,
      "iful": 6943,
      "pourvu": 6944,
      "plural": 6945,
      "plash": 6946,
      "déte": 6947,
      "déla": 6948,
      "démé": 6949,
      "détend": 6950,
      "dépêcher": 6951,
      "désire": 6952,
      "apping": 6953,
      "apprend": 6954,
      "apprent": 6955,
      "appét": 6956,
      "applying": 6957,
      "ultimate": 6958,
      "cice": 6959,
      "cigare": 6960,
      "manage": 6961,
      "manner": 6962,
      "management": 6963,
      "places": 6964,
      "shin": 6965,
      "shout": 6966,
      "shmallows": 6967,
      "treats": 6968,
      "perd": 6969,
      "permet": 6970,
      "percent": 6971,
      "permettre": 6972,
      "prop": 6973,
      "proved": 6974,
      "protest": 6975,
      "progres": 6976,
      "exit": 6977,
      "extr": 6978,
      "expri": 6979,
      "expenses": 6980,
      "except": 6981,
      "exclus": 6982,
      "bleeding": 6983,
      "seemed": 6984,
      "lettes": 6985,
      "tente": 6986,
      "tenait": 6987,
      "dumb": 6988,
      "dumber": 6989,
      "sake": 6990,
      "salade": 6991,
      "buttocks": 6992,
      "fog": 6993,
      "fol": 6994,
      "folie": 6995,
      "nier": 6996,
      "pox": 6997,
      "poème": 6998,
      "mont": 6999,
      "mondi": 7000,
      "monkey": 7001,
      "voleur": 7002,
      "voix": 7003,
      "lugg": 7004,
      "onge": 7005,
      "ills": 7006,
      "illard": 7007,
      "ténu": 7008,
      "whenever": 7009,
      "aking": 7010,
      "carried": 7011,
      "carrière": 7012,
      "venons": 7013,
      "veniez": 7014,
      "helpful": 7015,
      "needn": 7016,
      "pensent": 7017,
      "cking": 7018,
      "bygones": 7019,
      "messed": 7020,
      "march": 7021,
      "marvel": 7022,
      "marron": 7023,
      "marshmallows": 7024,
      "shoulder": 7025,
      "earchers": 7026,
      "fié": 7027,
      "file": 7028,
      "fidèle": 7029,
      "speed": 7030,
      "speci": 7031,
      "speeding": 7032,
      "ishment": 7033,
      "chement": 7034,
      "cheated": 7035,
      "surger": 7036,
      "surround": 7037,
      "surveill": 7038,
      "happier": 7039,
      "happiest": 7040,
      "stomach": 7041,
      "essential": 7042,
      "fries": 7043,
      "fried": 7044,
      "fridge": 7045,
      "aching": 7046,
      "achète": 7047,
      "récol": 7048,
      "résolu": 7049,
      "réalité": 7050,
      "choos": 7051,
      "choir": 7052,
      "companions": 7053,
      "components": 7054,
      "mpet": 7055,
      "mptions": 7056,
      "diseas": 7057,
      "disagree": 7058,
      "discourage": 7059,
      "disliked": 7060,
      "discover": 7061,
      "disobe": 7062,
      "discharged": 7063,
      "disappeared": 7064,
      "disturb": 7065,
      "discovery": 7066,
      "server": 7067,
      "sermon": 7068,
      "giants": 7069,
      "oldest": 7070,
      "posted": 7071,
      "postale": 7072,
      "wool": 7073,
      "joy": 7074,
      "joie": 7075,
      "faits": 7076,
      "speaker": 7077,
      "mises": 7078,
      "mists": 7079,
      "misery": 7080,
      "longs": 7081,
      "longue": 7082,
      "meets": 7083,
      "grass": 7084,
      "grade": 7085,
      "sorrow": 7086,
      "sortez": 7087,
      "types": 7088,
      "guim": 7089,
      "beauté": 7090,
      "couper": 7091,
      "couleur": 7092,
      "couteaux": 7093,
      "fucked": 7094,
      "wrapped": 7095,
      "wrinkled": 7096,
      "mostly": 7097,
      "pretended": 7098,
      "previous": 7099,
      "forest": 7100,
      "forehead": 7101,
      "bush": 7102,
      "phénom": 7103,
      "backpack": 7104,
      "pump": 7105,
      "greatly": 7106,
      "ablement": 7107,
      "icious": 7108,
      "player": 7109,
      "playground": 7110,
      "causé": 7111,
      "séché": 7112,
      "arriving": 7113,
      "arrival": 7114,
      "matins": 7115,
      "matique": 7116,
      "spy": 7117,
      "span": 7118,
      "spare": 7119,
      "spite": 7120,
      "spicy": 7121,
      "torrents": 7122,
      "ideas": 7123,
      "ideal": 7124,
      "temptation": 7125,
      "miny": 7126,
      "believable": 7127,
      "cray": 7128,
      "crank": 7129,
      "cracy": 7130,
      "hardest": 7131,
      "viez": 7132,
      "pier": 7133,
      "pique": 7134,
      "puts": 7135,
      "offen": 7136,
      "offended": 7137,
      "portent": 7138,
      "chain": 7139,
      "chaleur": 7140,
      "préc": 7141,
      "prévu": 7142,
      "préoccup": 7143,
      "prévois": 7144,
      "artist": 7145,
      "biting": 7146,
      "jobs": 7147,
      "financial": 7148,
      "buying": 7149,
      "breast": 7150,
      "breathe": 7151,
      "breasts": 7152,
      "igation": 7153,
      "hid": 7154,
      "hire": 7155,
      "hiking": 7156,
      "cares": 7157,
      "career": 7158,
      "handful": 7159,
      "handled": 7160,
      "bran": 7161,
      "brand": 7162,
      "brun": 7163,
      "brave": 7164,
      "brings": 7165,
      "bruit": 7166,
      "standards": 7167,
      "garlic": 7168,
      "garian": 7169,
      "easiest": 7170,
      "wanna": 7171,
      "presence": 7172,
      "preserve": 7173,
      "prises": 7174,
      "restes": 7175,
      "restim": 7176,
      "astated": 7177,
      "vouliez": 7178,
      "corner": 7179,
      "soula": 7180,
      "souri": 7181,
      "sourire": 7182,
      "southern": 7183,
      "differs": 7184,
      "Unfortunately": 7185,
      "Unbelievable": 7186,
      "humaine": 7187,
      "mérit": 7188,
      "mémoire": 7189,
      "mérite": 7190,
      "counting": 7191,
      "isting": 7192,
      "privé": 7193,
      "paycheck": 7194,
      "truc": 7195,
      "trumpet": 7196,
      "smashed": 7197,
      "sombre": 7198,
      "someday": 7199,
      "insane": 7200,
      "rum": 7201,
      "clap": 7202,
      "clar": 7203,
      "cloud": 7204,
      "clusterfuck": 7205,
      "opér": 7206,
      "opatra": 7207,
      "calcul": 7208,
      "coupable": 7209,
      "directeur": 7210,
      "comments": 7211,
      "bordel": 7212,
      "tattoo": 7213,
      "travailles": 7214,
      "irez": 7215,
      "asks": 7216,
      "trouvent": 7217,
      "trouvait": 7218,
      "acting": 7219,
      "parently": 7220,
      "raisins": 7221,
      "downstairs": 7222,
      "shoe": 7223,
      "shocked": 7224,
      "hurts": 7225,
      "fertili": 7226,
      "flow": 7227,
      "shows": 7228,
      "attent": 7229,
      "promen": 7230,
      "promets": 7231,
      "rainbow": 7232,
      "appears": 7233,
      "appealed": 7234,
      "bling": 7235,
      "blings": 7236,
      "bliss": 7237,
      "beside": 7238,
      "beings": 7239,
      "puissance": 7240,
      "puissiez": 7241,
      "hearing": 7242,
      "overlooked": 7243,
      "devin": 7244,
      "devil": 7245,
      "devait": 7246,
      "devastated": 7247,
      "supper": 7248,
      "supporter": 7249,
      "farm": 7250,
      "partial": 7251,
      "partici": 7252,
      "partially": 7253,
      "particu": 7254,
      "particip": 7255,
      "couramment": 7256,
      "complet": 7257,
      "version": 7258,
      "biggest": 7259,
      "center": 7260,
      "sits": 7261,
      "mêmes": 7262,
      "heureuses": 7263,
      "difficulties": 7264,
      "tained": 7265,
      "Chine": 7266,
      "océan": 7267,
      "breaks": 7268,
      "breaking": 7269,
      "sunscre": 7270,
      "partis": 7271,
      "deuxième": 7272,
      "numbers": 7273,
      "malgré": 7274,
      "smooth": 7275,
      "dynam": 7276,
      "licate": 7277,
      "ggle": 7278,
      "ggled": 7279,
      "surprising": 7280,
      "balls": 7281,
      "milit": 7282,
      "funds": 7283,
      "jouent": 7284,
      "staring": 7285,
      "contraire": 7286,
      "contrôle": 7287,
      "italism": 7288,
      "skilled": 7289,
      "skip": 7290,
      "chanceuse": 7291,
      "genoux": 7292,
      "genuine": 7293,
      "classroom": 7294,
      "hunch": 7295,
      "beggars": 7296,
      "turns": 7297,
      "Germans": 7298,
      "génie": 7299,
      "uniforms": 7300,
      "péné": 7301,
      "péenne": 7302,
      "faisais": 7303,
      "deciding": 7304,
      "jud": 7305,
      "baked": 7306,
      "mener": 7307,
      "tourner": 7308,
      "tourists": 7309,
      "alien": 7310,
      "capac": 7311,
      "capture": 7312,
      "aimerait": 7313,
      "secretary": 7314,
      "factory": 7315,
      "charges": 7316,
      "pianist": 7317,
      "célibat": 7318,
      "blackboard": 7319,
      "simul": 7320,
      "forgetting": 7321,
      "franchement": 7322,
      "corrected": 7323,
      "correcte": 7324,
      "doué": 7325,
      "doute": 7326,
      "mastered": 7327,
      "blow": 7328,
      "bloody": 7329,
      "blocked": 7330,
      "blowing": 7331,
      "attendais": 7332,
      "faible": 7333,
      "shaken": 7334,
      "étude": 7335,
      "fellow": 7336,
      "connaissais": 7337,
      "connaissance": 7338,
      "aware": 7339,
      "awkward": 7340,
      "castle": 7341,
      "jette": 7342,
      "decla": 7343,
      "current": 7344,
      "étant": 7345,
      "differences": 7346,
      "colours": 7347,
      "example": 7348,
      "examined": 7349,
      "dolls": 7350,
      "north": 7351,
      "paresse": 7352,
      "experiences": 7353,
      "cuté": 7354,
      "fallait": 7355,
      "interrom": 7356,
      "settled": 7357,
      "setbacks": 7358,
      "volant": 7359,
      "étudiante": 7360,
      "troisième": 7361,
      "experienced": 7362,
      "culation": 7363,
      "produits": 7364,
      "produced": 7365,
      "productive": 7366,
      "throne": 7367,
      "rers": 7368,
      "suitable": 7369,
      "suitcase": 7370,
      "terminer": 7371,
      "appointed": 7372,
      "blesser": 7373,
      "camion": 7374,
      "seconde": 7375,
      "seconds": 7376,
      "laughter": 7377,
      "mountains": 7378,
      "probabil": 7379,
      "thence": 7380,
      "interests": 7381,
      "steal": 7382,
      "steps": 7383,
      "steering": 7384,
      "salted": 7385,
      "recipe": 7386,
      "subje": 7387,
      "trade": 7388,
      "brio": 7389,
      "brief": 7390,
      "bridge": 7391,
      "pieces": 7392,
      "atists": 7393,
      "itches": 7394,
      "halfway": 7395,
      "ilized": 7396,
      "soldier": 7397,
      "soldering": 7398,
      "travels": 7399,
      "fautes": 7400,
      "horror": 7401,
      "horreur": 7402,
      "naked": 7403,
      "nails": 7404,
      "tenté": 7405,
      "orders": 7406,
      "ordering": 7407,
      "printed": 7408,
      "prints": 7409,
      "princesse": 7410,
      "critic": 7411,
      "critical": 7412,
      "closet": 7413,
      "closest": 7414,
      "punishment": 7415,
      "smarter": 7416,
      "pleasures": 7417,
      "adop": 7418,
      "adoles": 7419,
      "films": 7420,
      "sounding": 7421,
      "regarded": 7422,
      "quitte": 7423,
      "utilise": 7424,
      "utilisez": 7425,
      "trouveras": 7426,
      "sacred": 7427,
      "value": 7428,
      "valuable": 7429,
      "adviser": 7430,
      "affairs": 7431,
      "scientist": 7432,
      "intelligente": 7433,
      "consequences": 7434,
      "perdue": 7435,
      "And": 7436,
      "Mondays": 7437,
      "burg": 7438,
      "claims": 7439,
      "damage": 7440,
      "sauver": 7441,
      "relation": 7442,
      "patients": 7443,
      "follows": 7444,
      "eleph": 7445,
      "gunshot": 7446,
      "politician": 7447,
      "pièces": 7448,
      "heavens": 7449,
      "confir": 7450,
      "confess": 7451,
      "kidding": 7452,
      "passeport": 7453,
      "harvest": 7454,
      "risque": 7455,
      "risked": 7456,
      "risques": 7457,
      "joined": 7458,
      "client": 7459,
      "climb": 7460,
      "climat": 7461,
      "données": 7462,
      "based": 7463,
      "système": 7464,
      "receive": 7465,
      "admired": 7466,
      "réponds": 7467,
      "mauvaises": 7468,
      "banque": 7469,
      "paused": 7470,
      "sprang": 7471,
      "meaning": 7472,
      "meanings": 7473,
      "beginners": 7474,
      "employ": 7475,
      "enjoyed": 7476,
      "circus": 7477,
      "circonst": 7478,
      "circulation": 7479,
      "dresses": 7480,
      "drawing": 7481,
      "patent": 7482,
      "vacations": 7483,
      "veuilles": 7484,
      "tempor": 7485,
      "expecting": 7486,
      "expectations": 7487,
      "views": 7488,
      "utilisé": 7489,
      "sends": 7490,
      "thirteen": 7491,
      "espèce": 7492,
      "immediate": 7493,
      "préférerais": 7494,
      "médicam": 7495,
      "fashion": 7496,
      "rideau": 7497,
      "coûté": 7498,
      "objection": 7499,
      "objects": 7500,
      "sandwiches": 7501,
      "slid": 7502,
      "attracted": 7503,
      "chansons": 7504,
      "midnight": 7505,
      "community": 7506,
      "communism": 7507,
      "general": 7508,
      "dreams": 7509,
      "dreaming": 7510,
      "November": 7511,
      "naturel": 7512,
      "instantly": 7513,
      "sweep": 7514,
      "tends": 7515,
      "tendance": 7516,
      "tendency": 7517,
      "ordinary": 7518,
      "teenager": 7519,
      "teenagers": 7520,
      "trusting": 7521,
      "traité": 7522,
      "traiter": 7523,
      "movement": 7524,
      "carrying": 7525,
      "survival": 7526,
      "honesty": 7527,
      "terriblement": 7528,
      "embarrassing": 7529,
      "crédit": 7530,
      "ancestors": 7531,
      "suggère": 7532,
      "aboard": 7533,
      "aboie": 7534,
      "confidence": 7535,
      "college": 7536,
      "collection": 7537,
      "collected": 7538,
      "apporte": 7539,
      "exercice": 7540,
      "fatigu": 7541,
      "opera": 7542,
      "square": 7543,
      "recovery": 7544,
      "semblait": 7545,
      "semblant": 7546,
      "contribute": 7547,
      "contributeur": 7548,
      "countless": 7549,
      "paintings": 7550,
      "pisto": 7551,
      "chanteur": 7552,
      "chanteuse": 7553,
      "logist": 7554,
      "improving": 7555,
      "improved": 7556,
      "collabor": 7557,
      "violin": 7558,
      "explic": 7559,
      "musicien": 7560,
      "sûrement": 7561,
      "eighty": 7562,
      "gambling": 7563,
      "issues": 7564,
      "memorize": 7565,
      "texting": 7566,
      "textbook": 7567,
      "accustomed": 7568,
      "concentrer": 7569,
      "pronounce": 7570,
      "pronunciation": 7571,
      "property": 7572,
      "neighborhood": 7573,
      "dommage": 7574,
      "bullet": 7575,
      "prennent": 7576,
      "smiled": 7577,
      "chapter": 7578,
      "abandoned": 7579,
      "désir": 7580,
      "grounds": 7581,
      "poisonous": 7582,
      "softly": 7583,
      "software": 7584,
      "crowded": 7585,
      "millionaire": 7586,
      "prendra": 7587,
      "assumptions": 7588,
      "arian": 7589,
      "laxy": 7590,
      "copy": 7591,
      "chairs": 7592,
      "chairperson": 7593,
      "chausset": 7594,
      "soucier": 7595,
      "flavor": 7596,
      "flags": 7597,
      "knocked": 7598,
      "lentement": 7599,
      "murder": 7600,
      "escaped": 7601,
      "bearing": 7602,
      "aimée": 7603,
      "madness": 7604,
      "advise": 7605,
      "sharpen": 7606,
      "presidential": 7607,
      "obliged": 7608,
      "obligations": 7609,
      "général": 7610,
      "généralement": 7611,
      "invités": 7612,
      "invitées": 7613,
      "habitué": 7614,
      "translation": 7615,
      "horrified": 7616,
      "earthquakes": 7617,
      "traduction": 7618,
      "traductions": 7619,
      "recognized": 7620,
      "Apparently": 7621,
      "obey": 7622,
      "rational": 7623,
      "required": 7624,
      "contented": 7625,
      "prudente": 7626,
      "prisoner": 7627,
      "différents": 7628,
      "différences": 7629,
      "Londres": 7630,
      "See": 7631,
      "purpose": 7632,
      "swam": 7633,
      "slain": 7634,
      "winds": 7635,
      "leader": 7636,
      "arguing": 7637,
      "quarter": 7638,
      "notebook": 7639,
      "separate": 7640,
      "separatists": 7641,
      "divorced": 7642,
      "mystery": 7643,
      "ambitious": 7644,
      "abilité": 7645,
      "residential": 7646,
      "parole": 7647,
      "practice": 7648,
      "discuss": 7649,
      "mignons": 7650,
      "woods": 7651,
      "guitare": 7652,
      "curious": 7653,
      "blankets": 7654,
      "supportive": 7655,
      "effects": 7656,
      "empêché": 7657,
      "risks": 7658,
      "drawings": 7659,
      "explode": 7660,
      "increasing": 7661,
      "congratulate": 7662,
      "philosophie": 7663,
      "freak": 7664,
      "rays": 7665,
      "taste": 7666,
      "fronti": 7667,
      "distributed": 7668,
      "serviettes": 7669,
      "sérieusement": 7670,
      "cloudy": 7671,
      "skiing": 7672,
      "skipped": 7673,
      "scientifiques": 7674,
      "Turkey": 7675,
      "bunch": 7676,
      "fairly": 7677,
      "glance": 7678,
      "glory": 7679,
      "hilltop": 7680,
      "honeymoon": 7681,
      "jacket": 7682,
      "saint": 7683,
      "scream": 7684,
      "towards": 7685,
      "attendons": 7686,
      "defeat": 7687,
      "defeated": 7688,
      "searching": 7689,
      "weighs": 7690,
      "dialect": 7691,
      "ironed": 7692,
      "advertising": 7693,
      "absurd": 7694,
      "déclar": 7695,
      "vengeance": 7696,
      "composed": 7697,
      "occurred": 7698,
      "bicycles": 7699,
      "customs": 7700,
      "fluently": 7701,
      "banana": 7702,
      "bananas": 7703,
      "environmental": 7704,
      "benefit": 7705,
      "benefits": 7706,
      "Jeanne": 7707,
      "Catholic": 7708,
      "naissance": 7709,
      "oiseaux": 7710,
      "russe": 7711,
      "rappelez": 7712,
      "scarf": 7713,
      "atteint": 7714,
      "atteindre": 7715,
      "augmenté": 7716,
      "comportement": 7717,
      "impliqué": 7718,
      "adapt": 7719,
      "endormi": 7720,
      "plaisante": 7721,
      "describe": 7722,
      "grapes": 7723,
      "couverture": 7724,
      "publique": 7725,
      "traverser": 7726,
      "emprunter": 7727,
      "confiscated": 7728,
      "raconter": 7729,
      "prononcer": 7730,
      "quotidien": 7731,
      "pyramids": 7732,
      "Hey": 7733,
      "emergency": 7734,
      "jokes": 7735,
      "joking": 7736,
      "économie": 7737,
      "relevant": 7738,
      "relief": 7739,
      "relieved": 7740,
      "reconnaissante": 7741,
      "relaxed": 7742,
      "betrayed": 7743,
      "texte": 7744,
      "season": 7745,
      "seasons": 7746,
      "dieting": 7747,
      "educated": 7748,
      "education": 7749,
      "peinture": 7750,
      "peaceful": 7751,
      "commerce": 7752,
      "commercial": 7753,
      "providing": 7754,
      "excellent": 7755,
      "merveilleux": 7756,
      "personality": 7757,
      "brûlé": 7758,
      "shooting": 7759,
      "athlete": 7760,
      "athletic": 7761,
      "ponctuel": 7762,
      "yellow": 7763,
      "jumped": 7764,
      "character": 7765,
      "characters": 7766,
      "Indeed": 7767,
      "pretending": 7768,
      "billets": 7769,
      "threatened": 7770,
      "technology": 7771,
      "sympathize": 7772,
      "Capitalism": 7773,
      "Jackson": 7774,
      "Researchers": 7775,
      "cacher": 7776,
      "reliable": 7777,
      "insulting": 7778,
      "errors": 7779,
      "chinois": 7780,
      "diamond": 7781,
      "possède": 7782,
      "critique": 7783,
      "légumes": 7784,
      "opposite": 7785,
      "appelée": 7786,
      "objets": 7787,
      "capitaine": 7788,
      "brillante": 7789,
      "humiliated": 7790,
      "Africa": 7791,
      "Contin": 7792,
      "Moscow": 7793,
      "Magic": 7794,
      "ajout": 7795,
      "biscu": 7796,
      "wreck": 7797,
      "wolf": 7798,
      "éclata": 7799,
      "reduced": 7800,
      "retarded": 7801,
      "delayed": 7802,
      "behavior": 7803,
      "ridicul": 7804,
      "jellyfish": 7805,
      "complaint": 7806,
      "immortal": 7807,
      "knowledge": 7808,
      "abstract": 7809,
      "urinating": 7810,
      "practicing": 7811,
      "fréquent": 7812,
      "protéger": 7813,
      "programme": 7814,
      "extremely": 7815,
      "dessinées": 7816,
      "toothache": 7817,
      "physique": 7818,
      "rubbish": 7819,
      "supplies": 7820,
      "profonde": 7821,
      "prettiest": 7822,
      "volcano": 7823,
      "constantly": 7824,
      "victim": 7825,
      "sweaty": 7826,
      "Arabic": 7827,
      "Américains": 7828,
      "Christopher": 7829,
      "resourceful": 7830,
      "curiosity": 7831,
      "electricity": 7832,
      "parfaitement": 7833,
      "advertisements": 7834,
      "customers": 7835,
      "circumstances": 7836,
      "Israel": 7837,
      "Pythagoras": 7838,
      "distinguish": 7839,
      "University": 7840,
      "fantômes": 7841,
      "fresh": 7842,
      "flash": 7843,
      "souten": 7844,
      "various": 7845,
      "inspiration": 7846,
      "quinze": 7847,
      "audience": 7848,
      "agressi": 7849,
      "conférence": 7850,
      "conspiracy": 7851,
      "permanent": 7852,
      "caractère": 7853,
      "spectators": 7854,
      "répand": 7855,
      "spatial": 7856,
      "crutches": 7857,
      "soudaine": 7858,
      "gentillesse": 7859,
      "transported": 7860,
      "volontaire": 7861,
      "constituent": 7862,
      "véritable": 7863,
      "prendrai": 7864,
      "ingénieurs": 7865,
      "multilingual": 7866,
      "Achieving": 7867,
      "Brésil": 7868,
      "Cleopatra": 7869,
      "Cairo": 7870,
      "Celsius": 7871,
      "Chile": 7872,
      "Droplets": 7873,
      "Egyptian": 7874,
      "Group": 7875,
      "Google": 7876,
      "Hungarian": 7877,
      "However": 7878,
      "Jouons": 7879,
      "Olympic": 7880,
      "Promettez": 7881,
      "Saturday": 7882,
      "Scots": 7883,
      "Venus": 7884,
      "World": 7885,
      "Whoever": 7886,
      "aéroport": 7887,
      "bastard": 7888,
      "blessée": 7889,
      "baleine": 7890,
      "frightened": 7891,
      "freedom": 7892,
      "knees": 7893,
      "mouvement": 7894,
      "météor": 7895,
      "nasty": 7896,
      "narrow": 7897,
      "naive": 7898,
      "nickname": 7899,
      "scolded": 7900,
      "swinging": 7901,
      "scratching": 7902,
      "twelve": 7903,
      "égoï": 7904,
      "époque": 7905,
      "rempli": 7906,
      "recommended": 7907,
      "inspired": 7908,
      "incorrigi": 7909,
      "enormous": 7910,
      "leftovers": 7911,
      "articles": 7912,
      "degrees": 7913,
      "deceptive": 7914,
      "developed": 7915,
      "detailed": 7916,
      "negoti": 7917,
      "tetanus": 7918,
      "seldom": 7919,
      "chunks": 7920,
      "stalling": 7921,
      "suffered": 7922,
      "amount": 7923,
      "aggression": 7924,
      "abducted": 7925,
      "unemployed": 7926,
      "apprentissage": 7927,
      "appétit": 7928,
      "luggage": 7929,
      "marvelous": 7930,
      "surgery": 7931,
      "diseases": 7932,
      "disobeyed": 7933,
      "phénomène": 7934,
      "fertiliz": 7935,
      "sunscreen": 7936,
      "célibataire": 7937,
      "25": 7938,
      "26": 7939,
      "27": 7940,
      "2000": 7941,
      "32": 7942,
      "42": 7943,
      "83": 7944,
      "88": 7945,
      "89": 7946,
      "AM": 7947,
      "As": 7948,
      "Av": 7949,
      "Ale": 7950,
      "Ala": 7951,
      "Asi": 7952,
      "Apo": 7953,
      "Alas": 7954,
      "Amu": 7955,
      "Alf": 7956,
      "Alla": 7957,
      "Amn": 7958,
      "Adéla": 7959,
      "Bre": 7960,
      "Ban": 7961,
      "Bay": 7962,
      "But": 7963,
      "Bel": 7964,
      "Bask": 7965,
      "Bras": 7966,
      "Bride": 7967,
      "Bats": 7968,
      "Bama": 7969,
      "BRI": 7970,
      "Baby": 7971,
      "BBC": 7972,
      "CD": 7973,
      "Ce": 7974,
      "Ces": 7975,
      "Car": 7976,
      "Cong": 7977,
      "Cart": 7978,
      "Cop": 7979,
      "Coc": 7980,
      "Cali": 7981,
      "CRI": 7982,
      "Crist": 7983,
      "Du": 7984,
      "Dall": 7985,
      "Dav": 7986,
      "Dard": 7987,
      "Dame": 7988,
      "Dég": 7989,
      "Dép": 7990,
      "Emil": 7991,
      "Eric": 7992,
      "Euler": 7993,
      "Fad": 7994,
      "Fred": 7995,
      "Face": 7996,
      "Fanta": 7997,
      "Gar": 7998,
      "Gor": 7999,
      "Gand": 8000,
      "Gold": 8001,
      "Gaz": 8002,
      "Gables": 8003,
      "Hu": 8004,
      "Han": 8005,
      "Hit": 8006,
      "Hall": 8007,
      "Hend": 8008,
      "Ir": 8009,
      "Istan": 8010,
      "Jan": 8011,
      "Jen": 8012,
      "Jup": 8013,
      "Jord": 8014,
      "Kas": 8015,
      "Kak": 8016,
      "Kaz": 8017,
      "Kathy": 8018,
      "LS": 8019,
      "Le": 8020,
      "Lu": 8021,
      "Lé": 8022,
      "Lin": 8023,
      "Len": 8024,
      "Lang": 8025,
      "Lux": 8026,
      "Loun": 8027,
      "Lavez": 8028,
      "Mer": 8029,
      "Mir": 8030,
      "Mus": 8031,
      "Mod": 8032,
      "Mic": 8033,
      "Mage": 8034,
      "Mish": 8035,
      "Mart": 8036,
      "Matt": 8037,
      "Mali": 8038,
      "Mande": 8039,
      "Max": 8040,
      "Na": 8041,
      "Nap": 8042,
      "Nag": 8043,
      "Nel": 8044,
      "Nak": 8045,
      "Notre": 8046,
      "Nara": 8047,
      "Nash": 8048,
      "Ox": 8049,
      "Oba": 8050,
      "Oscar": 8051,
      "Oliver": 8052,
      "Okin": 8053,
      "PT": 8054,
      "Pa": 8055,
      "Ph": 8056,
      "Pic": 8057,
      "Park": 8058,
      "Phar": 8059,
      "Pader": 8060,
      "Patri": 8061,
      "Rh": 8062,
      "Rome": 8063,
      "Rick": 8064,
      "Reven": 8065,
      "Rob": 8066,
      "Roc": 8067,
      "RAM": 8068,
      "Su": 8069,
      "Sy": 8070,
      "Sha": 8071,
      "Say": 8072,
      "Sta": 8073,
      "Sam": 8074,
      "Sab": 8075,
      "Sally": 8076,
      "Sato": 8077,
      "Spot": 8078,
      "Scand": 8079,
      "Sara": 8080,
      "Simp": 8081,
      "Sandra": 8082,
      "SCRI": 8083,
      "Ti": 8084,
      "Tar": 8085,
      "Ted": 8086,
      "Tim": 8087,
      "Tick": 8088,
      "Tuf": 8089,
      "Trang": 8090,
      "Uk": 8091,
      "Uran": 8092,
      "Ubun": 8093,
      "Unies": 8094,
      "Ver": 8095,
      "Vince": 8096,
      "ao": 8097,
      "ails": 8098,
      "ahu": 8099,
      "adiction": 8100,
      "bû": 8101,
      "bain": 8102,
      "barri": 8103,
      "bande": 8104,
      "brace": 8105,
      "cing": 8106,
      "cout": 8107,
      "cra": 8108,
      "cable": 8109,
      "ckey": 8110,
      "ctron": 8111,
      "coffre": 8112,
      "dne": 8113,
      "dant": 8114,
      "dhis": 8115,
      "dite": 8116,
      "dès": 8117,
      "dors": 8118,
      "eût": 8119,
      "eusement": 8120,
      "eBay": 8121,
      "fos": 8122,
      "fan": 8123,
      "fest": 8124,
      "fare": 8125,
      "fans": 8126,
      "faus": 8127,
      "fâché": 8128,
      "gê": 8129,
      "gur": 8130,
      "gel": 8131,
      "gère": 8132,
      "gée": 8133,
      "gène": 8134,
      "hro": 8135,
      "hés": 8136,
      "héro": 8137,
      "hstan": 8138,
      "ielle": 8139,
      "igu": 8140,
      "iens": 8141,
      "ivre": 8142,
      "ival": 8143,
      "jban": 8144,
      "jandra": 8145,
      "ki": 8146,
      "kins": 8147,
      "kile": 8148,
      "kilt": 8149,
      "lon": 8150,
      "lut": 8151,
      "lux": 8152,
      "lton": 8153,
      "mm": 8154,
      "mai": 8155,
      "mif": 8156,
      "mène": 8157,
      "mension": 8158,
      "nir": 8159,
      "nav": 8160,
      "nard": 8161,
      "naie": 8162,
      "naise": 8163,
      "ox": 8164,
      "ote": 8165,
      "och": 8166,
      "oli": 8167,
      "ores": 8168,
      "olives": 8169,
      "oween": 8170,
      "pse": 8171,
      "pam": 8172,
      "ples": 8173,
      "pach": 8174,
      "pture": 8175,
      "pair": 8176,
      "pages": 8177,
      "ppé": 8178,
      "pago": 8179,
      "pèse": 8180,
      "poker": 8181,
      "pantal": 8182,
      "ruse": 8183,
      "ront": 8184,
      "raient": 8185,
      "rural": 8186,
      "rasse": 8187,
      "ravi": 8188,
      "sence": 8189,
      "scul": 8190,
      "sœurs": 8191,
      "tand": 8192,
      "tante": 8193,
      "taill": 8194,
      "tition": 8195,
      "uan": 8196,
      "uch": 8197,
      "uvre": 8198,
      "vra": 8199,
      "vité": 8200,
      "vint": 8201,
      "vince": 8202,
      "vions": 8203,
      "vari": 8204,
      "vâmes": 8205,
      "wright": 8206,
      "xion": 8207,
      "xic": 8208,
      "yn": 8209,
      "ymar": 8210,
      "yach": 8211,
      "yser": 8212,
      "yens": 8213,
      "yaz": 8214,
      "yuan": 8215,
      "zart": 8216,
      "zéro": 8217,
      "çois": 8218,
      "ètre": 8219,
      "évi": 8220,
      "édu": 8221,
      "éton": 8222,
      "égard": 8223,
      "épic": 8224,
      "échange": 8225,
      "évolution": 8226,
      "élève": 8227,
      "éclair": 8228,
      "éprouve": 8229,
      "ême": 8230,
      "ío": 8231,
      "ïs": 8232,
      "ïde": 8233,
      "ïne": 8234,
      "ône": 8235,
      "œuvre": 8236,
      "thme": 8237,
      "thèse": 8238,
      "oute": 8239,
      "ouilles": 8240,
      "osla": 8241,
      "aphro": 8242,
      "reç": 8243,
      "rever": 8244,
      "reprendre": 8245,
      "reprise": 8246,
      "retrouvé": 8247,
      "recharge": 8248,
      "repasser": 8249,
      "remise": 8250,
      "reconstru": 8251,
      "reviendra": 8252,
      "inent": 8253,
      "intu": 8254,
      "infe": 8255,
      "inav": 8256,
      "intime": 8257,
      "inson": 8258,
      "inspe": 8259,
      "incomp": 8260,
      "inable": 8261,
      "incl": 8262,
      "incess": 8263,
      "incident": 8264,
      "inconn": 8265,
      "insol": 8266,
      "infect": 8267,
      "inclus": 8268,
      "intact": 8269,
      "injustice": 8270,
      "incen": 8271,
      "insult": 8272,
      "incalcu": 8273,
      "isa": 8274,
      "isse": 8275,
      "istr": 8276,
      "isman": 8277,
      "isation": 8278,
      "isés": 8279,
      "issant": 8280,
      "anç": 8281,
      "anne": 8282,
      "anus": 8283,
      "anmar": 8284,
      "annu": 8285,
      "analo": 8286,
      "anthro": 8287,
      "ongo": 8288,
      "onnes": 8289,
      "onies": 8290,
      "onnaise": 8291,
      "tower": 8292,
      "eras": 8293,
      "erie": 8294,
      "eria": 8295,
      "ervilles": 8296,
      "enva": 8297,
      "envers": 8298,
      "enrich": 8299,
      "enreg": 8300,
      "enlève": 8301,
      "escha": 8302,
      "escor": 8303,
      "escali": 8304,
      "atar": 8305,
      "atif": 8306,
      "atmos": 8307,
      "asc": 8308,
      "asi": 8309,
      "asli": 8310,
      "asso": 8311,
      "assi": 8312,
      "astre": 8313,
      "asol": 8314,
      "astro": 8315,
      "asiment": 8316,
      "asaki": 8317,
      "lection": 8318,
      "lecture": 8319,
      "itz": 8320,
      "itan": 8321,
      "itif": 8322,
      "ombi": 8323,
      "araig": 8324,
      "orte": 8325,
      "ories": 8326,
      "llo": 8327,
      "llas": 8328,
      "mec": 8329,
      "membre": 8330,
      "qua": 8331,
      "quis": 8332,
      "quées": 8333,
      "quarti": 8334,
      "quasiment": 8335,
      "dement": 8336,
      "dedans": 8337,
      "devenue": 8338,
      "noire": 8339,
      "neur": 8340,
      "neig": 8341,
      "bec": 8342,
      "dotes": 8343,
      "doig": 8344,
      "seau": 8345,
      "seille": 8346,
      "semi": 8347,
      "secr": 8348,
      "secours": 8349,
      "seize": 8350,
      "hau": 8351,
      "hael": 8352,
      "hamb": 8353,
      "haute": 8354,
      "hammed": 8355,
      "cemment": 8356,
      "châ": 8357,
      "chent": 8358,
      "chard": 8359,
      "chland": 8360,
      "entit": 8361,
      "limit": 8362,
      "limous": 8363,
      "stim": 8364,
      "stable": 8365,
      "statis": 8366,
      "gov": 8367,
      "golf": 8368,
      "rix": 8369,
      "rigo": 8370,
      "riot": 8371,
      "riel": 8372,
      "rifi": 8373,
      "rival": 8374,
      "rialis": 8375,
      "aides": 8376,
      "aimais": 8377,
      "esty": 8378,
      "estin": 8379,
      "ales": 8380,
      "alas": 8381,
      "altru": 8382,
      "alphan": 8383,
      "verdi": 8384,
      "verres": 8385,
      "jetez": 8386,
      "allées": 8387,
      "allumer": 8388,
      "diez": 8389,
      "dirent": 8390,
      "dieu": 8391,
      "digne": 8392,
      "dicta": 8393,
      "dimension": 8394,
      "unami": 8395,
      "tif": 8396,
      "till": 8397,
      "tiend": 8398,
      "tiques": 8399,
      "ticip": 8400,
      "quez": 8401,
      "formu": 8402,
      "former": 8403,
      "donn": 8404,
      "donnée": 8405,
      "roi": 8406,
      "ropho": 8407,
      "aura": 8408,
      "aurez": 8409,
      "auprès": 8410,
      "loge": 8411,
      "loyer": 8412,
      "location": 8413,
      "outrage": 8414,
      "sud": 8415,
      "sulf": 8416,
      "ourg": 8417,
      "passa": 8418,
      "passes": 8419,
      "user": 8420,
      "usions": 8421,
      "peare": 8422,
      "peindre": 8423,
      "pects": 8424,
      "commission": 8425,
      "mah": 8426,
      "maje": 8427,
      "malad": 8428,
      "maître": 8429,
      "maîtr": 8430,
      "tut": 8431,
      "tuber": 8432,
      "impri": 8433,
      "moin": 8434,
      "motel": 8435,
      "moteur": 8436,
      "moquer": 8437,
      "mocrat": 8438,
      "terme": 8439,
      "terbro": 8440,
      "terror": 8441,
      "tacter": 8442,
      "hop": 8443,
      "hoop": 8444,
      "hockey": 8445,
      "ades": 8446,
      "adul": 8447,
      "admin": 8448,
      "advers": 8449,
      "adorable": 8450,
      "amen": 8451,
      "amic": 8452,
      "amitié": 8453,
      "otine": 8454,
      "ottes": 8455,
      "thermo": 8456,
      "thermost": 8457,
      "thermom": 8458,
      "acer": 8459,
      "acro": 8460,
      "acron": 8461,
      "acasli": 8462,
      "histoi": 8463,
      "histori": 8464,
      "agan": 8465,
      "plex": 8466,
      "solaire": 8467,
      "avé": 8468,
      "avou": 8469,
      "avril": 8470,
      "avancé": 8471,
      "ichel": 8472,
      "icace": 8473,
      "ustropho": 8474,
      "paran": 8475,
      "parte": 8476,
      "parach": 8477,
      "pardonner": 8478,
      "parliez": 8479,
      "parasol": 8480,
      "inko": 8481,
      "renom": 8482,
      "rencon": 8483,
      "renvoy": 8484,
      "rentré": 8485,
      "urger": 8486,
      "condo": 8487,
      "conver": 8488,
      "conven": 8489,
      "consé": 8490,
      "condit": 8491,
      "consom": 8492,
      "conform": 8493,
      "consci": 8494,
      "convient": 8495,
      "contient": 8496,
      "conjug": 8497,
      "contacter": 8498,
      "prose": 8499,
      "prince": 8500,
      "prude": 8501,
      "prouver": 8502,
      "sière": 8503,
      "frame": 8504,
      "frappe": 8505,
      "aveug": 8506,
      "code": 8507,
      "cock": 8508,
      "indis": 8509,
      "boivent": 8510,
      "vive": 8511,
      "viande": 8512,
      "vivez": 8513,
      "vivait": 8514,
      "iff": 8515,
      "ifest": 8516,
      "plat": 8517,
      "plas": 8518,
      "plorable": 8519,
      "déce": 8520,
      "dési": 8521,
      "défi": 8522,
      "défait": 8523,
      "dégr": 8524,
      "dénu": 8525,
      "décor": 8526,
      "défil": 8527,
      "débat": 8528,
      "dépensé": 8529,
      "dépasser": 8530,
      "dépê": 8531,
      "dévelo": 8532,
      "déconne": 8533,
      "débarr": 8534,
      "dégoû": 8535,
      "dépourvu": 8536,
      "appre": 8537,
      "applau": 8538,
      "cia": 8539,
      "civ": 8540,
      "citoy": 8541,
      "manus": 8542,
      "manques": 8543,
      "manqué": 8544,
      "manquent": 8545,
      "manifest": 8546,
      "plaire": 8547,
      "placé": 8548,
      "plafond": 8549,
      "persé": 8550,
      "perfection": 8551,
      "perception": 8552,
      "persion": 8553,
      "proven": 8554,
      "exo": 8555,
      "exor": 8556,
      "expos": 8557,
      "exige": 8558,
      "exception": 8559,
      "tensions": 8560,
      "duo": 8561,
      "dures": 8562,
      "saches": 8563,
      "saoul": 8564,
      "nia": 8565,
      "niques": 8566,
      "poig": 8567,
      "poète": 8568,
      "monst": 8569,
      "monter": 8570,
      "monot": 8571,
      "monade": 8572,
      "mondiale": 8573,
      "monnaie": 8574,
      "ounan": 8575,
      "voler": 8576,
      "lude": 8577,
      "illage": 8578,
      "illusion": 8579,
      "illusions": 8580,
      "litres": 8581,
      "témoin": 8582,
      "ako": 8583,
      "aks": 8584,
      "akhstan": 8585,
      "pensait": 8586,
      "mug": 8587,
      "marath": 8588,
      "bio": 8589,
      "bigot": 8590,
      "tsunami": 8591,
      "fière": 8592,
      "fiable": 8593,
      "ports": 8594,
      "portion": 8595,
      "chewing": 8596,
      "morte": 8597,
      "geyser": 8598,
      "essenti": 8599,
      "achè": 8600,
      "récon": 8601,
      "régu": 8602,
      "réfu": 8603,
      "réput": 8604,
      "répare": 8605,
      "récla": 8606,
      "révolution": 8607,
      "résident": 8608,
      "réveille": 8609,
      "rémonie": 8610,
      "récemment": 8611,
      "choc": 8612,
      "dentiste": 8613,
      "étagère": 8614,
      "comprend": 8615,
      "compatis": 8616,
      "comprennent": 8617,
      "mpa": 8618,
      "dises": 8619,
      "dissu": 8620,
      "discrimin": 8621,
      "discuté": 8622,
      "dispersion": 8623,
      "maisons": 8624,
      "serré": 8625,
      "seriez": 8626,
      "servant": 8627,
      "gies": 8628,
      "olé": 8629,
      "mique": 8630,
      "miel": 8631,
      "posé": 8632,
      "positive": 8633,
      "joindre": 8634,
      "miséri": 8635,
      "merde": 8636,
      "grais": 8637,
      "tyran": 8638,
      "gum": 8639,
      "guère": 8640,
      "guides": 8641,
      "coule": 8642,
      "couché": 8643,
      "couvert": 8644,
      "buste": 8645,
      "bussy": 8646,
      "phos": 8647,
      "phère": 8648,
      "selfie": 8649,
      "putain": 8650,
      "purific": 8651,
      "iciel": 8652,
      "questionnaire": 8653,
      "séjour": 8654,
      "ffer": 8655,
      "arrivait": 8656,
      "drôle": 8657,
      "matéri": 8658,
      "tempête": 8659,
      "tempér": 8660,
      "minor": 8661,
      "minus": 8662,
      "minine": 8663,
      "minuit": 8664,
      "cram": 8665,
      "crain": 8666,
      "crue": 8667,
      "crème": 8668,
      "langage": 8669,
      "nuis": 8670,
      "null": 8671,
      "nuage": 8672,
      "nuages": 8673,
      "cates": 8674,
      "catalo": 8675,
      "sentit": 8676,
      "sentait": 8677,
      "kespeare": 8678,
      "offens": 8679,
      "offense": 8680,
      "chaise": 8681,
      "chambres": 8682,
      "prévenue": 8683,
      "préhen": 8684,
      "prévoyez": 8685,
      "prévisions": 8686,
      "présente": 8687,
      "trole": 8688,
      "artres": 8689,
      "tonner": 8690,
      "final": 8691,
      "financi": 8692,
      "léger": 8693,
      "llement": 8694,
      "vécut": 8695,
      "vérifi": 8696,
      "handball": 8697,
      "bru": 8698,
      "brune": 8699,
      "bruck": 8700,
      "bronz": 8701,
      "britan": 8702,
      "gardé": 8703,
      "presse": 8704,
      "pressé": 8705,
      "voulaient": 8706,
      "voulut": 8707,
      "cordes": 8708,
      "correspon": 8709,
      "souf": 8710,
      "souffle": 8711,
      "diffère": 8712,
      "hula": 8713,
      "humains": 8714,
      "méprise": 8715,
      "mayonnaise": 8716,
      "cerveau": 8717,
      "trig": 8718,
      "tribun": 8719,
      "triangle": 8720,
      "cule": 8721,
      "insis": 8722,
      "rues": 8723,
      "rumin": 8724,
      "itées": 8725,
      "opti": 8726,
      "calories": 8727,
      "coupa": 8728,
      "coups": 8729,
      "couples": 8730,
      "commentaire": 8731,
      "commentaires": 8732,
      "jazz": 8733,
      "bord": 8734,
      "boracasli": 8735,
      "tatou": 8736,
      "atiques": 8737,
      "mettr": 8738,
      "valeur": 8739,
      "ferions": 8740,
      "promener": 8741,
      "raine": 8742,
      "appelons": 8743,
      "blan": 8744,
      "devais": 8745,
      "deviner": 8746,
      "grandi": 8747,
      "partira": 8748,
      "particul": 8749,
      "boycot": 8750,
      "courte": 8751,
      "homos": 8752,
      "magnit": 8753,
      "gentille": 8754,
      "accidents": 8755,
      "pondu": 8756,
      "dinos": 8757,
      "situe": 8758,
      "difficiles": 8759,
      "cherches": 8760,
      "cherchait": 8761,
      "tropical": 8762,
      "difficulté": 8763,
      "allergies": 8764,
      "Chartres": 8765,
      "obligé": 8766,
      "arrose": 8767,
      "polici": 8768,
      "Marty": 8769,
      "Marseille": 8770,
      "portez": 8771,
      "nouveaux": 8772,
      "personnel": 8773,
      "Frances": 8774,
      "Fritz": 8775,
      "contrari": 8776,
      "contradiction": 8777,
      "drian": 8778,
      "garderai": 8779,
      "pendante": 8780,
      "gér": 8781,
      "géni": 8782,
      "géante": 8783,
      "gérie": 8784,
      "génies": 8785,
      "latin": 8786,
      "uniqu": 8787,
      "péril": 8788,
      "pétrole": 8789,
      "talisman": 8790,
      "atomique": 8791,
      "drew": 8792,
      "jupe": 8793,
      "menu": 8794,
      "mente": 8795,
      "touristes": 8796,
      "entretenir": 8797,
      "captu": 8798,
      "dingue": 8799,
      "aimerions": 8800,
      "facture": 8801,
      "factures": 8802,
      "charger": 8803,
      "Inns": 8804,
      "cérémonie": 8805,
      "changements": 8806,
      "francs": 8807,
      "masoch": 8808,
      "fournit": 8809,
      "fournir": 8810,
      "patio": 8811,
      "études": 8812,
      "expert": 8813,
      "connaissent": 8814,
      "casino": 8815,
      "cassée": 8816,
      "jeta": 8817,
      "bagages": 8818,
      "curry": 8819,
      "dorment": 8820,
      "coln": 8821,
      "colonies": 8822,
      "dernières": 8823,
      "téléphones": 8824,
      "examine": 8825,
      "essaya": 8826,
      "essayez": 8827,
      "photograp": 8828,
      "pareil": 8829,
      "habitait": 8830,
      "stupides": 8831,
      "stupidit": 8832,
      "fallut": 8833,
      "intercep": 8834,
      "interaction": 8835,
      "intersection": 8836,
      "internationale": 8837,
      "animation": 8838,
      "aidera": 8839,
      "Pardonnez": 8840,
      "translu": 8841,
      "transfus": 8842,
      "étudié": 8843,
      "étudient": 8844,
      "hono": 8845,
      "honor": 8846,
      "honneur": 8847,
      "panne": 8848,
      "informations": 8849,
      "plaintes": 8850,
      "culti": 8851,
      "sûres": 8852,
      "premiers": 8853,
      "bouill": 8854,
      "bouche": 8855,
      "boutique": 8856,
      "embourg": 8857,
      "venues": 8858,
      "campus": 8859,
      "excès": 8860,
      "thesda": 8861,
      "pouvaient": 8862,
      "cymb": 8863,
      "cyber": 8864,
      "assise": 8865,
      "assistance": 8866,
      "supposés": 8867,
      "viré": 8868,
      "béné": 8869,
      "salons": 8870,
      "arrêtée": 8871,
      "regarda": 8872,
      "regardes": 8873,
      "regardant": 8874,
      "ilia": 8875,
      "ilip": 8876,
      "trouverez": 8877,
      "soluble": 8878,
      "concerne": 8879,
      "travaillais": 8880,
      "travaillons": 8881,
      "tentation": 8882,
      "précieux": 8883,
      "commenç": 8884,
      "bara": 8885,
      "barre": 8886,
      "emmène": 8887,
      "constamment": 8888,
      "Joe": 8889,
      "adorent": 8890,
      "utiles": 8891,
      "vérance": 8892,
      "vitam": 8893,
      "vitesse": 8894,
      "mariée": 8895,
      "affir": 8896,
      "égalité": 8897,
      "conseille": 8898,
      "conseilla": 8899,
      "Anna": 8900,
      "Ankara": 8901,
      "Anki": 8902,
      "Anticip": 8903,
      "Andrew": 8904,
      "Mongo": 8905,
      "Monsieur": 8906,
      "Mondrian": 8907,
      "claustropho": 8908,
      "scand": 8909,
      "scène": 8910,
      "sauce": 8911,
      "sauter": 8912,
      "identif": 8913,
      "messages": 8914,
      "confusion": 8915,
      "engager": 8916,
      "accue": 8917,
      "arrivés": 8918,
      "Johnson": 8919,
      "éping": 8920,
      "apprécient": 8921,
      "rencontrons": 8922,
      "climato": 8923,
      "clipse": 8924,
      "fluctu": 8925,
      "fluores": 8926,
      "idiom": 8927,
      "actuar": 8928,
      "actuelle": 8929,
      "actuellement": 8930,
      "signific": 8931,
      "signification": 8932,
      "présenté": 8933,
      "Neymar": 8934,
      "distances": 8935,
      "publicité": 8936,
      "ignit": 8937,
      "courageux": 8938,
      "pauvres": 8939,
      "sprint": 8940,
      "étrang": 8941,
      "étrangers": 8942,
      "oublier": 8943,
      "maladies": 8944,
      "pensées": 8945,
      "matinée": 8946,
      "joueurs": 8947,
      "employer": 8948,
      "1920": 8949,
      "1912": 8950,
      "1914": 8951,
      "bert": 8952,
      "cirr": 8953,
      "patriot": 8954,
      "vacu": 8955,
      "seller": 8956,
      "sortis": 8957,
      "sortons": 8958,
      "sûrs": 8959,
      "intelligents": 8960,
      "mangent": 8961,
      "mangez": 8962,
      "superflu": 8963,
      "supermarché": 8964,
      "accepté": 8965,
      "feuille": 8966,
      "déjeuné": 8967,
      "Newton": 8968,
      "2030": 8969,
      "fasses": 8970,
      "fascin": 8971,
      "gueule": 8972,
      "victoire": 8973,
      "traditions": 8974,
      "coûter": 8975,
      "attraper": 8976,
      "attaqués": 8977,
      "ologiques": 8978,
      "Nobel": 8979,
      "fatal": 8980,
      "disposer": 8981,
      "disposent": 8982,
      "disposais": 8983,
      "arriverait": 8984,
      "tendin": 8985,
      "créé": 8986,
      "arrogants": 8987,
      "découverte": 8988,
      "approche": 8989,
      "Algérie": 8990,
      "Jimi": 8991,
      "Jimmy": 8992,
      "tarte": 8993,
      "ouvertes": 8994,
      "indique": 8995,
      "indication": 8996,
      "tomba": 8997,
      "semblent": 8998,
      "contents": 8999,
      "gratuit": 9000,
      "période": 9001,
      "professions": 9002,
      "écouté": 9003,
      "écoutes": 9004,
      "Argent": 9005,
      "cousins": 9006,
      "hydro": 9007,
      "hypot": 9008,
      "mourut": 9009,
      "races": 9010,
      "sensé": 9011,
      "ennuy": 9012,
      "ennuyeux": 9013,
      "logie": 9014,
      "colline": 9015,
      "collisions": 9016,
      "violence": 9017,
      "instruments": 9018,
      "intéresse": 9019,
      "Deuts": 9020,
      "Debussy": 9021,
      "ciseaux": 9022,
      "source": 9023,
      "sources": 9024,
      "trompe": 9025,
      "tromper": 9026,
      "trompet": 9027,
      "trombone": 9028,
      "améric": 9029,
      "compliqué": 9030,
      "construit": 9031,
      "regrette": 9032,
      "regrettable": 9033,
      "domaine": 9034,
      "apeaux": 9035,
      "suspecte": 9036,
      "balcon": 9037,
      "lapins": 9038,
      "pêche": 9039,
      "pirate": 9040,
      "amusante": 9041,
      "désastre": 9042,
      "protection": 9043,
      "suggestions": 9044,
      "Hitomi": 9045,
      "Julie": 9046,
      "Juba": 9047,
      "milli": 9048,
      "milliers": 9049,
      "rêves": 9050,
      "élect": 9051,
      "élevés": 9052,
      "électron": 9053,
      "autorité": 9054,
      "autorisé": 9055,
      "préfères": 9056,
      "soucie": 9057,
      "photosyn": 9058,
      "Itali": 9059,
      "rangé": 9060,
      "inobu": 9061,
      "aimons": 9062,
      "aimaient": 9063,
      "manuel": 9064,
      "obligée": 9065,
      "habituer": 9066,
      "habituellement": 9067,
      "Apportez": 9068,
      "Warcraft": 9069,
      "nicotine": 9070,
      "pousse": 9071,
      "poussé": 9072,
      "retiré": 9073,
      "remonter": 9074,
      "maths": 9075,
      "prudents": 9076,
      "frappa": 9077,
      "frappé": 9078,
      "manquez": 9079,
      "projets": 9080,
      "souhaiter": 9081,
      "opportunité": 9082,
      "refusé": 9083,
      "fonctionné": 9084,
      "épousé": 9085,
      "pauvreté": 9086,
      "différente": 9087,
      "Miho": 9088,
      "Miyaz": 9089,
      "Secon": 9090,
      "ramassé": 9091,
      "antile": 9092,
      "anticip": 9093,
      "quarante": 9094,
      "robin": 9095,
      "parov": 9096,
      "persuader": 9097,
      "excuser": 9098,
      "pizzeria": 9099,
      "enseigné": 9100,
      "effectu": 9101,
      "activité": 9102,
      "2016": 9103,
      "Commons": 9104,
      "Commun": 9105,
      "rapporte": 9106,
      "ancien": 9107,
      "torial": 9108,
      "heurté": 9109,
      "chirur": 9110,
      "résistance": 9111,
      "sérieuse": 9112,
      "blondes": 9113,
      "symbole": 9114,
      "professionnel": 9115,
      "intéressés": 9116,
      "Noriko": 9117,
      "Reagan": 9118,
      "Reichel": 9119,
      "apparu": 9120,
      "appartement": 9121,
      "anxi": 9122,
      "assurer": 9123,
      "melon": 9124,
      "absurde": 9125,
      "absurdit": 9126,
      "responsabilité": 9127,
      "preuves": 9128,
      "bouteilles": 9129,
      "psycho": 9130,
      "continué": 9131,
      "continuer": 9132,
      "Jeanette": 9133,
      "bizarrement": 9134,
      "2001": 9135,
      "2003": 9136,
      "604": 9137,
      "Akiko": 9138,
      "Akagawa": 9139,
      "Akagi": 9140,
      "Bethesda": 9141,
      "Cola": 9142,
      "Cathy": 9143,
      "Mozart": 9144,
      "Mohammed": 9145,
      "Salz": 9146,
      "Tanigu": 9147,
      "rappelles": 9148,
      "échecs": 9149,
      "influences": 9150,
      "entraîner": 9151,
      "entraîne": 9152,
      "structure": 9153,
      "diagon": 9154,
      "mammif": 9155,
      "conclusion": 9156,
      "pratique": 9157,
      "pratiquement": 9158,
      "siège": 9159,
      "siècle": 9160,
      "siècles": 9161,
      "description": 9162,
      "guerrier": 9163,
      "publié": 9164,
      "Franz": 9165,
      "Français": 9166,
      "François": 9167,
      "emprunte": 9168,
      "silencieuse": 9169,
      "1970": 9170,
      "1972": 9171,
      "1974": 9172,
      "1980": 9173,
      "1981": 9174,
      "1985": 9175,
      "survivants": 9176,
      "architecte": 9177,
      "hypothèse": 9178,
      "challenger": 9179,
      "Hooker": 9180,
      "Shounan": 9181,
      "Shinobu": 9182,
      "euros": 9183,
      "style": 9184,
      "apparence": 9185,
      "excellence": 9186,
      "invitation": 9187,
      "invitée": 9188,
      "convaincu": 9189,
      "souhaitez": 9190,
      "Prépare": 9191,
      "Resnais": 9192,
      "Sachs": 9193,
      "Sachiko": 9194,
      "glace": 9195,
      "idées": 9196,
      "ratif": 9197,
      "snob": 9198,
      "éteindre": 9199,
      "écoute": 9200,
      "écoutez": 9201,
      "attirer": 9202,
      "chinoise": 9203,
      "liberté": 9204,
      "industrialis": 9205,
      "détermination": 9206,
      "designers": 9207,
      "disparu": 9208,
      "critiques": 9209,
      "cuisinier": 9210,
      "cuisinière": 9211,
      "échoué": 9212,
      "1860": 9213,
      "1888": 9214,
      "Berlin": 9215,
      "Bernard": 9216,
      "Barack": 9217,
      "Barbara": 9218,
      "Colomb": 9219,
      "Colbert": 9220,
      "Diable": 9221,
      "Débarr": 9222,
      "Henan": 9223,
      "Henry": 9224,
      "Harry": 9225,
      "Harbin": 9226,
      "Kevin": 9227,
      "Keller": 9228,
      "Matoub": 9229,
      "Matsuy": 9230,
      "Permettez": 9231,
      "Steve": 9232,
      "Stephen": 9233,
      "titre": 9234,
      "annulée": 9235,
      "document": 9236,
      "documents": 9237,
      "abyle": 9238,
      "manquait": 9239,
      "biolog": 9240,
      "disputer": 9241,
      "chauffe": 9242,
      "supplémentaire": 9243,
      "effrayé": 9244,
      "suspicion": 9245,
      "JavaSCRI": 9246,
      "Yukawa": 9247,
      "Yukio": 9248,
      "1789": 9249,
      "Atlan": 9250,
      "Creative": 9251,
      "Corrige": 9252,
      "Hopkins": 9253,
      "Myanmar": 9254,
      "Milan": 9255,
      "Wikile": 9256,
      "Wayne": 9257,
      "cacahu": 9258,
      "idiote": 9259,
      "tapis": 9260,
      "évène": 9261,
      "épuisé": 9262,
      "enverrai": 9263,
      "alentours": 9264,
      "pleurait": 9265,
      "rentrée": 9266,
      "décédé": 9267,
      "délicieux": 9268,
      "applications": 9269,
      "tremblement": 9270,
      "exigé": 9271,
      "exemple": 9272,
      "répétition": 9273,
      "choisi": 9274,
      "radium": 9275,
      "médaille": 9276,
      "magnif": 9277,
      "anksgiving": 9278,
      "européenne": 9279,
      "amélioré": 9280,
      "Portugal": 9281,
      "Display": 9282,
      "Princess": 9283,
      "Sonia": 9284,
      "Thanksgiving": 9285,
      "abeilles": 9286,
      "doutes": 9287,
      "fûmes": 9288,
      "goutte": 9289,
      "jaloux": 9290,
      "sagesse": 9291,
      "infantile": 9292,
      "chouette": 9293,
      "logique": 9294,
      "combustion": 9295,
      "abondance": 9296,
      "endommag": 9297,
      "sieste": 9298,
      "cigarettes": 9299,
      "extrême": 9300,
      "montrent": 9301,
      "mondial": 9302,
      "marchand": 9303,
      "surveillance": 9304,
      "récolte": 9305,
      "crayon": 9306,
      "clarification": 9307,
      "opération": 9308,
      "promenade": 9309,
      "particulièrement": 9310,
      "pénétrer": 9311,
      "simulation": 9312,
      "brioche": 9313,
      "circonstances": 9314,
      "fatiguée": 9315,
      "collaborative": 9316,
      "explication": 9317,
      "chaussettes": 9318,
      "frontière": 9319,
      "déclaré": 9320,
      "Continue": 9321,
      "biscuits": 9322,
      "soutenu": 9323,
      "soudainement": 9324,
      "météorologiques": 9325,
      "égoïste": 9326,
      "incorrigible": 9327,
      "Avatar": 9328,
      "Alejandra": 9329,
      "Alain": 9330,
      "Apollo": 9331,
      "Alaska": 9332,
      "Alfred": 9333,
      "Allah": 9334,
      "Amnesty": 9335,
      "Adélaïde": 9336,
      "Breand": 9337,
      "Banque": 9338,
      "Butterbro": 9339,
      "Belfast": 9340,
      "Baskervilles": 9341,
      "Brasilia": 9342,
      "Bamako": 9343,
      "BRIC": 9344,
      "Cessez": 9345,
      "Carlton": 9346,
      "Cartwright": 9347,
      "Coca": 9348,
      "Califor": 9349,
      "Cristina": 9350,
      "Dublin": 9351,
      "Dallas": 9352,
      "David": 9353,
      "Dardanus": 9354,
      "Dégage": 9355,
      "Dépê": 9356,
      "Emilia": 9357,
      "Fadil": 9358,
      "Facebook": 9359,
[...]
