. 8321
de 2386
je 2239
est 1812
@-@ 1800
pas 1551
il 1497
la 1462
? 1456
le 1415
que 1364
Ã 1350
vous 1252
, 1177
ne 1165
a 1105
l&apos; 1030
un 977
tu 936
n&apos; 864
j&apos; 852
ce 848
les 760
Tom 736
en 734
ai 704
une 693
nous 655
d&apos; 646
elle 540
qu&apos; 464
! 455
pour 442
c&apos; 436
suis 423
et 404
me 402
des 396
dans 383
y 332
qui 325
du 316
Ã§a 315
plus 313
s&apos; 298
faire 288
au 288
moi 286
m&apos; 281
Ã©tait 277
se 276
te 269
tout 264
avec 264
fait 252
mon 243
Ãªtre 229
sont 226
si 224
son 220
ils 204
sur 201
veux 200
&quot; 199
as 193
es 192
lui 184
trÃ¨s 180
temps 178
cette 173
Ãªtes 169
ont 166
sa 165
Ã©tÃ© 161
ma 161
votre 158
avez 156
on 155
par 151
oÃ¹ 147
pourquoi 140
dit 138
peux 136
ici 136
mais 136
jamais 134
bien 133
toi 129
comment 129
t&apos; 128
dÃ©@@ 128
pense 128
chose 127
sais 121
tous 120
Ã© 118
cela 118
comme 117
peut 114
avons 113
t 113
Ã©e 112
beaucoup 111
ses 110
ton 110
vraiment 110
dire 109
aime 105
avait 104
elles 104
trop 102
mÃªme 99
quelque 99
voir 96
avoir 96
rien 96
quand 95
mes 95
va 92
monde 91
deux 91
encore 90
besoin 89
tes 89
er 89
parler 89
lÃ 86
aller 85
aux 85
sommes 85
personne 85
Ã©tais 84
homme 83
peu 81
toujours 81
ta 80
in@@ 78
dois 77
argent 77
train 76
aussi 75
chez 75
maison 74
bon 73
soit 72
avais 72
Marie 72
fois 72
vu 71
Mary 71
quel 71
re@@ 70
voiture 70
quoi 69
notre 69
ons 69
travail 69
avant 68
autre 68
ent 67
maintenant 66
arrive 66
vais 66
eu 66
ait 65
ez 65
vie 65
ou 65
sans 65
dÃ©jÃ 64
pÃ¨re 63
aujourd&apos; 62
hui 62
faut 61
quelle 59
combien 59
plaÃ®t 58
porte 57
ces 57
heures 57
toutes 56
grand 56
enfants 55
ant 55
Ã©cole 54
jour 54
aide 54
en@@ 54
livre 53
air 53
aimerais 53
seul 53
toute 52
Ã©s 52
aprÃ¨s 51
hier 51
bonne 51
cet 50
Sami 50
passÃ© 50
juste 49
anglais 49
petit 49
chien 49
Ã©@@ 49
demain 49
eau 48
franÃ§ais 48
fut 48
mieux 47
venir 47
mal 47
trois 46
pouvez 46
aider 46
nuit 46
assez 46
ans 45
Ã©es 45
parle 45
dÃ» 44
gens 44
leur 44
seule 44
puis 43
prendre 43
femme 43
moins 43
fille 43
sait 42
non 42
choses 42
nouveau 41
fais 41
peur 41
quelqu&apos; 41
soir 41
depuis 41
mÃ¨re 41
veut 41
doit 40
savoir 40
ceci 40
voulais 40
idÃ©e 40
heure 40
dis 40
quelques 40
eux 40
voulez 40
pensais 40
ch@@ 40
vos 40
partir 39
manger 39
aurais 38
lire 38
trouve 38
heureux 38
di@@ 38
simplement 37
c@@ 37
demandÃ© 37
g@@ 37
e 37
crois 37
ie 36
semaine 36
b@@ 36
pendant 36
autres 36
devrais 36
souvent 35
faites 35
nom 35
allÃ© 35
acheter 35
vrai 34
entre 34
problÃ¨me 34
pris 34
part 33
jusqu&apos; 33
pays 33
lit 33
savais 33
sens 33
derniÃ¨re 33
tÃ© 33
retard 32
chambre 32
con@@ 32
devons 32
lettre 32
mort 32
f@@ 32
Ã©taient 32
ter 32
pu 32
s@@ 32
petite 31
facile 31
ar@@ 31
aient 31
perdu 31
ais 31
sortir 31
famille 31
nos 30
semble 30
jours 30
ville 30
tÃ´t 30
trouvÃ© 30
trouver 29
parents 29
aucun 29
ami 29
es@@ 29
vÃ©ritÃ© 29
raison 29
tard 29
question 28
ques 28
moment 28
apprendre 28
allez 28
sera 28
Ã¨rent 28
arrivÃ© 27
penses 27
vue 27
lorsque 27
ag@@ 27
tant 27
mis 27
vivre 27
sous 27
passe 27
itÃ© 27
difficile 27
pourrais 27
loin 27
seulement 27
jeune 27
histoire 27
pourrait 26
laisse 26
aucune 26
piÃ¨ce 26
eur 26
livres 26
journÃ©e 26
ante 26
sois 26
garÃ§on 26
mer 26
dont 26
croire 26
A@@ 26
p@@ 26
langue 26
filles 25
achetÃ© 25
point 25
voyage 25
celui 25
able 25
tÃªte 25
donne 25
fÃªte 25
yeux 25
mot 25
parce 25
froid 25
travaille 25
arrÃªter 25
autant 25
S@@ 25
cours 24
vient 24
dÃ©solÃ© 24
P@@ 24
matin 24
nouvelle 24
C@@ 24
vas 24
chaque 24
adore 24
sÃ»r 24
ale 24
attention 24
vite 24
prÃ¨s 24
enfant 24
ation 24
demande 24
main 24
comprendre 24
donnÃ© 24
par@@ 23
vers 23
voulait 23
an 23
fini 23
connais 23
ensemble 23
accord 23
dix 23
longtemps 23
dÃ©jeuner 23
tÃ©lÃ©phone 23
premier 23
soyez 23
Ã©crit 23
aire 23
viens 23
prie 23
nourriture 23
is 23
devrait 23
frÃ¨re 23
ab@@ 23
com@@ 23
dites 23
lorsqu&apos; 23
peine 23
beau 23
fort 23
chat 23
im@@ 23
re 23
mÃ©decin 23
ac@@ 22
o 22
i@@ 22
r@@ 22
savez 22
travailler 22
joue 22
rÃ©@@ 22
dÃ©teste 22
it 22
gu@@ 22
grande 22
habitude 22
accident 22
an@@ 22
li@@ 22
ti@@ 22
ai@@ 22
colÃ¨re 22
premiÃ¨re 22
presque 22
pouvons 22
photo 22
questions 22
che 22
essayer 22
pensÃ© 21
bureau 21
entendu 21
mettre 21
em@@ 21
Boston 21
Japon 21
cheveux 21
amie 21
plutÃ´t 21
meilleur 21
ap@@ 21
sÅ“ur 21
am@@ 21
allons 21
mois 21
cafÃ© 21
dÃ®ner 21
as@@ 21
sujet 21
jouer 21
ment 20
bou@@ 20
nager 20
v@@ 20
occupÃ© 20
m@@ 20
espÃ¨re 20
ad@@ 20
rouge 20
era 20
chance 20
contre 20
au@@ 20
ts 20
av@@ 20
us 20
belle 20
serait 20
laisser 20
prÃªt 20
lait 20
ex@@ 20
ants 20
chemin 19
partie 19
ci@@ 19
fils 19
cÅ“ur 19
cr@@ 19
appelle 19
bl@@ 19
Ã©crire 19
i 19
rend 19
dehors 19
malade 19
regarde 19
lieu 19
ine 19
oui 19
noir 19
compte 19
Ã¨re 19
fin 19
oubliÃ© 19
car 19
venu 19
pouvoir 19
regarder 19
tellement 19
possible 19
cro@@ 19
prÃ©@@ 19
ement 19
santÃ© 19
fumer 19
dur 18
annÃ©e 18
dÃ©t@@ 18
ni 18
rester 18
entreprise 18
laquelle 18
plan 18
ci 18
puisse 18
place 18
vin 18
prix 18
vieux 18
vÃ©lo 18
amour 18
laissÃ© 18
er@@ 18
d@@ 18
problÃ¨mes 18
maniÃ¨re 18
langues 18
France 18
Dan 18
davantage 18
veuillez 18
importe 18
R@@ 18
alors 18
rendre 18
ainsi 18
dormir 18
habite 18
sur@@ 18
appris 18
devez 18
B@@ 18
font 17
marche 17
ette 17
fer@@ 17
erai 17
feu 17
rez 17
l@@ 17
heureuse 17
donc 17
ri@@ 17
serai 17
bus 17
vois 17
ill@@ 17
payer 17
n@@ 17
fit 17
parlez 17
quatre 17
envie 17
ens 17
M@@ 17
a@@ 17
ir@@ 17
pourriez 17
vit 17
derriÃ¨re 17
rencontrer 17
nouvelles 17
l 17
riche 17
peuvent 17
pensez 17
lu 17
mots 17
telle 17
amis 17
aimes 17
attendre 17
nÃ© 17
cinq 17
bri@@ 17
mangÃ© 17
entendre 17
devriez 17
mo@@ 16
serais 16
tÃ©s 16
prochain 16
immÃ©diatement 16
faim 16
pouvait 16
musique 16
al@@ 16
fatiguÃ© 16
midi 16
faÃ§on 16
cher 16
exactement 16
voudrais 16
ignore 16
euse 16
magasin 16
is@@ 16
apprÃ©cie 16
mange 16
propos 16
eurs 16
chaud 16
professeur 16
boulot 16
bas 16
fenÃªtre 16
or@@ 16
laissez 16
age 16
coup 16
biÃ¨re 16
amoureux 15
dernier 15
film 15
conduire 15
dÃ©solÃ©e 15
mauvais 15
si@@ 15
Tatoeba 15
devrions 15
leurs 15
Ã¢ge 15
mains 15
ire 15
parlÃ© 15
rÃ© 15
ass@@ 15
montre 15
tÃ©lÃ©vision 15
certains 15
verre 15
du@@ 15
ferai 15
ceux 15
gr@@ 15
u 15
police 15
merci 15
endroit 15
Ã©tiez 15
commencÃ© 15
important 15
ver@@ 15
nÃ©cessaire 15
co@@ 15
for@@ 15
M 15
sÃ»re 15
erreur 15
vacances 15
capable 14
intention 14
rÃ©union 14
Dieu 14
gi@@ 14
compris 14
res@@ 14
sÃ©curitÃ© 14
essaie 14
cuisine 14
classe 14
instant 14
pouvais 14
chats 14
sucre 14
res 14
voici 14
quÃ© 14
choix 14
; 14
fi@@ 14
marchÃ© 14
in 14
ler 14
personnes 14
terre 14
devant 14
utiliser 14
route 14
connaÃ®t 14
boire 14
expÃ©rience 14
chemise 14
t@@ 14
voulons 14
essayÃ© 14
L@@ 14
ins 14
c 14
hommes 14
Terre 14
arriver 14
bÃ©bÃ© 14
libre 14
f 14
situation 14
prends 14
Ã‰@@ 13
irai 13
rencontrÃ© 13
ess@@ 13
confiance 13
e@@ 13
mit 13
qu@@ 13
souviens 13
rendu 13
Ã©tranger 13
allemand 13
serez 13
sorte 13
savait 13
passer 13
parfois 13
rent 13
numÃ©ro 13
courant 13
droit 13
garÃ§ons 13
penser 13
suppose 13
dÃ© 13
gar@@ 13
N@@ 13
minutes 13
sou@@ 13
do@@ 13
tÃ©lÃ© 13
on@@ 13
restaurant 13
bientÃ´t 13
boÃ®te 13
celle 13
aurait 13
tour 13
mets 13
: 13
perdre 13
Ã©quipe 13
propre 13
ue 13
ressemble 13
hÃ´tel 13
dÃ©cidÃ© 13
tre 13
cause 13
ance 13
ra 13
poser 13
poste 12
cour@@ 12
poisson 12
furent 12
ers 12
lo@@ 12
venus 12
no@@ 12
allait 12
tÃ©es 12
s 12
hÃ´pital 12
faisons 12
intÃ©ress@@ 12
pro@@ 12
dev@@ 12
Paris 12
probablement 12
porter 12
facilement 12
ge 12
tomber 12
ordinateur 12
comprends 12
apprÃ©ci@@ 12
fleurs 12
T@@ 12
reste 12
tÃ©e 12
Ã©tudiants 12
gros 12
dispose 12
ant@@ 12
parviens 12
aise 12
ent@@ 12
donnez 12
travers 12
arrÃªtÃ© 12
surpris 12
six 12
emploi 12
cl@@ 12
complÃ¨tement 12
nombre 12
changÃ© 12
garde 12
be 12
prend 12
dis@@ 12
grosse 12
table 12
appelÃ© 12
mar@@ 12
crÃ©@@ 12
suite 12
occupÃ©e 12
espagnol 12
esprit 12
at@@ 12
br@@ 12
teur 12
piano 12
eu@@ 12
visite 12
genre 12
h 12
vaut 12
revoir 11
manteau 11
ciel 11
soleil 11
anniversaire 11
rentrer 11
selon 11
japonais 11
marcher 11
Ã¨res 11
veulent 11
devenu 11
gare 11
Å“il 11
neige 11
adresse 11
D@@ 11
sac 11
chi@@ 11
plusieurs 11
prÃªte 11
aires 11
o@@ 11
discuter 11
tenir 11
fasse 11
lu@@ 11
char@@ 11
attend 11
tennis 11
opinion 11
ir 11
NoÃ«l 11
ettes 11
fin@@ 11
fou@@ 11
gÃ¢teau 11
secret 11
femmes 11
Ã©galement 11
Ã©t@@ 11
cent 11
moitiÃ© 11
el 11
cÃ´tÃ© 11
terminÃ© 11
marier 11
type 11
long 11
agit 11
sent 11
produit 11
enne 11
blessÃ© 11
clÃ©s 11
10 11
dÃ©e 11
sol 11
arme 11
u@@ 11
Ã¢mes 11
commence 11
conseils 11
content 11
savent 11
moindre 11
nombreux 11
ou@@ 11
ni@@ 11
donn@@ 11
tu@@ 11
prenez 11
chapeau 11
hors 11
examen 11
ations 11
pire 11
allÃ©e 11
dort 11
go@@ 11
fera 11
F@@ 11
dessus 11
taille 11
bibliothÃ¨que 10
manque 10
fou 10
end 10
dangereux 10
rÃ©pondre 10
jeu 10
Ã©tudier 10
enseignant 10
dor@@ 10
sentiments 10
prÃ©fÃ¨re 10
ignor@@ 10
vis 10
su@@ 10
it@@ 10
phrase 10
costume 10
revenir 10
lis 10
ais@@ 10
dollars 10
... 10
ite 10
Layla 10
nÃ©e 10
venue 10
vouloir 10
cou@@ 10
plupart 10
atten@@ 10
at 10
mauvaise 10
pleurer 10
parti 10
rapidement 10
stupide 10
car@@ 10
el@@ 10
pied 10
lumiÃ¨re 10
Oh 10
appeler 10
carte 10
devoir 10
gÃ© 10
ence 10
J@@ 10
pluie 10
bi@@ 10
clÃ© 10
commencer 10
pl@@ 10
comm@@ 10
thÃ©orie 10
min@@ 10
portait 10
chaussures 10
rem@@ 10
pieds 10
essay@@ 10
ique 10
ferais 10
att@@ 10
ayez 10
prÃ©fÃ©rÃ©e 10
mor@@ 10
chante 10
bons 10
compl@@ 10
al 10
dormi 10
jambes 10
mal@@ 10
faisait 10
instituteur 10
voitures 10
attend@@ 10
jou@@ 10
Ã‰tats 10
Unis 10
donner 10
ren@@ 10
dispos@@ 10
bout 10
pleut 10
appr@@ 10
per@@ 10
dÃ©sormais 10
lunettes 10
aille 10
balle 10
information 10
pauvre 10
vieil 10
riviÃ¨re 10
end@@ 10
ard 10
ger 10
mari 10
thÃ©Ã¢tre 10
bar@@ 10
changer 10
enti@@ 10
entend@@ 10
discours 10
pain 10
affaire 10
bois 10
tuer 10
sommeil 10
Ã©tions 10
succÃ¨s 10
Ã©couter 10
h@@ 10
hÃ©@@ 9
Ã¢@@ 9
certain 9
rappeler 9
connu 9
intÃ©rieur 9
ions 9
men@@ 9
tent 9
avenir 9
papier 9
fallu 9
huit 9
ain 9
chanson 9
bo@@ 9
affaires 9
phrases 9
dent 9
amies 9
vol@@ 9
sauf 9
conn@@ 9
prochaine 9
sociÃ©tÃ© 9
autour 9
mÃ©@@ 9
ues 9
erais 9
printemps 9
Ã¨rement 9
projet 9
app@@ 9
tement 9
regardÃ© 9
5 9
hiver 9
cu@@ 9
vingt 9
poids 9
r 9
Ã©ri@@ 9
guerre 9
vo@@ 9
efforts 9
tient 9
cadeau 9
d 9
fai@@ 9
montagne 9
ages 9
parapluie 9
rencontre 9
ble 9
montrer 9
rendez 9
entrÃ©e 9
suffisamment 9
prit 9
asse 9
ets 9
tres 9
fl@@ 9
vieille 9
dictionnaire 9
demander 9
rÃ©soudre 9
quelconque 9
allÃ©s 9
our@@ 9
afin 9
mariÃ© 9
village 9
bu 9
In@@ 9
inter@@ 9
viendra 9
plein 9
avance 9
rÃ©ussi 9
oncle 9
pou@@ 9
levÃ© 9
fon@@ 9
dimanche 9
tion 9
lequel 9
dents 9
vont 9
devenir 9
sÃ© 9
intelligent 9
connaÃ®tre 9
journal 9
danger 9
ches 9
meilleure 9
face 9
groupe 9
ser 8
tombÃ© 8
vivent 8
so@@ 8
viendrai 8
parc 8
cli@@ 8
aimait 8
G@@ 8
dr@@ 8
attrapÃ© 8
Ã©pouser 8
portÃ© 8
chang@@ 8
anc@@ 8
mourir 8
travaillÃ© 8
prÃ©fÃ©rÃ© 8
ites 8
dÃ©couvert 8
pe 8
jardin 8
jeunes 8
Ã©trange 8
vÃ©cu 8
prise 8
prÃ©sident 8
lac 8
intÃ©ressant 8
restÃ© 8
croit 8
Ã©toiles 8
impossible 8
rais 8
robe 8
coupe 8
dÃ©cision 8
baiser 8
humeur 8
danser 8
iste 8
choisir 8
coin 8
envoyÃ© 8
der 8
E@@ 8
reÃ§u 8
dou@@ 8
Ã©r@@ 8
existe 8
proposition 8
chanter 8
recherche 8
gauche 8
art 8
erreurs 8
tuÃ© 8
conseil 8
ArrÃªtez 8
leÃ§on 8
ri 8
quiconque 8
cents 8
annÃ©es 8
vÃªtements 8
pommes 8
cam@@ 8
ables 8
dem@@ 8
ferme 8
rire 8
aimÃ© 8
ds 8
voudriez 8
vi@@ 8
oublie 8
sommet 8
animaux 8
bu@@ 8
raisons 8
correctement 8
fr@@ 8
piscine 8
2 8
tri@@ 8
seront 8
pri@@ 8
signe 8
voilÃ 8
sang 8
rÃ©ponse 8
mienne 8
ager 8
gagner 8
Australie 8
voyager 8
mon@@ 8
seras 8
tr@@ 8
30 8
haut 8
finalement 8
ter@@ 8
rait 8
docteur 8
ate 8
prÃ©sent 8
bÃ¢timent 8
moyen 8
portes 8
Å“ufs 8
onnÃ© 8
honte 8
iez 8
lundi 8
propres 8
soin 8
tique 8
proche 8
idiot 8
arrÃªte 8
rou@@ 8
ve 8
week 8
pleuvoir 8
payÃ© 8
hab@@ 8
tions 8
bateau 8
bÃ©@@ 8
manquer 8
prÃªter 8
stes 8
pause 8
jeux 8
vidÃ©o 8
ouvert 8
rappelle 8
parlent 8
dÃ©pend 8
Ã©tat 8
ten@@ 8
attends 8
esti@@ 7
explo@@ 7
dÃ©tails 7
ennemi 7
devint 7
vendre 7
cru 7
larmes 7
mÃ©e 7
fus@@ 7
scientifique 7
tÃ©@@ 7
article 7
contr@@ 7
hi@@ 7
nage 7
amoureuse 7
and@@ 7
taxi 7
arrivÃ©e 7
Excusez 7
allais 7
arriÃ¨re 7
John 7
effet 7
frapp@@ 7
mi@@ 7
semaines 7
H@@ 7
diffÃ©rent 7
touche 7
mille 7
serv@@ 7
sembles 7
contente 7
rapport 7
all@@ 7
embrasser 7
roman 7
corps 7
bizarre 7
marre 7
inconvÃ©nient 7
occasion 7
aill@@ 7
bouteille 7
lors 7
ements 7
mariage 7
tor@@ 7
pay@@ 7
lis@@ 7
demand@@ 7
ec@@ 7
portable 7
dan@@ 7
fu@@ 7
eut 7
doivent 7
se@@ 7
copine 7
partout 7
lever 7
sal@@ 7
An@@ 7
intÃ©rÃªt 7
K@@ 7
ev@@ 7
forme 7
rai 7
gouvernement 7
auriez 7
salle 7
ennuis 7
Ã©tudiant 7
sept 7
dÃ©s@@ 7
vide 7
bat@@ 7
produire 7
rue 7
tranquille 7
dÃ©couvrir 7
Ã©tage 7
lÃ©@@ 7
espace 7
radio 7
fermer 7
responsable 7
il@@ 7
expliquer 7
hasard 7
ff@@ 7
ents 7
entr@@ 7
considÃ©r@@ 7
Tokyo 7
compagnie 7
ay@@ 7
lÃ© 7
onne 7
auparavant 7
arbre 7
jolie 7
moral 7
Angleterre 7
perte 7
disposez 7
aies 7
automne 7
avis 7
pomme 7
utile 7
cas 7
amÃ©liorer 7
vendredi 7
ront 7
disent 7
repas 7
plage 7
Ah 7
euses 7
site 7
jouÃ© 7
tour@@ 7
quÃ©e 7
fenÃªtres 7
aimer 7
ise 7
rÃ©s 7
Internet 7
AmÃ©rique 7
sors 7
simple 7
pos@@ 7
espoir 7
tÃ¢che 7
maman 7
parlait 7
cassÃ© 7
appartient 7
ille 7
iller 7
sache 7
morceau 7
bre@@ 7
vraie 7
patron 7
fau@@ 7
to@@ 7
k@@ 7
sÃ©@@ 7
aimez 7
revenu 7
arriver@@ 7
aiss@@ 7
pen@@ 7
Ã©g@@ 7
glis@@ 7
croy@@ 7
1@@ 7
prÃ©senter 7
pour@@ 7
cher@@ 7
laver 7
bonnes 7
dÃ©part 7
rer 7
cri@@ 7
lam@@ 7
tionn@@ 7
fonc@@ 7
ouvrir 7
retourner 7
timide 7
aiment 7
rÃ©flÃ©chir 7
dÃ©but 7
nez 7
service 7
dÃ©si@@ 7
pi@@ 7
cherche 7
aque 7
football 7
demanda 7
sÃ©rieux 7
appar@@ 7
us@@ 7
gagne 7
demi 7
nerveux 6
rÃ©jouis 6
arbres 6
feuilles 6
des@@ 6
probable 6
devoirs 6
gl@@ 6
oubli@@ 6
ateurs 6
souci 6
devin@@ 6
double 6
ic@@ 6
entre@@ 6
tenez 6
aines 6
minute 6
ouv@@ 6
rhume 6
emporter 6
plaisir 6
devient 6
ser@@ 6
cuisiner 6
sage 6
sa@@ 6
dÃ©cida 6
couple 6
mesure 6
nombreuses 6
difficultÃ©s 6
tou@@ 6
conduis@@ 6
y@@ 6
ina 6
musÃ©e 6
quer 6
nique 6
tait 6
Espagne 6
ente 6
direction 6
ici@@ 6
tenu 6
visiter 6
chiens 6
liste 6
met 6
accusÃ© 6
univers 6
nettoyer 6
message 6
arriv@@ 6
courage 6
blanc 6
thÃ© 6
lent 6
bag@@ 6
rends 6
intÃ©ressÃ© 6
lie 6
voyez 6
nulle 6
alcool 6
ru@@ 6
seuls 6
gÃ©rer 6
courir 6
grandes 6
bor@@ 6
coÃ»t 6
po@@ 6
papa 6
suivre 6
Ã©nergie 6
petites 6
st@@ 6
aurions 6
bal@@ 6
droite 6
absolument 6
pend@@ 6
ul@@ 6
coll@@ 6
tasse 6
j@@ 6
certaine 6
Ã©glise 6
aie 6
DÃ©@@ 6
rarement 6
ras 6
bon@@ 6
ajou@@ 6
voie 6
siez 6
venait 6
cache 6
accepter 6
dess@@ 6
compter 6
Ã©tudie 6
onn@@ 6
imagine 6
parles 6
ture 6
ennu@@ 6
faute 6
ences 6
imaginer 6
moutons 6
accus@@ 6
asseoir 6
politique 6
tures 6
ier 6
soixante 6
rÃ©veillÃ© 6
inquiÃ¨te 6
semblez 6
port@@ 6
nouvel 6
3 6
vivant 6
hor@@ 6
gÃ©@@ 6
passÃ©e 6
sortes 6
ains 6
terais 6
plan@@ 6
prÃ©parer 6
parti@@ 6
rons 6
fo@@ 6
aÃ®@@ 6
calme 6
iles 6
chu@@ 6
cherch@@ 6
entends 6
contrat 6
dÃ©termin@@ 6
pla@@ 6
admire 6
poli 6
agent 6
rÃ´le 6
maladie 6
soyons 6
aff@@ 6
souvenir 6
refaire 6
eus 6
rencontrÃ©e 6
prendrai 6
frÃ¨res 6
fruits 6
invitÃ© 6
disait 6
rÃ¨gles 6
cal@@ 6
illes 6
loi 6
lle 6
or 6
appro@@ 6
Ã©cl@@ 6
nes 6
cinÃ©ma 6
mÃ© 6
ven@@ 6
coucher 6
nature 6
fromage 6
entrer 6
quitter 6
occupe 6
vis@@ 6
charge 6
montrez 6
pÃªcher 6
garder 6
exc@@ 6
douche 6
arrivent 6
Ã©p@@ 6
chanceux 6
Ã©viter 6
corriger 6
frÃ©qu@@ 6
ron@@ 6
gentil 6
consac@@ 6
2@@ 6
malheureusement 6
certaines 6
photos 6
trente 6
excuses 6
empÃªcher 6
boit 6
clairement 6
honnÃªte 6
enfance 6
ju@@ 6
O@@ 6
poule 6
occuper 6
illÃ© 6
commenÃ§a 6
Allemagne 6
soi 6
universitÃ© 6
esse 6
voy@@ 6
rÃ©parer 6
dure 6
ign@@ 6
aine 6
bÃ¢@@ 6
ak@@ 6
jouets 6
prÃªtes 6
Smith 6
sion 6
tromp@@ 6
station 6
court 6
4 6
droits 6
ouverte 6
erait 6
ales 6
appel@@ 6
Jane 6
appareil 6
coÃ»te 6
pierre 6
Thomas 6
chercher 6
cach@@ 6
fri@@ 6
importantes 6
gag@@ 6
alitÃ© 6
public 6
considÃ©@@ 6
nu@@ 6
ellement 6
ban@@ 6
vues 6
cap@@ 6
admis 6
pÃ¢le 6
Ã©chec 6
permis 6
durant 6
battre 6
soif 6
gagnÃ© 6
indi@@ 6
planÃ¨te 6
teurs 5
fonctionne 5
conten@@ 5
irez 5
cÃ©lÃ¨bre 5
vus 5
apprends 5
atif 5
voulu 5
rÃ©flÃ©chi 5
Devine 5
gros@@ 5
espÃ©ranto 5
indÃ©@@ 5
lou@@ 5
New 5
York 5
suicidÃ© 5
0 5
appell@@ 5
autrefois 5
avaient 5
joli 5
savons 5
satisfait 5
plu 5
yons 5
As@@ 5
organ@@ 5
Ã¯@@ 5
bonheur 5
Salut 5
prison 5
vienne 5
infor@@ 5
fron@@ 5
verse 5
folle 5
retour 5
ade 5
quement 5
occupÃ©s 5
remÃ¨de 5
pleu@@ 5
pique 5
Ã©lu 5
arrÃªt 5
fiÃ© 5
dÃ©cider 5
command@@ 5
futur 5
bonjour 5
connaisse 5
prÃ©venu 5
quittÃ© 5
populaire 5
parla 5
soirÃ©e 5
tort 5
surprise 5
ro@@ 5
cheval 5
gue 5
souhaite 5
croient 5
lettres 5
ress@@ 5
cor@@ 5
Ã¨vre 5
Ã´@@ 5
Soleil 5
gÃ©ni@@ 5
cul@@ 5
fix@@ 5
rÃ©aliser 5
bles 5
Italie 5
enfu@@ 5
possibilitÃ© 5
reti@@ 5
Ã¨me 5
dÃ©c@@ 5
diffÃ©rence 5
aurai 5
bien@@ 5
ouvrit 5
Ch@@ 5
Con@@ 5
urgence 5
chan@@ 5
n 5
amusant 5
Quels 5
aliments 5
frais 5
beurre 5
vaches 5
traduire 5
dirai 5
riches 5
copain 5
trai@@ 5
bicyclette 5
humour 5
super 5
impli@@ 5
om@@ 5
totalement 5
centre 5
fond@@ 5
forte 5
distribu@@ 5
impressionn@@ 5
patience 5
enseigner 5
Ã©veillÃ© 5
matiÃ¨re 5
neuf 5
coÃ»ts 5
douleur 5
commande 5
impression 5
voudrait 5
connaissait 5
portÃ©e 5
press@@ 5
crise 5
Ã©tang 5
servi 5
alis@@ 5
hÃ©ros 5
chaude 5
meubles 5
antes 5
champ 5
sau@@ 5
population 5
importante 5
prÃªts 5
Ã©lÃ¨ves 5
croyez 5
poster 5
innocent 5
chÃ© 5
objectif 5
Ã©toile 5
af@@ 5
position 5
alliez 5
comporte 5
tai@@ 5
saisir 5
fus 5
conduit 5
bat 5
exam@@ 5
senti 5
crime 5
enfin 5
diri@@ 5
gea 5
chacun 5
Ã¨s 5
fac@@ 5
bras 5
donna 5
silencieux 5
froide 5
accep@@ 5
acide 5
mu@@ 5
hÃ¢te 5
petits 5
poche 5
ath@@ 5
patient 5
unique 5
sav@@ 5
admi@@ 5
ore 5
tombÃ©e 5
fro@@ 5
riez 5
appelez 5
envoyer 5
rs 5
pu@@ 5
compos@@ 5
faits 5
Europe 5
mathÃ©matiques 5
ira 5
sortie 5
Ã¨te 5
Ã©cris 5
date 5
salaire 5
Mar@@ 5
Ã©gal 5
amuser 5
respecter 5
lÃ©g@@ 5
populaires 5
foi 5
lier 5
restÃ©e 5
can@@ 5
rÃ©pondu 5
Al@@ 5
sel 5
feriez 5
rÃ©ellement 5
enseign@@ 5
condu@@ 5
emplo@@ 5
oiseau 5
grands 5
chant@@ 5
dÃ©r@@ 5
sentez 5
coupÃ© 5
acti@@ 5
attendu 5
por@@ 5
sort 5
signifie 5
visage 5
mensonge 5
form@@ 5
conscience 5
Ã§@@ 5
cÃ©@@ 5
correspond@@ 5
dÃ©Ã§u 5
Ã©rÃ© 5
tionnÃ© 5
voisins 5
niveau 5
sport 5
fÃ©lic@@ 5
rÃ©sultats 5
viennent 5
dÃ©truit 5
march@@ 5
soldats 5
dispu@@ 5
isme 5
commun@@ 5
preuve 5
promesse 5
mien 5
pÃ©@@ 5
No@@ 5
met@@ 5
Ã©tudi@@ 5
bandes 5
he 5
couteau 5
ob@@ 5
promettre 5
cen@@ 5
rend@@ 5
chocolat 5
toucher 5
tera 5
indiquer 5
mou@@ 5
remercier 5
Ã©cureuils 5
zoo 5
connaissez 5
dos 5
sandwich 5
tel 5
sentir 5
rejoindre 5
achet@@ 5
parie 5
magazine 5
animal 5
sse 5
cartes 5
gars 5
jambe 5
hom@@ 5
&apos; 5
ann@@ 5
certainement 5
fume 5
but 5
vendu 5
ali@@ 5
longues 5
concert 5
rencontrÃ©s 5
peuple 5
venez 5
foule 5
grÃ¢ce 5
comp@@ 5
cravate 5
gÃ©nÃ©ration 5
quelles 5
interdit 5
cou 5
existence 5
traitÃ© 5
promesses 5
mettez 5
dÃ©range 5
attrape 5
plait 5
conseillÃ© 5
trouver@@ 5
rÃ©solu 5
emment 5
page 5
tiens 5
bleu 5
stylo 5
ouvrez 5
lÃ¨ve 5
eaux 5
mariÃ©s 5
soup@@ 5
campagne 5
embarrass@@ 5
passez 5
cochon 5
/ 5
avocat 5
- 5
Ã©norme 5
mignonne 5
dus 5
Mo@@ 5
gratu@@ 5
parfait 5
soutien 5
mÃ©di@@ 5
terie 5
capit@@ 5
clair 5
enn@@ 5
aper@@ 5
base 5
dez 5
ordinaire 5
suffit 5
Ã¨@@ 5
marteau 5
oubliez 5
rumeur 5
ur@@ 5
environ 5
arri@@ 5
ace 5
voit 5
fermÃ© 5
volontÃ© 5
dirait 5
ressources 5
regardez 5
tableau 5
sienne 5
anci@@ 4
systÃ¨me 4
har@@ 4
tons 4
fas@@ 4
taire 4
aim@@ 4
traiter 4
critique 4
devraient 4
celles 4
sÃ©rieusement 4
destination 4
abord 4
gÃ©nÃ©ral 4
franchement 4
scientifiques 4
ain@@ 4
blesser 4
parmi 4
gentillesse 4
avions 4
cer@@ 4
cle 4
mer@@ 4
USA 4
dÃ©mÃ©@@ 4
ach@@ 4
films 4
horreur 4
douÃ© 4
sex@@ 4
finir 4
ates 4
matique 4
rÃ©alitÃ© 4
dommage 4
correcte 4
Vo@@ 4
horrible 4
mener 4
folie 4
protÃ©ger 4
sauver 4
dÃ©cl@@ 4
seriez 4
consom@@ 4
Promettez 4
os 4
gÃ©nie 4
arti@@ 4
regard 4
bruit 4
sive 4
change 4
Ã®mes 4
condi@@ 4
prÃ©vu 4
tif 4
pli@@ 4
exem@@ 4
endre 4
cass@@ 4
nul 4
Chine 4
plai@@ 4
exercice 4
bes 4
dro@@ 4
aimÃ©e 4
garage 4
eront 4
veuilles 4
fleur 4
four@@ 4
prÃ©fÃ©rerais 4
sin@@ 4
agir 4
gÃ¢@@ 4
famili@@ 4
faisais 4
interrom@@ 4
queue 4
diable 4
utilisez 4
auteur 4
contrÃ´le 4
coup@@ 4
capitaine 4
russe 4
x 4
vent 4
toit 4
Bob 4
spÃ©ci@@ 4
couverture 4
exac@@ 4
autori@@ 4
illa 4
I@@ 4
quit@@ 4
dises 4
lignes 4
ho@@ 4
confec@@ 4
Inde 4
hur@@ 4
compag@@ 4
uni@@ 4
beautÃ© 4
adoles@@ 4
perdue 4
avion 4
poli@@ 4
billet 4
sub@@ 4
achÃ¨te 4
musicien 4
ateur 4
attendons 4
pes 4
batt@@ 4
ection 4
couver@@ 4
assurance 4
prendra 4
seconde 4
cure 4
pÃªche 4
crain@@ 4
cin@@ 4
terminer 4
Linda 4
mÃ©rite 4
fantÃ´mes 4
BrÃ©sil 4
tombe 4
parlons 4
supporter 4
cieux 4
secrets 4
prudente 4
mat@@ 4
rideau 4
appÃ©tit 4
imagin@@ 4
dise 4
chanteuse 4
yer 4
permettre 4
veniez 4
tenait 4
rappelez 4
Ã¨ne 4
ati@@ 4
inf@@ 4
augmentÃ© 4
prof 4
puni 4
utilisÃ© 4
lÃ¨@@ 4
Ã©vit@@ 4
entÃ© 4
brillante 4
identi@@ 4
peinture 4
dira 4
die 4
brÃ»@@ 4
ut 4
trice 4
riz 4
entrÃ© 4
Ã©clata 4
intelligente 4
ordres 4
our 4
sert 4
philosophie 4
promets 4
iner 4
nue 4
suggÃ¨re 4
impliquÃ© 4
diffÃ©rences 4
atteint 4
out 4
trouveras 4
couramment 4
tire 4
gÃ©nÃ©ralement 4
acqu@@ 4
U@@ 4
ordre 4
gle 4
chansons 4
jette 4
jouent 4
physique 4
couper 4
dipl@@ 4
Ã´me 4
volÃ© 4
mez 4
tentÃ© 4
forÃªt 4
traductions 4
connaissais 4
soli@@ 4
sions 4
humaine 4
sensÃ© 4
anti@@ 4
lentement 4
mauvaises 4
poin@@ 4
habituÃ© 4
sure 4
assu@@ 4
prÃ©par@@ 4
publique 4
truc 4
Ap@@ 4
bouton 4
lycÃ©e 4
travailles 4
devait 4
tente 4
directeur 4
prÃ©vois 4
int 4
trouvait 4
abandonner 4
na 4
doute 4
pr@@ 4
rant 4
comportement 4
invitÃ©es 4
fil@@ 4
espÃ¨ce 4
endur@@ 4
Ã©n@@ 4
mentir 4
genoux 4
coÃ»@@ 4
fortune 4
aboie 4
constituent 4
pensent 4
plaisante 4
utilise 4
permission 4
Japonais 4
donnÃ©es 4
log@@ 4
gasp@@ 4
chons 4
vouliez 4
traverser 4
postale 4
censÃ© 4
vase 4
Ã©car@@ 4
salade 4
aisÃ© 4
baleine 4
carriÃ¨re 4
sÃ©rie 4
debout 4
Ã©te@@ 4
ticket 4
triste 4
usion 4
tra 4
cesse 4
exist@@ 4
aider@@ 4
faux 4
ocÃ©an 4
risque 4
contributeur 4
amical 4
piÃ¨ces 4
produits 4
espÃ©r@@ 4
Tr@@ 4
fer 4
oiseaux 4
teaux 4
quinze 4
donnent 4
concentr@@ 4
ative 4
puissiez 4
trans@@ 4
inv@@ 4
crit 4
parfaitement 4
restez 4
bÅ“uf 4
rÃ©ponds 4
expri@@ 4
lÃ¢che 4
Ã©chou@@ 4
risques 4
els 4
congÃ© 4
insul@@ 4
yait 4
terriblement 4
diffÃ©rents 4
profonde 4
forcer 4
traduction 4
manqu@@ 4
Ã©tude 4
coÃ»tÃ© 4
00 4
hon@@ 4
prononcer 4
couleur 4
mari@@ 4
force 4
trouvent 4
prises 4
autÃ© 4
apprentissage 4
apporte 4
mignons 4
passeport 4
suivant 4
Ã©pou@@ 4
tien 4
pas@@ 4
Ãªtres 4
noyÃ© 4
devi@@ 4
moyenne 4
eng@@ 4
sombre 4
circulation 4
conf@@ 4
Su@@ 4
brÃ»lÃ© 4
dessinÃ©es 4
blessÃ©e 4
joie 4
restes 4
iser 4
couteaux 4
banque 4
voix 4
habitu@@ 4
compli@@ 4
Ã©conomie 4
ves 4
lesquelles 4
mai@@ 4
menti 4
apprend 4
chaleur 4
endormi 4
ingÃ©nieurs 4
nier 4
vÃ©ritable 4
pression 4
coupable 4
Londres 4
prÃ©sent@@ 4
mÃªmes 4
empÃªchÃ© 4
expliqu@@ 4
objets 4
marron 4
hau@@ 4
chinois 4
bas@@ 4
bour@@ 4
bles@@ 4
cir@@ 4
cancer 4
complet 4
monte 4
poÃ¨me 4
rapide 4
Ã¢me 4
deuxiÃ¨me 4
dÃ©goÃ»@@ 4
bordel 4
prennent 4
orange 4
mise 4
fie 4
sÃ»rement 4
faible 4
sÃ©chÃ© 4
casser 4
hu@@ 4
AmÃ©ricains 4
ma@@ 4
gri@@ 4
guim@@ 4
sortez 4
assis 4
fs 4
ayant 4
out@@ 4
puissance 4
culture 4
touchÃ© 4
mÃ©moire 4
canapÃ© 4
Ã©cri@@ 4
aimerait 4
fautes 4
Ã©tant 4
ep@@ 4
Contin@@ 4
fidÃ¨le 4
image 4
lar@@ 4
rement 4
trez 4
tar@@ 4
mÃ©tro 4
tante 4
note 4
peint 4
pleure 4
dÃ©tec@@ 4
prudent 4
matins 4
assist@@ 4
sourire 4
lien 4
exig@@ 4
causÃ© 4
lÃ©gumes 4
Kate 4
naturel 4
col@@ 4
caractÃ¨re 4
merveilleux 4
cru@@ 4
solution 4
ines 4
gorge 4
Ã©tudiante 4
raconter 4
peau 4
malgrÃ© 4
atteindre 4
pein@@ 4
tendance 4
ss@@ 4
utilis@@ 4
constru@@ 4
heureuses 4
chanteur 4
ail 4
effec@@ 4
conversation 4
princesse 4
concentrer 4
attendais 4
connue 4
Jouons 4
lin 4
billets 4
th@@ 4
condition 4
naissance 4
bel 4
volant 4
fous 4
devenus 4
jet@@ 4
jean 4
forts 4
derni@@ 4
possÃ¨de 4
tur@@ 4
entier 4
aises 4
reux 4
contact 4
semblait 4
quitte 4
ber@@ 4
dÃ©li@@ 4
tez 4
confÃ©rence 4
cÃ©libataire 4
phÃ©nomÃ¨ne 4
ball 4
Ã©ti@@ 4
convainc@@ 4
souri@@ 4
to 4
impatience 4
troisiÃ¨me 4
mÃ©ri@@ 4
esp@@ 4
commenc@@ 4
reconnaissante 4
oul@@ 4
V@@ 4
gn@@ 4
guitare 4
forcÃ© 4
mecs 4
ies 4
da 4
remettre 4
tÃ©nu@@ 4
rec@@ 4
ame 4
commun 4
viol@@ 4
appelÃ©e 4
invitÃ©s 4
erons 4
enc@@ 4
ands 4
fallait 4
voleur 4
fier 4
eff@@ 4
privÃ© 4
environnement 4
parole 4
semblant 4
nÃ´tre 4
fran@@ 4
aÃ©roport 4
Ã©poque 4
longs 4
chanceuse 4
tation 4
connaissance 4
Jim 4
agressi@@ 4
pars 4
refus@@ 4
emprunter 4
dra 4
rique 4
cath@@ 4
rel@@ 4
Ha 4
dÃ©f@@ 4
ponctuel 4
atti@@ 4
justice 4
caf@@ 3
gueule 3
gne 3
absent 3
cis@@ 3
rÃ©di@@ 3
aveu@@ 3
quasiment 3
dÃ©passer 3
ligne 3
rier 3
fasses 3
sauter 3
monter 3
fallut 3
oc@@ 3
dent@@ 3
mangent 3
discutÃ© 3
tent@@ 3
rage 3
dÃ©barrass@@ 3
dÃ©couverte 3
Pro@@ 3
gez 3
arrogants 3
appartement 3
197@@ 3
tiendra 3
cre@@ 3
aidera 3
vivait 3
Ã©prouve 3
esses 3
son@@ 3
inven@@ 3
vit@@ 3
tomba 3
promener 3
tonne 3
concerne 3
futon 3
Ã©checs 3
cur@@ 3
Gu@@ 3
198@@ 3
convient 3
Bats 3
Ã©coute 3
spir@@ 3
poignÃ©e 3
cacahuÃ¨tes 3
alent@@ 3
contient 3
poison 3
souv@@ 3
enez 3
apparu 3
pouvaient 3
extrÃªmement 3
ravi 3
pure 3
habitait 3
Cessez 3
rÃ©veille 3
deviner 3
arch@@ 3
mation 3
attraper 3
sign@@ 3
Ã©vi@@ 3
ples 3
pratiquement 3
adop@@ 3
Ã©gard 3
dÃ©pourvu 3
promenade 3
nel 3
incen@@ 3
bÃ©nÃ©@@ 3
Ju@@ 3
Nancy 3
prÃ©fÃ¨res 3
emprunte 3
un@@ 3
veloppÃ© 3
verres 3
brill@@ 3
Ver@@ 3
hypothÃ¨se 3
Diable 3
auprÃ¨s 3
sauv@@ 3
signification 3
cordes 3
excuser 3
termine 3
DÃ©gage 3
rÃªves 3
bagages 3
imp@@ 3
Ã©lo@@ 3
pul@@ 3
gou@@ 3
excÃ¨s 3
conseilla 3
prÃ©hen@@ 3
joueurs 3
humili@@ 3
cad@@ 3
destin 3
prouv@@ 3
pleurait 3
situe 3
lor@@ 3
ger@@ 3
ris 3
cuisinier 3
essayez 3
rejet@@ 3
rÃ©es 3
frontiÃ¨re 3
coffre 3
ciseaux 3
premiers 3
direc@@ 3
influ@@ 3
sÃ»res 3
forc@@ 3
avril 3
souffle 3
tÃ©moin 3
Bill 3
Pardonnez 3
ra@@ 3
domaine 3
alisation 3
remise 3
digne 3
ar 3
science 3
Ã©teindre 3
cul 3
ouilles 3
endu 3
trouverez 3
guer@@ 3
denti@@ 3
habituellement 3
sieste 3
p 3
matinÃ©e 3
Corri@@ 3
Ã©chapp@@ 3
refusÃ© 3
atomique 3
rac@@ 3
bouteilles 3
rÃ©cemment 3
publiÃ© 3
presse 3
absurde 3
dÃ©clar@@ 3
utiles 3
Ã©tudient 3
cho@@ 3
dÃ©s 3
cassÃ©e 3
efficace 3
essenti@@ 3
Apportez 3
cue@@ 3
expÃ©ri@@ 3
ment@@ 3
cerveau 3
jure 3
pus 3
statue 3
rÃ©sistance 3
facture 3
mondiale 3
Anne 3
trou@@ 3
tran@@ 3
Ã©levÃ©s 3
rag@@ 3
aurez 3
loyer 3
igner 3
secours 3
jeter 3
parl@@ 3
assure 3
habit@@ 3
projets 3
tempÃªte 3
mag@@ 3
caus@@ 3
tives 3
glÃ© 3
pÃ©trole 3
jeta 3
Ã©coutez 3
senti@@ 3
dÃ©conne 3
abondance 3
abandonn@@ 3
retrouvÃ© 3
cinÃ©@@ 3
volontaire 3
off@@ 3
rir 3
drÃ´le 3
ennuyeux 3
bande 3
bes@@ 3
moteur 3
contrari@@ 3
industri@@ 3
explication 3
titre 3
continuÃ© 3
moquer 3
disparu 3
tremblement 3
envis@@ 3
rÃ©e 3
construction 3
accent 3
sud 3
idÃ©@@ 3
parliez 3
cous@@ 3
disponi@@ 3
passage 3
convaincu 3
En@@ 3
rich@@ 3
issez 3
vague 3
pizza 3
fication 3
addition 3
entretenir 3
impatient 3
ablement 3
siÃ¨ge 3
bouche 3
z 3
invention 3
fonctionnÃ© 3
choisi 3
enf@@ 3
her@@ 3
commentaire 3
gentleman 3
pose 3
dÃ©nu@@ 3
idiote 3
rÃªve 3
mangez 3
imagination 3
assi@@ 3
pauvres 3
garderai 3
sacrÃ© 3
comprennent 3
gel@@ 3
poÃ¨te 3
aimaient 3
devenue 3
const@@ 3
fausse 3
lune 3
miel 3
remonter 3
dÃ©cor@@ 3
prÃª@@ 3
dÃ©pÃªcher 3
gran@@ 3
tunnel 3
vas@@ 3
pensÃ©es 3
autoritÃ© 3
nerveu@@ 3
mang@@ 3
maths 3
rus@@ 3
virus 3
rie 3
cherchait 3
sÃ»rs 3
ition 3
sour@@ 3
loge 3
enverrai 3
douc@@ 3
chir@@ 3
apparence 3
sup@@ 3
Lavez 3
grandi 3
aus@@ 3
dirent 3
tueux 3
embrass@@ 3
donnÃ©e 3
Honn@@ 3
mourut 3
comport@@ 3
accor@@ 3
Susan 3
ller 3
dÃ©termination 3
symbole 3
voulaient 3
maisons 3
maj@@ 3
cuisiniÃ¨re 3
Ã©ch@@ 3
intelligents 3
montrent 3
serrÃ© 3
fic@@ 3
saches 3
regrette 3
tempÃ©rature 3
de@@ 3
hÃ©roÃ¯ne 3
arrose 3
pigeons 3
Ã©coutes 3
SMS 3
eriez 3
tre@@ 3
nom@@ 3
amÃ©liorÃ© 3
inte 3
unes 3
lles 3
haute 3
rempli 3
apporter 3
plaintes 3
affi@@ 3
sÅ“urs 3
guerrier 3
persÃ©vÃ©rance 3
tourner 3
fian@@ 3
architecte 3
tarte 3
diez 3
contraire 3
fournir 3
pot 3
prudents 3
monnaie 3
actuellement 3
rentrÃ©e 3
sortons 3
fÃª@@ 3
vies 3
pal@@ 3
far@@ 3
prom@@ 3
persuader 3
mammifÃ¨re 3
solaire 3
survivants 3
amÃ©ric@@ 3
ades 3
obligÃ©e 3
dieu 3
rapporte 3
chambres 3
ires 3
allumer 3
chem@@ 3
igne 3
incalculable 3
Ã¨que 3
dÃ©clarÃ© 3
enva@@ 3
prof@@ 3
posÃ© 3
difficultÃ© 3
poussÃ© 3
yÃ© 3
construit 3
ttes 3
promis 3
lais@@ 3
voler 3
uns 3
conserv@@ 3
iciel 3
Ã©tudiÃ© 3
encourag@@ 3
con 3
avancÃ© 3
Å“uvre 3
changements 3
FranÃ§ais 3
action 3
assurer 3
collec@@ 3
ennes 3
manquÃ© 3
Re@@ 3
Nations 3
Unies 3
approche 3
dre 3
autoris@@ 3
sorti 3
refuse 3
intime 3
histoires 3
annulÃ©e 3
Ã»@@ 3
eusement 3
vement 3
prÃ©cieux 3
dÃ©couv@@ 3
rÃªv@@ 3
activitÃ© 3
Ã©ter 3
vois@@ 3
envisage 3
Monsieur 3
perd 3
guÃ¨re 3
voulut 3
its 3
ecte 3
divor@@ 3
cer 3
frappÃ© 3
difficiles 3
excus@@ 3
tais 3
fournit 3
Canada 3
manquez 3
victoire 3
passa 3
amitiÃ© 3
tin@@ 3
travaillons 3
iter 3
indique 3
ern@@ 3
crayon 3
viande 3
franÃ§@@ 3
touristes 3
vÃª@@ 3
nor@@ 3
disputer 3
honneur 3
tal@@ 3
idÃ©es 3
ances 3
publicitÃ© 3
gro@@ 3
options 3
natur@@ 3
pÃ©ril 3
6 3
bre 3
attirer 3
hÃ©ri@@ 3
plu@@ 3
citoyens 3
pratique 3
illez 3
sence 3
exigÃ© 3
prÃ©sentÃ© 3
prÃ©voyez 3
objet 3
gÃ©ante 3
boivent 3
litres 3
ignit 3
cible 3
habituer 3
chÃ¢@@ 3
teau 3
fatiguÃ©e 3
scÃ¨ne 3
opÃ©ration 3
embr@@ 3
commenÃ§@@ 3
contac@@ 3
Ã©tagÃ¨re 3
nuages 3
actuelle 3
compatis 3
venons 3
lÃ©ger 3
man@@ 3
Colomb 3
coupa 3
gardÃ© 3
autorisÃ© 3
pÃ©nÃ©trer 3
pÃ©riode 3
adorent 3
pardonn@@ 3
dÃ©pÃªchÃ© 3
file 3
longue 3
avou@@ 3
ence@@ 3
chouette 3
Ã©goÃ¯ste 3
professionnel 3
peindre 3
Ã»t 3
acc@@ 3
ennent 3
valeur 3
arrivÃ©s 3
nouveaux 3
points 3
La 3
consÃ©quences 3
zone 3
crÃ©Ã© 3
vivez 3
Å“uf 3
Ã©pousÃ© 3
employer 3
couvert 3
courageux 3
commentaires 3
dÃ©jeunÃ© 3
sortis 3
habill@@ 3
ader 3
dedans 3
pÃ©n@@ 3
diam@@ 3
entra 3
Bou@@ 3
pantalon 3
arrÃª@@ 3
salon 3
recommand@@ 3
minimum 3
issons 3
quartier 3
sit@@ 3
apprÃ©cient 3
mondial 3
lapins 3
courte 3
diplom@@ 3
confis@@ 3
itÃ©e 3
personnel 3
clo@@ 3
compÃ©t@@ 3
issait 3
retourn@@ 3
soutenu 3
serons 3
mouvement 3
maladies 3
sant 3
travaill@@ 3
vol 3
placÃ© 3
Ã©cou@@ 3
intÃ©ressÃ©s 3
sez 3
dorm@@ 3
Permettez 3
prÃ©sente 3
amus@@ 3
regarda 3
pÃª@@ 3
prÃ©venue 3
Ã©coutÃ© 3
reconn@@ 3
mour@@ 3
camion 3
ouvertes 3
crimin@@ 3
disposais 3
rÃ©guliÃ¨rement 3
glace 3
lav@@ 3
visit@@ 3
tas 3
irait 3
prendrais 3
eras 3
Ã©lÃ¨ve 3
su 3
sÃ©par@@ 3
opportunitÃ© 3
rÃ©colte 3
ile 3
ore@@ 3
ps 3
matÃ©ri@@ 3
pass@@ 3
partira 3
essaya 3
ry 3
coups 3
ray@@ 3
conscient 3
nations 3
prÃ©ci@@ 3
time 3
instru@@ 3
langage 3
eÃ»t 3
ole 3
seu@@ 3
chaussettes 3
morte 3
fÃ¢chÃ© 3
bres 3
entraÃ®ner 3
soudainement 3
dÃ©pensÃ© 3
aura 3
vÃ©ri@@ 3
chinoise 3
aisser 3
dÃ©fil@@ 3
mÃ©daille 3
acceptÃ© 3
endommag@@ 3
Ã©tend@@ 3
cieusement 3
oli@@ 3
dÃ©cÃ©dÃ© 3
manuel 3
amen@@ 3
qu 3
allÃ©es 3
descend@@ 3
fÃ»mes 3
m 3
texte 3
bÃ»@@ 3
rest@@ 3
hari@@ 3
britanni@@ 3
xim@@ 3
ramassÃ© 3
derniÃ¨res 3
disposes 3
soucie 3
choc 3
2013 3
iti@@ 3
siÃ¨cle 3
cont@@ 3
Ã©tend 3
anges 3
pneu 3
dig@@ 3
silencieuse 3
frappa 3
vÃ©cut 3
suivi 3
pÃ¨se 3
frappe 3
menti@@ 3
jaloux 3
dingue 3
dessert 3
bar 3
disposent 3
doutes 3
araignÃ©e 3
souff@@ 3
lave 3
travaillais 3
inqui@@ 3
conseille 3
sentait 3
trou 3
noire 3
diffÃ©rente 3
prÃ©visions 3
nant 3
terme 3
augment@@ 3
enlÃ¨ve 3
sale 3
tentation 3
gÃª@@ 3
nÃ©s 3
isÃ© 3
arrÃªtÃ©e 3
diffÃ¨re 3
supermarchÃ© 3
dÃ©sire 3
intÃ©resse 3
dentiste 3
ivre 3
tribunal 3
reprendre 3
aimerions 3
humains 3
rencontrons 3
doigt 3
latin 3
pan@@ 3
roi 3
ner@@ 3
connaÃ®@@ 3
effray@@ 3
sentiment 3
heurtÃ© 3
dÃ©so@@ 3
aband@@ 3
mec 3
cha 3
connaissent 3
Paul 3
semblent 3
rang 3
Mat@@ 3
trÃ©@@ 3
insist@@ 3
vitÃ© 3
juge 3
lente 3
effrayÃ© 3
Ã©chouÃ© 3
chauff@@ 3
soucier 3
Ã©lectronique 3
Ce 3
sÃ©e 3
envers 3
emmÃ¨ne 3
aimais 3
cacher 3
jupe 3
maÃ®tre 3
putain 3
internationale 3
ferions 3
ah 3
dors 3
amusante 3
arrivait 3
ris@@ 3
ram@@ 3
biscuits 3
Mon@@ 3
instructions 3
membre 3
venues 3
souhaiter 3
yen 3
DÃ©barr@@ 3
aides 3
once 3
arab@@ 3
siÃ¨cles 3
corde 3
mie 3
alentours 3
maÃ®tri@@ 3
sÃ©rieuse 3
rÃ©pu@@ 3
onner 3
yens 3
cÃ© 3
fruit 3
tÃ©lÃ©phones 3
devais 3
cier 3
Ã©rer 3
Ã¨tre 3
aimons 3
aÃ¯@@ 3
preuves 3
constamment 3
affir@@ 3
8@@ 3
bizarrement 3
dÃ¨s 3
appelons 3
rÃ©pare 3
assise 3
vive 3
match 3
gÃ©nies 3
etÃ© 3
regardes 3
copies 3
vitesse 3
boutique 3
prÃ©cipit@@ 3
pauvretÃ© 3
plaire 3
pleine 3
joindre 3
supplÃ©mentaire 3
erie 3
ouvre 3
miracle 3
attaquÃ©s 3
cÃ©rÃ©monie 3
asp@@ 3
clav@@ 3
angle 3
Gar@@ 3
repasser 3
pareil 3
fiable 3
stre 3
rentr@@ 3
enseignÃ© 3
entiÃ¨re 3
compliquÃ© 3
omi 3
annu@@ 3
stupides 3
gues 3
rappelles 3
rap@@ 3
idi@@ 3
adorable 3
tromper 3
curi@@ 3
faite 3
Mi@@ 3
arriverait 3
invitÃ©e 3
tÃ©lÃ©@@ 3
crÃ©dit 3
Sh@@ 3
mirent 3
reviendra 3
continuer 3
excl@@ 3
dÃ©gr@@ 3
escali@@ 3
quotidien 3
mariÃ©e 3
Ã§ons 3
manquent 3
ambition 3
distance 3
viez 3
dÃ©licieux 3
exemple 3
circonstances 3
craign@@ 3
ge@@ 3
Ã©pais 3
Sach@@ 3
Ak@@ 3
ennuy@@ 3
eables 3
pondu 3
suiv@@ 3
ino@@ 3
irais 3
parte 3
immÃ©di@@ 3
pendante 3
inst@@ 3
Kyoto 3
offen@@ 3
cy@@ 3
renvoy@@ 3
cherches 3
ta@@ 3
talent 3
coule 3
informations 3
regardant 3
endor@@ 3
zÃ©ro 3
suspecte 3
AlgÃ©rie 3
itÃ©es 3
Ã©v@@ 3
pousse 3
tin 3
bord 3
20@@ 3
Ã©tudes 3
gentille 3
gau@@ 3
irs 3
fiÃ¨re 3
bÃª@@ 3
minuit 3
particuliÃ¨rement 3
bronz@@ 3
sagesse 3
chon 3
critiques 3
rÃ©pÃ©tition 3
incl@@ 3
mÃ©tÃ©orologiques 3
quarante 3
milliers 3
sible 3
rentrÃ© 3
tandis 3
chaise 3
manquait 3
partis 3
Ã©volution 3
supposÃ©s 3
blo@@ 3
tapis 3
souhaitez 3
rues 3
course 3
pousser 3
manques 3
pensait 3
dÃ©fi 3
colline 3
rÃ©fu@@ 3
acer 3
chant 3
responsabilitÃ© 3
ottes 3
ridiculis@@ 3
europÃ©enne 3
den@@ 3
per 3
abeilles 3
sensible 3
tut 3
liez 3
primÃ© 3
oublier 3
sons 3
dÃ©lic@@ 3
merde 3
entraÃ®@@ 3
dic@@ 3
couchÃ© 3
tra@@ 3
quotidienne 3
lise 3
Ã©galitÃ© 3
conclu 3
crÃ¨me 3
libertÃ© 3
plafond 3
achÃ¨@@ 3
alisme 3
dÃ©ch@@ 3
dispar@@ 3
porterai 3
Ã©trangers 3
logique 3
adap@@ 3
dorment 3
Ã©puisÃ© 3
pressÃ©e 2
quels 2
nuage 2
pensÃ©e 2
rayons 2
vends 2
class@@ 2
Ã©duc@@ 2
atives 2
pur 2
os@@ 2
pourrions 2
vivions 2
Yuk@@ 2
reconnaiss@@ 2
poulet 2
suelle 2
travaillez 2
Ã©cureuil 2
trouvons 2
y&apos; 2
solide 2
Ã¨le 2
Fran@@ 2
ambulance 2
cruel 2
lion 2
progresser 2
mÃ©decine 2
moderne 2
veuille 2
Ã©navant 2
travaillerai 2
Ã©crirai 2
veste 2
uels 2
soient 2
obs@@ 2
hÃ¢@@ 2
athy 2
matiques 2
introdu@@ 2
saper 2
rÃ©s@@ 2
larme 2
surprendre 2
mons 2
terrible 2
vil@@ 2
rassem@@ 2
tournent 2
contribu@@ 2
lin@@ 2
pianiste 2
mÃ©ritons 2
destin@@ 2
ingÃ©ni@@ 2
cat@@ 2
requÃªte 2
ides 2
inspiration 2
Ã©ty@@ 2
voyante 2
Ã©ri 2
stique 2
opÃ©ra 2
passera 2
venant 2
recevoir 2
attitude 2
pati@@ 2
violon 2
Mike 2
erg@@ 2
Ã®nmes 2
sent@@ 2
inÃ©e 2
nord 2
numÃ©rique 2
alo@@ 2
veu@@ 2
natation 2
Jackson 2
rencard 2
gal@@ 2
toroute 2
aver@@ 2
rembourser 2
active 2
putÃ© 2
publi@@ 2
biolog@@ 2
priori@@ 2
plainte 2
refour 2
my@@ 2
rÃ©alis@@ 2
dist@@ 2
tue 2
civi@@ 2
Ken 2
ttelettes 2
pluriel 2
gen@@ 2
maligne 2
rÃ©pÃ©ter 2
pre 2
procha 2
traversons 2
microscope 2
reporter 2
proviennent 2
protÃ©@@ 2
vÃ©rifi@@ 2
normale 2
retour@@ 2
Ã©cras@@ 2
passant 2
mions 2
rendrai 2
mÃ©prise 2
J 2
retourne 2
rÃ©parez 2
vier 2
quat@@ 2
novembre 2
priv@@ 2
laine 2
reprÃ©sentant 2
mai 2
poches 2
bli@@ 2
ande 2
Ãªle 2
vitre 2
sentit 2
prÃ©occupation 2
perons 2
vivons 2
tionner 2
poudre 2
Ã©mo@@ 2
sac@@ 2
rÃ©parÃ© 2
noms 2
ome 2
laissa 2
accompli@@ 2
pleuve 2
utilisÃ©e 2
pacifiques 2
ner 2
eille 2
viennes 2
supporte 2
diagno@@ 2
sti@@ 2
monie 2
tations 2
fain@@ 2
anta 2
quÃ©s 2
suni@@ 2
Ã§ant 2
kilos 2
rÃ©v@@ 2
puisque 2
ridicule 2
illi@@ 2
lavage 2
universitaire 2
testament 2
Green 2
lon@@ 2
mordu 2
tÃ©tan@@ 2
rure 2
pai@@ 2
prouvez 2
verrons 2
rÃ©able 2
tues 2
tox@@ 2
ication 2
Å“ur 2
onna 2
dom@@ 2
propriÃ©tÃ© 2
puits 2
paresseux 2
punition 2
tai 2
oux 2
piÃ©g@@ 2
ograp@@ 2
commerci@@ 2
Ã©vidence 2
termes 2
versitÃ© 2
ous 2
milieu 2
oins 2
vou@@ 2
dri@@ 2
rais@@ 2
prÃ©parÃ©es 2
versÃ© 2
ty@@ 2
pencha 2
raient 2
vÃ´tre 2
goÃ»@@ 2
obtenir 2
tro@@ 2
Ã©l@@ 2
amÃ©lior@@ 2
professeurs 2
olÃ© 2
Joh@@ 2
anne 2
intimi@@ 2
saoul 2
jus@@ 2
muse 2
onÃ©reuse 2
social 2
Osaka 2
avo@@ 2
rÃ©ponses 2
poupÃ©es 2
secondes 2
merveilleuse 2
tomac 2
191@@ 2
ll@@ 2
Eiffel 2
tester 2
sÃ¨ches 2
institu@@ 2
sanglots 2
ouvris 2
rentres 2
ix 2
sÃ©journer 2
Sal@@ 2
valable 2
mulÃ© 2
rigoler 2
docu@@ 2
ments 2
peintures 2
japonaises 2
exi@@ 2
obligÃ© 2
lab@@ 2
laisses 2
trom@@ 2
excuse 2
Se@@ 2
ador@@ 2
voleurs 2
banan@@ 2
termin@@ 2
S 2
sir 2
terait 2
Helen 2
urgie 2
arrogance 2
repos@@ 2
mur 2
mÃ¨@@ 2
surplomb@@ 2
quez 2
vache 2
Ãªpes 2
venim@@ 2
rompre 2
sensi@@ 2
impul@@ 2
Ã©tabli 2
race 2
mouchoir 2
respect 2
visitÃ© 2
awa 2
trouva 2
close 2
vain@@ 2
louer 2
prÃ©fÃ©rence 2
tatouages 2
prennes 2
saviez 2
figure 2
Pythag@@ 2
Mag@@ 2
secrÃ¨te 2
nombres 2
ras@@ 2
partage 2
Celsius 2
Ã©nigme 2
physi@@ 2
tivement 2
50 2
patients 2
raconte 2
parlais 2
yez 2
Sou@@ 2
traver@@ 2
survenir 2
trouvÃ¢mes 2
pre@@ 2
diffÃ©ren@@ 2
Ã©rir 2
prison@@ 2
robuste 2
White 2
orcez 2
ponctuelle 2
formul@@ 2
prÃ©fÃ¨rerais 2
zaine 2
jetez 2
prÃ©cisÃ©ment 2
papill@@ 2
diplomati@@ 2
jug@@ 2
rÃ©gu@@ 2
liÃ¨re 2
din@@ 2
remu@@ 2
sÃ©paratistes 2
pens@@ 2
recherches 2
perd@@ 2
Ã§ailles 2
valise 2
naviguer 2
jouet 2
parv@@ 2
Ã©nerv@@ 2
tourne 2
tenue 2
tricher 2
visionn@@ 2
rati@@ 2
regardait 2
feu@@ 2
prudentes 2
opÃ©rer 2
verrou@@ 2
curios@@ 2
pari 2
spÃ©cial 2
traitez 2
loupÃ© 2
fab@@ 2
robot 2
client 2
Ã©pingle 2
ettre 2
cal 2
cool 2
isa 2
mÃ©thode 2
hi 2
Di@@ 2
rencontres 2
confir@@ 2
version 2
personnellement 2
missionner 2
acceptable 2
bran@@ 2
proximitÃ© 2
rob@@ 2
rentre 2
artif@@ 2
ang@@ 2
traversÃ© 2
rÃ©clamÃ© 2
statut 2
partager 2
menacÃ© 2
refusait 2
propos@@ 2
rejo@@ 2
plats 2
irrÃ©proch@@ 2
royale 2
montrÃ© 2
tier 2
personnages 2
Har@@ 2
sportif 2
laitiers 2
1 2
bass@@ 2
club 2
ouvez 2
laide 2
promet 2
vivement 2
mystÃ¨re 2
tardif 2
My@@ 2
tables 2
parties 2
tisme 2
danger@@ 2
poÃ©si@@ 2
manipul@@ 2
mission 2
manuelle 2
pag@@ 2
exer@@ 2
secondaire 2
revenus 2
mÃ©dicaments 2
Tur@@ 2
quie 2
maladro@@ 2
id@@ 2
ck@@ 2
mÃ¨nent 2
mesures 2
ours 2
Chil@@ 2
meurtre 2
endro@@ 2
thÃ©@@ 2
eption 2
dial@@ 2
mence 2
souhai@@ 2
ouillard 2
prouver 2
commerce 2
tact 2
prÃ©occup@@ 2
soudure 2
marrant 2
alibi 2
favorable 2
coul@@ 2
az@@ 2
bug 2
Ã©chantill@@ 2
produira 2
ongles 2
roir 2
conduc@@ 2
ramen@@ 2
trichÃ© 2
lundis 2
locales 2
sÃ©ance 2
qui@@ 2
human@@ 2
pierres 2
ois@@ 2
soirs 2
tueuse 2
repose 2
bru@@ 2
endorm@@ 2
sourc@@ 2
refusa 2
200@@ 2
meilleures 2
lourde 2
prÃ©fÃ©r@@ 2
tenions 2
tem@@ 2
Euro@@ 2
tage 2
soutient 2
ori@@ 2
sation 2
plat 2
ssez 2
lisez 2
souper 2
mangeons 2
nu 2
150 2
terai 2
milliards 2
correct 2
ague 2
,@@ 2
spectateurs 2
affai@@ 2
deven@@ 2
levez 2
trons 2
itif 2
rÃ©alisÃ© 2
pat@@ 2
cultures 2
pit 2
( 2
) 2
incorrigi@@ 2
toilettes 2
Christop@@ 2
mÃ©s 2
terminÃ©e 2
barbecue 2
oranges 2
suc@@ 2
registrÃ© 2
noirs 2
ver 2
rÃ©el 2
pren@@ 2
rejoins 2
opposÃ© 2
vers@@ 2
quilles 2
ragie 2
soul@@ 2
evant 2
Ã©loigne 2
St@@ 2
sume 2
Bar@@ 2
ack 2
iss@@ 2
flu@@ 2
quotidiennement 2
Ã©tern@@ 2
vierge 2
dÃ©cÃ©@@ 2
cousin 2
avantage 2
Ã©chappÃ© 2
offert 2
tru@@ 2
Ã§ut 2
rÃ©frigÃ©rateur 2
capac@@ 2
saisit 2
suivit 2
rÃ©sister 2
racines 2
invit@@ 2
viendriez 2
mines 2
mettais 2
compar@@ 2
sphÃ¨re 2
terrain 2
Ã´t 2
anger 2
rÃ©chauff@@ 2
clim@@ 2
partagent 2
Ã©crasÃ© 2
stiques 2
saisi 2
tentez 2
cas@@ 2
sÃ©parÃ©es 2
Ã©conomise 2
racontÃ© 2
rendit 2
tape 2
Peter 2
quel@@ 2
addi@@ 2
tournÃ© 2
reÃ§o@@ 2
40 2
11 2
collabor@@ 2
lumiÃ¨res 2
agon@@ 2
Ã©puis@@ 2
ving@@ 2
taine 2
maternelle 2
satisfaite 2
supplÃ©mentaires 2
Ã©toffe 2
puissante 2
passÃ©s 2
rÃª@@ 2
mÃ©pri@@ 2
Ã©gale 2
relations 2
recomman@@ 2
airement 2
pratiquer 2
rÃ©pon@@ 2
z@@ 2
allu@@ 2
super@@ 2
gard@@ 2
pardonner 2
poil 2
principales 2
liÃ©s 2
sures 2
acci@@ 2
autom@@ 2
obiles 2
mosqu@@ 2
Ã©vanou@@ 2
terres 2
rÃ©pand@@ 2
seyez 2
rÃ©com@@ 2
rÃ©sidentielle 2
fav@@ 2
ori 2
pulsÃ© 2
Mayuko 2
paraÃ®t 2
montez 2
lib@@ 2
rai@@ 2
nageant 2
x@@ 2
rÃ©ment 2
prononÃ§a 2
Ã´mes 2
Ã©vÃ¨nements 2
spor@@ 2
stade 2
intÃ©ri@@ 2
osex@@ 2
quantitÃ© 2
moque 2
prÃ©sents 2
trouvÃ©e 2
aci@@ 2
pilule 2
tombent 2
vez 2
Ã©charpe 2
rÃ©cit 2
acÃ© 2
tremblements 2
vote 2
sen@@ 2
parfum 2
voies 2
posÃ©es 2
mandat 2
impati@@ 2
Ã©coutais 2
Charles 2
perplexe 2
touchez 2
Isra@@ 2
Ã«l 2
valises 2
sonn@@ 2
sonnÃ© 2
colli@@ 2
lapin 2
mÃ©lang@@ 2
engag@@ 2
plais@@ 2
souffr@@ 2
rond 2
jeu@@ 2
productifs 2
voyag@@ 2
montra 2
vieilles 2
nav@@ 2
obligations 2
cle@@ 2
neiger 2
onnement 2
ot 2
merdÃ© 2
Ã©crivain 2
taxis 2
lÃ©opÃ¢tre 2
manche 2
prenne 2
Ã©licitations 2
jugement 2
pareille 2
tex@@ 2
amÃ©@@ 2
villes 2
signer 2
rÃ©paration 2
serviettes 2
Cor@@ 2
endant 2
rÃ©duire 2
puisses 2
and 2
remarqu@@ 2
landaise 2
honn@@ 2
ÃªtetÃ© 2
resplen@@ 2
mis@@ 2
Ã©craser 2
manges 2
nourrir 2
ards 2
millionnaire 2
AmÃ©ric@@ 2
Ã©picÃ© 2
noter 2
pardonnÃ© 2
seins 2
lourds 2
ges 2
anxi@@ 2
consci@@ 2
jugez 2
aby@@ 2
manifestation 2
tive 2
tenais 2
emprun@@ 2
Mennad 2
recette 2
obtient 2
lic@@ 2
Comm@@ 2
Pat@@ 2
Ã”@@ 2
rÃ©gi@@ 2
obÃ©@@ 2
rare 2
Afri@@ 2
ordonna 2
forces 2
dre@@ 2
Hit@@ 2
Ur@@ 2
nation@@ 2
plÃ© 2
oncer 2
Mos@@ 2
opÃ©r@@ 2
rangÃ© 2
issant 2
horri@@ 2
permet@@ 2
piÃ¨ge 2
supÃ©rieur 2
prÃ©som@@ 2
D 2
Dis@@ 2
poseriez 2
sautÃ© 2
jaune 2
onze 2
mourraient 2
Jones 2
diction 2
soirÃ©es 2
valide 2
lÃ¨vres 2
programme 2
ey@@ 2
mar 2
rÃ©si@@ 2
normaux 2
rÃ©server 2
uer 2
morceaux 2
raisins 2
ide 2
sec@@ 2
che@@ 2
Ã©touff@@ 2
soud@@ 2
lot 2
lour@@ 2
soucis 2
magazines 2
limite 2
actu@@ 2
ari@@ 2
concer@@ 2
taux 2
abilitÃ© 2
regret 2
corri@@ 2
YouTube 2
jam@@ 2
pis@@ 2
guide 2
samedi 2
prÃ©parÃ©s 2
aspir@@ 2
rÃ©gler 2
fa@@ 2
tÃ¨rent 2
airs 2
Ã¢gÃ© 2
nagea 2
sÃ©isme 2
montÃ© 2
oÃ»t 2
Ã‰cossais 2
Res@@ 2
nais 2
mente 2
non@@ 2
desc@@ 2
gnÃ©e 2
bai@@ 2
observe 2
tras 2
sacrifices 2
up@@ 2
prime 2
totale 2
posture 2
serte 2
sp@@ 2
issue 2
8 2
pois@@ 2
pyramides 2
Ã‰g@@ 2
quittez 2
Lu@@ 2
fen@@ 2
personn@@ 2
origin@@ 2
gÃ©ri@@ 2
malins 2
misÃ©ricorde 2
trompeur 2
pÃªch@@ 2
piÃ¨@@ 2
adi@@ 2
rÃ©par@@ 2
cÃ´@@ 2
tira 2
trav@@ 2
excel@@ 2
pollution 2
trahi 2
USB 2
recherchons 2
rompu 2
rÃ´ti 2
morgue 2
trÃ´ne 2
urine 2
soulag@@ 2
voudr@@ 2
services 2
rable 2
respec@@ 2
secrÃ©taire 2
planter 2
arrives 2
saigne 2
paierai 2
inform@@ 2
blon@@ 2
Ã©conom@@ 2
llard 2
Fr@@ 2
esc@@ 2
italien 2
gent 2
internet 2
Appar@@ 2
Yokohama 2
orientation 2
Ã¯e 2
propose 2
Ã¨vement 2
moul@@ 2
neu@@ 2
sole@@ 2
oblig@@ 2
panne 2
ok 2
rationnel 2
distingu@@ 2
notes 2
parcour@@ 2
Jeanne 2
pluies 2
prÃ©cises 2
7 2
vents 2
mocr@@ 2
vÃªtement 2
tradition@@ 2
timbre 2
Qu@@ 2
rÃ©conci@@ 2
pouvions 2
souci@@ 2
bal 2
vÃ©@@ 2
jo@@ 2
malheur 2
pointe 2
montagnes 2
nons 2
respectent 2
joueuses 2
confi@@ 2
lits 2
satis@@ 2
victime 2
Jav@@ 2
RI@@ 2
nÃ´tres 2
te@@ 2
lendemain 2
maire 2
ef@@ 2
sauta 2
tiennes 2
Ã¢g@@ 2
doul@@ 2
agno@@ 2
ouve 2
participÃ© 2
sente 2
paix 2
murmura 2
enter 2
ongÃ©e 2
conse@@ 2
ste 2
suspect 2
surnom 2
resterai 2
eue 2
prÃ©server 2
parvenir 2
trompette 2
Ã»te 2
renommÃ©e 2
rÃ©side 2
meu@@ 2
rÃ©volution 2
Ã§u 2
saisons 2
be@@ 2
Bu@@ 2
laboratoire 2
chap@@ 2
dÃ©ci@@ 2
der@@ 2
skier 2
clari@@ 2
utilisons 2
tim@@ 2
orbite 2
bless@@ 2
rÃ©sultat 2
prononciation 2
Ã¨de 2
poitrine 2
prÃ©cÃ©@@ 2
grou@@ 2
pÃ©s 2
viendrais 2
vaisselle 2
Ou@@ 2
repro@@ 2
Ã©rÃ©e 2
plaisan@@ 2
supposÃ© 2
sacs 2
naÃ¯@@ 2
repos 2
prirent 2
nÃ©goci@@ 2
rendait 2
galax@@ 2
reconnais 2
grat@@ 2
Ã©tÃ©ria 2
ral@@ 2
plantÃ© 2
loisirs 2
sus 2
Ã©lu@@ 2
discus@@ 2
lancÃ© 2
front 2
Maria 2
vanter 2
ect 2
Ã©pin@@ 2
agi 2
ball@@ 2
rose 2
machine 2
reuse 2
Ã©preuve 2
Ã©tonnÃ© 2
cs 2
op@@ 2
geons 2
one 2
bom@@ 2
siles 2
veille 2
subir 2
Na@@ 2
X@@ 2
Ã©pau@@ 2
serions 2
magnifique 2
verrouillÃ© 2
lez 2
viendrait 2
aqu@@ 2
istes 2
web 2
Ã©tudia 2
Jim@@ 2
Australi@@ 2
urveille 2
vulgaire 2
Mal@@ 2
visitera 2
part@@ 2
veuve 2
exp@@ 2
irÃ© 2
vend 2
voyagent 2
Chopin 2
quitta 2
traite 2
permet 2
connaiss@@ 2
transmets 2
indic@@ 2
passerai 2
scol@@ 2
lichÃ©e 2
whisky 2
vieillard 2
expressions 2
chÃ©e 2
intelligence 2
effort 2
rÃ©flexion 2
rÃ©soudra 2
trait 2
prÃ©sen@@ 2
Co@@ 2
erre 2
profondÃ©ment 2
bro@@ 2
Ã©change 2
les@@ 2
parlerai 2
import@@ 2
poursuivre 2
inclu@@ 2
Ã©normÃ©ment 2
policier 2
prendriez 2
pressÃ© 2
sandwichs 2
bili@@ 2
alternative 2
soldat 2
fre@@ 2
sister 2
iko 2
sÃ©v@@ 2
levÃ©e 2
sci@@ 2
cop@@ 2
tÃ¨re 2
prenant 2
rÃ©gime 2
singu@@ 2
treize 2
red 2
orte@@ 2
Allem@@ 2
lan@@ 2
plac@@ 2
tom@@ 2
lÃ©gu@@ 2
recev@@ 2
lications 2
poÃ¨mes 2
kilomÃ¨tres 2
trouves 2
occupÃ©es 2
loup 2
vengeance 2
virÃ© 2
joyeux 2
his 2
trucs 2
Ã©rudit 2
impressi@@ 2
profit 2
mani@@ 2
second 2
uses 2
servi@@ 2
singe 2
pardonne 2
riel 2
rencontra 2
explosion 2
retraite 2
Hi@@ 2
stoire 2
Ã©lectricitÃ© 2
outils 2
meilleurs 2
mÃ©dicament 2
rouÃ© 2
parvenu 2
voque 2
prÃ©coce 2
randonn@@ 2
tableaux 2
offenser 2
WhatsApp 2
possÃ¨des 2
principalement 2
perdit 2
pont 2
pleins 2
magas@@ 2
journ@@ 2
ph@@ 2
onique 2
Ãªte 2
excellent 2
pleures 2
verrai 2
ig@@ 2
euro@@ 2
absor@@ 2
18@@ 2
60 2
rÃ©sident 2
Ito 2
soulagement 2
sauva 2
adu@@ 2
isez 2
suivantes 2
plaindre 2
brio@@ 2
Ã©qui@@ 2
Ã§ues 2
nagent 2
vendent 2
spatial 2
juin 2
rÃ©f@@ 2
malentendu 2
ssent 2
van@@ 2
permit 2
sciences 2
objection 2
immor@@ 2
rÃ©ussir 2
pollu@@ 2
combus@@ 2
propag@@ 2
rÃªver 2
jouais 2
profiter 2
Ã©cuter 2
Ã´ta 2
jouant 2
dÃ©tru@@ 2
virer 2
onnes 2
pleuvra 2
regardais 2
occup@@ 2
Canadi@@ 2
rÃ©duite 2
perdes 2
princip@@ 2
sain 2
malsain 2
Ã©trangÃ¨res 2
las 2
rÃ©vÃ©la 2
sainte 2
religion 2
prÃªtre 2
passons 2
paroles 2
ambi@@ 2
mÃ©duses 2
Ex@@ 2
but@@ 2
notion 2
rÃ©ussit 2
ls 2
employ@@ 2
transpire 2
Tanaka 2
remplis 2
invincible 2
viv@@ 2
agawa 2
stric@@ 2
stiens 2
retirer 2
poursuivi 2
offre 2
courag@@ 2
remar@@ 2
mineur 2
rÃ©vÃ©l@@ 2
Ã©levÃ© 2
sul@@ 2
procÃ©@@ 2
28 2
4000 2
tuÃ©s 2
retenir 2
Ã©taire 2
nÃ©cess@@ 2
Car@@ 2
requi@@ 2
poussa 2
leva 2
correspon@@ 2
moder@@ 2
Je@@ 2
rencontrÃ©es 2
survie 2
marchant 2
glo@@ 2
originaire 2
angles 2
miens 2
tonnerre 2
tournez 2
rup@@ 2
retardÃ© 2
Ã©tab@@ 2
atÃ© 2
isi@@ 2
Hen@@ 2
tuyaux 2
15 2
mus@@ 2
Ã©gli@@ 2
lavÃ©s 2
rende 2
piez 2
blonde 2
sombres 2
Ã©lire 2
poussiÃ¨re 2
sauvages 2
probabili@@ 2
portent 2
gÃ©r@@ 2
extr@@ 2
refuser 2
Ã©c@@ 2
propri@@ 2
pÃ©trin 2
Ã©lÃ©ph@@ 2
mili@@ 2
Ã©rence 2
intÃ©rÃª@@ 2
Ã¨tes 2
cots 2
lication 2
mensonges 2
rossÃ©e 2
Ã®@@ 2
C 2
urÃ© 2
conclusions 2
ince 2
serrez 2
particu@@ 2
pouv@@ 2
sentis 2
partici@@ 2
ignorance 2
rock 2
isÃ©e 2
liquide 2
remet@@ 2
Mars 2
vidu 2
mignonnes 2
songe 2
vint 2
nag@@ 2
zones 2
orÃ© 2
ressenti@@ 2
tels 2
anim@@ 2
taxes 2
6@@ 2
pe@@ 2
jongler 2
trico@@ 2
onnette 2
logue 2
velop@@ 2
vÃ©gÃ©tari@@ 2
ponctu@@ 2
mÃ©can@@ 2
mÃªler 2
parten@@ 2
peu@@ 2
maquillage 2
rÃ©ussira 2
diff@@ 2
alphabet 2
tendit 2
Am@@ 2
Google 2
Mac@@ 2
pru@@ 2
milli@@ 2
tirÃ© 2
stations 2
Ã©lection 2
pistolet 2
stupÃ©@@ 2
sympath@@ 2
origine 2
largement 2
portant 2
surface 2
plon@@ 2
volontaires 2
tionnera 2
ous@@ 2
rÃ©veiller 2
vidÃ©os 2
Ã®le 2
ot@@ 2
tiennent 2
respectÃ© 2
nettoy@@ 2
trembler 2
issent 2
refl@@ 2
olym@@ 2
cit@@ 2
chanc@@ 2
papiers 2
â€‹ 2
ard@@ 2
parfaite 2
ion 2
sme 2
ze 2
retirÃ© 2
prÃ©sidenti@@ 2
emp@@ 2
sh@@ 2
assem@@ 2
ouille 2
pleuvait 2
Tony 2
pattes 2
seraient 2
repris 2
rÃ©pandit 2
ane 2
pitiÃ© 2
rav@@ 2
articles 2
tiez 2
Union 2
mouche 2
tigre 2
ratÃ© 2
effor@@ 2
prÃ©voir 2
proposa 2
reprÃ©sent@@ 2
pinte 2
cel@@ 1
rÃ©col@@ 1
ordin@@ 1
Invite 1
messages 1
Ã´ne 1
Bri@@ 1
tanni@@ 1
Mis@@ 1
chers 1
di 1
range 1
Ã§ois 1
toil@@ 1
netto@@ 1
cis 1
stupidi@@ 1
Kobe 1
pirate 1
loween 1
pir@@ 1
ilÃ 1
300 1
yuan 1
pet 1
tradu@@ 1
Ho@@ 1
oker 1
pick 1
up 1
Ã©go@@ 1
source 1
limousines 1
Hum@@ 1
trem@@ 1
pÃ© 1
na@@ 1
agres@@ 1
ffr@@ 1
tion@@ 1
instruc@@ 1
sim@@ 1
pale 1
remer@@ 1
mÃ©th@@ 1
boute@@ 1
illage 1
deni@@ 1
ancÃ© 1
tants 1
milia 1
marketing 1
expli@@ 1
visi@@ 1
auv@@ 1
corpus 1
onz@@ 1
embre 1
zi@@ 1
sel@@ 1
sugg@@ 1
politici@@ 1
Du@@ 1
don 1
occu@@ 1
ticip@@ 1
rise 1
ash 1
local 1
pneu@@ 1
manifes@@ 1
copi@@ 1
rapp@@ 1
mÃ©tr@@ 1
lat@@ 1
alement 1
ettez 1
mug 1
of 1
resp@@ 1
semi 1
occas@@ 1
ancho@@ 1
rions 1
sec 1
rÃ©flÃ©ch@@ 1
exe 1
snob 1
trouv@@ 1
oxyg@@ 1
vions 1
nour@@ 1
Ã®tre 1
continu@@ 1
Z@@ 1
minu@@ 1
soi@@ 1
Ar@@ 1
gent@@ 1
mm 1
opkins 1
ei@@ 1
parachute 1
timi@@ 1
races 1
verti@@ 1
phon 1
andra 1
possibili@@ 1
bac@@ 1
patio 1
thou@@ 1
lly@@ 1
wo@@ 1
odi@@ 1
fall 1
eller 1
angl@@ 1
alien 1
Por@@ 1
tugal 1
selfie 1
spiri@@ 1
rumin@@ 1
requ@@ 1
Ã©lectri@@ 1
lonies 1
H 1
hy@@ 1
Q 1
nes@@ 1
ol 1
pleuv@@ 1
uniqu@@ 1
lig@@ 1
100 1
tte 1
heu@@ 1
ally 1
flag@@ 1
heur@@ 1
trer 1
tenant 1
erve 1
rÃ©p@@ 1
Ã©a 1
mement 1
plor@@ 1
tude 1
lign@@ 1
sem@@ 1
amp 1
Th@@ 1
ank@@ 1
sgiving 1
lum@@ 1
thermostat 1
office 1
tionne 1
automobile 1
musici@@ 1
renomm@@ 1
melon 1
union 1
ski 1
acifi@@ 1
positive 1
hal@@ 1
dynam@@ 1
paress@@ 1
regrett@@ 1
apparti@@ 1
pÃ©ri@@ 1
four 1
seize 1
q@@ 1
lejandra 1
Ã¨ce 1
Es@@ 1
pages 1
gres@@ 1
reu@@ 1
passe@@ 1
ports 1
annul@@ 1
tail 1
amÃ©li@@ 1
poker 1
regard@@ 1
photosyn@@ 1
miles 1
objective 1
manu@@ 1
strat@@ 1
rhu@@ 1
rincess 1
ride 1
prati@@ 1
signific@@ 1
tsunami 1
vision 1
ient 1
reli@@ 1
dÃ©jeu@@ 1
ache 1
rÃ©con@@ 1
offense 1
quo 1
Ã´ 1
scand@@ 1
ouver@@ 1
pÃ©enne 1
multilingu@@ 1
val@@ 1
tropho@@ 1
kara@@ 1
ok@@ 1
Ãª@@ 1
endra 1
atte@@ 1
fort@@ 1
Ã©ren@@ 1
senten@@ 1
ord 1
fronti@@ 1
religi@@ 1
sadi@@ 1
masoch@@ 1
passes 1
ater 1
trembl@@ 1
don@@ 1
sÃ©jour@@ 1
trous 1
ydney 1
ailles 1
till@@ 1
maient 1
War@@ 1
aft 1
ka 1
tlan@@ 1
pa 1
ama 1
perspec@@ 1
eur@@ 1
ctu@@ 1
mondi@@ 1
fices 1
attaqu@@ 1
prot@@ 1
este 1
tan@@ 1
civ@@ 1
dd@@ 1
cÃ©e 1
rÃ©sidenti@@ 1
serve 1
tors 1
got 1
ket 1
itive 1
vend@@ 1
sents 1
pharmac@@ 1
tain 1
causes 1
violence 1
rho@@ 1
merveill@@ 1
uti@@ 1
purification 1
ores@@ 1
ti 1
la@@ 1
venge 1
ule 1
ba@@ 1
torture 1
tifs 1
Ã»mes 1
asi@@ 1
steak 1
arro@@ 1
vital 1
pharm@@ 1
mic@@ 1
air@@ 1
Ã” 1
jau@@ 1
boy@@ 1
cot@@ 1
rÃ©g@@ 1
olives 1
dies 1
franch@@ 1
calcul@@ 1
rice 1
poss@@ 1
am 1
b 1
hoo@@ 1
tionnaire 1
tubercu@@ 1
lose 1
Y@@ 1
oun@@ 1
g 1
suspici@@ 1
professions 1
appe@@ 1
eons 1
mem@@ 1
regar@@ 1
scr@@ 1
ambul@@ 1
ever 1
Roy@@ 1
vatar 1
fast 1
gir@@ 1
ission 1
laÃ¯de 1
fam@@ 1
supplÃ©@@ 1
gre@@ 1
ster 1
tron 1
auto@@ 1
regrettable 1
univers@@ 1
liv@@ 1
Cre@@ 1
2.@@ 1
tendin@@ 1
seille 1
um 1
champagne 1
suici@@ 1
W@@ 1
stars 1
crai@@ 1
gni@@ 1
ban 1
4@@ 1
conc@@ 1
plom@@ 1
dogs 1
wing 1
bars 1
eil 1
rodisi@@ 1
sements 1
rent@@ 1
mas 1
dÃ©sor@@ 1
gan@@ 1
mÃ©dic@@ 1
hel@@ 1
lec@@ 1
racon@@ 1
strai@@ 1
fis@@ 1
reur 1
symp@@ 1
kilt 1
simpl@@ 1
id 1
normal 1
Mil@@ 1
ries 1
do 1
flo@@ 1
tt@@ 1
user 1
transfusions 1
suicide 1
tech@@ 1
yp@@ 1
xembourg 1
tabl@@ 1
oub 1
ounes 1
ly@@ 1
hall 1
tradition 1
Y 1
concl@@ 1
discu@@ 1
objec@@ 1
Ã§on 1
ommage 1
put 1
aug@@ 1
sor 1
scar 1
photo@@ 1
plat@@ 1
Uni@@ 1
Tu@@ 1
impact 1
vrai@@ 1
indu@@ 1
rÃ©clam@@ 1
exion 1
magici@@ 1
he@@ 1
Wi@@ 1
kileaks 1
rom@@ 1
obinson 1
ministration 1
sources 1
pyram@@ 1
proposes 1
ange 1
abo@@ 1
sort@@ 1
simulation 1
cuisin@@ 1
proj@@ 1
lies 1
strict 1
pron@@ 1
urgent 1
so 1
aca@@ 1
beau@@ 1
sculpture 1
pickpocket 1
servant 1
T 1
ond 1
audi@@ 1
toire 1
rÃ©us@@ 1
music@@ 1
Ti@@ 1
bet 1
oner 1
val 1
N 1
plans 1
parov 1
challen@@ 1
spec@@ 1
tephen 1
Col@@ 1
10@@ 1
.@@ 1
000 1
pack 1
rown 1
licen@@ 1
marr@@ 1
bul@@ 1
pizzeria 1
Ã©goÃ¯@@ 1
rÃ©c@@ 1
technolog@@ 1
suy@@ 1
7@@ 1
9 1
j 1
tterbrot 1
net 1
spati@@ 1
upiter 1
vacu@@ 1
ax 1
ricia 1
gÃ©nÃ©r@@ 1
proph@@ 1
spÃ©@@ 1
sement 1
Sa@@ 1
neig@@ 1
xford 1
hosp@@ 1
japon@@ 1
ongo 1
sor@@ 1
nent 1
quotidi@@ 1
vie@@ 1
secr@@ 1
Ã¨tement 1
main@@ 1
fant@@ 1
alph@@ 1
anu@@ 1
touch@@ 1
pres@@ 1
express 1
chaus@@ 1
soluble 1
regi@@ 1
loc@@ 1
nov@@ 1
jar@@ 1
susp@@ 1
ero@@ 1
rasilia 1
bÃ©n@@ 1
You@@ 1
slav@@ 1
tat 1
you 1
premi@@ 1
rel 1
mand@@ 1
ji 1
ick 1
mÃª@@ 1
eck 1
sai@@ 1
Cap@@ 1
itu@@ 1
ruse 1
oriko 1
19@@ 1
verdict 1
obu 1
portion 1
my 1
prince 1
bel@@ 1
quar@@ 1
fortun@@ 1
refuge 1
arrog@@ 1
â€½ 1
style 1
prend@@ 1
baseball 1
hypo@@ 1
triangle 1
ode 1
stanbul 1
ve@@ 1
meeting 1
omati@@ 1
radium 1
structure 1
ocre 1
oca 1
asses 1
vic@@ 1
times 1
bun@@ 1
ures 1
All@@ 1
pacifi@@ 1
patrio@@ 1
nia 1
by 1
ed 1
flas@@ 1
big@@ 1
proch@@ 1
bir@@ 1
man 1
yachts 1
recharg@@ 1
you@@ 1
Fri@@ 1
tz 1
moire 1
loyal 1
stable 1
Ã©qu@@ 1
hÃ´p@@ 1
ey 1
perfec@@ 1
naiss@@ 1
fati@@ 1
Central 1
Par@@ 1
k 1
zom@@ 1
Ã©ment 1
ambo@@ 1
dge 1
mature 1
Eu@@ 1
exper@@ 1
cip@@ 1
ing 1
second@@ 1
sauce 1
rain 1
pair 1
tie 1
suit 1
kilom@@ 1
circu@@ 1
allergi@@ 1
motel 1
blan@@ 1
laid 1
Pal@@ 1
Royal 1
ennem@@ 1
planning 1
aut 1
laiss@@ 1
jazz 1
Lin@@ 1
traditions 1
majo@@ 1
thermom@@ 1
Ã©cu@@ 1
ties 1
li 1
noise 1
changes 1
apo@@ 1
quin@@ 1
tici@@ 1
vaiss@@ 1
Ã¢che 1
dicu@@ 1
born 1
phone 1
3@@ 1
agne 1
dÃ¨le 1
fle 1
Å“u@@ 1
diffic@@ 1
ilement 1
od@@ 1
ham@@ 1
bur@@ 1
fir@@ 1
abstr@@ 1
habits 1
ounan 1
salons 1
kin@@ 1
alim@@ 1
genti@@ 1
sprint 1
sermon 1
pt 1
lence 1
mati@@ 1
reprise 1
ll 1
along 1
the 1
watch@@ 1
tower 1
rix 1
tern@@ 1
Ãƒ 1
Â© 1
sieur 1
questionnaire 1
hit 1
dres@@ 1
assistant 1
charg@@ 1
convain@@ 1
cue 1
comman@@ 1
âŠ‚ 1
ense@@ 1
pier 1
ea@@ 1
ender 1
inci@@ 1
ends 1
rist@@ 1
anak@@ 1
numÃ©ri@@ 1
mach@@ 1
a.@@ 1
v 1
De@@ 1
bus@@ 1
sy 1
vali@@ 1
test 1
twright 1
solu 1
puri@@ 1
port 1
dance 1
py@@ 1
are 1
yazaki 1
jal@@ 1
ouse 1
divorce 1
original 1
kraine 1
zart 1
bourg 1
sers 1
total 1
can 1
stati@@ 1
ordan 1
Ã®t 1
grÃ© 1
visions 1
autre@@ 1
veillÃ© 1
iv@@ 1
chal@@ 1
pull 1
stock 1
hand@@ 1
ast@@ 1
suffis@@ 1
Ã©lev@@ 1
lux@@ 1
kervilles 1
surveillance 1
pends 1
ises 1
bizar@@ 1
perman@@ 1
jeans 1
ohammed 1
amou@@ 1
net@@ 1
grand@@ 1
ristina 1
ert 1
igu@@ 1
mes@@ 1
suspicion 1
Ital@@ 1
usi@@ 1
Å“urs 1
ypti@@ 1
valis@@ 1
lecture 1
trombone 1
ew@@ 1
Chri@@ 1
st 1
mist@@ 1
tensions 1
mans 1
nie 1
lipse 1
visible 1
ther 1
King 1
jum@@ 1
ilo@@ 1
puis@@ 1
kara 1
buste 1
intÃ©@@ 1
prose 1
yth@@ 1
pom@@ 1
vre 1
maÃ®@@ 1
pon@@ 1
oro 1
san 1
sol@@ 1
if 1
rit 1
usions 1
oko 1
sorti@@ 1
regre@@ 1
promen@@ 1
assÃ© 1
act@@ 1
tug@@ 1
marathon 1
stic 1
prÃ©si@@ 1
opinions 1
sist@@ 1
plas@@ 1
loy@@ 1
parasol 1
blog 1
mouv@@ 1
poup@@ 1
tÃ©mo@@ 1
outrage 1
supp@@ 1
biscu@@ 1
im 1
musical 1
rÃ©du@@ 1
lev@@ 1
psycho@@ 1
Ã©pic@@ 1
poi@@ 1
ose 1
mayonnaise 1
azak@@ 1
stan 1
jong 1
jury 1
utili@@ 1
ridicu@@ 1
lap@@ 1
circonst@@ 1
cles 1
acro@@ 1
misÃ©ri@@ 1
spection 1
Intern@@ 1
ation@@ 1
Atom@@ 1
quiet 1
psychi@@ 1
terro@@ 1
ristes 1
contin@@ 1
virgin@@ 1
ories 1
ay 1
section 1
reand@@ 1
canc@@ 1
auth@@ 1
tempor@@ 1
blu@@ 1
brac@@ 1
rt 1
mathÃ©@@ 1
apon@@ 1
magnifi@@ 1
large 1
manus@@ 1
phon@@ 1
nesty 1
International 1
book 1
violent 1
ustr@@ 1
couv@@ 1
nson 1
tyr@@ 1
anni@@ 1
Ã§o@@ 1
paro@@ 1
Jo@@ 1
lton 1
ong@@ 1
gÃ©n@@ 1
viend@@ 1
ea 1
Ã¨g@@ 1
oldman 1
Russi@@ 1
rony@@ 1
puiss@@ 1
get 1
rin 1
plement 1
anus 1
exact 1
suff@@ 1
caract@@ 1
tatorial 1
rÃ©vÃ©@@ 1
jogging 1
plorable 1
chair 1
div@@ 1
R 1
mÃ©t@@ 1
ty 1
surveill@@ 1
anger@@ 1
pollo 1
rÃ©ussi@@ 1
spiration 1
tschland 1
gol@@ 1
ato@@ 1
privil@@ 1
constitu@@ 1
oppos@@ 1
siÃ¨re 1
volu@@ 1
pam@@ 1
plem@@ 1
types 1
guil@@ 1
travai@@ 1
stop@@ 1
Ã‚@@ 1
gram@@ 1
inÃ©es 1
mi 1
vitam@@ 1
A 1
contri@@ 1
even@@ 1
rang@@ 1
ick@@ 1
play 1
extra 1
techno@@ 1
logiques 1
future 1
liver 1
mÃ©tÃ©oro@@ 1
ophysi@@ 1
thermodynam@@ 1
matolog@@ 1
Ã¢chÃ© 1
ric 1
fond 1
perspective 1
lover 1
sulfu@@ 1
phosp@@ 1
trag@@ 1
lic 1
photograp@@ 1
blement 1
chau@@ 1
magnitude 1
Ã®ner 1
et@@ 1
rar@@ 1
BC 1
arrogant 1
ocÃ­o 1
vern@@ 1
solent 1
jban 1
rival 1
rence 1
fortable 1
ects 1
rab@@ 1
lement 1
violet@@ 1
translu@@ 1
location 1
ptions 1
tend@@ 1
absur@@ 1
alternatives 1
popular@@ 1
chois@@ 1
menu 1
envir@@ 1
ids 1
orc@@ 1
ondÃ©@@ 1
fatigu@@ 1
consu@@ 1
rope 1
vir@@ 1
parano@@ 1
rum@@ 1
perception 1
pronon@@ 1
201@@ 1
ki 1
tropical 1
liÃ¨rement 1
financi@@ 1
envoy@@ 1
histo@@ 1
pourvu 1
soci@@ 1
igners 1
var@@ 1
pit@@ 1
consi@@ 1
hÃ´@@ 1
nation 1
blin@@ 1
ats 1
foot 1
Ã©vÃ¨@@ 1
nement 1
oir 1
gs 1
cand@@ 1
fru@@ 1
veill@@ 1
gramme 1
osau@@ 1
asse@@ 1
traduc@@ 1
tranqu@@ 1
produ@@ 1
plain@@ 1
tatou@@ 1
0@@ 1
vince 1
photocopi@@ 1
appl@@ 1
Ã©ni@@ 1
ermin@@ 1
mension 1
yenne 1
ques@@ 1
manager 1
entation 1
direct 1
OK 1
pers@@ 1
distant 1
Ã´le 1
Ã¢le 1
bicycl@@ 1
scul@@ 1
hai@@ 1
biblioth@@ 1
Char@@ 1
mont@@ 1
Ã©nerg@@ 1
rerais 1
travail@@ 1
retar@@ 1
Ã©lec@@ 1
Christi@@ 1
Per@@ 1
rigo@@ 1
trouble 1
oul 1
trolog@@ 1
communication 1
ivent 1
mom@@ 1
Ã©tr@@ 1
mises 1
mas@@ 1
examin@@ 1
X 1
pur@@ 1
del@@ 1
persion 1
assume 1
ple@@ 1
recherch@@ 1
vari@@ 1
alty 1
pachinko 1
Ã€ 1
pÃ©nÃ©tr@@ 1
chauss@@ 1
para@@ 1
suyama 1
volontai@@ 1
reg@@ 1
orge 1
nsbruck 1
prin@@ 1
quali@@ 1
tend 1
eve 1
thropo@@ 1
quit 1
persuad@@ 1
suggestions 1
cray@@ 1
confus@@ 1
descri@@ 1
ption 1
best 1
seller 1
silenci@@ 1
protection 1
spire 1
Bo@@ 1
lip 1
w 1
eth@@ 1
nicotine 1
Mus@@ 1
mid@@ 1
talisman 1
dence 1
ure 1
Ã©trang@@ 1
onia 1
transpor@@ 1
trac@@ 1
-@@ 1
Com@@ 1
myst@@ 1
