. 8321
de 2435
je 2239
est 1812
@-@ 1800
pas 1551
il 1505
la 1469
? 1456
le 1455
que 1423
Ã 1350
vous 1252
ne 1199
a 1181
, 1177
l&apos; 1030
un 986
tu 936
ce 886
n&apos; 864
j&apos; 852
les 783
en 760
Tom 736
ai 711
une 696
nous 655
d&apos; 646
elle 555
qu&apos; 464
! 455
me 444
pour 442
c&apos; 436
des 425
suis 423
et 419
te 399
dans 386
y 338
du 328
qui 325
se 319
Ã§a 317
plus 313
Ã© 309
s&apos; 298
faire 288
au 288
moi 286
m&apos; 281
Ã©tait 277
tout 264
avec 264
es 264
fait 262
mon 244
Ãªtre 231
sont 226
si 226
son 224
er 218
Ã©e 213
as 212
ils 209
sur 201
veux 200
dÃ©@@ 199
&quot; 199
on 187
lui 184
trÃ¨s 180
ez 179
temps 178
cette 175
t 170
ont 170
Ãªtes 169
sa 169
Ã©tÃ© 163
ma 161
avez 159
in@@ 158
votre 158
re@@ 157
dit 156
par 151
ons 150
ait 147
oÃ¹ 147
ent 143
pourquoi 140
s@@ 140
mais 139
peux 136
ici 136
jamais 134
bien 133
tes 131
sais 131
Ã©@@ 130
toi 129
comment 129
t&apos; 128
pense 128
chose 127
ses 125
rÃ©@@ 121
tous 120
ant 119
avons 118
cela 118
comme 117
mes 115
ton 115
c@@ 114
g@@ 114
peut 114
di@@ 112
tÃ© 112
beaucoup 111
vraiment 110
dire 109
elles 107
aime 105
Ã©s 105
avait 104
v@@ 104
i 103
en@@ 103
trop 102
par@@ 100
m@@ 100
mÃªme 99
quelque 99
p@@ 99
t@@ 98
voir 98
ch@@ 98
aux 97
avoir 96
rien 96
quand 95
va 94
e 92
r@@ 91
f@@ 91
monde 91
deux 91
encore 90
besoin 89
parler 89
ta 88
d@@ 87
lÃ 86
aller 85
sommes 85
b@@ 85
personne 85
Ã©tais 84
homme 83
ri@@ 83
l@@ 82
peu 81
toujours 81
vu 79
Ã©es 79
li@@ 78
ie 77
dois 77
fois 77
argent 77
chez 77
train 76
ti@@ 76
aussi 75
n@@ 75
maison 74
bon 73
ou 73
aire 73
ation 73
soit 72
avais 72
Marie 72
it 72
porte 71
Mary 71
quel 71
con@@ 71
ter 70
avant 70
ement 70
voiture 70
quoi 69
notre 69
ces 69
travail 69
eu 69
Ã©t@@ 68
autre 68
vie 67
ante 67
Ã¨re 67
i@@ 66
eau 66
maintenant 66
arrive 66
ag@@ 66
vais 66
sans 65
ais 65
or@@ 65
dÃ©jÃ 64
is 64
prÃ©@@ 64
pÃ¨re 63
aujourd&apos; 62
hui 62
re 62
faut 61
y@@ 61
u 60
ac@@ 60
quelle 59
av@@ 59
jour 59
air 59
er@@ 59
combien 59
eur 58
plaÃ®t 58
ts 58
o@@ 57
heures 57
sou@@ 57
qu@@ 56
toutes 56
grand 56
am@@ 56
leur 56
aide 56
ou@@ 56
enfants 55
eux 55
ar@@ 55
Ã©cole 54
is@@ 54
s 53
pl@@ 53
livre 53
aimerais 53
seul 53
toute 52
aprÃ¨s 51
hier 51
venir 51
bonne 51
C@@ 51
cet 50
ques 50
ex@@ 50
able 50
Sami 50
passÃ© 50
ab@@ 50
juste 49
ap@@ 49
ine 49
u@@ 49
anglais 49
petit 49
chien 49
demain 49
im@@ 49
ci@@ 48
franÃ§ais 48
si@@ 48
prendre 48
an@@ 48
au@@ 48
fut 48
gu@@ 47
mieux 47
mal 47
ans 47
al@@ 47
a@@ 47
mo@@ 46
trois 46
age 46
ance 46
tr@@ 46
pouvez 46
aider 46
nuit 46
es@@ 46
assez 46
al 45
mÃ©@@ 45
sait 45
e@@ 45
parle 45
dÃ» 44
gens 44
aient 44
fi@@ 44
seule 44
as@@ 43
puis 43
peur 43
po@@ 43
Ã¨@@ 43
femme 43
l 43
moins 43
on@@ 43
fille 43
us 42
vi@@ 42
dis 42
ir@@ 42
for@@ 42
non 42
choses 42
per@@ 42
nouveau 41
fais 41
ra 41
quelqu&apos; 41
soir 41
depuis 41
ire 41
itÃ© 41
mÃ¨re 41
veut 41
tion 41
doit 40
savoir 40
ceci 40
voulais 40
ten@@ 40
P@@ 40
lire 40
M@@ 40
idÃ©e 40
heure 40
quelques 40
voulez 40
pensais 40
vos 40
A@@ 39
em@@ 39
partir 39
ai@@ 39
manger 39
che 39
ins 39
ment 38
an 38
aurais 38
cr@@ 38
pro@@ 38
trouve 38
heureux 38
tu@@ 38
res 38
simplement 37
demandÃ© 37
ser@@ 37
nom 37
co@@ 37
com@@ 37
crois 37
eurs 36
lo@@ 36
ad@@ 36
semaine 36
B@@ 36
cou@@ 36
pendant 36
autres 36
devrais 36
S@@ 36
pris 36
souvent 35
r 35
faites 35
end@@ 35
enne 35
sur@@ 35
allÃ© 35
Ã©ri@@ 35
acheter 35
vo@@ 35
vrai 34
entre 34
ale 34
ter@@ 34
problÃ¨me 34
ge 34
euse 34
pu 34
ette 33
ve 33
bl@@ 33
mi@@ 33
part 33
jusqu&apos; 33
pays 33
lit 33
ro@@ 33
savais 33
pri@@ 33
at@@ 33
sens 33
derniÃ¨re 33
trouvÃ© 33
rez 32
d 32
retard 32
o 32
chambre 32
devons 32
lettre 32
mort 32
ver@@ 32
Ã©taient 32
el 32
gr@@ 32
ens 32
om@@ 32
tri@@ 32
petite 31
facile 31
no@@ 31
res@@ 31
tez 31
perdu 31
mon@@ 31
sortir 31
j@@ 31
famille 31
pos@@ 31
cl@@ 31
bou@@ 30
dev@@ 30
fer@@ 30
nos 30
semble 30
jours 30
ven@@ 30
yeux 30
ami 30
ville 30
ler 30
ni@@ 30
onn@@ 30
Ã¨rent 30
tÃ´t 30
sÃ© 30
trouver 29
Ã¢@@ 29
parents 29
ions 29
esse 29
aucun 29
ass@@ 29
mer 29
Ã©r@@ 29
Ã©g@@ 29
cro@@ 29
vÃ©ritÃ© 29
raison 29
tard 29
question 28
f 28
dÃ© 28
it@@ 28
moment 28
ir 28
apprendre 28
iez 28
rem@@ 28
fu@@ 28
fai@@ 28
cu@@ 28
allez 28
sera 28
arrivÃ© 27
cours 27
vient 27
penses 27
ent@@ 27
vue 27
ouv@@ 27
ants 27
lorsque 27
tant 27
mis 27
vivre 27
donne 27
J@@ 27
prÃ¨s 27
ren@@ 27
sous 27
passe 27
difficile 27
teur 27
se@@ 27
ence 27
pourrais 27
loin 27
c 27
prom@@ 27
seulement 27
jeune 27
histoire 27
vers 26
pourrait 26
laisse 26
aucune 26
ers 26
men@@ 26
piÃ¨ce 26
rai 26
livres 26
journÃ©e 26
H@@ 26
sois 26
garÃ§on 26
era 26
pi@@ 26
dont 26
croire 26
venu 26
ill@@ 26
illes 26
mal@@ 26
mar@@ 26
to@@ 26
in 26
ations 26
enti@@ 26
ets 26
langue 26
donnÃ© 26
filles 25
vite 25
sau@@ 25
achetÃ© 25
point 25
connais 25
su@@ 25
voyage 25
erai 25
celui 25
mettre 25
rÃ© 25
tÃªte 25
pass@@ 25
at 25
fÃªte 25
mot 25
jou@@ 25
parce 25
froid 25
ents 25
travaille 25
arrÃªter 25
autant 25
donn@@ 25
st@@ 24
Ã¨me 24
dÃ©solÃ© 24
pensÃ© 24
pu@@ 24
k@@ 24
matin 24
nouvelle 24
vas 24
be 24
chaque 24
adore 24
sÃ»r 24
du@@ 24
car@@ 24
quÃ© 24
attention 24
enfant 24
demande 24
main 24
R@@ 24
comprendre 24
so@@ 23
voulait 23
ages 23
D@@ 23
fini 23
entendu 23
ensemble 23
Ã§@@ 23
accord 23
dix 23
longtemps 23
dÃ©jeuner 23
tÃ©lÃ©phone 23
premier 23
soyez 23
Ã©crit 23
Ãª@@ 23
viens 23
prie 23
nourriture 23
cher 23
devrait 23
tres 23
h@@ 23
frÃ¨re 23
ture 23
ches 23
do@@ 23
dites 23
lorsqu&apos; 23
peine 23
beau 23
tre 23
fort 23
sÃ©@@ 23
br@@ 23
chat 23
mÃ©decin 23
eu@@ 22
nu@@ 22
ay@@ 22
dÃ©t@@ 22
ess@@ 22
gi@@ 22
savez 22
travailler 22
dou@@ 22
ob@@ 22
joue 22
dÃ©teste 22
grande 22
habitude 22
accident 22
ec@@ 22
app@@ 22
T@@ 22
colÃ¨re 22
premiÃ¨re 22
presque 22
pouvons 22
chÃ© 22
photo 22
nÃ© 22
questions 22
L@@ 22
bri@@ 22
essayer 22
cri@@ 21
cour@@ 21
pou@@ 21
Ã¨res 21
bureau 21
ais@@ 21
fo@@ 21
tou@@ 21
pleu@@ 21
Boston 21
Japon 21
vois 21
aires 21
cheveux 21
amie 21
porter 21
lieu 21
lu@@ 21
plutÃ´t 21
meilleur 21
sÅ“ur 21
rent 21
allons 21
mois 21
mat@@ 21
cafÃ© 21
dÃ®ner 21
sujet 21
entr@@ 21
jouer 21
cÃ©@@ 21
trai@@ 20
bre 20
nager 20
ati@@ 20
occupÃ© 20
ev@@ 20
espÃ¨re 20
and@@ 20
Ã¯@@ 20
rouge 20
chance 20
contre 20
op@@ 20
el@@ 20
ettes 20
inter@@ 20
sal@@ 20
car 20
belle 20
serait 20
laisser 20
prÃªt 20
lait 20
ser 19
chemin 19
passer 19
partie 19
fils 19
prends 19
cÅ“ur 19
appelle 19
trouv@@ 19
ille 19
Ã©crire 19
hu@@ 19
rend 19
dehors 19
ard 19
malade 19
vol@@ 19
regarde 19
bi@@ 19
oui 19
noir 19
compte 19
ma@@ 19
fin 19
aine 19
z@@ 19
oubliÃ© 19
ellement 19
gar@@ 19
ju@@ 19
mor@@ 19
att@@ 19
connaiss@@ 19
pouvoir 19
lÃ©@@ 19
regarder 19
tellement 19
possible 19
dispos@@ 19
santÃ© 19
fumer 19
dur 18
annÃ©e 18
Ã´@@ 18
ni 18
tement 18
rester 18
entreprise 18
laquelle 18
appel@@ 18
plan 18
ci 18
jo@@ 18
puisse 18
mains 18
place 18
nÃ©e 18
tour@@ 18
vin 18
tour 18
N@@ 18
tenir 18
ves 18
prix 18
vieux 18
vÃ©lo 18
amour 18
rait 18
gÃ© 18
laissÃ© 18
diffÃ©ren@@ 18
indre 18
problÃ¨mes 18
ique 18
maniÃ¨re 18
port@@ 18
attend@@ 18
langues 18
France 18
aise 18
Dan 18
davantage 18
veuillez 18
importe 18
dis@@ 18
alors 18
rendre 18
ue 18
parti@@ 18
table 18
appr@@ 18
ide 18
ainsi 18
dormir 18
habite 18
crÃ©@@ 18
appris 18
devez 18
aiss@@ 18
font 17
Ã‰@@ 17
col@@ 17
end 17
marche 17
ic@@ 17
pour@@ 17
contr@@ 17
ach@@ 17
feu 17
heureuse 17
ain 17
Ã©cou@@ 17
donc 17
ger 17
serai 17
E@@ 17
bus 17
Ã®@@ 17
sent@@ 17
quit@@ 17
cor@@ 17
payer 17
fit 17
cul@@ 17
parlez 17
eaux 17
quatre 17
envie 17
marchÃ© 17
Ã©tudi@@ 17
ant@@ 17
pourriez 17
vit 17
derriÃ¨re 17
rencontrer 17
nouvelles 17
riche 17
peuvent 17
pensez 17
lu 17
mots 17
telle 17
amis 17
aimes 17
attendre 17
1@@ 17
cinq 17
mangÃ© 17
entendre 17
Ã©p@@ 17
devriez 17
sion 17
serais 16
tÃ©s 16
appar@@ 16
prochain 16
G@@ 16
immÃ©diatement 16
faim 16
Ã©n@@ 16
bon@@ 16
frapp@@ 16
pouvait 16
musique 16
ut 16
fin@@ 16
serv@@ 16
fatiguÃ© 16
tient 16
midi 16
pe 16
quer 16
fr@@ 16
faÃ§on 16
exactement 16
voudrais 16
erais 16
ignore 16
utilis@@ 16
essay@@ 16
coup@@ 16
magasin 16
fou@@ 16
apprÃ©cie 16
amus@@ 16
mange 16
propos 16
min@@ 16
chaud 16
mu@@ 16
professeur 16
cam@@ 16
boulot 16
ff@@ 16
bas 16
fenÃªtre 16
laissez 16
ur@@ 16
suiv@@ 16
coup 16
biÃ¨re 16
fonc@@ 15
amoureux 15
tique 15
dernier 15
film 15
conduire 15
dÃ©solÃ©e 15
mauvais 15
tÃ©@@ 15
Tatoeba 15
ain@@ 15
devrions 15
leurs 15
Ã¢ge 15
onne 15
parlÃ© 15
il@@ 15
mit 15
bo@@ 15
intÃ©ress@@ 15
voy@@ 15
gn@@ 15
dent 15
montre 15
tÃ©lÃ©vision 15
certains 15
verre 15
tor@@ 15
gue 15
ferai 15
ceux 15
char@@ 15
apprÃ©ci@@ 15
jet@@ 15
ru@@ 15
donnez 15
police 15
merci 15
endroit 15
pain 15
tÃ©e 15
cho@@ 15
Ã©tiez 15
tal@@ 15
fon@@ 15
lon@@ 15
sent 15
commencÃ© 15
vis@@ 15
important 15
liez 15
ble 15
nÃ©cessaire 15
go@@ 15
tions 15
M 15
sÃ»re 15
erreur 15
vacances 15
ban@@ 15
pens@@ 14
oubli@@ 14
In@@ 14
gÃ©nÃ©r@@ 14
capable 14
intention 14
rÃ©union 14
venus 14
Dieu 14
compris 14
ress@@ 14
sa@@ 14
ath@@ 14
K@@ 14
ate 14
sÃ©curitÃ© 14
lle 14
ade 14
essaie 14
cuisine 14
classe 14
instant 14
pouvais 14
chats 14
ements 14
arriv@@ 14
sucre 14
ues 14
voici 14
choix 14
; 14
alis@@ 14
habitu@@ 14
comm@@ 14
puis@@ 14
coll@@ 14
personnes 14
Ã¨te 14
terre 14
devant 14
utiliser 14
ds 14
route 14
pÃ©@@ 14
compl@@ 14
connaÃ®t 14
Ã¨ne 14
boire 14
pr@@ 14
expÃ©rience 14
ph@@ 14
chemise 14
bout 14
voulons 14
ali@@ 14
essayÃ© 14
hommes 14
Terre 14
arriver 14
bÃ©bÃ© 14
rou@@ 14
rencontr@@ 14
mÃ© 14
ris@@ 14
libre 14
situation 14
indi@@ 14
irai 13
rencontrÃ© 13
Ã©lÃ¨@@ 13
mang@@ 13
hi@@ 13
ll@@ 13
dor@@ 13
confiance 13
travaill@@ 13
veu@@ 13
alitÃ© 13
all@@ 13
venue 13
souviens 13
ver 13
occup@@ 13
rom@@ 13
et@@ 13
rendu 13
Ã©tranger 13
allemand 13
serez 13
der 13
sorte 13
Ch@@ 13
rais 13
savait 13
th@@ 13
souhai@@ 13
rÃª@@ 13
conse@@ 13
parfois 13
numÃ©ro 13
bles 13
courant 13
droit 13
garÃ§ons 13
penser 13
suppose 13
bor@@ 13
endu 13
senti@@ 13
p 13
h 13
refus@@ 13
minutes 13
tÃ©lÃ© 13
ion 13
restaurant 13
x@@ 13
coÃ»@@ 13
its 13
bientÃ´t 13
dess@@ 13
lic@@ 13
chant@@ 13
boÃ®te 13
celle 13
aurait 13
rÃ©pon@@ 13
lÃ© 13
mets 13
: 13
Ã¢mes 13
perdre 13
fl@@ 13
ise 13
aille 13
invit@@ 13
Ã©quipe 13
propre 13
ressemble 13
regard@@ 13
hÃ´tel 13
prof@@ 13
dÃ©cidÃ© 13
cause 13
man@@ 13
bar@@ 13
dic@@ 13
cer 13
manqu@@ 13
teau 13
cir@@ 13
illÃ© 13
cier 13
poser 13
gl@@ 12
poste 12
poisson 12
fran@@ 12
cli@@ 12
furent 12
viv@@ 12
allait 12
ignor@@ 12
tÃ©es 12
chang@@ 12
hÃ´pital 12
faisons 12
ite 12
som@@ 12
gÃ©ni@@ 12
chi@@ 12
cen@@ 12
conn@@ 12
Paris 12
probablement 12
publi@@ 12
facilement 12
lis@@ 12
tomber 12
ordinateur 12
comprends 12
fleurs 12
sons 12
n 12
trouver@@ 12
conf@@ 12
reste 12
sup@@ 12
uni@@ 12
Ã©tudiants 12
gros 12
dispose 12
ment@@ 12
parviens 12
rire 12
cieux 12
ennu@@ 12
travers 12
arrÃªtÃ© 12
surpris 12
six 12
emploi 12
complÃ¨tement 12
nombre 12
changÃ© 12
garde 12
prend 12
donner 12
condu@@ 12
mai@@ 12
int 12
grosse 12
cherch@@ 12
rs 12
per 12
appelÃ© 12
agent 12
aff@@ 12
suite 12
cher@@ 12
cal@@ 12
occupÃ©e 12
tar@@ 12
dents 12
onnÃ© 12
ste 12
espagnol 12
por@@ 12
viendra 12
esprit 12
Ã»@@ 12
piano 12
mari@@ 12
rer 12
ss@@ 12
hab@@ 12
visite 12
genre 12
vaut 12
gne 11
revoir 11
manteau 11
ciel 11
soleil 11
aim@@ 11
anniversaire 11
rentrer 11
sÃ©ri@@ 11
selon 11
japonais 11
lou@@ 11
marcher 11
tent 11
dr@@ 11
veulent 11
devenu 11
arriÃ¨re 11
fil@@ 11
Ã©ch@@ 11
els 11
gare 11
Å“il 11
ats 11
neige 11
V@@ 11
ig@@ 11
adresse 11
sac 11
Ã¨de 11
arti@@ 11
prise 11
arrÃª@@ 11
nel 11
tif 11
ici@@ 11
cass@@ 11
plusieurs 11
prÃªte 11
popul@@ 11
discuter 11
fasse 11
Ã¨s 11
attend 11
tennis 11
rÃ©p@@ 11
opinion 11
NoÃ«l 11
ier 11
couver@@ 11
prÃ©sent@@ 11
5 11
chan@@ 11
denti@@ 11
tionn@@ 11
gÃ¢teau 11
dre 11
secret 11
femmes 11
Ã©galement 11
cent 11
ace 11
moitiÃ© 11
cÃ´tÃ© 11
Ap@@ 11
terminÃ© 11
marier 11
type 11
long 11
parl@@ 11
agit 11
bat@@ 11
mag@@ 11
produit 11
volon@@ 11
Ã©ti@@ 11
chau@@ 11
bu@@ 11
ences 11
blessÃ© 11
clÃ©s 11
10 11
dÃ©e 11
sol 11
arme 11
commence 11
plan@@ 11
conseils 11
iles 11
content 11
savent 11
sen@@ 11
moindre 11
part@@ 11
nombreux 11
Ã©v@@ 11
prenez 11
respec@@ 11
can@@ 11
chapeau 11
ettre 11
ois@@ 11
fau@@ 11
hors 11
examen 11
pire 11
mign@@ 11
comp@@ 11
allÃ©e 11
dort 11
sp@@ 11
fera 11
F@@ 11
dessus 11
rement 11
taille 11
sembl@@ 11
face 11
bibliothÃ¨que 10
manque 10
des@@ 10
cis@@ 10
fou 10
eusement 10
dangereux 10
oc@@ 10
rÃ©pondre 10
jeu 10
Ã©tudier 10
enseignant 10
bless@@ 10
sentiments 10
prÃ©fÃ¨re 10
vit@@ 10
tomb@@ 10
hor@@ 10
vis 10
phrase 10
costume 10
mati@@ 10
revenir 10
lis 10
omm@@ 10
dollars 10
... 10
Layla 10
iste 10
mÃ©ri@@ 10
lie 10
vouloir 10
mou@@ 10
sti@@ 10
plupart 10
atten@@ 10
mauvaise 10
pleurer 10
parti 10
rapidement 10
stupide 10
pied 10
lumiÃ¨re 10
gen@@ 10
Oh 10
appeler 10
carte 10
traver@@ 10
devoir 10
sÃ»@@ 10
pluie 10
autori@@ 10
clÃ© 10
I@@ 10
commencer 10
An@@ 10
pres@@ 10
thÃ©orie 10
les@@ 10
bal@@ 10
portait 10
chaussures 10
pieds 10
ables 10
yer 10
ferais 10
ayez 10
prÃ©fÃ©rÃ©e 10
prend@@ 10
chante 10
tro@@ 10
bons 10
siez 10
aband@@ 10
off@@ 10
dormi 10
ari@@ 10
b 10
jambes 10
faisait 10
instituteur 10
voitures 10
tures 10
pein@@ 10
O@@ 10
Ã‰tats 10
Unis 10
Ã©cl@@ 10
sai@@ 10
const@@ 10
ains 10
aises 10
ager 10
ge@@ 10
pleut 10
fro@@ 10
accep@@ 10
fie 10
dÃ©sormais 10
bres 10
de@@ 10
lunettes 10
balle 10
information 10
stes 10
pauvre 10
vieil 10
riviÃ¨re 10
sort@@ 10
rap@@ 10
mari 10
pous@@ 10
emplo@@ 10
dÃ©r@@ 10
thÃ©Ã¢tre 10
changer 10
entend@@ 10
arriver@@ 10
discours 10
ign@@ 10
cont@@ 10
fri@@ 10
pan@@ 10
affaire 10
bois 10
tuer 10
sommeil 10
Ã©tions 10
succÃ¨s 10
dÃ©si@@ 10
are 10
Ã©couter 10
us@@ 10
envir@@ 10
explo@@ 9
press@@ 9
hÃ©@@ 9
certain 9
rappeler 9
connu 9
intÃ©rieur 9
entre@@ 9
fus@@ 9
espÃ©r@@ 9
19@@ 9
0 9
mer@@ 9
avenir 9
papier 9
fallu 9
huit 9
satis@@ 9
fron@@ 9
chanson 9
affaires 9
phrases 9
sin@@ 9
prati@@ 9
atti@@ 9
ente 9
Ã©l@@ 9
amies 9
nor@@ 9
emprun@@ 9
un@@ 9
tenu 9
sauf 9
connais@@ 9
signi@@ 9
prochaine 9
ori@@ 9
rÃ©alis@@ 9
bag@@ 9
vre 9
sociÃ©tÃ© 9
pul@@ 9
autour 9
exc@@ 9
printemps 9
Ã¨rement 9
projet 9
reti@@ 9
vÃ©ri@@ 9
voyez 9
capit@@ 9
rend@@ 9
regardÃ© 9
Con@@ 9
art 9
ho@@ 9
hiver 9
sac@@ 9
compli@@ 9
ner 9
ennes 9
uti@@ 9
impli@@ 9
vingt 9
poids 9
pend@@ 9
guerre 9
patience 9
secon@@ 9
aie 9
DÃ©@@ 9
pÃª@@ 9
efforts 9
tom@@ 9
oux 9
cadeau 9
vou@@ 9
meu@@ 9
montagne 9
pen@@ 9
appelez 9
cham@@ 9
parapluie 9
rencontre 9
yez 9
ol@@ 9
objec@@ 9
montrer 9
rendez 9
af@@ 9
siÃ¨@@ 9
tai@@ 9
z 9
sir 9
3 9
gÃ©@@ 9
deven@@ 9
entrÃ©e 9
pÃªcher 9
atte@@ 9
aÃ®@@ 9
suffisamment 9
prit 9
silen@@ 9
asse 9
grand@@ 9
traduc@@ 9
euses 9
ies 9
dÃ©termin@@ 9
vieille 9
poin@@ 9
dictionnaire 9
demander 9
riez 9
rÃ©soudre 9
racon@@ 9
quelconque 9
allÃ©s 9
onner 9
our@@ 9
afin 9
mariÃ© 9
asp@@ 9
village 9
Mar@@ 9
appro@@ 9
bu 9
pru@@ 9
rentr@@ 9
rejo@@ 9
plein 9
prÃ©ci@@ 9
pas@@ 9
avance 9
rÃ©ussi 9
oncle 9
ron@@ 9
2@@ 9
irs 9
pronon@@ 9
port 9
tien 9
milli@@ 9
spec@@ 9
levÃ© 9
met@@ 9
dimanche 9
pe@@ 9
quelles 9
quotidi@@ 9
enn@@ 9
lequel 9
vont 9
devenir 9
intelligent 9
connaÃ®tre 9
journal 9
nez 9
tation 9
danger 9
cach@@ 9
meilleure 9
groupe 9
tombÃ© 8
vivent 8
viendrai 8
parc 8
raient 8
abor@@ 8
allu@@ 8
os@@ 8
voul@@ 8
gro@@ 8
genti@@ 8
aimait 8
esses 8
attrapÃ© 8
li 8
Ã©cri@@ 8
reu@@ 8
ient 8
Ã©pouser 8
8@@ 8
portÃ© 8
lar@@ 8
anc@@ 8
mourir 8
travaillÃ© 8
prÃ©fÃ©rÃ© 8
ites 8
dÃ©couvert 8
quement 8
attrap@@ 8
jardin 8
jeunes 8
Ã©trange 8
rec@@ 8
vÃ©cu 8
viol@@ 8
prÃ©sident 8
lac 8
intÃ©ressant 8
restÃ© 8
command@@ 8
croit 8
Ã©toiles 8
impossible 8
robe 8
coupe 8
dÃ©cision 8
bour@@ 8
baiser 8
met 8
humeur 8
danser 8
plain@@ 8
choisir 8
coin 8
envoyÃ© 8
lent 8
reÃ§u 8
Ã´le 8
x 8
rÃ©par@@ 8
existe 8
proposition 8
chanter 8
recherche 8
gauche 8
ande 8
aches 8
erreurs 8
tuÃ© 8
suivre 8
conseil 8
ArrÃªtez 8
leÃ§on 8
ri 8
neu@@ 8
emment 8
quiconque 8
cents 8
annÃ©es 8
ul@@ 8
vÃªtements 8
bill@@ 8
lav@@ 8
veau 8
pommes 8
fac@@ 8
dem@@ 8
igner 8
ferme 8
rons 8
aimÃ© 8
comman@@ 8
termin@@ 8
voudriez 8
oublie 8
prÃ©par@@ 8
hÃ©ro@@ 8
sommet 8
animaux 8
trembl@@ 8
raisons 8
correctement 8
prÃª@@ 8
ile 8
patient 8
piscine 8
brÃ»@@ 8
2 8
tionnÃ© 8
enf@@ 8
seront 8
dres 8
signe 8
voilÃ 8
nue 8
sang 8
rÃ©ponse 8
mienne 8
gagner 8
Australie 8
trom@@ 8
gle 8
voyager 8
seras 8
30 8
haut 8
mour@@ 8
sions 8
finalement 8
Ã©rence 8
sec@@ 8
tru@@ 8
docteur 8
ponctu@@ 8
prÃ©sent 8
esp@@ 8
Å“u@@ 8
bÃ¢timent 8
plais@@ 8
moyen 8
portes 8
actu@@ 8
rest@@ 8
nes 8
Å“ufs 8
Al@@ 8
enseign@@ 8
honte 8
mis@@ 8
courag@@ 8
acti@@ 8
visage 8
lundi 8
piÃ¨@@ 8
propres 8
teaux 8
ze 8
time 8
concentr@@ 8
soin 8
vois@@ 8
proche 8
dure 8
ram@@ 8
idiot 8
arrÃªte 8
preu@@ 8
week 8
pleuvoir 8
payÃ© 8
Ã»t 8
bateau 8
bÃ©@@ 8
Ã©conom@@ 8
manquer 8
prÃªter 8
cap@@ 8
Allem@@ 8
pause 8
ines 8
jeux 8
vidÃ©o 8
ales 8
sse 8
mettez 8
ak@@ 8
ouvert 8
rappelle 8
parlent 8
tromp@@ 8
gues 8
ple 8
ber@@ 8
dÃ©pend 8
vÃ©@@ 8
lÃ¨ve 8
Ã©tat 8
uses 8
chon 8
rÃ©us@@ 8
attends 8
esti@@ 7
dÃ©tails 7
har@@ 7
ennemi 7
taire 7
devint 7
vendre 7
cru 7
larmes 7
mÃ©e 7
scientifique 7
article 7
suici@@ 7
cer@@ 7
cle 7
aider@@ 7
nage 7
amoureuse 7
Ã©cureu@@ 7
ange 7
&apos; 7
Ã¨le 7
taxi 7
arrivÃ©e 7
son@@ 7
Excusez 7
allais 7
promen@@ 7
John 7
ecs 7
effet 7
heur 7
hÃ¢@@ 7
semaines 7
Sal@@ 7
diffÃ©rent 7
matiques 7
touche 7
mille 7
sembles 7
contente 7
rapport 7
ina 7
Ã©go@@ 7
Ãªte 7
veille 7
iner 7
embrasser 7
opÃ©r@@ 7
bru@@ 7
ado@@ 7
pati@@ 7
roman 7
exem@@ 7
corps 7
dÃ©ci@@ 7
bizarre 7
prÃ©f@@ 7
brill@@ 7
marre 7
inconvÃ©nient 7
occasion 7
aill@@ 7
bouteille 7
lors 7
fication 7
mariage 7
pay@@ 7
demand@@ 7
portable 7
plu@@ 7
igne 7
dan@@ 7
illa 7
prouv@@ 7
eut 7
cuisin@@ 7
doivent 7
viennent 7
retour@@ 7
direc@@ 7
rus@@ 7
forc@@ 7
copine 7
priv@@ 7
ra@@ 7
mise 7
urg@@ 7
Ã©te@@ 7
Qu@@ 7
partout 7
lever 7
intÃ©rÃªt 7
forme 7
nom@@ 7
lais@@ 7
gouvernement 7
mani@@ 7
eff@@ 7
alement 7
auriez 7
salle 7
ennuis 7
g 7
sist@@ 7
mondi@@ 7
pes 7
tran@@ 7
ection 7
impressi@@ 7
Ã©tudiant 7
sept 7
dÃ©s@@ 7
vide 7
sure 7
produire 7
doul@@ 7
caus@@ 7
rue 7
tranquille 7
voudr@@ 7
dÃ©couvrir 7
Ã©tage 7
ous 7
espace 7
radio 7
continu@@ 7
fermer 7
antes 7
responsable 7
import@@ 7
augment@@ 7
expliquer 7
hasard 7
convainc@@ 7
iss@@ 7
considÃ©r@@ 7
Tokyo 7
compagnie 7
avo@@ 7
merveill@@ 7
pose 7
ang@@ 7
auparavant 7
arbre 7
prennent 7
jolie 7
moral 7
Angleterre 7
perte 7
disposez 7
amment 7
aies 7
donna 7
automne 7
avis 7
pomme 7
utile 7
cas 7
amÃ©liorer 7
vendredi 7
ront 7
disent 7
repas 7
plage 7
Ah 7
comport@@ 7
site 7
Ã©lec@@ 7
jouÃ© 7
quÃ©e 7
fenÃªtres 7
fic@@ 7
aimer 7
sav@@ 7
rÃ©s 7
Internet 7
vement 7
hau@@ 7
W@@ 7
AmÃ©rique 7
ira 7
sors 7
menti@@ 7
simple 7
sÃ©par@@ 7
lise 7
espoir 7
tÃ¢che 7
maman 7
parlait 7
cassÃ© 7
appartient 7
iller 7
sache 7
morceau 7
oblig@@ 7
bre@@ 7
tra 7
yÃ© 7
constru@@ 7
vraie 7
patron 7
produ@@ 7
songe 7
pÃ©ri@@ 7
annu@@ 7
correspon@@ 7
aimez 7
revenu 7
Ã§u 7
trans@@ 7
Å“uf 7
ep@@ 7
Ã©chou@@ 7
tais 7
act 7
tin@@ 7
Ã©lic@@ 7
rÃ©sul@@ 7
ern@@ 7
ong@@ 7
Ã©tu@@ 7
dÃ©tru@@ 7
march@@ 7
glis@@ 7
sold@@ 7
isme 7
croy@@ 7
exig@@ 7
Ã©pou@@ 7
terai 7
prÃ©senter 7
lev@@ 7
laver 7
pÃ©n@@ 7
pÃªchÃ© 7
enc@@ 7
bonnes 7
ne@@ 7
dÃ©part 7
agne 7
viend@@ 7
rÃ©si@@ 7
mÃª@@ 7
lam@@ 7
ouvrir 7
chino@@ 7
retourner 7
faite 7
puiss@@ 7
timide 7
regar@@ 7
da 7
rai@@ 7
aiment 7
fs 7
jam@@ 7
liÃ¨rement 7
rÃ©flÃ©chir 7
dÃ©but 7
poss@@ 7
sor@@ 7
peu@@ 7
ole 7
aimer@@ 7
service 7
derni@@ 7
cherche 7
aque 7
football 7
demanda 7
Ã©nor@@ 7
grat@@ 7
sÃ©rieux 7
dÃ©li@@ 7
gagne 7
demi 7
logi@@ 7
dÃ©f@@ 7
tionne 6
nerveux 6
rÃ©jouis 6
tons 6
arbres 6
feuilles 6
probable 6
devoirs 6
ordin@@ 6
ateurs 6
rier 6
souci 6
monter 6
devin@@ 6
double 6
tenez 6
aines 6
minute 6
rhume 6
emporter 6
rÃ©flÃ©ch@@ 6
arrog@@ 6
reconnaiss@@ 6
plaisir 6
devient 6
soli@@ 6
autre@@ 6
inven@@ 6
este 6
cuisiner 6
sage 6
dÃ©cida 6
couple 6
mesure 6
rÃ©s@@ 6
nombreuses 6
difficultÃ©s 6
spir@@ 6
alent@@ 6
00 6
contribu@@ 6
tradu@@ 6
habit@@ 6
conduis@@ 6
protÃ©@@ 6
ingÃ©ni@@ 6
musÃ©e 6
sour@@ 6
pÃ© 6
os 6
nique 6
tait 6
spagne 6
change 6
direction 6
Ã¨se 6
nat@@ 6
visiter 6
chiens 6
liste 6
remer@@ 6
excus@@ 6
accusÃ© 6
univers 6
nettoyer 6
let@@ 6
ancÃ© 6
message 6
courage 6
blanc 6
thÃ© 6
prÃ©fÃ©r@@ 6
mili@@ 6
rends 6
intÃ©ressÃ© 6
tin 6
eue 6
Ital@@ 6
possibili@@ 6
Ã©cras@@ 6
nulle 6
alcool 6
souff@@ 6
seuls 6
gÃ©rer 6
courir 6
spÃ©ci@@ 6
sugg@@ 6
rit 6
ar 6
grandes 6
guer@@ 6
alim@@ 6
coÃ»t 6
eur@@ 6
papa 6
Ã©nergie 6
rac@@ 6
petites 6
rÃ©c@@ 6
dÃ©clar@@ 6
bicycl@@ 6
aurions 6
droite 6
absolument 6
ridicu@@ 6
poli@@ 6
tasse 6
sub@@ 6
ateur 6
Ã©lev@@ 6
certaine 6
pai@@ 6
ense@@ 6
veillÃ© 6
Ã©glise 6
temp@@ 6
rarement 6
ras 6
Ã´mes 6
ajou@@ 6
voie 6
venait 6
pruden@@ 6
cache 6
accepter 6
vers@@ 6
compter 6
Ã©tudie 6
stri@@ 6
imagine 6
parles 6
dispar@@ 6
faute 6
Ã´tre 6
goÃ»@@ 6
imaginer 6
moutons 6
accus@@ 6
lÃ¨@@ 6
idÃ©@@ 6
asseoir 6
politique 6
m 6
soixante 6
rÃ©veillÃ© 6
inquiÃ¨te 6
semblez 6
comment@@ 6
idi@@ 6
assi@@ 6
nouvel 6
ix 6
pauv@@ 6
vivant 6
exam@@ 6
val@@ 6
passÃ©e 6
sortes 6
aus@@ 6
terais 6
prÃ©parer 6
calme 6
ner@@ 6
chu@@ 6
U@@ 6
physi@@ 6
entends 6
contrat 6
pla@@ 6
admire 6
anti@@ 6
poli 6
rÃ´le 6
maladie 6
soyons 6
tat@@ 6
regre@@ 6
souvenir 6
envoy@@ 6
refaire 6
bus@@ 6
mathÃ©@@ 6
rant 6
eus 6
rencontrÃ©e 6
sorti@@ 6
prendrai 6
frÃ¨res 6
fruits 6
jug@@ 6
invitÃ© 6
disait 6
rÃ¨gles 6
log@@ 6
ecte 6
tale 6
loi 6
or 6
fourn@@ 6
ader 6
ires 6
cinÃ©ma 6
ode 6
personn@@ 6
coucher 6
tive 6
ical 6
nature 6
fromage 6
entrer 6
Uni@@ 6
quitter 6
occupe 6
charge 6
ative 6
manu@@ 6
montrez 6
vitÃ© 6
Mon@@ 6
garder 6
douche 6
arrivent 6
chanceux 6
Ã©viter 6
vic@@ 6
orable 6
corriger 6
iter 6
frÃ©qu@@ 6
onde 6
gentil 6
consac@@ 6
rist@@ 6
qui@@ 6
ances 6
endorm@@ 6
malheureusement 6
certaines 6
photos 6
lour@@ 6
commun@@ 6
trente 6
excuses 6
empÃªcher 6
boit 6
clairement 6
honnÃªte 6
enfance 6
soul@@ 6
one 6
poule 6
occuper 6
ert 6
aqu@@ 6
commenÃ§a 6
soi 6
lap@@ 6
universitÃ© 6
rÃ©parer 6
tel 6
supplÃ©@@ 6
rel@@ 6
princip@@ 6
ko 6
bÃ¢@@ 6
nag@@ 6
ea@@ 6
jouets 6
prÃªtes 6
ps 6
Smith 6
AmÃ©ri@@ 6
onnement 6
station 6
court 6
servi@@ 6
4 6
droits 6
tend@@ 6
pagne 6
ouverte 6
erait 6
Jane 6
solu 6
appareil 6
coÃ»te 6
pierre 6
lÃ©gu@@ 6
Thomas 6
chercher 6
importantes 6
act@@ 6
gag@@ 6
sty@@ 6
effray@@ 6
tabl@@ 6
public 6
concl@@ 6
considÃ©@@ 6
oul@@ 6
vues 6
ources 6
admis 6
cles 6
pÃ¢le 6
Ã©chec 6
tÃ©lÃ©@@ 6
to 6
ple@@ 6
permis 6
isi@@ 6
suff@@ 6
rum@@ 6
durant 6
battre 6
dra 6
soif 6
gagnÃ© 6
pon@@ 6
vir@@ 6
Ã©trang@@ 6
chanc@@ 6
sible 6
planÃ¨te 6
anci@@ 5
sy@@ 5
conten@@ 5
cel@@ 5
anni@@ 5
anto 5
New 5
York 5
Y@@ 5
Fran@@ 5
concer@@ 5
yons 5
organ@@ 5
prison 5
verse 5
pouv@@ 5
ok@@ 5
rav@@ 5
Mi@@ 5
vel@@ 5
Di@@ 5
surprise 5
chev@@ 5
dist@@ 5
So@@ 5
leil 5
tt@@ 5
proch@@ 5
fix@@ 5
expli@@ 5
ris 5
dÃ©c@@ 5
dom@@ 5
exac@@ 5
humour 5
beau@@ 5
super 5
mÃ©tr@@ 5
musici@@ 5
centre 5
of 5
distribu@@ 5
rag@@ 5
impression 5
rir 5
ang 5
exp@@ 5
population 5
amÃ©lior@@ 5
innocent 5
ague 5
Ã©to@@ 5
position 5
der@@ 5
bat 5
crime 5
S 5
peti@@ 5
intellig@@ 5
admi@@ 5
ore 5
assu@@ 5
geons 5
heu@@ 5
tre@@ 5
compos@@ 5
ly@@ 5
travail@@ 5
Europe 5
diplom@@ 5
din@@ 5
abo@@ 5
stitu@@ 5
Ã©cr@@ 5
date 5
vali@@ 5
lier 5
Ã©rer 5
curi@@ 5
sol@@ 5
propos@@ 5
sort 5
form@@ 5
conscience 5
le@@ 5
ours 5
Ã¢che 5
Can@@ 5
sport 5
az@@ 5
tats 5
vÃª@@ 5
honn@@ 5
20@@ 5
dispu@@ 5
cit@@ 5
oy@@ 5
cible 5
No@@ 5
iti@@ 5
pat@@ 5
he 5
Ã©tr@@ 5
ennent 5
zoo 5
4@@ 5
sandwich 5
bas@@ 5
achet@@ 5
super@@ 5
magazine 5
animal 5
plac@@ 5
prÃ©sen@@ 5
gars 5
hom@@ 5
ann@@ 5
certain@@ 5
visit@@ 5
but 5
lang@@ 5
vie@@ 5
concert 5
consci@@ 5
chaus@@ 5
tex@@ 5
existence 5
desc@@ 5
assist@@ 5
rel 5
page 5
abili@@ 5
diff@@ 5
ble@@ 5
lo 5
kil@@ 5
origin@@ 5
tra@@ 5
embarrass@@ 5
/ 5
inform@@ 5
esc@@ 5
cat 5
- 5
je@@ 5
Mo@@ 5
te@@ 5
volution 5
ase 5
suppos@@ 5
arri@@ 5
ambi@@ 5
offen@@ 5
sto@@ 5
euro@@ 5
vin@@ 5
gs 5
veill@@ 5
ot@@ 5
quel@@ 4
fas@@ 4
destination 4
asses 4
discu@@ 4
scientifi@@ 4
7@@ 4
let 4
USA 4
bul@@ 4
moder@@ 4
ms 4
stupi@@ 4
ates 4
correc@@ 4
horrible 4
pic@@ 4
dÃ©cl@@ 4
ides 4
regard 4
sive 4
condi@@ 4
endre 4
plai@@ 4
exerci@@ 4
boute@@ 4
bes 4
den@@ 4
dro@@ 4
garage 4
imp@@ 4
four@@ 4
gÃ¢@@ 4
famili@@ 4
pre 4
visi@@ 4
pus 4
premi@@ 4
vent 4
Bob 4
Par@@ 4
cip@@ 4
acifi@@ 4
hur@@ 4
compag@@ 4
agno@@ 4
absur@@ 4
due 4
batt@@ 4
surance 4
cure 4
cin@@ 4
Linda 4
dance 4
secrets 4
commer@@ 4
imagin@@ 4
rais@@ 4
ty@@ 4
inf@@ 4
Ã®tre 4
minu@@ 4
pun@@ 4
Ã©vit@@ 4
identi@@ 4
lement 4
reuse 4
die 4
chois@@ 4
ata 4
intelli@@ 4
our 4
philoso@@ 4
apon@@ 4
out 4
tire 4
dipl@@ 4
awa 4
mauv@@ 4
arro@@ 4
50 4
mul@@ 4
na 4
pap@@ 4
pers@@ 4
fortune 4
permission 4
aponais 4
vase 4
persu@@ 4
ticket 4
hi 4
usion 4
exist@@ 4
spor@@ 4
clu@@ 4
fer 4
auto@@ 4
refu@@ 4
q@@ 4
histo@@ 4
inv@@ 4
photo@@ 4
divor@@ 4
diffic@@ 4
insul@@ 4
fav@@ 4
terri@@ 4
dÃ©jeu@@ 4
hon@@ 4
0@@ 4
ouver@@ 4
force 4
Ãªtres 4
ards 4
ivent 4
fatigu@@ 4
eng@@ 4
Su@@ 4
corri@@ 4
be@@ 4
pren@@ 4
ama 4
sister 4
Lon@@ 4
ors 4
obj@@ 4
tain 4
cancer 4
xi@@ 4
del 4
orange 4
ry 4
out@@ 4
culture 4
tax@@ 4
mem@@ 4
Ã®ner 4
remar@@ 4
image 4
ges 4
trez 4
note 4
201@@ 4
ones 4
eil 4
Kate 4
cru@@ 4
solution 4
intÃ©@@ 4
iv@@ 4
bun@@ 4
8 4
heure@@ 4
tradi@@ 4
adi@@ 4
ail 4
excel@@ 4
pol@@ 4
effec@@ 4
conversation 4
princ@@ 4
condition 4
bel 4
Je@@ 4
tur@@ 4
ond 4
mus@@ 4
reux 4
paro@@ 4
ia 4
bizar@@ 4
ball 4
van@@ 4
angle 4
commenc@@ 4
cs 4
guit@@ 4
quar@@ 4
ame 4
effor@@ 4
erre 4
sci@@ 4
ands 4
fall@@ 4
ls 4
6@@ 4
onnes 4
Jim 4
blo@@ 4
justice 4
caf@@ 3
absent 3
ends 3
atives 3
barrass@@ 3
dÃ©couver@@ 3
rions 3
Pro@@ 3
cre@@ 3
di 3
prou@@ 3
toil@@ 3
netto@@ 3
futon 3
cur@@ 3
lin@@ 3
poison 3
souv@@ 3
k 3
requ@@ 3
arch@@ 3
ples 3
oir 3
tion@@ 3
Ju@@ 3
ancy 3
num@@ 3
hypoth@@ 3
illage 3
mine 3
olog@@ 3
four 3
cad@@ 3
situ@@ 3
lor@@ 3
ger@@ 3
coff@@ 3
influ@@ 3
nov@@ 3
sel@@ 3
ill 3
science 3
cal 3
ilo@@ 3
expÃ©ri@@ 3
univers@@ 3
statue 3
trou@@ 3
sem@@ 3
cinÃ©@@ 3
grap@@ 3
dence 3
bes@@ 3
nour@@ 3
construction 3
soi@@ 3
accent 3
cous@@ 3
En@@ 3
timi@@ 3
pizza 3
soci@@ 3
ka 3
her@@ 3
gentleman 3
imagination 3
jour@@ 3
gran@@ 3
tunnel 3
ths 3
virus 3
ition 3
embrass@@ 3
ache 3
accor@@ 3
Susan 3
symbo@@ 3
maj@@ 3
ras@@ 3
ature 3
Ã©ni@@ 3
ail@@ 3
archit@@ 3
pot 3
vies 3
far@@ 3
mam@@ 3
surviv@@ 3
ther@@ 3
chem@@ 3
Ã¨que 3
fir@@ 3
autom@@ 3
difficul@@ 3
sk@@ 3
Ã§ais 3
action 3
Re@@ 3
Nations 3
myst@@ 3
ize 3
dÃ©couv@@ 3
mes@@ 3
str@@ 3
ada 3
itiÃ© 3
puter 3
options 3
natur@@ 3
6 3
tem@@ 3
illez 3
jet 3
embr@@ 3
religi@@ 3
commen@@ 3
cue 3
reg@@ 3
profession@@ 3
acc@@ 3
nouv@@ 3
ack 3
diam@@ 3
minimum 3
rain 3
sit@@ 3
confis@@ 3
person@@ 3
clo@@ 3
vend@@ 3
maladi@@ 3
dorm@@ 3
para@@ 3
Ã®t 3
crimin@@ 3
Char@@ 3
opportun@@ 3
nations 3
ot 3
stru@@ 3
seu@@ 3
oun@@ 3
susp@@ 3
oli@@ 3
anges 3
cut 3
bar 3
ave 3
inqui@@ 3
You@@ 3
Tu@@ 3
resse 3
ea 3
symp@@ 3
atin 3
conna@@ 3
up@@ 3
ec 3
Paul 3
tech@@ 3
pyram@@ 3
rang 3
internation@@ 3
gent 3
net 3
ah 3
oh@@ 3
ation@@ 3
instructions 3
yen 3
barr@@ 3
mont@@ 3
once 3
000 3
fruit 3
phones 3
bro@@ 3
ato@@ 3
vive 3
ch 3
copies 3
miracle 3
alph@@ 3
mach@@ 3
ili@@ 3
Sh@@ 3
prin@@ 3
Ã§ons 3
distance 3
altern@@ 3
man 3
ino@@ 3
immÃ©@@ 3
inst@@ 3
yoto 3
ing 3
ta@@ 3
Ã©ro 3
Ã©cu@@ 3
gau@@ 3
criti@@ 3
anak@@ 3
sul@@ 3
course 3
respons@@ 3
usions 3
C 3
prÃ©si@@ 3
