. 16718
the 6737
to 4727
a 4569
&apos; 4090
of 3466
? 2875
, 2524
I 2484
you 2416
de 2381
je 2239
@-@ 1949
est 1812
is 1638
Tom 1569
pas 1551
il 1494
t 1485
la 1460
in 1449
le 1407
que 1357
Ã 1350
have 1304
n&apos; 1257
vous 1252
me 1233
do 1219
s 1186
ne 1162
I@@ 1093
he 1063
l&apos; 1033
be 1007
un 975
that 941
tu 933
was 920
get 890
j&apos; 852
ce 846
les 760
! 754
this 745
en 730
don@@ 718
it 714
ai 702
une 691
m 685
d&apos; 676
nous 655
are 632
my 623
not 620
for 558
know 549
it@@ 547
re 547
what 547
your 541
and 540
&quot; 540
time 539
elle 538
as 493
you@@ 486
all 486
his 485
on 465
qu&apos; 464
she 462
go 456
we 443
pour 442
c&apos; 436
ll 434
out 433
going 429
want 424
suis 423
him 417
like 415
with 414
et 401
des 391
dans 383
lot 375
way 359
good 339
there 333
y 331
can 330
has 327
qui 325
du 316
Ã§a 315
plus 313
more 309
s&apos; 301
think 298
very 294
tell 290
faire 288
au 288
moi 286
m&apos; 281
Ã©tait 277
how 276
at 276
little 275
se 274
we@@ 273
just 266
tout 264
avec 264
did 263
her 263
they 261
no 258
had 258
Mary 257
son 253
fait 252
te 251
will 249
one 248
been 246
mon 243
ve 236
right 233
who 233
Ãªtre 229
can@@ 229
if 228
were 228
sont 226
si 224
see 221
but 221
other 221
so 215
people 213
us 212
world 210
help 210
up 208
car 206
ils 204
d@@ 202
only 202
sur 201
veux 200
here 198
when 188
old 186
es 185
lui 184
than 183
trÃ¨s 180
temps 178
really 178
much 176
please 176
cette 173
about 173
where 173
need 168
di@@ 168
Ãªtes 167
why 166
ont 164
never 163
Ã©tÃ© 161
ma 160
sa 159
votre 158
take 158
avez 156
could 154
d 154
two 153
too 152
par 151
- 151
our 150
great 150
man 150
come 148
oÃ¹ 147
day 145
place 145
@ 142
pourquoi 140
meeting 140
should 139
es@@ 139
peux 136
teacher 136
ici 136
mais 136
dit 136
must 134
jamais 134
company 133
bien 133
any 132
new 132
now 132
do@@ 132
t&apos; 130
toi 129
from 129
comment 129
cold 129
sure 128
by 128
chose 127
United 126
Earth 126
pense 126
train 125
money 125
love 124
find 123
sais 121
would 120
tous 120
cela 118
comme 117
talk 116
e@@ 114
peut 114
work 114
well 114
avons 113
something 113
or 113
beaucoup 111
done 111
thing 111
first 111
vraiment 110
said 110
dire 109
ton 109
mind 108
Sami 107
ses 106
speak 106
back 106
what@@ 105
aime 105
avait 104
elles 104
night 104
same 103
better 102
he@@ 102
trop 102
at@@ 101
anything 101
without 100
school 99
mÃªme 99
let@@ 99
quelque 99
job 99
three 98
the@@ 98
States 97
put 97
many 97
last 97
voir 96
before 96
went 96
avoir 96
th@@ 96
life 96
buy 96
rien 96
quand 95
always 95
dog 95
mes 93
most 93
seen 92
future 92
monde 91
deux 91
house 91
va 90
long 90
encore 90
besoin 89
home 89
parler 89
afraid 89
room 89
hard 88
told 88
married 88
girls 87
best 87
say 86
lÃ 86
student 86
aller 85
aux 85
sommes 85
personne 85
friend 85
Ã©tais 84
homme 83
everything 82
Ã© 82
late 82
water 82
happy 82
beautiful 82
peu 81
got 81
toujours 81
name 81
looking 81
tired 81
person 81
question 80
ta 80
took 79
things 79
still 79
Ã©e 78
is@@ 78
sorry 78
children 78
read 78
y&apos; 78
try 78
own 78
language 78
matter 77
dois 77
argent 77
remember 76
tes 76
door 76
their 76
already 76
doctor 76
thought 75
aussi 75
nothing 75
re@@ 75
some 75
parents 74
maison 74
eat 74
English 74
believe 74
leave 74
bon 73
look 73
book 73
chez 73
soit 72
avais 72
Marie 72
fois 72
small 71
vu 71
books 71
year 70
keep 70
today 70
next 70
voiture 70
questions 69
wanted 69
quoi 69
notre 69
quel 69
travail 69
avant 68
give 68
these 68
autre 68
morning 67
few 67
dÃ©@@ 67
let 66
maintenant 66
arrive 66
made 66
live 66
vais 66
favorite 66
kind 66
eu 66
almost 66
idea 65
vie 65
sans 65
word 65
bit 64
French 64
able 64
dÃ©jÃ 64
sh@@ 64
phone 64
father 64
busy 63
week 63
ou 63
learn 63
make 63
pÃ¨re 63
family 63
enough 63
bad 62
aujourd&apos; 62
hui 62
accident 62
them 62
faut 61
air 61
past 61
easy 60
play 60
hours 60
quelle 59
ten 59
problem 59
combien 59
mother 59
ons 58
truth 58
stop 58
plaÃ®t 58
alone 58
girl 58
ait 57
porte 57
asked 57
ces 57
ther@@ 57
call 57
heures 57
eyes 57
sun 56
toutes 56
grand 56
understand 56
important 56
often 55
enfants 55
ent 55
hear 55
country 55
Boston 55
Ã©cole 54
years 54
jour 54
aide 54
true 54
saw 53
hand 53
livre 53
weather 53
aimerais 53
drink 53
use 53
seul 53
another 53
toute 52
ready 52
left 52
glad 51
aprÃ¨s 51
hier 51
office 51
ez 51
er 51
boy 51
bonne 51
opinion 51
big 51
ask 51
cet 50
even 50
story 50
station 50
number 50
floor 50
because 50
Ã©s 50
juste 49
anglais 49
someone 49
petit 49
in@@ 49
chien 49
demain 49
tomorrow 49
after 48
franÃ§ais 48
plan 48
passÃ© 48
fut 48
meet 48
bus 47
mieux 47
venir 47
mal 47
trois 46
eau 46
does 46
moment 46
far 46
pouvez 46
aider 46
nuit 46
police 46
key 46
assez 46
parle 45
cat 45
Ã©@@ 45
an 44
dÃ» 44
gens 44
ans 44
leur 44
child 44
seule 44
wants 44
puis 43
doing 43
food 43
prendre 43
femme 43
woman 43
moins 43
trip 43
fille 43
found 43
nice 42
yesterday 42
end 42
sait 42
bed 42
party 42
careful 42
mine 42
choses 42
young 42
nouveau 41
fais 41
peur 41
quelqu&apos; 41
soir 41
depuis 41
lives 41
letter 41
a@@ 41
lost 41
being 41
called 41
mÃ¨re 41
minutes 41
veut 41
off 41
complete 41
doit 40
savoir 40
ceci 40
voulais 40
game 40
ant 40
idÃ©e 40
heure 40
dis 40
friends 40
quelques 40
chance 40
non 40
voulez 40
surprised 40
pensais 40
trying 40
vos 40
part 39
situation 39
partir 39
manger 39
theory 39
show 39
hair 39
feel 38
again 38
answer 38
aurais 38
down 38
lire 38
times 38
trouve 38
heureux 38
likes 37
simplement 37
demandÃ© 37
sleeping 37
secret 37
en@@ 37
Ã©es 37
coffee 37
Dan 37
crois 37
class 37
possible 36
semaine 36
everybody 36
eux 36
piano 36
pendant 36
TV 36
autres 36
government 36
yet 36
devrais 36
souvent 35
faites 35
seems 35
everyone 35
nom 35
allÃ© 35
knew 35
wrong 35
acheter 35
difficult 35
dinner 35
France 35
knows 35
T@@ 34
bought 34
heart 34
swim 34
l@@ 34
girlfriend 34
vrai 34
entre 34
problÃ¨me 34
store 34
pris 34
om@@ 33
large 33
news 33
jusqu&apos; 33
pays 33
lit 33
savais 33
natural 33
brother 33
sens 33
derniÃ¨re 33
won@@ 33
age 33
aren 33
retard 32
write 32
stay 32
hope 32
chambre 32
met 32
devons 32
red 32
high 32
lettre 32
mort 32
sick 32
Ã©taient 32
o@@ 32
wife 32
box 32
pu 32
petite 31
facile 31
days 31
dollars 31
every 31
aient 31
perdu 31
between 31
early 31
sortir 31
famille 31
photo 31
Mr 31
walk 30
nos 30
semble 30
jours 30
Layla 30
Japan 30
watch 30
waiting 30
attention 30
rain 30
ville 30
city 30
tÃ´t 30
trouvÃ© 30
trouver 29
aucun 29
German 29
dark 29
am 29
ami 29
advice 29
restaurant 29
tÃ© 29
came 29
milk 29
vÃ©ritÃ© 29
table 29
raison 29
others 29
didn 29
ie 28
happened 28
myself 28
Tatoeba 28
ever 28
g@@ 28
talking 28
forward 28
apprendre 28
anymore 28
bicycle 28
problems 28
allez 28
fast 28
sera 28
Ã¨rent 28
e 28
arrivÃ© 27
penses 27
point 27
vue 27
lorsque 27
tant 27
since 27
vivre 27
wine 27
dead 27
sous 27
window 27
passe 27
sister 27
difficile 27
month 27
pourrais 27
rich 27
ticket 27
loin 27
six 27
head 27
wait 27
s@@ 27
seulement 27
death 27
jeune 27
histoire 27
tard 27
hurry 26
movie 26
pourrait 26
laisse 26
aucune 26
ques 26
piÃ¨ce 26
eur 26
born 26
livres 26
journÃ©e 26
coul@@ 26
music 26
looks 26
sois 26
garÃ§on 26
hate 26
dont 26
croire 26
cats 26
ball 26
computer 26
tennis 26
words 26
five 26
p@@ 26
langue 26
mistake 26
filles 25
achetÃ© 25
voyage 25
sleep 25
celui 25
mis 25
tÃªte 25
donne 25
fÃªte 25
yeux 25
mot 25
parce 25
froid 25
angry 25
travaille 25
arrÃªter 25
autant 25
con@@ 25
smoking 25
cours 24
vient 24
dÃ©solÃ© 24
matin 24
nouvelle 24
vas 24
chaque 24
b@@ 24
may 24
adore 24
sÃ»r 24
fa@@ 24
n@@ 24
choice 24
vite 24
prÃ¨s 24
which 24
art 24
thank 24
M@@ 24
enfant 24
demande 24
: 24
guess 24
main 24
ter 24
interested 24
tried 24
beer 24
comprendre 24
donnÃ© 24
gave 24
par@@ 23
voulait 23
post 23
connais 23
ensemble 23
r@@ 23
accord 23
dix 23
longtemps 23
dÃ©jeuner 23
tÃ©lÃ©phone 23
reading 23
heard 23
premier 23
soyez 23
Ã©crit 23
afternoon 23
viens 23
prie 23
finished 23
team 23
nourriture 23
Paris 23
devrait 23
price 23
frÃ¨re 23
dites 23
lorsqu&apos; 23
peine 23
yes 23
beau 23
fort 23
chat 23
sea 23
husband 23
course 23
mÃ©decin 23
mo@@ 22
marry 22
together 22
savez 22
travailler 22
joue 22
tonight 22
shoul@@ 22
decided 22
ante 22
dÃ©teste 22
students 22
light 22
grande 22
habitude 22
bag 22
ale 22
boys 22
colÃ¨re 22
wonder 22
premiÃ¨re 22
presque 22
behind 22
pouvons 22
shirt 22
black 22
essayer 22
face 22
lucky 22
vers 21
crazy 21
fish 21
pensÃ© 21
fini 21
on@@ 21
bureau 21
entendu 21
fire 21
mettre 21
suit 21
hospital 21
written 21
watching 21
ar@@ 21
Japon 21
hot 21
cheveux 21
amie 21
an@@ 21
li@@ 21
sugar 21
plutÃ´t 21
meilleur 21
Oh 21
sÅ“ur 21
allons 21
mois 21
cafÃ© 21
ation 21
dÃ®ner 21
efforts 21
mountain 21
sujet 21
jouer 21
ay@@ 21
occupÃ© 20
espÃ¨re 20
hands 20
safe 20
rÃ©@@ 20
rouge 20
promise 20
f@@ 20
contre 20
ti@@ 20
forgot 20
fun 20
don 20
ais 20
belle 20
was@@ 20
serait 20
laisser 20
prÃªt 20
lait 20
radio 20
experience 20
daughter 20
health 20
information 20
village 20
hotel 20
fell 19
chemin 19
partie 19
fils 19
cÅ“ur 19
m@@ 19
Mar@@ 19
appelle 19
hungry 19
Ã©crire 19
sentence 19
rend 19
makes 19
dehors 19
kitchen 19
malade 19
regarde 19
pay 19
lieu 19
oui 19
noir 19
itÃ© 19
compte 19
fin 19
oubliÃ© 19
venu 19
pouvoir 19
regarder 19
tellement 19
picture 19
prÃ©@@ 19
santÃ© 19
fumer 19
break 19
dur 18
coat 18
sky 18
park 18
annÃ©e 18
nager 18
v@@ 18
ni 18
rester 18
entreprise 18
laquelle 18
yours 18
ci 18
puisse 18
vin 18
prix 18
vieux 18
vÃ©lo 18
amour 18
laissÃ© 18
quickly 18
problÃ¨mes 18
ch@@ 18
happen 18
maniÃ¨re 18
langues 18
er@@ 18
davantage 18
veuillez 18
importe 18
ver@@ 18
completely 18
alors 18
rendre 18
ainsi 18
away 18
dormir 18
habite 18
sur@@ 18
mer 18
appris 18
until 18
devez 18
baby 18
miss 18
free 18
font 17
marche 17
into 17
supposed 17
feu 17
cook 17
heureuse 17
c@@ 17
care 17
donc 17
serai 17
vois 17
payer 17
fit 17
sent 17
parlez 17
Ã¨re 17
Christmas 17
quatre 17
envie 17
clothes 17
pourriez 17
started 17
vit 17
derriÃ¨re 17
rencontrer 17
nouvelles 17
riche 17
peuvent 17
pensez 17
lu 17
mots 17
telle 17
amis 17
aimes 17
necessary 17
those 17
attendre 17
cinq 17
mangÃ© 17
eaten 17
poor 17
che 17
entendre 17
devriez 17
wor@@ 17
library 16
serais 16
dÃ©t@@ 16
prochain 16
immÃ©diatement 16
faim 16
pouvait 16
musique 16
fatiguÃ© 16
midi 16
faÃ§on 16
glass 16
exactement 16
voudrais 16
ine 16
cost 16
ignore 16
euse 16
av@@ 16
four 16
magasin 16
apprÃ©cie 16
mange 16
propos 16
women 16
chaud 16
professeur 16
boulot 16
works 16
keys 16
bas 16
fenÃªtre 16
or@@ 16
Ah 16
im@@ 16
men 16
forget 16
laissez 16
river 16
least 16
later 16
knife 16
coup 16
biÃ¨re 16
danger 16
amoureux 15
dernier 15
birthday 15
summer 15
film 15
conduire 15
dÃ©solÃ©e 15
mauvais 15
devrions 15
leurs 15
Ã¢ge 15
caught 15
mains 15
thinks 15
parlÃ© 15
worry 15
evening 15
ri@@ 15
montre 15
tÃ©lÃ©vision 15
certains 15
verre 15
ferai 15
less 15
ceux 15
smart 15
i@@ 15
merci 15
endroit 15
cake 15
sense 15
aire 15
com@@ 15
anyone 15
Ã©tiez 15
ens 15
lose 15
shoes 15
learned 15
commencÃ© 15
pain 15
nÃ©cessaire 15
t@@ 15
l 15
lunch 15
nÃ© 15
apple 15
sÃ»re 15
invited 15
erreur 15
vacances 15
open 15
tÃ©s 14
bou@@ 14
ci@@ 14
minute 14
capable 14
intention 14
rÃ©union 14
Dieu 14
paper 14
compris 14
res@@ 14
sÃ©curitÃ© 14
dress 14
era 14
essaie 14
cuisine 14
hour 14
classe 14
impossible 14
cry 14
instant 14
pouvais 14
cher 14
chats 14
em@@ 14
ts 14
sucre 14
flowers 14
voici 14
choix 14
; 14
suppose 14
marchÃ© 14
personnes 14
terre 14
devant 14
utiliser 14
route 14
connaÃ®t 14
boire 14
expÃ©rience 14
chemise 14
voulons 14
essayÃ© 14
hommes 14
ants 14
Terre 14
arriver 14
wearing 14
bÃ©bÃ© 14
hat 14
disappointed 14
libre 14
prends 14
idiot 14
ag@@ 14
speech 14
ment 13
Ã‰@@ 13
irai 13
rencontrÃ© 13
confiance 13
feelings 13
rez 13
felt 13
longer 13
song 13
mit 13
qu@@ 13
souviens 13
himself 13
al@@ 13
rendu 13
Ã©tranger 13
advised 13
change 13
allemand 13
serez 13
sorte 13
savait 13
probably 13
passer 13
parfois 13
numÃ©ro 13
courant 13
droit 13
garÃ§ons 13
God 13
fact 13
sou@@ 13
tÃ©lÃ© 13
erai 13
bientÃ´t 13
speaks 13
boÃ®te 13
celle 13
aurait 13
tour 13
perdre 13
contract 13
u 13
road 13
building 13
Ã©quipe 13
propre 13
ement 13
ressemble 13
hÃ´tel 13
dÃ©cidÃ© 13
cause 13
living 13
nobody 13
clock 13
poser 13
poste 12
dangerous 12
poisson 12
furent 12
venus 12
no@@ 12
ette 12
cr@@ 12
allait 12
hÃ´pital 12
faisons 12
address 12
mistakes 12
pro@@ 12
probablement 12
stupid 12
dance 12
porter 12
facilement 12
tomber 12
ordinateur 12
comprends 12
fleurs 12
reste 12
Ã©tudiants 12
gros 12
eurs 12
dispose 12
parviens 12
guy 12
donnez 12
travers 12
arrÃªtÃ© 12
surpris 12
emploi 12
complÃ¨tement 12
nombre 12
pool 12
changÃ© 12
garde 12
gun 12
grosse 12
appelÃ© 12
gu@@ 12
admire 12
reason 12
lie 12
occupÃ©e 12
espagnol 12
Spanish 12
esprit 12
visite 12
genre 12
ab@@ 12
newspaper 12
vaut 12
eggs 12
revoir 11
manteau 11
ciel 11
enemy 11
soleil 11
famous 11
anniversaire 11
rentrer 11
selon 11
japonais 11
Japanese 11
marcher 11
Ã¨res 11
lo@@ 11
ad@@ 11
prefer 11
veulent 11
devenu 11
breakfast 11
John 11
gare 11
Å“il 11
neige 11
... 11
i 11
adresse 11
usual 11
sac 11
lake 11
plusieurs 11
prÃªte 11
aires 11
ill@@ 11
decision 11
du@@ 11
discuter 11
tenir 11
fasse 11
easily 11
lu@@ 11
res 11
attend 11
ap@@ 11
am@@ 11
NoÃ«l 11
penser 11
weekend 11
second 11
gr@@ 11
gÃ¢teau 11
winter 11
lesson 11
femmes 11
Ã©galement 11
moitiÃ© 11
cÃ´tÃ© 11
terminÃ© 11
marier 11
ant@@ 11
type 11
languages 11
agit 11
produit 11
mal@@ 11
blessÃ© 11
clÃ©s 11
umbrella 11
dictionary 11
10 11
sol 11
arme 11
cro@@ 11
Ã¢mes 11
commence 11
conseils 11
content 11
ins 11
savent 11
moindre 11
windows 11
solve 11
nombreux 11
C@@ 11
ni@@ 11
glasses 11
mets 11
donn@@ 11
ate 11
prenez 11
chapeau 11
co@@ 11
bri@@ 11
hors 11
examen 11
ations 11
pire 11
bread 11
allÃ©e 11
dort 11
ra 11
fera 11
dessus 11
shy 11
animal 11
blood 11
taille 11
f 11
bibliothÃ¨que 10
manque 10
fou 10
dangereux 10
rÃ©pondre 10
closed 10
jeu 10
Ã©tudier 10
enseignant 10
sentiments 10
prÃ©fÃ¨re 10
gi@@ 10
vis 10
tÃ©es 10
phrase 10
costume 10
eye 10
revenir 10
lis 10
touch 10
seem 10
vouloir 10
plupart 10
promises 10
against 10
mauvaise 10
pleurer 10
parti 10
rapidement 10
stupide 10
ge 10
pied 10
lumiÃ¨re 10
appeler 10
carte 10
quÃ© 10
devoir 10
ettes 10
once 10
pluie 10
bill 10
clÃ© 10
commencer 10
pl@@ 10
ler 10
tÃ©e 10
thÃ©orie 10
min@@ 10
portait 10
chaussures 10
rem@@ 10
pieds 10
ique 10
ferais 10
ayez 10
prÃ©fÃ©rÃ©e 10
mor@@ 10
chante 10
aise 10
garden 10
dormi 10
jambes 10
faisait 10
au@@ 10
instituteur 10
voitures 10
Ã‰tats 10
Unis 10
prend 10
donner 10
used 10
ren@@ 10
si@@ 10
bout 10
Australia 10
pleut 10
per@@ 10
dÃ©sormais 10
ter@@ 10
mar@@ 10
ir@@ 10
lunettes 10
die 10
pretty 10
balle 10
near 10
tu@@ 10
pauvre 10
piece 10
vieil 10
riviÃ¨re 10
ai@@ 10
A@@ 10
opened 10
mari 10
suite 10
thÃ©Ã¢tre 10
changer 10
man@@ 10
rude 10
discours 10
ac@@ 10
worst 10
boat 10
zoo 10
snow 10
h 10
affaire 10
bois 10
intelligent 10
getting 10
concert 10
sommeil 10
Ã©tions 10
succÃ¨s 10
teur 10
Jane 10
Ã©couter 10
town 10
homework 9
certain 9
ashamed 9
rappeler 9
intÃ©rieur 9
New 9
York 9
men@@ 9
inside 9
bl@@ 9
taxi 9
avenir 9
agree 9
papier 9
excuse 9
fallu 9
huit 9
su@@ 9
ire 9
talked 9
chanson 9
affaires 9
phrases 9
rÃ© 9
chi@@ 9
amies 9
vol@@ 9
sauf 9
prochaine 9
universe 9
choose 9
sociÃ©tÃ© 9
autour 9
mÃ©@@ 9
ues 9
printemps 9
projet 9
received 9
se@@ 9
under 9
regardÃ© 9
dÃ© 9
hiver 9
Ã©t@@ 9
cent 9
vingt 9
poids 9
el 9
guerre 9
vo@@ 9
church 9
tient 9
secrets 9
cadeau 9
present 9
study 9
cou@@ 9
enne 9
montagne 9
as@@ 9
parapluie 9
rencontre 9
montrer 9
rendez 9
Tokyo 9
u@@ 9
dis@@ 9
entrÃ©e 9
suffisamment 9
prit 9
quiet 9
R@@ 9
S@@ 9
travel 9
feet 9
ets 9
30 9
vieille 9
c 9
P@@ 9
for@@ 9
dictionnaire 9
Internet 9
began 9
demander 9
rÃ©soudre 9
arrived 9
ou@@ 9
quelconque 9
allÃ©s 9
our@@ 9
afin 9
mariÃ© 9
bu 9
ue 9
viendra 9
ago 9
plein 9
avance 9
exam 9
shower 9
rÃ©ussi 9
oncle 9
uncle 9
levÃ© 9
dimanche 9
lequel 9
vont 9
devenir 9
sandwich 9
connaÃ®tre 9
license 9
journal 9
D@@ 9
its 9
pen 9
success 9
half 9
ches 9
meilleure 9
groupe 9
tombÃ© 8
vivent 8
so@@ 8
viendrai 8
parc 8
cour@@ 8
ers 8
article 8
aimait 8
attrapÃ© 8
movies 8
Ã©pouser 8
portÃ© 8
drive 8
correct 8
mourir 8
travaillÃ© 8
prÃ©fÃ©rÃ© 8
nÃ©e 8
ites 8
dÃ©couvert 8
venue 8
y@@ 8
pe 8
dent 8
jardin 8
jeunes 8
Ã©trange 8
vÃ©cu 8
prise 8
prÃ©sident 8
lac 8
dev@@ 8
intÃ©ressant 8
novel 8
restÃ© 8
croit 8
Ã©toiles 8
might 8
robe 8
coupe 8
dÃ©cision 8
baiser 8
humeur 8
danser 8
iste 8
wedding 8
choisir 8
coin 8
message 8
grandmother 8
envoyÃ© 8
der 8
ass@@ 8
project 8
reÃ§u 8
thinking 8
dou@@ 8
existe 8
proposition 8
chanter 8
recherche 8
gauche 8
erreurs 8
tuÃ© 8
conseil 8
ArrÃªtez 8
leÃ§on 8
quiconque 8
annÃ©es 8
vÃªtements 8
cup 8
pommes 8
essay@@ 8
ferme 8
awake 8
rire 8
wrote 8
aimÃ© 8
ds 8
voudriez 8
vi@@ 8
o 8
oublie 8
sommet 8
top 8
animaux 8
bu@@ 8
responsible 8
ages 8
raisons 8
correctement 8
jou@@ 8
piscine 8
changed 8
tri@@ 8
sometimes 8
seront 8
signe 8
voilÃ 8
ex@@ 8
sang 8
rÃ©ponse 8
mienne 8
dispos@@ 8
gagner 8
Australie 8
kiss 8
war 8
voyager 8
mon@@ 8
seras 8
tr@@ 8
haut 8
beach 8
finalement 8
turned 8
rait 8
docteur 8
M 8
prÃ©sent 8
aille 8
bÃ¢timent 8
moyen 8
portes 8
Å“ufs 8
honte 8
lundi 8
propres 8
k@@ 8
soin 8
tique 8
proche 8
avoid 8
lived 8
arrÃªte 8
rou@@ 8
else 8
pleuvoir 8
payÃ© 8
bateau 8
ance 8
cute 8
manquer 8
prÃªter 8
pause 8
dents 8
bons 8
jeux 8
vidÃ©o 8
us@@ 8
ouvert 8
rappelle 8
tuer 8
parlent 8
boss 8
dÃ©pend 8
-@@ 8
Ã©tat 8
ten@@ 8
plays 8
tre 8
attends 8
dÃ©tails 7
ennemi 7
Ã¢@@ 7
devint 7
swimming 7
vendre 7
cru 7
larmes 7
tears 7
scientifique 7
reasons 7
tÃ©@@ 7
ions 7
tent 7
nage 7
amoureuse 7
arrivÃ©e 7
Excusez 7
allais 7
arriÃ¨re 7
effet 7
fer@@ 7
semaines 7
touche 7
mille 7
serv@@ 7
working 7
needs 7
business 7
connu 7
sembles 7
contente 7
rapport 7
report 7
embrasser 7
strange 7
Spain 7
roman 7
corps 7
body 7
bizarre 7
marre 7
inconvÃ©nient 7
occasion 7
bouteille 7
lors 7
ements 7
accused 7
mariage 7
tor@@ 7
pay@@ 7
lis@@ 7
portable 7
eut 7
doivent 7
copine 7
J@@ 7
difference 7
5 7
partout 7
lever 7
sal@@ 7
intÃ©rÃªt 7
forme 7
gouvernement 7
comm@@ 7
st@@ 7
auriez 7
salle 7
ennuis 7
Ã©ri@@ 7
prices 7
Ã©tudiant 7
sept 7
vide 7
produire 7
rue 7
tranquille 7
dÃ©couvrir 7
ever@@ 7
sist@@ 7
Ã©tage 7
espace 7
legs 7
fermer 7
responsable 7
expliquer 7
hasard 7
cl@@ 7
compagnie 7
lÃ© 7
auparavant 7
arbre 7
jolie 7
moral 7
Angleterre 7
perte 7
rent 7
disposez 7
aies 7
automne 7
avis 7
pomme 7
cas 7
amÃ©liorer 7
vendredi 7
disent 7
repas 7
weight 7
plage 7
euses 7
jouÃ© 7
patient 7
tour@@ 7
fenÃªtres 7
aimer 7
ise 7
looked 7
slept 7
punctual 7
AmÃ©rique 7
sors 7
simple 7
fortune 7
espoir 7
tÃ¢che 7
maman 7
postcard 7
end@@ 7
parlait 7
cassÃ© 7
appartient 7
interesting 7
sache 7
morceau 7
ables 7
vraie 7
patron 7
to@@ 7
sÃ©@@ 7
aimez 7
revenu 7
enti@@ 7
pen@@ 7
Ã©g@@ 7
ence 7
turn 7
clear 7
pou@@ 7
prÃ©senter 7
pour@@ 7
fl@@ 7
eu@@ 7
injured 7
laver 7
bonnes 7
dÃ©part 7
ju@@ 7
ess@@ 7
cri@@ 7
erais 7
lam@@ 7
ouvrir 7
retourner 7
join 7
magazine 7
timide 7
go@@ 7
aiment 7
leg 7
ard 7
rÃ©flÃ©chir 7
dÃ©but 7
nez 7
service 7
camera 7
cherche 7
football 7
kill 7
demanda 7
sÃ©rieux 7
fruit 7
gagne 7
demi 7
esti@@ 6
details 6
nerveux 6
nervous 6
rÃ©jouis 6
absent 6
arbres 6
feuilles 6
trees 6
probable 6
devoirs 6
gl@@ 6
oubli@@ 6
souci 6
double 6
entre@@ 6
tenez 6
rhume 6
emporter 6
kindness 6
dor@@ 6
plaisir 6
devient 6
ser@@ 6
cuisiner 6
sage 6
sa@@ 6
dÃ©cida 6
mi@@ 6
couple 6
mesure 6
nombreuses 6
difficultÃ©s 6
chang@@ 6
ais@@ 6
worked 6
tou@@ 6
conduis@@ 6
musÃ©e 6
quer 6
nique 6
abroad 6
tait 6
Espagne 6
ente 6
direction 6
ici@@ 6
tenu 6
rais 6
visiter 6
chiens 6
liste 6
exactly 6
accusÃ© 6
univers 6
nettoyer 6
courage 6
blanc 6
thÃ© 6
ec@@ 6
rends 6
intÃ©ressÃ© 6
app@@ 6
gÃ© 6
voyez 6
nulle 6
alcool 6
ru@@ 6
seuls 6
gÃ©rer 6
courir 6
area 6
Ã©r@@ 6
sing 6
grandes 6
appreciate 6
coÃ»t 6
gar@@ 6
po@@ 6
killed 6
papa 6
suivre 6
Ã©nergie 6
energy 6
petites 6
aurions 6
droite 6
absolument 6
pend@@ 6
tasse 6
trouble 6
j@@ 6
certaine 6
while 6
patience 6
close 6
Ã©glise 6
aie 6
ent@@ 6
rarement 6
ras 6
venait 6
compl@@ 6
al 6
cache 6
accepter 6
bi@@ 6
thin@@ 6
compter 6
bottle 6
Ã©tudie 6
onn@@ 6
imagine 6
parles 6
kept 6
ture 6
faute 6
fi@@ 6
imaginer 6
moutons 6
population 6
asseoir 6
politique 6
cars 6
atten@@ 6
innocent 6
doesn 6
fr@@ 6
ier 6
soixante 6
rÃ©veillÃ© 6
inquiÃ¨te 6
semblez 6
port@@ 6
around 6
nouvel 6
pri@@ 6
vivant 6
tree 6
passÃ©e 6
sortes 6
plan@@ 6
England 6
prÃ©parer 6
rons 6
ager 6
calme 6
arms 6
appr@@ 6
tres 6
entends 6
contrat 6
pla@@ 6
agent 6
rÃ´le 6
maladie 6
soyons 6
crÃ©@@ 6
aff@@ 6
souvenir 6
refaire 6
hurt 6
eus 6
rencontrÃ©e 6
frÃ¨res 6
fruits 6
invitÃ© 6
pos@@ 6
disait 6
rÃ¨gles 6
rules 6
date 6
illes 6
loi 6
Ã©cl@@ 6
nes 6
onnÃ© 6
cinÃ©ma 6
ger 6
iez 6
bird 6
coucher 6
nature 6
fromage 6
entrer 6
quitter 6
occupe 6
vis@@ 6
charge 6
montrez 6
pÃªcher 6
garder 6
douche 6
arrivent 6
Ã©p@@ 6
chanceux 6
Ã©viter 6
corriger 6
frÃ©qu@@ 6
ron@@ 6
gentil 6
consac@@ 6
ri 6
malheureusement 6
certaines 6
photos 6
trente 6
excuses 6
empÃªcher 6
boit 6
clairement 6
honnÃªte 6
honest 6
cents 6
enfance 6
tion 6
poule 6
occuper 6
cousin 6
illÃ© 6
commenÃ§a 6
stes 6
Allemagne 6
soi 6
universitÃ© 6
esse 6
voy@@ 6
rÃ©parer 6
dure 6
aine 6
bet 6
car@@ 6
entend@@ 6
jouets 6
toys 6
prÃªtes 6
Smith 6
tromp@@ 6
court 6
tie 6
droits 6
ouverte 6
erait 6
ales 6
ev@@ 6
appareil 6
coÃ»te 6
pierre 6
Thomas 6
chercher 6
importantes 6
wore 6
E@@ 6
br@@ 6
alitÃ© 6
public 6
nu@@ 6
ellement 6
vues 6
cap@@ 6
admis 6
pÃ¢le 6
Ã©chec 6
brothers 6
permis 6
durant 6
listen 6
battre 6
soif 6
gagnÃ© 6
Jim 6
planÃ¨te 6
lawyer 6
ble 6
teurs 5
fonctionne 5
des@@ 5
hÃ©@@ 5
cÃ©lÃ¨bre 5
vus 5
cli@@ 5
apprends 5
atif 5
voulu 5
rÃ©flÃ©chi 5
Devine 5
espÃ©ranto 5
lou@@ 5
suicidÃ© 5
saying 5
autrefois 5
avaient 5
joli 5
savons 5
satisfait 5
plu 5
organ@@ 5
Ã¯@@ 5
bonheur 5
Salut 5
prison 5
vienne 5
folle 5
retour 5
quement 5
occupÃ©s 5
remÃ¨de 5
pleu@@ 5
pique 5
Ã©lu 5
arrÃªt 5
fiÃ© 5
dÃ©cider 5
futur 5
bonjour 5
connaisse 5
conn@@ 5
prÃ©venu 5
quittÃ© 5
populaire 5
parla 5
soirÃ©e 5
tort 5
pe@@ 5
ple@@ 5
h@@ 5
surprise 5
cheval 5
gue 5
souhaite 5
croient 5
garage 5
lettres 5
Ã´@@ 5
tea 5
demand@@ 5
Soleil 5
char@@ 5
fu@@ 5
ir 5
Ã¨rement 5
rÃ©aliser 5
Italie 5
possibilitÃ© 5
reti@@ 5
Ã¨me 5
diffÃ©rence 5
aurai 5
ouvrit 5
urgence 5
chan@@ 5
bor@@ 5
amusant 5
lines 5
Quels 5
aliments 5
frais 5
beurre 5
vaches 5
traduire 5
dirai 5
dad 5
riches 5
cu@@ 5
copain 5
trai@@ 5
uni@@ 5
bicyclette 5
humour 5
super 5
impli@@ 5
totalement 5
centre 5
forte 5
distribu@@ 5
enseigner 5
Ã©veillÃ© 5
dÃ©s@@ 5
matiÃ¨re 5
subject 5
neuf 5
bat@@ 5
coÃ»ts 5
douleur 5
commande 5
impression 5
some@@ 5
voudrait 5
connaissait 5
portÃ©e 5
press@@ 5
crise 5
Ã©tang 5
pond 5
lÃ©@@ 5
servi 5
hÃ©ros 5
chaude 5
meubles 5
fault 5
ences 5
antes 5
champ 5
sau@@ 5
importante 5
prÃªts 5
Ã©lÃ¨ves 5
croyez 5
poster 5
chÃ© 5
objectif 5
ents 5
Ã©toile 5
af@@ 5
position 5
alliez 5
comporte 5
tai@@ 5
saisir 5
fus 5
conduit 5
onne 5
entr@@ 5
senti 5
crime 5
parti@@ 5
enfin 5
tunnel 5
chacun 5
rains 5
bras 5
donna 5
silencieux 5
froide 5
accep@@ 5
acide 5
mu@@ 5
utile 5
hÃ¢te 5
ront 5
petits 5
diffÃ©rent 5
poche 5
unique 5
sav@@ 5
rÃ©s 5
tombÃ©e 5
fro@@ 5
yourself 5
appelez 5
envoyer 5
rs 5
manager 5
faits 5
Europe 5
mathÃ©matiques 5
ira 5
sortie 5
Ã¨te 5
cal@@ 5
permission 5
Ã©cris 5
salaire 5
all@@ 5
amuser 5
law 5
respecter 5
lÃ©g@@ 5
populaires 5
foi 5
lier 5
restÃ©e 5
rÃ©pondu 5
iller 5
outside 5
sel 5
feriez 5
rÃ©ellement 5
bo@@ 5
enseign@@ 5
hav@@ 5
oiseau 5
grands 5
chant@@ 5
dÃ©r@@ 5
nerve 5
sentez 5
wash 5
coupÃ© 5
attendu 5
por@@ 5
theater 5
sort 5
signifie 5
visage 5
allowed 5
mensonge 5
conscience 5
Ã§@@ 5
dÃ©Ã§u 5
Ã©rÃ© 5
voisins 5
niveau 5
sport 5
rÃ©sultats 5
viennent 5
dr@@ 5
crying 5
proposal 5
Un@@ 5
fortun@@ 5
dÃ©truit 5
march@@ 5
soldats 5
preuve 5
promesse 5
mien 5
tement 5
pÃ©@@ 5
met@@ 5
Ã©tudi@@ 5
Monday 5
bandes 5
fon@@ 5
cher@@ 5
couteau 5
ob@@ 5
promettre 5
site 5
rer 5
rend@@ 5
chocolat 5
toucher 5
il@@ 5
indiquer 5
mou@@ 5
remercier 5
Ã©cureuils 5
connaissez 5
dos 5
tel 5
sentir 5
rejoindre 5
parie 5
exc@@ 5
cartes 5
gars 5
wh@@ 5
jambe 5
ser 5
certainement 5
fume 5
vendu 5
longues 5
rencontrÃ©s 5
peuple 5
venez 5
foule 5
grÃ¢ce 5
comp@@ 5
cravate 5
gÃ©nÃ©ration 5
quelles 5
interdit 5
existence 5
traitÃ© 5
promesses 5
dÃ©si@@ 5
mettez 5
dÃ©range 5
attrape 5
pi@@ 5
plait 5
conseillÃ© 5
trouver@@ 5
owe 5
rÃ©solu 5
aque 5
page 5
tiens 5
video 5
bleu 5
stylo 5
ouvrez 5
lÃ¨ve 5
mariÃ©s 5
soup@@ 5
fou@@ 5
campagne 5
passez 5
cochon 5
/ 5
avocat 5
Ã©norme 5
mignonne 5
dus 5
parfait 5
perfect 5
soutien 5
mÃ©di@@ 5
terie 5
appar@@ 5
clair 5
view 5
base 5
ordinaire 5
suffit 5
marteau 5
hammer 5
oubliez 5
rumeur 5
ur@@ 5
environ 5
ace 5
voit 5
fermÃ© 5
volontÃ© 5
won 5
dirait 5
tionn@@ 5
laughed 5
ressources 5
regardez 5
rumor 5
tableau 5
dÃ©e 5
sienne 5
sion 5
systÃ¨me 4
tons 4
taire 4
traiter 4
critique 4
became 4
devraient 4
celles 4
ateurs 4
sÃ©rieusement 4
destination 4
abord 4
gÃ©nÃ©ral 4
franchement 4
frankly 4
aines 4
scientifiques 4
blesser 4
parmi 4
gentillesse 4
avions 4
mer@@ 4
USA 4
understood 4
ach@@ 4
futon 4
ignor@@ 4
films 4
horreur 4
douÃ© 4
sex@@ 4
weeks 4
finir 4
ates 4
rÃ©alitÃ© 4
dommage 4
correcte 4
horrible 4
ain 4
folie 4
protÃ©ger 4
sauver 4
museum 4
seriez 4
Promettez 4
os 4
gÃ©nie 4
regard 4
loves 4
bruit 4
sive 4
Ã®mes 4
prÃ©vu 4
pli@@ 4
exem@@ 4
endre 4
cass@@ 4
stars 4
nul 4
Chine 4
plai@@ 4
warned 4
exercice 4
ro@@ 4
bes 4
aimÃ©e 4
eront 4
veuilles 4
cor@@ 4
fleur 4
lent 4
prÃ©fÃ©rerais 4
agir 4
cul@@ 4
faisais 4
realize 4
interrom@@ 4
queue 4
diable 4
utilisez 4
auteur 4
contrÃ´le 4
capitaine 4
russe 4
vent 4
toit 4
Bob 4
spÃ©ci@@ 4
couverture 4
fin@@ 4
quit@@ 4
dises 4
grand@@ 4
lignes 4
Inde 4
beautÃ© 4
bal@@ 4
perdue 4
ul@@ 4
avion 4
poli@@ 4
billet 4
sub@@ 4
achÃ¨te 4
musicien 4
musician 4
ateur 4
attendons 4
pes 4
batt@@ 4
assurance 4
prendra 4
seconde 4
cure 4
DÃ©@@ 4
pÃªche 4
crain@@ 4
terminer 4
Linda 4
mÃ©rite 4
fantÃ´mes 4
list 4
voie 4
BrÃ©sil 4
tombe 4
parlons 4
supporter 4
cieux 4
prudente 4
mat@@ 4
rideau 4
appÃ©tit 4
dri@@ 4
dise 4
chanteuse 4
permettre 4
veniez 4
tenait 4
rappelez 4
Ã¨ne 4
ite 4
augmentÃ© 4
prof 4
puni 4
utilisÃ© 4
lÃ¨@@ 4
ff@@ 4
Ã©vit@@ 4
entÃ© 4
attend@@ 4
brillante 4
peinture 4
dira 4
contr@@ 4
ennu@@ 4
brÃ»@@ 4
ut 4
riz 4
entrÃ© 4
Ã©clata 4
intelligente 4
ordres 4
sert 4
philosophie 4
promets 4
3 4
gÃ©@@ 4
nue 4
suggÃ¨re 4
impliquÃ© 4
terais 4
diffÃ©rences 4
atteint 4
aÃ®@@ 4
trouveras 4
couramment 4
tire 4
gÃ©nÃ©ralement 4
ordre 4
chansons 4
jette 4
jouent 4
physique 4
couper 4
volÃ© 4
mez 4
tentÃ© 4
forÃªt 4
L@@ 4
traductions 4
connaissais 4
soli@@ 4
humaine 4
sensÃ© 4
determination 4
poli 4
policeman 4
lentement 4
mauvaises 4
poin@@ 4
habituÃ© 4
assu@@ 4
prÃ©par@@ 4
publique 4
truc 4
Ap@@ 4
bouton 4
lycÃ©e 4
travailles 4
devait 4
tente 4
directeur 4
prÃ©vois 4
somewhere 4
int 4
trouvait 4
abandonner 4
doute 4
pr@@ 4
rant 4
comportement 4
invitÃ©es 4
fil@@ 4
espÃ¨ce 4
Ã©n@@ 4
mentir 4
genoux 4
aboie 4
constituent 4
pensent 4
plaisante 4
utilise 4
Japonais 4
donnÃ©es 4
log@@ 4
chons 4
vouliez 4
traverser 4
postale 4
censÃ© 4
vase 4
Ã©car@@ 4
salade 4
aisÃ© 4
baleine 4
In@@ 4
carriÃ¨re 4
ains 4
sÃ©rie 4
debout 4
Ã©te@@ 4
triste 4
tra 4
cesse 4
faux 4
ocÃ©an 4
risque 4
contributeur 4
apprÃ©ci@@ 4
amical 4
piÃ¨ces 4
produits 4
fer 4
oiseaux 4
quinze 4
donnent 4
concentr@@ 4
puissiez 4
trans@@ 4
crit 4
parfaitement 4
restez 4
bÅ“uf 4
rÃ©ponds 4
lÃ¢che 4
Ã©chou@@ 4
r 4
risques 4
els 4
congÃ© 4
insul@@ 4
yait 4
terriblement 4
diffÃ©rents 4
profonde 4
forcer 4
traduction 4
manqu@@ 4
Ã©tude 4
boyfriend 4
coÃ»tÃ© 4
mÃ© 4
ately 4
bon@@ 4
prononcer 4
couleur 4
natur@@ 4
mari@@ 4
force 4
trouvent 4
prises 4
different 4
apprentissage 4
apporte 4
mignons 4
passeport 4
suivant 4
Ã©pou@@ 4
tien 4
pas@@ 4
noyÃ© 4
moyenne 4
sombre 4
circulation 4
conf@@ 4
inter@@ 4
Su@@ 4
brÃ»lÃ© 4
dessinÃ©es 4
blessÃ©e 4
joie 4
restes 4
iser 4
couteaux 4
banque 4
voix 4
soon 4
hab@@ 4
childhood 4
Ã©conomie 4
lesquelles 4
mai@@ 4
menti 4
apprend 4
chaleur 4
endormi 4
ingÃ©nieurs 4
nier 4
vÃ©ritable 4
pression 4
coupable 4
Londres 4
prÃ©sent@@ 4
mÃªmes 4
empÃªchÃ© 4
objets 4
marron 4
fix 4
chinois 4
bour@@ 4
cancer 4
complet 4
monte 4
fight 4
poÃ¨me 4
rapide 4
bÃ¢@@ 4
Ã¢me 4
deuxiÃ¨me 4
dÃ©goÃ»@@ 4
bordel 4
prennent 4
orange 4
mise 4
aper@@ 4
sÃ»rement 4
faible 4
here@@ 4
sÃ©chÃ© 4
casser 4
AmÃ©ricains 4
ma@@ 4
gri@@ 4
sortez 4
assis 4
fs 4
ayant 4
puissance 4
culture 4
touchÃ© 4
mÃ©moire 4
canapÃ© 4
Ã©cri@@ 4
aimerait 4
fautes 4
Ã©tant 4
fidÃ¨le 4
image 4
lar@@ 4
rement 4
trez 4
slow 4
mÃ©tro 4
tante 4
note 4
peint 4
prendrai 4
whole 4
pleure 4
ign@@ 4
dÃ©tec@@ 4
prudent 4
appel@@ 4
matins 4
sourire 4
lien 4
exig@@ 4
causÃ© 4
asleep 4
bar 4
lÃ©gumes 4
Kate 4
cach@@ 4
naturel 4
fri@@ 4
caractÃ¨re 4
merveilleux 4
cru@@ 4
solution 4
gag@@ 4
ines 4
gorge 4
Ã©tudiante 4
raconter 4
peau 4
malgrÃ© 4
atteindre 4
cut 4
pein@@ 4
tendance 4
ss@@ 4
utilis@@ 4
heureuses 4
chanteur 4
ail 4
embarrassed 4
conversation 4
princesse 4
princess 4
concentrer 4
attendais 4
Jouons 4
comes 4
billets 4
condition 4
naissance 4
volant 4
fous 4
devenus 4
jet@@ 4
jean 4
admitted 4
forts 4
possÃ¨de 4
tur@@ 4
entier 4
reux 4
contact 4
semblait 4
quitte 4
tez 4
cam@@ 4
confÃ©rence 4
cÃ©libataire 4
phÃ©nomÃ¨ne 4
Ã©ti@@ 4
souri@@ 4
full 4
impatience 4
troisiÃ¨me 4
mÃ©ri@@ 4
commenc@@ 4
reconnaissante 4
oul@@ 4
guitare 4
forcÃ© 4
mecs 4
remettre 4
rec@@ 4
commun 4
viol@@ 4
appelÃ©e 4
distance 4
invitÃ©s 4
erons 4
fallait 4
voleur 4
fier 4
privÃ© 4
environnement 4
parole 4
semblant 4
nÃ´tre 4
thirsty 4
indi@@ 4
aÃ©roport 4
airport 4
Ã©poque 4
longs 4
chanceuse 4
tation 4
connaissance 4
pars 4
refus@@ 4
wears 4
emprunter 4
rique 4
rel@@ 4
Ha 4
dÃ©f@@ 4
ponctuel 4
gueule 3
gne 3
har@@ 3
leaves 3
cis@@ 3
rÃ©di@@ 3
quasiment 3
irez 3
dÃ©passer 3
ligne 3
rier 3
fasses 3
sauter 3
monter 3
fallut 3
oc@@ 3
mangent 3
ic@@ 3
discutÃ© 3
tent@@ 3
rage 3
rid 3
dÃ©couverte 3
Pro@@ 3
arrogants 3
indÃ©@@ 3
appartement 3
tiendra 3
cre@@ 3
aidera 3
vivait 3
loved 3
Ã©prouve 3
esses 3
son@@ 3
vit@@ 3
tomba 3
promener 3
concerne 3
Ã©checs 3
As@@ 3
convient 3
Bats 3
seat 3
Ã©coute 3
verse 3
spir@@ 3
poignÃ©e 3
cacahuÃ¨tes 3
alent@@ 3
known 3
contient 3
poison 3
souv@@ 3
enez 3
apparu 3
pouvaient 3
extrÃªmement 3
ravi 3
pure 3
habitait 3
Cessez 3
ade 3
rÃ©veille 3
deviner 3
attraper 3
sign@@ 3
Ã©vi@@ 3
pratiquement 3
adop@@ 3
Ã©gard 3
dÃ©pourvu 3
promenade 3
nel 3
command@@ 3
bÃ©nÃ©@@ 3
Nancy 3
prÃ©fÃ¨res 3
emprunte 3
un@@ 3
pale 3
verres 3
brill@@ 3
Ver@@ 3
hypothÃ¨se 3
exercise 3
Diable 3
auprÃ¨s 3
popular 3
sauv@@ 3
signification 3
cordes 3
excuser 3
termine 3
DÃ©gage 3
dro@@ 3
my@@ 3
rÃªves 3
bagages 3
el@@ 3
Ã¨vre 3
Ã©lo@@ 3
pul@@ 3
gÃ©ni@@ 3
excÃ¨s 3
conseilla 3
joueurs 3
cad@@ 3
destin 3
prouv@@ 3
pleurait 3
situe 3
lor@@ 3
ger@@ 3
bles 3
ris 3
cuisinier 3
essayez 3
rejet@@ 3
isn 3
rÃ©es 3
frontiÃ¨re 3
coffre 3
ciseaux 3
premiers 3
sÃ»res 3
avril 3
dÃ©c@@ 3
souffle 3
tÃ©moin 3
run 3
Pardonnez 3
ra@@ 3
domaine 3
alisation 3
bien@@ 3
remise 3
digne 3
ar 3
science 3
Ã©teindre 3
cul 3
ouilles 3
endu 3
trouverez 3
denti@@ 3
habituellement 3
sieste 3
matinÃ©e 3
walked 3
Ã©chapp@@ 3
rai 3
refusÃ© 3
atomique 3
hur@@ 3
rac@@ 3
bouteilles 3
sti@@ 3
rÃ©cemment 3
publiÃ© 3
presse 3
absurde 3
dÃ©clar@@ 3
utiles 3
Ã©tudient 3
cho@@ 3
cassÃ©e 3
involved 3
efficace 3
Apportez 3
expÃ©ri@@ 3
ment@@ 3
cerveau 3
jure 3
statue 3
fond@@ 3
rÃ©sistance 3
facture 3
mondiale 3
Anne 3
trou@@ 3
tran@@ 3
Ã©levÃ©s 3
aurez 3
ection 3
impressionn@@ 3
pai@@ 3
loyer 3
igner 3
secours 3
jeter 3
parl@@ 3
assure 3
habit@@ 3
projets 3
tempÃªte 3
mag@@ 3
caus@@ 3
tives 3
cin@@ 3
glÃ© 3
pÃ©trole 3
jeta 3
street 3
happening 3
Ã©coutez 3
senti@@ 3
ghosts 3
dÃ©conne 3
abondance 3
abandonn@@ 3
retrouvÃ© 3
cinÃ©@@ 3
volontaire 3
off@@ 3
rir 3
drÃ´le 3
ennuyeux 3
bande 3
moteur 3
explication 3
become 3
titre 3
continuÃ© 3
moquer 3
disparu 3
tremblement 3
market 3
life@@ 3
envis@@ 3
rÃ©e 3
construction 3
accent 3
sud 3
idÃ©@@ 3
sit 3
parliez 3
passage 3
convaincu 3
tures 3
En@@ 3
rich@@ 3
issez 3
vague 3
pizza 3
addition 3
entretenir 3
impatient 3
siÃ¨ge 3
bouche 3
ll@@ 3
invention 3
fonctionnÃ© 3
choisi 3
enf@@ 3
commentaire 3
gentleman 3
pose 3
idiote 3
rÃªve 3
mangez 3
imagination 3
assi@@ 3
start 3
pauvres 3
garderai 3
expensive 3
sacrÃ© 3
bat 3
then 3
comprennent 3
gel@@ 3
poÃ¨te 3
aimaient 3
devenue 3
suggest 3
const@@ 3
fausse 3
lune 3
miel 3
remonter 3
dÃ©cor@@ 3
prÃª@@ 3
dÃ©pÃªcher 3
gran@@ 3
pensÃ©es 3
fo@@ 3
autoritÃ© 3
nerveu@@ 3
mang@@ 3
maths 3
rus@@ 3
virus 3
rie 3
cherchait 3
sÃ»rs 3
ition 3
sour@@ 3
enverrai 3
playing 3
apparence 3
asse 3
sup@@ 3
Lavez 3
grandi 3
dirent 3
tueux 3
donnÃ©e 3
mourut 3
grandfather 3
accor@@ 3
sions 3
Susan 3
dÃ©termination 3
symbole 3
voulaient 3
maisons 3
maj@@ 3
cuisiniÃ¨re 3
Ã©ch@@ 3
ath@@ 3
intelligents 3
montrent 3
quÃ©e 3
serrÃ© 3
fic@@ 3
saches 3
regrette 3
tempÃ©rature 3
hÃ©roÃ¯ne 3
arrose 3
riez 3
pigeons 3
Ã©coutes 3
SMS 3
eriez 3
tre@@ 3
pu@@ 3
nom@@ 3
amÃ©liorÃ© 3
unes 3
lles 3
haute 3
rempli 3
apporter 3
na 3
plaintes 3
sÅ“urs 3
guerrier 3
persÃ©vÃ©rance 3
ress@@ 3
tourner 3
architecte 3
tarte 3
diez 3
contraire 3
fournir 3
prudents 3
monnaie 3
fix@@ 3
actuellement 3
rentrÃ©e 3
sortons 3
fÃª@@ 3
vies 3
pal@@ 3
far@@ 3
prom@@ 3
persuader 3
mammifÃ¨re 3
solaire 3
survivants 3
obligÃ©e 3
dieu 3
rapporte 3
chambres 3
ires 3
allumer 3
chem@@ 3
igne 3
incalculable 3
dÃ©clarÃ© 3
prof@@ 3
posÃ© 3
ven@@ 3
difficultÃ© 3
poussÃ© 3
construit 3
ttes 3
promis 3
lais@@ 3
voler 3
conserv@@ 3
iciel 3
Ã©tudiÃ© 3
encourag@@ 3
con 3
avancÃ© 3
friendly 3
Å“uvre 3
changements 3
FranÃ§ais 3
assurer 3
collec@@ 3
ennes 3
cannot 3
manquÃ© 3
Nations 3
Unies 3
approche 3
dre 3
sorti 3
cÃ©@@ 3
refuse 3
intime 3
histoires 3
annulÃ©e 3
Italy 3
Ã»@@ 3
eusement 3
2 3
vement 3
prÃ©cieux 3
dÃ©couv@@ 3
rÃªv@@ 3
activitÃ© 3
id@@ 3
vois@@ 3
envisage 3
ore 3
Monsieur 3
gea 3
perd 3
guÃ¨re 3
voulut 3
enfu@@ 3
arriver@@ 3
frappÃ© 3
difficiles 3
tais 3
aiss@@ 3
fournit 3
Canada 3
manquez 3
victoire 3
passa 3
amitiÃ© 3
travaillons 3
indique 3
crayon 3
viande 3
touristes 3
vÃª@@ 3
nor@@ 3
disputer 3
honneur 3
tal@@ 3
idÃ©es 3
publicitÃ© 3
fron@@ 3
options 3
glis@@ 3
pÃ©ril 3
bre 3
Con@@ 3
attirer 3
plu@@ 3
isme 3
citoyens 3
pratique 3
illez 3
croy@@ 3
exigÃ© 3
prÃ©sentÃ© 3
x 3
prÃ©voyez 3
objet 3
gÃ©ante 3
boivent 3
1@@ 3
litres 3
ignit 3
cible 3
habituer 3
fatiguÃ©e 3
scÃ¨ne 3
No@@ 3
opÃ©ration 3
N@@ 3
commenÃ§@@ 3
Ã©tagÃ¨re 3
nuages 3
actuelle 3
compatis 3
form@@ 3
venons 3
lÃ©ger 3
Colomb 3
coupa 3
gardÃ© 3
autorisÃ© 3
pÃ©nÃ©trer 3
pÃ©riode 3
acti@@ 3
adorent 3
pardonn@@ 3
dÃ©pÃªchÃ© 3
file 3
longue 3
chouette 3
Ã©goÃ¯ste 3
professionnel 3
peindre 3
acc@@ 3
valeur 3
arrivÃ©s 3
nouveaux 3
points 3
La 3
consÃ©quences 3
zone 3
crÃ©Ã© 3
vivez 3
Å“uf 3
Ã©pousÃ© 3
employer 3
couvert 3
courageux 3
commentaires 3
fus@@ 3
dÃ©jeunÃ© 3
sortis 3
habill@@ 3
ader 3
dedans 3
pÃ©n@@ 3
entra 3
Bou@@ 3
pantalon 3
arrÃª@@ 3
salon 3
recommand@@ 3
tera 3
minimum 3
issons 3
quartier 3
apprÃ©cient 3
mondial 3
lapins 3
courte 3
itÃ©e 3
personnel 3
brown 3
compÃ©t@@ 3
sentences 3
retourn@@ 3
soutenu 3
serons 3
mouvement 3
F@@ 3
achet@@ 3
maladies 3
sant 3
travaill@@ 3
vol 3
ban@@ 3
sse 3
placÃ© 3
Ã©cou@@ 3
intÃ©ressÃ©s 3
sez 3
Permettez 3
prÃ©sente 3
regarda 3
prÃ©venue 3
Ã©coutÃ© 3
reconn@@ 3
mour@@ 3
camion 3
ouvertes 3
disposais 3
rÃ©guliÃ¨rement 3
ann@@ 3
glace 3
lav@@ 3
visit@@ 3
tas 3
irait 3
eras 3
Ã©lÃ¨ve 3
su 3
sÃ©par@@ 3
fau@@ 3
opportunitÃ© 3
visit 3
rÃ©colte 3
ile 3
ore@@ 3
ille 3
ps 3
be@@ 3
matÃ©ri@@ 3
anc@@ 3
pass@@ 3
partira 3
essaya 3
fonc@@ 3
cle@@ 3
coups 3
ray@@ 3
conscient 3
nations 3
langage 3
eÃ»t 3
ole 3
seu@@ 3
chaussettes 3
crowd 3
morte 3
fÃ¢chÃ© 3
bres 3
entraÃ®ner 3
soudainement 3
dÃ©pensÃ© 3
thanks 3
clean 3
aura 3
vÃ©ri@@ 3
chinoise 3
aisser 3
mÃ©daille 3
cou 3
acceptÃ© 3
Ã©tend@@ 3
tar@@ 3
depends 3
dÃ©cÃ©dÃ© 3
manuel 3
amen@@ 3
qu 3
allÃ©es 3
descend@@ 3
fÃ»mes 3
Ã¨s 3
texte 3
lic@@ 3
bÃ»@@ 3
rest@@ 3
ramassÃ© 3
derniÃ¨res 3
disposes 3
soucie 3
choc 3
2013 3
siÃ¨cle 3
cont@@ 3
Ã©tend 3
anges 3
pneu 3
dig@@ 3
silencieuse 3
frappa 3
vÃ©cut 3
suivi 3
pÃ¨se 3
frappe 3
assist@@ 3
smoke 3
menti@@ 3
emment 3
jaloux 3
dingue 3
dessert 3
disposent 3
doutes 3
araignÃ©e 3
dogs 3
souff@@ 3
lave 3
travaillais 3
inqui@@ 3
hom@@ 3
n 3
conseille 3
sentait 3
trou 3
noire 3
diffÃ©rente 3
bas@@ 3
prÃ©visions 3
terme 3
enlÃ¨ve 3
col@@ 3
sale 3
tentation 3
nÃ©s 3
isÃ© 3
arrÃªtÃ©e 3
diffÃ¨re 3
supermarchÃ© 3
dÃ©sire 3
intÃ©resse 3
dentiste 3
ivre 3
drunk 3
tribunal 3
reprendre 3
aimerions 3
humains 3
rencontrons 3
doigt 3
latin 3
pan@@ 3
roi 3
ner@@ 3
connaÃ®@@ 3
effray@@ 3
sentiment 3
heurtÃ© 3
dÃ©so@@ 3
mec 3
cha 3
connaissent 3
Paul 3
semblent 3
trÃ©@@ 3
insist@@ 3
juge 3
lente 3
effrayÃ© 3
Ã©chouÃ© 3
chauff@@ 3
soucier 3
Ã©lectronique 3
Ce 3
sÃ© 3
sÃ©e 3
envers 3
emmÃ¨ne 3
aimais 3
cacher 3
jupe 3
maÃ®tre 3
putain 3
lin 3
internationale 3
ferions 3
dors 3
bel 3
amusante 3
arrivait 3
ris@@ 3
ram@@ 3
biscuits 3
eaux 3
explo@@ 3
instructions 3
membre 3
venues 3
souhaiter 3
aides 3
gratu@@ 3
siÃ¨cles 3
corde 3
alentours 3
maÃ®tri@@ 3
sÃ©rieuse 3
G@@ 3
rÃ©pu@@ 3
onner 3
yens 3
cÃ© 3
tÃ©lÃ©phones 3
devais 3
Ã©rer 3
Ã¨tre 3
cir@@ 3
aimons 3
preuves 3
constamment 3
bizarrement 3
dÃ¨s 3
appelons 3
rÃ©pare 3
assise 3
vive 3
match 3
