. 16988
I 6296
the 4980
you 4886
to 4458
a 3332
? 2908
is 2610
&apos;t 2282
, 1942
of 1816
it 1782
he 1744
in 1658
that 1608
&apos;s 1520
Tom 1480
do 1212
have 1192
me 1188
this 1158
was 1138
we 1078
are 1042
my 1032
for 1018
she 960
don 940
what 922
not 912
can 864
your 864
and 842
be 778
&apos;m 774
on 714
with 652
his 628
&apos;re 624
want 622
like 614
know 582
they 578
there 570
all 554
! 554
at 544
her 530
him 490
how 476
go 466
as 464
did 448
has 442
think 404
time 398
very 398
no 396
out 388
&apos;ve 382
get 374
&quot; 372
will 368
&apos;ll 368
had 368
an 360
one 354
if 348
about 344
were 344
here 330
who 328
from 326
up 320
didn 304
but 300
just 296
so 296
why 292
would 288
by 284
when 282
Mary 282
good 270
going 268
am 260
where 258
us 258
need 254
tell 246
see 244
more 244
come 240
should 236
&apos;d 236
never 234
been 234
too 228
much 222
now 220
help 218
than 216
please 216
only 208
could 206
let 204
really 204
our 202
@-@ 198
take 196
right 192
man 186
work 186
any 184
day 176
some 176
love 166
must 164
got 164
last 160
make 158
something 158
car 158
does 156
or 154
doesn 148
money 148
people 146
lot 146
way 144
home 142
ed 142
went 142
speak 136
look 136
them 134
anything 134
give 134
say 132
told 132
said 132
little 130
find 128
today 128
leave 128
still 128
night 128
school 126
talk 126
back 126
before 124
two 124
well 122
long 122
new 120
always 120
room 120
off 120
everything 118
old 118
thought 118
house 118
won 116
made 114
many 114
believe 114
happy 112
life 112
nothing 112
again 108
live 108
eat 108
French 108
read 108
sure 108
feel 108
isn 106
book 106
into 106
father 106
which 104
may 104
wanted 104
ing 102
first 102
alone 102
these 100
put 100
English 100
better 100
away 100
took 100
Sami 100
dog 100
already 98
try 98
tomorrow 98
hard 96
their 96
buy 96
job 96
three 94
without 94
enough 94
other 94
because 94
done 92
late 92
used 92
after 88
over 88
down 88
left 88
best 86
keep 86
asked 86
children 86
seen 86
sorry 84
door 84
things 84
every 82
idea 82
mind 82
stop 82
friend 82
thing 82
looking 80
saw 80
teacher 80
name 80
years 80
often 78
being 78
water 78
busy 78
doing 78
came 78
es 76
even 76
play 76
understand 76
afraid 74
lost 74
great 74
call 72
yesterday 72
next 72
ever 72
world 72
wants 72
remember 72
place 70
bad 70
cold 70
week 70
knew 70
use 70
re@@ 70
everyone 68
ready 68
un@@ 68
found 68
meet 66
bed 66
easy 64
mine 64
young 64
wrong 64
ted 64
few 64
married 64
sleep 64
early 64
truth 64
small 62
stay 62
hear 62
books 62
letter 62
most 62
around 62
y 62
drink 62
mother 62
yet 62
far 62
another 62
those 62
knows 62
doctor 62
aren 60
year 60
kind 60
everybody 60
talking 60
s@@ 60
pay 60
ask 60
care 60
parents 58
morning 58
since 58
able 58
myself 58
party 58
true 58
show 58
happened 56
watch 56
hope 56
happen 56
learn 56
anymore 56
once 56
word 56
ate 56
nice 56
couldn 54
coming 54
country 54
while 54
e@@ 54
family 54
problem 54
having 54
himself 52
likes 52
its 52
s 52
such 52
tired 52
free 52
girl 52
red 52
lives 52
same 52
yourself 52
gave 52
looks 52
haven 50
train 50
ts 50
ly 50
together 50
write 50
friends 50
miss 50
makes 50
wait 50
cat 50
language 50
bought 48
plan 48
rain 48
might 48
days 48
in@@ 48
turned 48
person 48
p@@ 48
g@@ 48
ers 48
child 48
big 48
started 48
someone 48
nobody 48
met 48
turn 48
study 46
seems 46
until 46
woman 46
&apos; 46
end 46
brother 46
difficult 46
bit 46
cannot 46
fun 46
anyone 46
wasn 46
o@@ 46
times 46
beautiful 46
called 46
reading 46
matter 44
meeting 44
heard 44
boy 44
ated 44
w@@ 44
sick 44
getting 44
d@@ 44
rich 44
hot 44
dinner 44
hours 44
working 44
each 44
girls 42
k@@ 42
ous 42
Boston 42
accident 42
finished 42
question 42
food 42
eyes 42
light 42
waiting 42
sister 42
al 42
coffee 42
hand 42
trying 42
questions 42
hate 42
story 42
own 42
open 42
sing 40
office 40
heart 40
Japanese 40
lived 40
living 40
ten 40
pretty 40
both 40
Japan 40
soon 40
wife 40
number 40
er 40
cut 40
; 40
almost 40
else 40
forget 40
hair 40
tried 40
five 40
t@@ 40
glad 40
S@@ 38
thinking 38
p 38
answer 38
hurt 38
company 38
TV 38
wish 38
phone 38
under 38
felt 38
advice 38
France 38
weather 38
milk 38
age 38
important 38
fell 36
swimming 36
walk 36
arrived 36
future 36
break 36
born 36
fast 36
change 36
visit 36
f@@ 36
black 36
angry 36
l@@ 36
Dan 36
behind 36
careful 36
through 36
become 36
then 36
ago 36
died 36
less 36
class 36
works 34
ded 34
worry 34
game 34
guess 34
killed 34
others 34
tonight 34
news 34
wine 34
against 34
surprised 34
high 34
interested 34
store 34
between 34
whole 34
students 34
quite 34
wonder 34
words 34
trip 34
bus 34
exactly 34
: 34
wouldn 34
decided 34
b@@ 34
hurry 32
became 32
son 32
yours 32
al@@ 32
clear 32
station 32
hands 32
known 32
promise 32
order 32
dis@@ 32
run 32
th 32
ation 32
window 32
cost 32
ting 32
m@@ 32
daughter 32
death 32
Mr 32
longer 32
watching 32
st@@ 32
smoking 32
di@@ 30
crazy 30
summer 30
fish 30
swim 30
Tatoeba 30
th@@ 30
large 30
spend 30
fire 30
anybody 30
making 30
music 30
chance 30
city 30
correct 30
girlfriend 30
yes 30
h@@ 30
ity 30
sometimes 30
opinion 30
close 30
dark 30
start 30
lucky 30
telling 30
thank 30
bicycle 30
past 30
student 30
languages 30
poor 30
face 30
health 30
beer 30
maybe 30
movie 28
point 28
A@@ 28
also 28
rather 28
caught 28
hungry 28
thinks 28
comes 28
hospital 28
written 28
favorite 28
part 28
playing 28
set 28
cats 28
probably 28
easily 28
four 28
saying 28
sense 28
over@@ 28
half 28
ps 28
listen 28
fine 28
shirt 28
lose 28
lunch 28
sleeping 28
sh@@ 28
near 28
baby 28
hotel 28
r@@ 28
later 28
leaving 28
possible 28
coat 26
speaking 26
agree 26
taking 26
breakfast 26
computer 26
hat 26
ent 26
u@@ 26
German 26
feeling 26
head 26
dress 26
ac@@ 26
sugar 26
appreciate 26
trouble 26
choice 26
ri@@ 26
boys 26
cr@@ 26
month 26
God 26
forgot 26
opened 26
key 26
cake 26
minutes 26
am@@ 26
completely 26
hasn 26
clothes 26
restaurant 26
shot 26
co@@ 26
kept 26
bo@@ 26
six 26
experience 26
i@@ 26
safe 26
least 26
wash 26
different 26
looked 26
men 26
learned 26
ball 26
team 26
mistake 26
whose 26
problems 26
stayed 26
town 26
it@@ 24
F@@ 24
whatever 24
birthday 24
W@@ 24
at@@ 24
clean 24
inside 24
paper 24
D@@ 24
either 24
strong 24
c 24
marry 24
sentence 24
drive 24
touch 24
ty 24
box 24
afternoon 24
prefer 24
glasses 24
gone 24
ance 24
wrote 24
flowers 24
cook 24
police 24
real 24
stupid 24
secret 24
women 24
m 24
ds 24
floor 24
legs 24
keys 24
necessary 24
est 24
changed 24
needed 24
smoke 24
broke 24
slept 24
invited 24
Earth 24
information 24
si@@ 24
dead 24
Spanish 24
d 24
situation 24
shouldn 24
piano 24
a@@ 24
began 24
hour 24
present 24
de@@ 24
picture 24
o 24
forward 22
sun 22
loved 22
dangerous 22
kids 22
win 22
expensive 22
enjoy 22
feelings 22
immediately 22
whether 22
talked 22
sentences 22
ally 22
interesting 22
g 22
Paris 22
spoke 22
glass 22
li@@ 22
ad@@ 22
king 22
to@@ 22
sw@@ 22
catch 22
tennis 22
walked 22
deal 22
taken 22
wearing 22
shoes 22
bring 22
heavy 22
P@@ 22
learning 22
running 22
evening 22
sit 22
needs 22
pre@@ 22
seem 22
C@@ 22
played 22
sea 22
hit 22
b 22
eaten 22
takes 22
ch 22
river 22
supposed 22
husband 22
ans 22
lo@@ 22
fact 22
kill 22
cute 22
weren 22
eating 22
library 20
n@@ 20
seeing 20
park 20
famous 20
tic 20
short 20
tears 20
ic@@ 20
teach 20
studying 20
ful 20
date 20
en@@ 20
bill 20
couple 20
finish 20
eye 20
... 20
worked 20
shall 20
address 20
Layla 20
con@@ 20
die 20
strange 20
stars 20
public 20
smart 20
Oh 20
sound 20
realize 20
Christmas 20
gh@@ 20
closed 20
quickly 20
ating 20
moment 20
n 20
theory 20
broken 20
liked 20
second 20
speaks 20
gets 20
using 20
top 20
mountain 20
drunk 20
tree 20
table 20
send 20
ses 20
y@@ 20
goes 20
reason 20
lie 20
ch@@ 20
fruit 20
building 20
attention 20
outside 20
exist 20
join 20
or@@ 20
bri@@ 20
case 20
crying 20
snow 20
test 20
plays 20
le 20
history 20
writing 20
guys 20
nervous 18
ked 18
driving 18
post 18
excuse 18
view 18
hold 18
ring 18
John 18
mo@@ 18
dollars 18
T@@ 18
pleased 18
ning 18
bag 18
abroad 18
mean 18
popular 18
traffic 18
dance 18
price 18
ar@@ 18
ride 18
bike 18
advised 18
line 18
single 18
spring 18
owe 18
complete 18
ks 18
television 18
none 18
sts 18
consider 18
art 18
allowed 18
usually 18
usual 18
winter 18
per@@ 18
10 18
stand 18
er@@ 18
ticket 18
cup 18
expect 18
tr@@ 18
pain 18
te 18
figured 18
shop 18
en 18
front 18
umbrella 18
gun 18
herself 18
blood 18
older 18
kiss 18
quiet 18
gives 18
respect 18
do@@ 18
dictionary 18
sooner 18
solve 18
somewhere 18
low 18
village 18
ran 18
wear 18
c@@ 18
fat 18
air 18
carry 18
ates 18
uncle 18
sight 18
weekend 18
given 18
full 18
e 18
min@@ 18
earth 18
B@@ 18
actually 18
&apos;clock 18
em@@ 18
satisfied 16
mis@@ 16
absent 16
ms 16
fall 16
considered 16
M@@ 16
move 16
understood 16
cooking 16
trust 16
rest 16
terrible 16
seat 16
song 16
business 16
slow 16
kitchen 16
cry 16
dogs 16
el@@ 16
accused 16
ist 16
ant 16
ro@@ 16
out@@ 16
sent 16
br@@ 16
for@@ 16
po@@ 16
form 16
follow 16
ling 16
lesson 16
government 16
suit 16
an@@ 16
tu@@ 16
involved 16
lu@@ 16
spoken 16
during 16
hardly 16
thirty 16
OK 16
mistakes 16
space 16
ti@@ 16
ding 16
road 16
cars 16
photo 16
Tokyo 16
pool 16
United 16
return 16
et@@ 16
finally 16
Australia 16
ves 16
America 16
apple 16
travel 16
human 16
ered 16
prepared 16
expected 16
ter 16
res@@ 16
twice 16
piece 16
across 16
pro@@ 16
lies 16
eggs 16
missed 16
check 16
ashamed 16
danger 16
w 16
course 16
pen 16
disappointed 16
worse 16
rock 16
asleep 16
vacation 16
ies 16
Monday 16
speech 16
ass 16
Sunday 16
video 16
Chinese 16
luck 16
guy 16
worth 16
k 16
pe@@ 16
so@@ 16
bread 16
serious 16
ches 14
sti@@ 14
details 14
sky 14
enemy 14
ters 14
seriously 14
according 14
ck 14
rude 14
New 14
fuck 14
medicine 14
wise 14
hurried 14
H@@ 14
brought 14
del@@ 14
report 14
greatest 14
der@@ 14
received 14
patient 14
re 14
figure 14
novel 14
body 14
ering 14
rel@@ 14
warned 14
visited 14
bottle 14
thanks 14
decision 14
shower 14
dr@@ 14
letters 14
choose 14
white 14
tea 14
ess 14
familiar 14
ter@@ 14
ec@@ 14
difference 14
area 14
com@@ 14
suppose 14
dad 14
teeth 14
helped 14
beginning 14
ties 14
ic 14
energy 14
boyfriend 14
eless 14
dec@@ 14
weight 14
law 14
awake 14
laughing 14
efforts 14
costs 14
garden 14
ages 14
funny 14
animals 14
responsible 14
explain 14
thirsty 14
avoid 14
painting 14
sounds 14
sort 14
land 14
loss 14
filled 14
raining 14
es@@ 14
Friday 14
feet 14
grow 14
30 14
beach 14
Ah 14
har@@ 14
windows 14
held 14
cre@@ 14
listening 14
t 14
silent 14
task 14
sign 14
bet 14
bl@@ 14
tly 14
means 14
natural 14
charge 14
pi@@ 14
fishing 14
ay 14
shut 14
reach 14
spent 14
fix 14
unfortunately 14
brown 14
succeeded 14
injured 14
forgive 14
fe@@ 14
passed 14
tall 14
ought 14
paid 14
shy 14
loves 14
newspaper 14
common 14
par@@ 14
ab@@ 14
success 14
depends 14
painted 14
plenty 14
Jane 14
intelligent 14
along 14
blue 14
upstairs 14
pass 14
tri@@ 14
scared 14
quit 14
wing 14
following 14
ons 12
trees 12
leaves 12
wor@@ 12
homework 12
certain 12
sell 12
mail 12
double 12
minute 12
protect 12
York 12
meant 12
leg 12
chicken 12
z@@ 12
taxi 12
back@@ 12
telephone 12
eight 12
movies 12
als 12
weeks 12
wore 12
under@@ 12
keeps 12
ying 12
museum 12
wake 12
Spain 12
lake 12
borrow 12
impossible 12
watched 12
exercise 12
list 12
h 12
j@@ 12
be@@ 12
pri@@ 12
universe 12
dream 12
wedding 12
message 12
arrive 12
ming 12
der 12
ats 12
project 12
perhaps 12
forced 12
ary 12
handle 12
faster 12
agreed 12
happening 12
I@@ 12
grandmother 12
foods 12
cows 12
translate 12
du@@ 12
refused 12
treated 12
sed 12
lazy 12
fight 12
im@@ 12
hundred 12
aw@@ 12
side 12
university 12
prices 12
ex@@ 12
impressed 12
rent 12
sings 12
church 12
oned 12
threw 12
street 12
power 12
stopped 12
upset 12
served 12
on@@ 12
radio 12
market 12
several 12
reasons 12
ected 12
sheep 12
drinking 12
the@@ 12
wonderful 12
worried 12
States 12
burst 12
alive 12
ze 12
comfortable 12
lend 12
growing 12
England 12
ap@@ 12
knife 12
ths 12
says 12
kissed 12
ill 12
grandfather 12
admire 12
size 12
lots 12
Internet 12
idiot 12
ad 12
lawyer 12
punctual 12
fly 12
fortune 12
ce 12
ear@@ 12
rules 12
mom 12
war 12
Americans 12
sub@@ 12
dly 12
ours 12
O@@ 12
accept 12
des@@ 12
theater 12
ative 12
failed 12
laughed 12
des 12
fear 12
ber 12
manager 12
apologize 12
starting 12
les 12
ho@@ 12
ets 12
honest 12
00 12
childhood 12
ry 12
waste 12
boat 12
distance 12
se@@ 12
Germany 12
touched 12
matters 12
is@@ 12
cause 12
games 12
ator 12
animal 12
soul 12
drank 12
toys 12
G@@ 12
R@@ 12
memory 12
mi@@ 12
worst 12
months 12
admitted 12
promises 12
above 12
license 12
runs 12
/ 12
embarrassed 12
taller 12
pictures 12
singer 12
bright 12
warm 12
driver 12
hide 12
countries 12
el 12
kinds 12
perfect 12
pale 12
scene 12
bother 12
talks 12
sold 12
gl@@ 12
planet 12
system 10
as@@ 10
selling 10
fied 10
ners 10
within 10
rid 10
scientific 10
British 10
arrogant 10
Esperanto 10
article 10
kindness 10
plan@@ 10
though 10
per 10
desk 10
escape 10
toilet 10
sp@@ 10
harder 10
button 10
gen@@ 10
Hi 10
throw 10
returned 10
changing 10
beat 10
self 10
deserve 10
truck 10
skin 10
everywhere 10
guard 10
elected 10
sho@@ 10
decide 10
willing 10
fit 10
push 10
mood 10
flower 10
falling 10
end@@ 10
difficulty 10
players 10
iled 10
fin@@ 10
inter@@ 10
ru@@ 10
Italy 10
normal 10
proud 10
proposal 10
goods 10
lines 10
butter 10
ve 10
interest 10
useful 10
qu@@ 10
ir@@ 10
st 10
patience 10
seven 10
teaching 10
favourite 10
subject 10
bite 10
plans 10
caused 10
tt@@ 10
candy 10
owes 10
gr@@ 10
secrets 10
hiding 10
bi@@ 10
pond 10
eng@@ 10
meal 10
stri@@ 10
standing 10
fault 10
earthquake 10
nonsense 10
convinced 10
innocent 10
pl@@ 10
ens 10
add 10
ings 10
star 10
firm 10
parked 10
opportunity 10
ned 10
walks 10
believed 10
happens 10
calm 10
math 10
excited 10
arms 10
pped 10
autumn 10
rains 10
improve 10
physical 10
danced 10
contract 10
determined 10
mad 10
policeman 10
bear 10
ins 10
illness 10
ved 10
rarely 10
smile 10
ker 10
tells 10
hole 10
smaller 10
Europe 10
bedroom 10
data 10
support 10
huge 10
gold 10
president 10
fo@@ 10
ar 10
drop 10
cool 10
pushed 10
becoming 10
bird 10
pres@@ 10
share 10
friendly 10
smells 10
mel@@ 10
gotten 10
cheese 10
stories 10
parties 10
led 10
beef 10
av@@ 10
ahead 10
exam 10
due 10
ching 10
control 10
fully 10
results 10
state 10
offer 10
ver 10
soldiers 10
color 10
losing 10
evidence 10
forever 10
bar 10
average 10
f 10
bank 10
traveling 10
anywhere 10
drinks 10
clearly 10
singing 10
bur@@ 10
ply 10
blame 10
lied 10
nature 10
def@@ 10
followed 10
chocolate 10
stopping 10
de 10
squirrels 10
zoo 10
11 10
ence 10
ably 10
salt 10
sat 10
listened 10
cards 10
ns 10
conf@@ 10
fool 10
ol@@ 10
Smith 10
paying 10
concert 10
tie 10
generation 10
appointment 10
boss 10
helps 10
tion 10
su@@ 10
direct 10
mu@@ 10
cur@@ 10
succeed 10
sleepy 10
camera 10
bu@@ 10
magazine 10
welcome 10
tor 10
arrested 10
cu@@ 10
recognize 10
piggy 10
upon 10
shi@@ 10
clever 10
ake 10
ors 10
absolutely 10
fired 10
lonely 10
wears 10
round 10
suspect 10
deny 10
built 10
exhausted 10
stood 10
brothers 10
delicious 10
hammer 10
doors 10
calling 10
ge@@ 10
ness 10
ely 10
soccer 10
likely 10
terribly 10
waited 10
somebody 10
cri@@ 8
forgotten 8
solution 8
frankly 8
locked 8
scientists 8
mon@@ 8
sunny 8
cruel 8
ward 8
ignore 8
effect 8
happiness 8
washed 8
egg 8
thousand 8
boo@@ 8
gathered 8
request 8
symbol 8
kissing 8
picnic 8
aggressive 8
smo@@ 8
simple 8
hello 8
believes 8
weird 8
China 8
ains 8
hell 8
among 8
horse 8
issue 8
spending 8
nu@@ 8
unless 8
car@@ 8
password 8
zed 8
society 8
boring 8
char@@ 8
exc@@ 8
behave 8
fallen 8
younger 8
pt 8
moved 8
card 8
possibility 8
removed 8
ushed 8
captain 8
Russian 8
gonna 8
wind 8
Bob 8
ali@@ 8
giving 8
discount 8
ty@@ 8
India 8
oun@@ 8
troubles 8
pleasure 8
bottles 8
local 8
hom@@ 8
ia 8
ease 8
beauty 8
sixty 8
plane 8
potatoes 8
musician 8
War 8
remind 8
id 8
lock 8
insurance 8
tre@@ 8
ment 8
deeply 8
wide 8
terms 8
concerned 8
dry 8
Linda 8
ghosts 8
mess 8
Brazil 8
vi@@ 8
cinema 8
curtain 8
crisis 8
middle 8
ine 8
count 8
hero 8
weak 8
badly 8
keeping 8
afford 8
empty 8
feed 8
properly 8
brain 8
population 8
less@@ 8
punished 8
lay 8
se 8
cousin 8
cs 8
available 8
ces 8
slipped 8
position 8
fu@@ 8
hadn 8
bored 8
intended 8
hand@@ 8
ping 8
eats 8
comment 8
rice 8
entered 8
advantage 8
philosophy 8
pr@@ 8
crossed 8
Ho@@ 8
beating 8
valid 8
hi@@ 8
suggest 8
foreign 8
burned 8
reached 8
wood 8
ended 8
blind 8
wondering 8
songs 8
clock 8
flies 8
appearance 8
save 8
The 8
translations 8
shame 8
acted 8
sensitive 8
cal 8
god 8
Susan 8
act 8
polite 8
slowly 8
r 8
grew 8
sex 8
sun@@ 8
aff@@ 8
lic@@ 8
ils 8
temperature 8
cally 8
rec@@ 8
healthy 8
doubts 8
ement 8
awesome 8
ag@@ 8
permission 8
pie 8
bre@@ 8
postcard 8
holiday 8
vase 8
repaired 8
faith 8
rule 8
salad 8
fl@@ 8
promised 8
whale 8
ap 8
imagine 8
special 8
ea@@ 8
sad 8
rank 8
instead 8
ler 8
contributor 8
changes 8
breath 8
active 8
dishes 8
showed 8
dating 8
anger 8
hobby 8
regret 8
President 8
ugly 8
highly 8
ish 8
birds 8
solved 8
ni@@ 8
ously 8
dream@@ 8
clu@@ 8
paint 8
headache 8
schedule 8
hu@@ 8
coward 8
objective 8
neighbors 8
prove 8
sport 8
enter 8
brush 8
off@@ 8
ety 8
ented 8
political 8
opening 8
tongue 8
risk 8
European 8
il 8
draw 8
evolution 8
tes 8
flat 8
ren@@ 8
passport 8
introduced 8
object 8
giant 8
5 8
alcohol 8
mor@@ 8
comic 8
shelf 8
staying 8
knives 8
prepare 8
film 8
no@@ 8
voice 8
oranges 8
selfish 8
daughters 8
economy 8
book@@ 8
heat 8
engineers 8
cover 8
dressed 8
attacked 8
pressure 8
pants 8
guilty 8
London 8
related 8
ground 8
ability 8
green 8
a.m 8
lights 8
sandwich 8
cancer 8
pack 8
created 8
poem 8
introduce 8
hon@@ 8
fucking 8
sports 8
ner 8
and@@ 8
evil 8
ice 8
packed 8
committed 8
mathematics 8
higher 8
ship 8
belief 8
nose 8
ruined 8
sofa 8
crowd 8
hes 8
x 8
tru@@ 8
rise 8
spell 8
cks 8
American 8
existence 8
judge 8
2 8
begin 8
L@@ 8
crush 8
ast 8
ently 8
det@@ 8
moon 8
jealous 8
vegetables 8
suddenly 8
Kate 8
ments 8
twenty 8
ily 8
ple 8
princess 8
wee 8
skirt 8
ection 8
condition 8
apart 8
- 8
hang 8
ang@@ 8
entire 8
pas@@ 8
rights 8
don@@ 8
Ju@@ 8
phenomenon 8
baseball 8
copies 8
thick 8
ations 8
create 8
soft 8
ceremony 8
angles 8
washing 8
gi@@ 8
hanging 8
bs 8
ten@@ 8
mate 8
ur@@ 8
guitar 8
step 8
rob@@ 8
guests 8
denied 8
sur@@ 8
refl@@ 8
failure 8
equal 8
spot 8
group 8
els 8
rumor 8
saved 8
spread 8
especially 8
winning 8
airport 8
ow@@ 8
raised 8
hun@@ 8
total 8
Jim 8
sen@@ 8
ality 8
here@@ 6
events 6
treat 6
online 6
cl@@ 6
puzzle 6
generally 6
raw 6
strangers 6
cli@@ 6
discussed 6
nor 6
addicted 6
definite 6
apartment 6
club 6
ed@@ 6
rely 6
becomes 6
solid 6
modern 6
liking 6
rained 6
futon 6
scary 6
chess 6
cured 6
knock 6
guessed 6
far@@ 6
mer 6
jail 6
security 6
tear 6
reality 6
surprise 6
peanuts 6
appear 6
poison 6
nerve 6
hates 6
transl@@ 6
addressed 6
drove 6
saving 6
dro@@ 6
genius 6
lover 6
noise 6
tiny 6
toward 6
walking 6
tive 6
Nancy 6
bound 6
hypothesis 6
sons 6
rescued 6
agre@@ 6
chat 6
pardon 6
silly 6
feels 6
ority 6
mer@@ 6
garage 6
taxes 6
praised 6
courage 6
belong 6
laptop 6
cho@@ 6
blo@@ 6
om@@ 6
explained 6
postpone 6
destination 6
border 6
trunk 6
scissors 6
shorter 6
straight 6
notice 6
despise 6
exact 6
J@@ 6
April 6
ent@@ 6
roof 6
dri@@ 6
pping 6
deprived 6
proposed 6
blanket 6
stolen 6
pic@@ 6
science 6
l 6
artificial 6
cab 6
duty 6
concern 6
nap 6
pow@@ 6
bigger 6
sto@@ 6
repair 6
slip 6
atom@@ 6
ends 6
recently 6
humor 6
vent 6
super 6
ver@@ 6
effective 6
swear 6
statue 6
resistance 6
fighting 6
tent 6
att@@ 6
storm 6
timid 6
dropped 6
oil 6
ged 6
nuts 6
deserves 6
added 6
ave 6
abundance 6
trapped 6
ati@@ 6
complex 6
obviously 6
volunteered 6
gift 6
increas@@ 6
prof@@ 6
explanation 6
poured 6
loud 6
furniture 6
le@@ 6
field 6
construction 6
entirely 6
larger 6
rose 6
accent 6
teachers 6
10@@ 6
insan@@ 6
rough 6
pizza 6
ge 6
increased 6
itted 6
ll@@ 6
perfectly 6
Tower 6
chosen 6
gentleman 6
he@@ 6
ghts 6
imagination 6
admit 6
us@@ 6
un 6
gold@@ 6
Gre@@ 6
stranger 6
fro@@ 6
poet 6
wn 6
begins 6
crime 6
cheer 6
decor@@ 6
requires 6
tunnel 6
earlier 6
authority 6
virus 6
sol@@ 6
pickpockets 6
et 6
Union 6
command 6
sour 6
pleasant 6
service 6
disgusting 6
ade 6
gradu@@ 6
discovered 6
easier 6
meals 6
Australian 6
me@@ 6
ow 6
kid 6
tering 6
Grand@@ 6
established 6
race 6
cked 6
determination 6
ical 6
houses 6
heroin 6
wea@@ 6
closely 6
grandma 6
stepped 6
T 6
director 6
tallest 6
whichever 6
all@@ 6
handed 6
wherever 6
complaints 6
fil@@ 6
further 6
endure 6
respond 6
repeat 6
warrior 6
perseverance 6
wasting 6
bone 6
gotta 6
engagement 6
architect 6
salary 6
consu@@ 6
ging 6
illegal 6
goodbye 6
managed 6
tioned 6
gu@@ 6
ards 6
proper 6
clo@@ 6
cheating 6
resist 6
celebrate 6
fol@@ 6
tal@@ 6
impact 6
duck 6
answered 6
operate 6
mammal 6
survivors 6
mat@@ 6
series 6
rooms 6
fi@@ 6
conduct 6
cor@@ 6
stru@@ 6
plu@@ 6
studied 6
advanced 6
status 6
seventy 6
classes 6
dy 6
products 6
Nations 6
iron 6
recommend 6
faults 6
cookies 6
mature 6
poems 6
concentrate 6
manual 6
ants 6
activity 6
income 6
barking 6
loses 6
express 6
gs 6
entrance 6
apologized 6
eg@@ 6
Canada 6
level 6
victory 6
friendship 6
ian 6
bug 6
ll 6
error 6
forecast 6
link 6
rum@@ 6
pencil 6
spends 6
wat@@ 6
meat 6
direction 6
misunderstanding 6
sli@@ 6
vide@@ 6
ws 6
options 6
strength 6
photos 6
2@@ 6
ster 6
citizens 6
practical 6
lack 6
contrary 6
itself 6
demanded 6
sup@@ 6
arm 6
ai@@ 6
drowned 6
lifetime 6
billi@@ 6
assume 6
joke 6
liters 6
id@@ 6
foot 6
examination 6
professor 6
pon@@ 6
operation 6
mechan@@ 6
dar@@ 6
clouds 6
cleaned 6
hung 6
Columbus 6
term 6
fond 6
swe@@ 6
eter 6
pregnant 6
professional 6
sting 6
ines 6
remar@@ 6
ble 6
daily 6
website 6
criminal 6
picked 6
intend 6
minimum 6
global 6
pat@@ 6
No@@ 6
mos@@ 6
oes 6
odd 6
cas@@ 6
tles 6
rabbits 6
ignored 6
ills 6
shou@@ 6
fluent 6
Pro@@ 6
ounded 6
mouth 6
bas@@ 6
supported 6
native 6
apped 6
eighteen 6
main 6
sis 6
magazines 6
cash 6
exp@@ 6
Al@@ 6
star@@ 6
trusted 6
amazing 6
nearly 6
realized 6
i 6
regularly 6
covered 6
orange 6
honey 6
certainly 6
cream 6
safety 6
coun@@ 6
barely 6
rang 6
materi@@ 6
appetite 6
mistaken 6
sitting 6
nations 6
writer 6
culture 6
gre@@ 6
congratulations 6
jud@@ 6
ram@@ 6
ize 6
sudden 6
shine 6
practi@@ 6
U@@ 6
crossing 6
themselves 6
medal 6
accepted 6
mistook 6
damaged 6
faithful 6
credit 6
anxious 6
carefully 6
K@@ 6
belongs 6
complicated 6
apples 6
borrowed 6
aunt 6
text 6
itting 6
stuff 6
ordered 6
ma 6
suicide 6
forbidden 6
shock 6
2013 6
smell 6
ocean 6
century 6
gay 6
remain 6
officer 6
sk@@ 6
remained 6
survive 6
heavily 6
spider 6
az@@ 6
Thomas 6
crashed 6
mit 6
sion 6
dirty 6
stone 6
ure 6
guide 6
organized 6
calls 6
rocks 6
argu@@ 6
supermarket 6
gas 6
football 6
dentist 6
fair 6
finger 6
Latin 6
plain 6
aside 6
King 6
ain 6
dried 6
shit 6
Paul 6
mercy 6
jack 6
prevented 6
bags 6
pollution 6
countryside 6
shopping 6
wi@@ 6
This 6
besides 6
master 6
um 6
international 6
Italian 6
stronger 6
tickets 6
sweet 6
handsome 6
wheel 6
flying 6
alternative 6
path 6
instructions 6
7 6
member 6
planning 6
lately 6
habit 6
shar@@ 6
downtown 6
medi@@ 6
aved 6
hoping 6
go@@ 6
musical 6
painful 6
warn 6
approve 6
understanding 6
,000 6
lying 6
cafeteria 6
hel@@ 6
phones 6
scre@@ 6
aimed 6
target 6
acid 6
reads 6
ouse 6
correctly 6
result 6
wealthy 6
geniuses 6
smiling 6
pills 6
sno@@ 6
wed 6
precious 6
fore@@ 6
poverty 6
land@@ 6
ard 6
Sun 6
yourselves 6
desire 6
persuade 6
kno@@ 6
miracle 6
whom 6
3 6
ained 6
nearest 6
ink 6
machine 6
battle 6
major 6
role 6
taught 6
op@@ 6
20@@ 6
site 6
man@@ 6
lum@@ 6
weapon 6
decei@@ 6
enjoys 6
ok 6
eal 6
beaten 6
doubt 6
lady 6
faces 6
las@@ 6
zero 6
ju@@ 6
ank 6
exchange 6
lovely 6
ders 6
den@@ 6
everyday 6
ight 6
ropes 6
lam@@ 6
ect 6
laid 6
occasion 6
skinny 6
jeans 6
equ@@ 6
scholar 6
independent 6
thief 6
dear 6
Kyoto 6
private 6
necessarily 6
environment 6
bal@@ 6
kers 6
med 6
thunder 6
ending 6
cru@@ 6
majority 6
eventually 6
Algeria 6
resources 6
.@@ 6
type 6
departure 6
letting 6
workers 6
fuel 6
conversation 6
wisdom 6
psychic 6
Repetition 6
thy 6
tends 6
attack 6
nam@@ 6
thousands 6
chair 6
studies 6
streets 6
pu@@ 6
stock 6
challenge 6
responsibility 6
third 6
unknown 6
shaking 6
stick 6
bees 6
elect 6
band 6
sisters 6
worn 6
tery 6
subway 6
ha 6
ceiling 6
war@@ 6
hur@@ 6
ric 6
justice 6
product 6
complaining 6
tiger 6
fashi@@ 4
spare 4
pec@@ 4
butt@@ 4
sil@@ 4
cloud 4
unlikely 4
cism 4
tary 4
rays 4
partially 4
blin@@ 4
harvest 4
compu@@ 4
Invite 4
jum@@ 4
onto 4
moving 4
required 4
educ@@ 4
vain 4
rifle 4
insist@@ 4
neither 4
discovery 4
finite 4
rented 4
compelled 4
pull@@ 4
ank@@ 4
ero@@ 4
US 4
occurred 4
swim@@ 4
squirrel 4
honeymoon 4
free@@ 4
ambulance 4
lion 4
jacket 4
sai@@ 4
rubbish 4
Kobe 4
costume 4
ackers 4
fac@@ 4
difficulties 4
whites 4
ff 4
estimate 4
damage 4
horrible 4
whenever 4
hal@@ 4
handful 4
300 4
contribute 4
inqu@@ 4
Cairo 4
pianist 4
extremely 4
sheer 4
madness 4
wanting 4
ingenious 4
flat@@ 4
N@@ 4
ultimate 4
consum@@ 4
ption 4
grab 4
wee@@ 4
wet 4
pull 4
arti@@ 4
ev@@ 4
gar@@ 4
cried 4
opera 4
attitude 4
violin 4
Mike 4
chairperson 4
bus@@ 4
happier 4
unemployed 4
manner 4
expectations 4
instruc@@ 4
textbook 4
exam@@ 4
volunte@@ 4
dered 4
north 4
ax 4
digital 4
wrapped 4
shin@@ 4
heavens 4
except 4
Y2K 4
hiking 4
hair@@ 4
style 4
meanings 4
ods 4
high@@ 4
ley 4
puts 4
ister 4
Par@@ 4
buying 4
dresses 4
funds 4
biolog@@ 4
complain 4
cro@@ 4
appears 4
eli@@ 4
dist@@ 4
anced 4
tor@@ 4
ise 4
Ken 4
An@@ 4
Sun@@ 4
tants 4
Droplets 4
plural 4
reh@@ 4
spo@@ 4
marketing 4
ick@@ 4
humiliated 4
fate 4
devil 4
bit@@ 4
map 4
cross 4
fertiliz@@ 4
visible 4
microscope 4
poor@@ 4
corpus 4
copy@@ 4
chec@@ 4
headed 4
ci@@ 4
action 4
four@@ 4
November 4
elev@@ 4
ember 4
blowing 4
witness 4
envy 4
meaning 4
knowledge 4
rac@@ 4
ket 4
speci@@ 4
wool 4
searching 4
wel@@ 4
politician 4
champagne 4
alist 4
search 4
May 4
5@@ 4
emergency 4
Hey 4
ched 4
issues 4
acked 4
biggest 4
fresh 4
salted 4
memorize 4
sacred 4
errors 4
mostly 4
peaceful 4
pick 4
urgent 4
diagno@@ 4
press 4
absurd 4
shocked 4
teenagers 4
itate 4
rap@@ 4
pend@@ 4
swinging 4
weigh 4
poun@@ 4
scr@@ 4
ny 4
teenager 4
wasted 4
steps 4
mention 4
poli@@ 4
hall 4
proved 4
brain@@ 4
center 4
stands 4
World 4
Anne 4
Green 4
distributed 4
olish 4
tro@@ 4
rab@@ 4
tetanus 4
vo@@ 4
nasty 4
fellow 4
assure 4
hated 4
uneasy 4
presence 4
property 4
ancho@@ 4
seldom 4
orders 4
punishment 4
str@@ 4
chapter 4
produced 4
cabb@@ 4
witn@@ 4
compar@@ 4
urged 4
shoulder 4
leg@@ 4
forgetting 4
In@@ 4
eared 4
outer 4
pretend 4
ately 4
detailed 4
tle 4
bow@@ 4
bath 4
yo@@ 4
towards 4
pieces 4
sale 4
disappeared 4
amused 4
rewar@@ 4
experiences 4
consi@@ 4
incre@@ 4
ase 4
narrow 4
fried 4
overlooked 4
absolute 4
Sou@@ 4
ide@@ 4
Christi@@ 4
fen@@ 4
shoot 4
tered 4
greatly 4
Osaka 4
sweep 4
answers 4
dolls 4
hy@@ 4
seconds 4
ke 4
heart@@ 4
burn 4
Au@@ 4
lor 4
Eiffel 4
invention 4
elling 4
grass 4
bare 4
awoke 4
ordering 4
her@@ 4
travel@@ 4
blankets 4
pho@@ 4
follows 4
paintings 4
susp@@ 4
ironed 4
differences 4
alternatives 4
devastated 4
corner 4
af@@ 4
fluently 4
bananas 4
scientist 4
coll@@ 4
Helen 4
deaf 4
dumb 4
anyway 4
softly 4
arrogance 4
insuff@@ 4
erable 4
Researchers 4
square 4
dea@@ 4
met@@ 4
wall 4
woods 4
was@@ 4
poisonous 4
proof 4
supportive 4
drawing 4
chi@@ 4
ef 4
pocket 4
anti@@ 4
athe@@ 4
shoe 4
appro@@ 4
accustomed 4
Tur@@ 4
seeds 4
benefits 4
os 4
confidence 4
admired 4
Pythagoras 4
Magic 4
numbers 4
comfort 4
lict 4
torrents 4
sympathize 4
100 4
degrees 4
grade 4
celebr@@ 4
pigeons 4
examined 4
fif@@ 4
misery 4
meets 4
soldering 4
components 4
appointed 4
improved 4
foot@@ 4
prints 4
prisoner 4
White 4
sweaty 4
asking 4
replac@@ 4
mag@@ 4
butter@@ 4
diplom@@ 4
acy 4
blings 4
irregular 4
mere 4
lap 4
barks 4
tail 4
separatists 4
kidding 4
applying 4
cal@@ 4
defeated 4
suitcase 4
ig@@ 4
rin@@ 4
toy 4
cure 4
pa@@ 4
trol@@ 4
bush 4
obey 4
stare 4
nine 4
supplies 4
civil 4
sow 4
measure 4
ey@@ 4
leaf 4
cau@@ 4
passing 4
alistic 4
curiosity 4
inspired 4
career 4
seas@@ 4
class@@ 4
robot 4
arriving 4
replace 4
pin 4
countless 4
lar@@ 4
method 4
patent 4
ind@@ 4
ggle 4
ign 4
acceptable 4
buil@@ 4
chea@@ 4
sin@@ 4
leather 4
Mar@@ 4
dge 4
compromise 4
disas@@ 4
fake 4
colours 4
atives 4
anged 4
ce@@ 4
praise 4
management 4
threatened 4
force 4
intelligence 4
theatre 4
Mondays 4
ble@@ 4
characters 4
coins 4
athlete 4
anci@@ 4
ado@@ 4
pair 4
sharp 4
ven 4
mystery 4
author 4
teen 4
4 4
p.@@ 4
of@@ 4
sake 4
L 4
load@@ 4
auth@@ 4
ori@@ 4
deciding 4
athletic 4
pal 4
attr@@ 4
danger@@ 4
valuable 4
handled 4
disco@@ 4
regarded 4
messed 4
chain 4
eas@@ 4
cancel@@ 4
bes 4
Turkey 4
sy 4
neighbor 4
nowhere 4
obliged 4
mea@@ 4
sir 4
Chile 4
mountains 4
murder 4
bes@@ 4
ot@@ 4
places 4
dialect 4
divorced 4
closest 4
miles 4
quali@@ 4
lun@@ 4
risked 4
stacked 4
pleasures 4
fog 4
Ear@@ 4
customers 4
trade 4
cat@@ 4
bel@@ 4
Achieving 4
weld 4
bead 4
insul@@ 4
alibi 4
favorable 4
congratulate 4
alert 4
sam@@ 4
biting 4
nails 4
smarter 4
Bri@@ 4
cheated 4
translation 4
tourists 4
standards 4
argue 4
human@@ 4
maid 4
ient 4
ideas 4
cer@@ 4
advertising 4
stand@@ 4
ell 4
wrinkled 4
smashed 4
Hungarian 4
sprang 4
counting 4
deli@@ 4
ep@@ 4
tem@@ 4
multilingu@@ 4
herit@@ 4
alism 4
encourage 4
â€‹ 4
tool 4
community 4
promo@@ 4
appreci@@ 4
ew 4
ancestors 4
150 4
ie 4
hang@@ 4
communism 4
some@@ 4
1@@ 4
bullet 4
mark 4
castle 4
spectators 4
ken 4
charges 4
uncomfortable 4
flo@@ 4
win@@ 4
Nor@@ 4
ism 4
trac@@ 4
cultures 4
spite 4
awn 4
joy 4
( 4
) 4
sharpen 4
divorce 4
Christopher 4
general 4
customs 4
fucked 4
shaken 4
barbecue 4
lemons 4
dun@@ 4
habits 4
vated 4
wanna 4
Whoever 4
fairly 4
Dis@@ 4
taste 4
contribu@@ 4
value 4
crutches 4
bleeding 4
Unbelievable 4
announ@@ 4
repor@@ 4
recent 4
grow@@ 4
developed 4
virgin 4
fed 4
escaped 4
comments 4
twelve 4
climb 4
fridge 4
genuine 4
diamond 4
root 4
located 4
sor@@ 4
sphere 4
residential 4
warming 4
fs 4
ah 4
behavior 4
toothache 4
college 4
flash@@ 4
diplomat 4
confiscated 4
Peter 4
player 4
personal 4
profit 4
scolded 4
wh@@ 4
40 4
expecting 4
D 4
hardest 4
gunshot 4
carried 4
speaker 4
sn@@ 4
illed 4
leader 4
power@@ 4
settled 4
shed 4
recommended 4
nec@@ 4
super@@ 4
flu@@ 4
distant 4
causes 4
injury 4
diseases 4
scri@@ 4
beauti@@ 4
flight 4
oper@@ 4
cent 4
arguing 4
false 4
vacations 4
harm 4
Mayuko 4
decent 4
van@@ 4
pain@@ 4
ill@@ 4
hor@@ 4
revenge 4
disgu@@ 4
val@@ 4
edic@@ 4
tori@@ 4
retarded 4
torture 4
steak 4
encounter 4
amp 4
ays 4
vers 4
laugh 4
vital 4
Indeed 4
birth 4
pill 4
loan 4
hol@@ 4
scarf 4
volcan@@ 4
earthquakes 4
tas@@ 4
bitter 4
advertisements 4
vote 4
spee@@ 4
flavor 4
reques@@ 4
ire 4
texting 4
content 4
Charles 4
bliss 4
puzz@@ 4
separate 4
Israel 4
whi@@ 4
plash 4
shu@@ 4
ff@@ 4
foc@@ 4
productive 4
devoted 4
describe 4
icial 4
discharged 4
unfor@@ 4
conspiracy 4
educated 4
separ@@ 4
cares 4
Cleopatra 4
sle@@ 4
effects 4
halfway 4
tour 4
cities 4
dish@@ 4
shor@@ 4
appealed 4
effort 4
However 4
dd@@ 4
practicing 4
permit 4
medic@@ 4
discover 4
honesty 4
skipped 4
classroom 4
percent 4
millionaire 4
stre@@ 4
tched 4
spicy 4
forgiven 4
breasts 4
buttocks 4
Marie 4
event 4
volu@@ 4
insulting 4
assaul@@ 4
surr@@ 4
thr@@ 4
Mennad 4
recipe 4
instant 4
access 4
distur@@ 4
breaking 4
regi@@ 4
Africa 4
tom@@ 4
carri@@ 4
liber@@ 4
tempted 4
urinating 4
areas 4
nation@@ 4
debt 4
ees 4
Moscow 4
helpful 4
horrified 4
various 4
trap 4
disobeyed 4
ior 4
ump@@ 4
tire 4
jumped 4
finger@@ 4
yellow 4
9 4
Jones 4
awai@@ 4
note 4
eiv@@ 4
fix@@ 4
ture 4
weighs 4
assistant 4
ili@@ 4
low@@ 4
col@@ 4
eighty 4
dessert 4
bath@@ 4
chunks 4
grapes 4
goo@@ 4
ey 4
cky 4
ut 4
marshmallows 4
laughter 4
suffered 4
female 4
bars 4
Year 4
wri@@ 4
ries 4
hid 4
Pen@@ 4
benefit 4
based 4
assumptions 4
posted 4
corrected 4
YouTube 4
temptation 4
personality 4
ols 4
Saturday 4
needn 4
cont@@ 4
differs 4
thro@@ 4
ddly 4
spy 4
read@@ 4
skip 4
deep 4
court 4
abstract 4
USA 4
ta@@ 4
moral 4
dieting 4
qui@@ 4
beings 4
jogging 4
ug@@ 4
ust 4
Royal 4
observe 4
sacrifices 4
accompli@@ 4
tendency 4
flags 4
quar@@ 4
explode 4
technology 4
Egyptian 4
pyramids 4
ky 4
Alger@@ 4
deceptive 4
threat 4
anks 4
show@@ 4
sink 4
garlic 4
instantly 4
labor 4
dam@@ 4
betray 4
gambling 4
USB 4
eer 4
apping 4
roast 4
And 4
morgue 4
pretended 4
throne 4
mum 4
impatient 4
relieved 4
gement 4
services 4
risks 4
contented 4
secretary 4
plo@@ 4
loop 4
wars 4
blonde 4
University 4
consequences 4
bygones 4
relation@@ 4
breaks 4
len@@ 4
chose 4
present@@ 4
complaint 4
internet 4
Apparently 4
Yokohama 4
pis@@ 4
ung 4
fle@@ 4
LO@@ 4
proposes 4
turns 4
comp@@ 4
surgery 4
stalling 4
regard 4
original 4
balls 4
tight 4
open@@ 4
rational 4
brave 4
distinguish 4
enormous 4
foss@@ 4
gues 4
ligh@@ 4
shap@@ 4
success@@ 4
someday 4
winds 4
suitable 4
downstairs 4
stamp 4
conc@@ 4
luggage 4
paycheck 4
knees 4
rush 4
pronounce 4
companions 4
ra@@ 4
attend 4
trusting 4
span 4
setbacks 4
abandoned 4
victim 4
dings 4
beard 4
automobile 4
rescue 4
mastered 4
keeper 4
wider 4
audience 4
chairs 4
advance 4
movement 4
permanent 4
peace 4
sorrow 4
whis@@ 4
moves 4
troubl@@ 4
cloudy 4
noon 4
hood 4
tea@@ 4
choo@@ 4
yen 4
cam@@ 4
financial 4
adviser 4
artist 4
hunch 4
ference 4
Arabic 4
nickname 4
concentr@@ 4
plant 4
desig@@ 4
preserve 4
trumpet 4
hits 4
nail 4
awkward 4
grounds 4
requ@@ 4
revolution 4
seasons 4
bly 4
behaving 4
skiing 4
notebook 4
Pee@@ 4
rainbow 4
pes 4
pronunciation 4
panc@@ 4
previous 4
experienced 4
ents 4
aching 4
dle 4
thus 4
joking 4
staring 4
lea@@ 4
wreck 4
quarter 4
ou@@ 4
speeding 4
leaped 4
naive 4
neighborhood 4
eager 4
negoti@@ 4
purpose 4
abducted 4
wol@@ 4
intention 4
scratching 4
extra 4
lowing 4
leisure 4
urges 4
pot 4
Cro@@ 4
zen 4
forehead 4
Maria 4
main@@ 4
shooting 4
ordinary 4
ghost 4
board 4
leftovers 4
refres@@ 4
vable 4
reliable 4
slain 4
hilltop 4
expenses 4
prettiest 4
rings 4
travels 4
factory 4
culate 4
capital 4
cancel 4
tack 4
founded 4
cul@@ 4
tur@@ 4
social 4
ji 4
affairs 4
rare 4
curious 4
giants 4
tou@@ 4
crowded 4
M 4
blow 4
fr@@ 4
fries 4
akes 4
uses 4
bunch 4
widow 4
ban@@ 4
ls 4
ender 4
lin@@ 4
loving 4
vering 4
bloody 4
seemed 4
Chopin 4
treats 4
ore@@ 4
allows 4
sank 4
stomach 4
embarrassing 4
scho@@ 4
attend@@ 4
improving 4
expressions 4
subj@@ 4
heels 4
opposite 4
invol@@ 4
remo@@ 4
bearing 4
violent 4
inv@@ 4
avo@@ 4
composed 4
critical 4
cated 4
inclu@@ 4
software 4
ambition 4
ferred 4
clap 4
endings 4
sandwiches 4
example 4
ery 4
circumstances 4
hearing 4
tis@@ 4
favor 4
defeat 4
soldier 4
bra 4
fre@@ 4
sa@@ 4
transported 4
anno@@ 4
rage 4
occur 4
swam 4
Bur@@ 4
ese 4
bat@@ 4
thirteen 4
ians 4
ggled 4
Germans 4
tos@@ 4
hen 4
closet 4
ther@@ 4
eum 4
impression 4
ne@@ 4
Bye 4
jokes 4
ste@@ 4
ck@@ 4
lat@@ 4
immediate 4
freak 4
page 4
tow@@ 4
dem@@ 4
ocracy 4
remin@@ 4
Central 4
monkey 4
dia 4
offended 4
identi@@ 4
dreams 4
explosion 4
aware 4
reti@@ 4
disagree 4
happiest 4
electricity 4
arse 4
stain 4
ton@@ 4
sounding 4
practice 4
talent 4
dness 4
sers 4
WhatsApp 4
Group 4
ddle 4
Con@@ 4
clusterfuck 4
dict 4
discuss 4
enjoyed 4
bridge 4
communication 4
joined 4
neck 4
absor@@ 4
jo@@ 4
See 4
ys 4
opinions 4
Ito 4
relief 4
jobs 4
brings 4
bastard 4
eased 4
aft 4
ion 4
rust@@ 4
June 4
temper 4
tune 4
Suck@@ 4
relaxed 4
pur@@ 4
pos@@ 4
otic 4
model 4
saf@@ 4
immortal 4
dreaming 4
midnight 4
exit 4
beg@@ 4
retired 4
destro@@ 4
Mo@@ 4
hoo@@ 4
wai@@ 4
dic@@ 4
tan@@ 4
Canadi@@ 4
pump 4
contain 4
diet 4
unhealthy 4
resourceful 4
saint 4
religion 4
beyond 4
criti@@ 4
gg@@ 4
ects 4
jellyfish 4
athed 4
gh 4
beginners 4
ack 4
provi@@ 4
uniforms 4
slid 4
Tanaka 4
Fill 4
invincible 4
thence 4
wound 4
bowed 4
spiri@@ 4
manage 4
forty 4
Que@@ 4
asp 4
esti@@ 4
image 4
pil@@ 4
eth 4
discourage 4
ct 4
debate 4
survival 4
capture 4
eness 4
15 4
cel@@ 4
forest 4
glory 4
blocked 4
rug 4
roll@@ 4
contin@@ 4
up@@ 4
frightened 4
form@@ 4
tation 4
character 4
wil@@ 4
delayed 4
eek 4
playground 4
receive 4
Ch@@ 4
nel 4
blackboard 4
cation 4
enti@@ 4
eu@@ 4
pretending 4
beggars 4
hill 4
lar 4
spin@@ 4
aggression 4
disliked 4
socks 4
loo@@ 4
charged 4
hers 4
jury 4
steering 4
essay 4
dust 4
arrest 4
blam@@ 4
suffer 4
Mus@@ 4
ecting 4
southern 4
refuse 4
tw@@ 4
eleph@@ 4
interests 4
beans 4
sciences 4
sm@@ 4
mas@@ 4
amount 4
farm 4
dges 4
zing 4
V@@ 4
paused 4
smiled 4
section 4
En@@ 4
wild@@ 4
conclusions 4
collected 4
parti@@ 4
pressed 4
ignorance 4
abuse 4
bounce 4
Mars 4
alty 4
visit@@ 4
asks 4
wim@@ 4
crap 4
estimated 4
