. 16693
de 7162
a 3930
la 3907
je 3749
est 3179
the 3163
@-@ 2993
pas 2913
? 2895
l&apos; 2882
, 2783
vous 2595
que 2526
il 2462
le 2458
to 2351
Ã 2266
&apos; 2077
ne 1983
en 1721
n&apos; 1685
Tom 1650
of 1633
un 1566
ce 1536
tu 1414
les 1403
j&apos; 1388
ai 1309
I 1242
you 1242
une 1241
me 1163
nous 1068
d&apos; 902
t 896
elle 873
is 856
suis 851
des 850
faire 794
! 783
train 770
in 751
qu&apos; 748
et 736
plus 726
pour 719
c&apos; 689
fait 679
&quot; 656
do 643
have 634
dans 629
qui 594
s 588
Ã§a 582
I@@ 553
Ãªtre 547
Ã©tait 541
be 515
he 510
m&apos; 509
sont 509
as 507
mon 504
Ã©tÃ© 484
that 481
y 478
si 472
s&apos; 466
tout 459
was 454
moi 446
air 445
vie 433
get 432
temps 431
son 429
avec 409
du 407
ont 400
au 400
this 391
don@@ 387
ils 385
it 384
Ãªtes 381
se 380
votre 375
chose 361
te 359
my 350
avez 345
m 341
cette 341
veux 336
on 327
trÃ¨s 326
sur 324
dit 315
aide 308
not 298
peux 297
are 294
lui 292
know 288
your 285
sa 276
it@@ 274
re 271
grand 266
what 264
for 262
and 261
all 258
time 252
pourquoi 252
you@@ 250
mais 246
oÃ¹ 244
we 241
his 240
avons 240
par 239
ll 238
pense 236
es 236
she 234
comment 234
ici 232
monde 232
go 231
dire 231
autre 231
ma 228
maison 227
with 223
comme 221
homme 221
sais 217
tous 212
jamais 212
going 209
like 209
out 209
gens 208
want 205
parler 205
Mary 203
way 201
beaucoup 199
deux 198
him 197
voir 197
mÃªme 196
trop 194
lot 192
avoir 192
sommes 188
bien 186
Ã©cole 185
petite 183
Ã©tais 182
vraiment 182
avait 180
there 178
quelque 176
quand 174
aime 174
besoin 173
has 172
very 171
aller 171
toi 169
peut 168
more 165
bon 164
argent 163
voiture 162
encore 161
plaÃ®t 160
can 159
good 159
t&apos; 159
tell 154
peu 154
at 152
va 152
had 149
personne 148
how 147
bonne 147
think 146
notre 146
Marie 146
ses 143
little 141
eau 141
vu 139
if 138
yeux 138
ou 136
rien 136
fois 135
langue 134
aussi 134
just 133
ton 132
her 131
we@@ 131
cela 131
vais 130
maintenant 130
autres 130
toujours 130
lÃ 130
dois 128
no 127
nuit 127
dÃ©jÃ 127
did 126
main 126
travail 126
mes 126
one 125
been 125
can@@ 125
eu 125
heure 125
but 124
they 123
sans 122
help 121
mort 121
so 120
were 120
quel 120
mÃ¨re 120
enfants 119
ve 118
us 116
pÃ¨re 116
see 114
soit 114
petit 114
pouvez 113
place 112
avais 112
Sami 111
chien 111
car 110
voulez 110
will 109
femme 109
simplement 109
heures 109
ces 108
venir 108
avant 108
world 107
right 107
who 107
porte 107
elles 106
jour 105
here 104
anglais 104
only 103
ta 103
question 102
franÃ§ais 100
aujourd&apos; 100
hui 100
much 99
up 98
other 98
combien 98
seul 98
quoi 97
livre 97
need 96
please 96
where 96
than 95
chez 95
journÃ©e 94
choses 94
questions 93
really 93
arrive 93
aimerais 93
never 92
fille 92
aider 92
when 91
people 91
tes 91
assez 90
trois 90
d@@ 89
about 89
d 89
sortir 89
Terre 87
come 86
take 86
derniÃ¨re 86
maniÃ¨re 85
aux 85
prendre 84
dÃ» 84
ans 83
manger 83
parents 82
- 82
mieux 82
aprÃ¨s 82
Ã© 82
why 80
man 80
idÃ©e 80
di@@ 79
great 79
two 79
dis 79
peur 79
lire 79
allÃ© 79
livres 79
day 78
quelle 78
musique 78
Ã©e 78
company 77
es@@ 77
sait 77
passÃ© 77
demain 77
old 76
cold 76
@ 76
retard 76
pu 76
trouve 76
heureux 75
partir 75
could 74
hier 74
juste 74
semaine 74
too 73
re@@ 73
parle 73
tÃªte 73
leur 73
ami 72
acheter 72
toutes 72
mal 71
arrÃªter 71
puis 71
demandÃ© 71
seule 71
must 70
should 70
do@@ 70
mis 70
croire 70
souvent 70
faut 70
any 69
new 69
jeune 69
pris 69
Earth 68
teacher 68
ville 68
trouvÃ© 68
sens 68
nouveau 67
dÃ©@@ 67
sure 66
our 66
pensais 66
nom 66
sol 66
histoire 66
find 65
savoir 65
part 64
aurais 64
prix 64
problÃ¨me 64
well 63
accident 63
money 63
chambre 63
nourriture 63
would 62
from 62
first 62
photo 62
entreprise 62
trouver 62
soir 62
fut 62
toute 62
United 61
something 61
quelqu&apos; 61
raison 61
sera 61
moins 61
work 60
allons 60
filles 60
Ã©taient 60
doit 60
talk 59
by 59
now 59
amie 59
facile 59
e@@ 58
meeting 58
dormir 58
famille 58
chemin 58
piÃ¨ce 58
ons 58
professeur 57
perdu 57
tÃ´t 57
ait 57
situation 56
regarder 56
dur 56
veut 56
penses 56
Boston 55
fais 55
colÃ¨re 55
problÃ¨mes 55
pays 55
jours 55
ent 55
school 54
done 54
water 54
said 54
entre 54
faites 54
crois 54
lettre 54
devriez 54
habitude 54
seen 53
moment 53
anything 53
vrai 53
arrivÃ© 53
voulais 53
cet 53
what@@ 52
mind 52
job 52
pourrais 52
vÃ©ritÃ© 52
mÃ©decin 52
depuis 52
love 51
three 51
thing 51
long 51
mari 51
vos 51
premiÃ¨re 51
savais 51
difficile 51
dÃ©solÃ© 51
nouvelle 51
ez 51
er 51
before 50
put 50
at@@ 50
without 50
enfant 50
fÃªte 50
savez 50
accord 50
semble 50
lit 50
devrais 50
Ã©s 50
most 49
house 49
married 49
in@@ 49
eux 49
travailler 49
parce 49
loin 49
sÃ»r 49
children 48
week 48
room 48
chance 48
Dan 48
back 48
allez 48
meilleur 48
garÃ§on 48
phone 47
nothing 47
sois 47
frÃ¨re 47
donnÃ© 47
occupÃ© 47
langues 47
soyez 47
is@@ 46
he@@ 46
always 46
went 46
say 46
same 46
opinion 46
vue 46
quelques 46
non 46
demande 46
mot 46
best 45
the@@ 45
important 45
laissÃ© 45
vite 45
ci 45
nos 45
connais 45
tard 45
vin 45
entendu 45
Ã©@@ 45
everything 44
hard 44
home 44
door 44
able 44
th@@ 44
last 44
end 44
cÅ“ur 44
matin 44
vieille 44
Ã©tranger 44
cours 44
expÃ©rience 44
presque 44
better 43
speak 43
y&apos; 43
plan 43
life 43
buy 43
peine 43
apprendre 43
riche 43
comprendre 43
grande 43
laisse 43
cuisine 43
ceci 43
wanted 42
let@@ 42
States 42
name 42
ten 42
afraid 42
happy 42
beautiful 42
prÃªt 42
voyage 42
vas 42
achetÃ© 42
fumer 42
tÃ©lÃ©phone 42
vivre 42
jouer 42
bus 41
many 41
try 41
future 41
book 41
tired 41
night 41
still 41
dog 41
leave 41
adore 41
magasin 41
route 41
point 41
jeux 41
oubliÃ© 41
devons 41
dÃ©teste 41
premier 41
biÃ¨re 41
voulait 41
told 40
learn 40
family 40
amour 40
vÃ©lo 40
Unis 40
malade 40
cafÃ© 40
rester 40
ant 40
girls 39
remember 39
give 39
read 39
possible 39
some 39
father 39
them 39
student 39
France 39
hommes 39
instant 39
essayer 39
pourrait 39
got 38
late 38
English 38
made 38
kind 38
these 38
friend 38
alone 38
police 38
commencÃ© 38
devrait 38
ferai 38
Japon 38
rouge 38
essayÃ© 38
vieux 38
annÃ©e 38
autant 38
pendant 38
thought 37
took 37
minutes 37
jusqu&apos; 37
pouvons 37
santÃ© 37
lu 37
dÃ©jeuner 37
sÅ“ur 37
longtemps 37
mettre 37
ensemble 37
cheveux 37
erreur 37
Ã©es 37
today 36
few 36
an 36
devrions 36
fort 36
boulot 36
marier 36
seulement 36
levÃ© 36
laisser 36
entendre 36
keep 35
sorry 35
morning 35
country 35
viens 35
sociÃ©tÃ© 35
envie 35
belle 35
small 34
look 34
sh@@ 34
true 34
or 34
word 34
amis 34
froid 34
grosse 34
classe 34
fils 34
donne 34
chat 34
mangÃ© 34
prie 34
bureau 34
sujet 34
French 33
call 33
already 33
things 33
make 33
bas 33
Ã©tiez 33
peuvent 33
Ã©crit 33
plupart 33
moindre 33
boÃ®te 33
fatiguÃ© 33
travaille 33
noir 33
cinq 33
vient 33
vit 33
their 32
live 32
looking 32
own 32
doctor 32
en@@ 32
l@@ 32
attention 32
mains 32
intention 32
serez 32
fin 32
espÃ¨re 32
pensÃ© 32
venu 32
serait 32
mots 32
glad 31
year 31
yesterday 31
busy 31
Tatoeba 31
story 31
play 31
secret 31
favorite 31
restaurant 31
mauvais 31
dites 31
montre 31
aimes 31
tÃ©lÃ©vision 31
mer 31
nÃ© 31
chaque 31
tant 31
joue 31
prÃ¨s 31
aient 31
office 30
bit 30
let 30
a@@ 30
girl 30
rendre 30
midi 30
appelÃ© 30
dix 30
Ã©crire 30
aucun 30
pouvait 30
mienne 30
vacances 30
passe 30
after 29
eat 29
bad 29
boy 29
past 29
stop 29
piano 29
government 29
pourriez 29
poisson 29
amoureux 29
femmes 29
nager 29
Ã‰tats 29
puisse 29
verre 29
contre 29
intÃ©rieur 29
sous 29
tÃ© 29
easy 28
matter 28
person 28
hours 28
drink 28
wants 28
language 28
mois 28
nÃ©cessaire 28
propos 28
veuillez 28
laissez 28
fenÃªtre 28
gare 28
surpris 28
hÃ´tel 28
espagnol 28
sÃ»re 28
lait 28
fini 28
ie 28
Ã¨rent 28
e 28
T@@ 27
ther@@ 27
truth 27
letter 27
big 27
understand 27
because 27
cat 27
enough 27
efforts 27
hair 27
payer 27
merci 27
celui 27
pauvre 27
allemand 27
bÃ©bÃ© 27
utiliser 27
rencontrer 27
oui 27
dÃ®ner 27
lorsque 27
om@@ 26
idea 26
station 26
problem 26
tomorrow 26
use 26
information 26
garÃ§ons 26
film 26
esprit 26
poser 26
rendu 26
alors 26
aise 26
feu 26
beau 26
propre 26
appris 26
aucune 26
ques 26
eur 26
dont 26
p@@ 26
sun 25
even 25
believe 25
number 25
ready 25
tennis 25
mother 25
g@@ 25
off 25
table 25
class 25
Ã©quipe 25
rÃ©union 25
devez 25
lieu 25
pensez 25
lunettes 25
endroit 25
pouvais 25
souviens 25
pause 25
parlÃ© 25
faÃ§on 25
voulons 25
partie 25
tellement 25
con@@ 25
s@@ 25
nice 24
often 24
asked 24
art 24
key 24
six 24
trip 24
b@@ 24
appeler 24
Ã¢ge 24
montagne 24
piscine 24
hÃ´pital 24
quatre 24
numÃ©ro 24
chemise 24
chats 24
lorsqu&apos; 24
dÃ©cidÃ© 24
derriÃ¨re 24
importe 24
Dieu 24
sac 24
nouvelles 24
ter 24
girlfriend 23
age 23
r@@ 23
rencontrÃ© 23
prÃ©fÃ©rÃ©e 23
changÃ© 23
choix 23
blessÃ© 23
faim 23
parlez 23
sÃ©curitÃ© 23
marchÃ© 23
manteau 23
essaie 23
nombre 23
perdre 23
par@@ 23
large 22
times 22
does 22
hear 22
books 22
hand 22
seems 22
bed 22
TV 22
ask 22
trying 22
meet 22
almost 22
n@@ 22
milk 22
parfois 22
Ã©pouser 22
conduire 22
Ã©tudiants 22
content 22
clÃ©s 22
prenez 22
certains 22
coup 22
tÃ©lÃ© 22
dernier 22
chaud 22
dÃ©solÃ©e 22
libre 22
ante 22
ale 22
again 21
game 21
next 21
someone 21
years 21
weather 21
Layla 21
far 21
woman 21
party 21
lost 21
left 21
others 21
fleurs 21
habite 21
riviÃ¨re 21
voudrais 21
marche 21
appelle 21
sentiments 21
font 21
regarde 21
regardÃ© 21
conseils 21
gÃ¢teau 21
moitiÃ© 21
heureuse 21
leurs 21
attendre 21
anniversaire 21
rend 21
vers 21
plutÃ´t 21
ation 21
answer 20
sleeping 20
friends 20
child 20
dollars 20
knew 20
store 20
: 20
dinner 20
another 20
pain 20
complete 20
M@@ 20
tuÃ© 20
savait 20
serais 20
japonais 20
suppose 20
probablement 20
tour 20
genre 20
dessus 20
terre 20
neige 20
ordinateur 20
rÃ©@@ 20
f@@ 20
li@@ 20
ais 20
doing 19
everyone 19
careful 19
wrong 19
eyes 19
cats 19
an@@ 19
being 19
floor 19
ticket 19
death 19
garde 19
Australie 19
mets 19
donnez 19
avenir 19
davantage 19
boire 19
arme 19
instituteur 19
prochain 19
mange 19
bibliothÃ¨que 19
connaÃ®t 19
nombreux 19
thÃ©Ã¢tre 19
comprends 19
exactement 19
ainsi 19
m@@ 19
dehors 19
itÃ© 19
ti@@ 19
compte 19
pouvoir 19
prÃ©@@ 19
feel 18
food 18
walk 18
heart 18
talking 18
lives 18
watch 18
mine 18
o@@ 18
sugar 18
Oh 18
rain 18
show 18
coffee 18
ri@@ 18
radio 18
Mr 18
village 18
oncle 18
courant 18
affaire 18
costume 18
devenu 18
prends 18
immÃ©diatement 18
sucre 18
venus 18
veulent 18
emploi 18
serai 18
apprÃ©cie 18
c@@ 18
telle 18
v@@ 18
ni 18
laquelle 18
ch@@ 18
sur@@ 18
crazy 17
likes 17
saw 17
swim 17
every 17
German 17
waiting 17
problems 17
advice 17
won@@ 17
found 17
five 17
ciel 17
facilement 17
dormi 17
bientÃ´t 17
hors 17
thÃ©orie 17
tenir 17
clÃ© 17
mit 17
l 17
compris 17
pire 17
occupÃ©e 17
donc 17
vois 17
fit 17
Ã¨re 17
che 17
bought 16
write 16
on@@ 16
stay 16
hope 16
born 16
since 16
met 16
dark 16
wife 16
fa@@ 16
brother 16
early 16
mo@@ 16
yes 16
er@@ 16
guess 16
idiot 16
Paris 16
ennuis 16
pleurer 16
Ã©tage 16
chapeau 16
voici 16
difficultÃ©s 16
ressemble 16
dort 16
phrases 16
chaussures 16
ceux 16
phrase 16
dÃ©t@@ 16
ine 16
ignore 16
euse 16
av@@ 16
or@@ 16
im@@ 16
marry 15
hurry 15
happened 15
down 15
ever 15
looks 15
finished 15
am 15
surprised 15
computer 15
came 15
behind 15
Ah 15
wor@@ 15
ar@@ 15
intelligent 15
t@@ 15
seras 15
taille 15
NoÃ«l 15
plage 15
vÃªtements 15
discours 15
irai 15
allÃ©e 15
voitures 15
papier 15
rÃ©soudre 15
poste 15
jardin 15
fera 15
droit 15
soleil 15
cher 15
allÃ©s 15
hiver 15
capable 15
aire 15
com@@ 15
ens 15
movie 14
minute 14
reading 14
suit 14
days 14
written 14
afternoon 14
Japan 14
hot 14
team 14
ball 14
between 14
window 14
bicycle 14
sister 14
which 14
yet 14
box 14
words 14
completely 14
knows 14
sea 14
mistake 14
face 14
knife 14
ver@@ 14
danger 14
intÃ©ressÃ© 14
jeu 14
dÃ©cision 14
gagnÃ© 14
adresse 14
envoyÃ© 14
honte 14
parapluie 14
balle 14
lumiÃ¨re 14
prÃ©fÃ¨re 14
rappeler 14
rÃ©ponse 14
type 14
sorte 14
arrÃªtÃ© 14
aurait 14
montrer 14
tÃ©s 14
bou@@ 14
ci@@ 14
res@@ 14
era 14
em@@ 14
ts 14
; 14
i@@ 14
personnes 14
devant 14
ants 14
arriver 14
ag@@ 14
post 13
fish 13
hospital 13
light 13
sick 13
sent 13
difficult 13
month 13
works 13
course 13
impossible 13
pluie 13
danser 13
chanson 13
lis 13
Å“il 13
ouvert 13
demander 13
prochaine 13
conseil 13
rÃ©pondre 13
larmes 13
fasse 13
pleut 13
vieil 13
donner 13
enseignant 13
prÃªte 13
pieds 13
guerre 13
ArrÃªtez 13
jambes 13
leÃ§on 13
attend 13
tomber 13
ment 13
Ã‰@@ 13
confiance 13
rez 13
qu@@ 13
passer 13
sou@@ 13
erai 13
celle 13
u 13
ement 13
cause 13
sky 12
myself 12
fire 12
caught 12
hungry 12
heard 12
news 12
music 12
everybody 12
sentence 12
anymore 12
high 12
promise 12
pay 12
natural 12
called 12
quickly 12
fun 12
theory 12
shoes 12
P@@ 12
experience 12
wait 12
away 12
admire 12
young 12
didn 12
semblez 12
bÃ¢timent 12
bateau 12
mariÃ© 12
penser 12
attrapÃ© 12
sommeil 12
pleuvoir 12
dÃ©tails 12
fenÃªtres 12
lundi 12
pomme 12
Ã©galement 12
manquer 12
Å“ufs 12
mourir 12
carte 12
cÃ´tÃ© 12
vis 12
musÃ©e 12
parc 12
fou 12
Ã©couter 12
examen 12
ayez 12
vÃ©cu 12
dangereux 12
mauvaise 12
revoir 12
terminÃ© 12
stupide 12
furent 12
no@@ 12
ette 12
cr@@ 12
allait 12
faisons 12
pro@@ 12
porter 12
reste 12
gros 12
eurs 12
dispose 12
parviens 12
travers 12
complÃ¨tement 12
gu@@ 12
visite 12
ab@@ 12
vaut 12
forward 11
decided 11
students 11
may 11
less 11
... 11
city 11
anyone 11
fast 11
was@@ 11
don 11
lunch 11
ap@@ 11
poor 11
zoo 11
Ã©tudier 11
roman 11
bu 11
stylo 11
poids 11
chanceux 11
projet 11
avance 11
cadeau 11
parti 11
aiment 11
meilleure 11
dictionnaire 11
robe 11
timide 11
dents 11
payÃ© 11
oublie 11
rapidement 11
rentrer 11
selon 11
marcher 11
Ã¨res 11
lo@@ 11
ad@@ 11
i 11
plusieurs 11
aires 11
ill@@ 11
du@@ 11
discuter 11
lu@@ 11
res 11
am@@ 11
gr@@ 11
ant@@ 11
agit 11
produit 11
10 11
cro@@ 11
Ã¢mes 11
commence 11
ins 11
savent 11
C@@ 11
donn@@ 11
co@@ 11
bri@@ 11
ations 11
ra 11
f 11
dangerous 10
Mar@@ 10
together 10
yours 10
shoul@@ 10
makes 10
mistakes 10
dead 10
price 10
boys 10
sense 10
umbrella 10
head 10
aren 10
shirt 10
al@@ 10
hotel 10
change 10
later 10
viendra 10
invitÃ© 10
rapport 10
conseillÃ© 10
ouverte 10
vidÃ©o 10
Excusez 10
travaillÃ© 10
reÃ§u 10
sommet 10
fallu 10
proposition 10
emporter 10
jeunes 10
perte 10
lac 10
journal 10
espoir 10
huit 10
choisir 10
amies 10
baiser 10
coin 10
montrez 10
affaires 10
manque 10
gi@@ 10
tÃ©es 10
revenir 10
vouloir 10
ge 10
pied 10
quÃ© 10
devoir 10
ettes 10
commencer 10
pl@@ 10
ler 10
tÃ©e 10
min@@ 10
portait 10
rem@@ 10
ique 10
ferais 10
mor@@ 10
chante 10
mal@@ 10
faisait 10
au@@ 10
prend 10
ren@@ 10
si@@ 10
bout 10
per@@ 10
dÃ©sormais 10
mar@@ 10
ir@@ 10
ni@@ 10
tu@@ 10
ai@@ 10
A@@ 10
suite 10
changer 10
ac@@ 10
h 10
bois 10
Ã©tions 10
succÃ¨s 10
teur 10
coat 9
park 9
summer 9
John 9
coul@@ 9
tonight 9
wine 9
red 9
watching 9
bag 9
hour 9
glass 9
message 9
smart 9
choice 9
four 9
bill 9
forgot 9
rich 9
women 9
secrets 9
speaks 9
taxi 9
dictionary 9
necessary 9
those 9
interested 9
tried 9
contract 9
beer 9
wearing 9
disappointed 9
gave 9
living 9
ay@@ 9
se@@ 9
concert 9
Tokyo 9
ter@@ 9
30 9
savons 9
Ã©tudiant 9
fermÃ© 9
animaux 9
jouÃ© 9
faute 9
senti 9
mariage 9
allais 9
accusÃ© 9
corps 9
promesses 9
charge 9
arbre 9
patron 9
rappelle 9
prÃªter 9
espace 9
lever 9
jolie 9
marteau 9
responsable 9
coÃ»t 9
tombÃ© 9
ennemi 9
enfance 9
vivent 9
chanter 9
Ã©toiles 9
portes 9
douche 9
moyen 9
erreurs 9
propres 9
prÃ©sident 9
certain 9
men@@ 9
bl@@ 9
su@@ 9
ire 9
rÃ© 9
chi@@ 9
vol@@ 9
sauf 9
autour 9
mÃ©@@ 9
ues 9
printemps 9
dÃ© 9
Ã©t@@ 9
cent 9
vingt 9
el 9
vo@@ 9
tient 9
cou@@ 9
enne 9
as@@ 9
rencontre 9
rendez 9
u@@ 9
dis@@ 9
entrÃ©e 9
suffisamment 9
prit 9
R@@ 9
S@@ 9
ets 9
c 9
for@@ 9
ou@@ 9
quelconque 9
afin 9
ue 9
plein 9
rÃ©ussi 9
dimanche 9
lequel 9
vont 9
devenir 9
connaÃ®tre 9
ches 9
groupe 9
library 8
fell 8
New 8
York 8
into 8
feelings 8
paper 8
breakfast 8
cook 8
hands 8
worry 8
evening 8
himself 8
dress 8
body 8
choose 8
thank 8
angry 8
happen 8
wonder 8
mountain 8
keys 8
men 8
Internet 8
reason 8
lie 8
husband 8
miss 8
break 8
sandwich 8
us@@ 8
animal 8
Jane 8
k@@ 8
univers 8
tasse 8
admis 8
feriez 8
dÃ©but 8
rumeur 8
nez 8
banque 8
remercier 8
ri 8
campagne 8
football 8
loi 8
courage 8
princesse 8
rencontrÃ©e 8
connu 8
contrat 8
soif 8
thÃ© 8
feuilles 8
bizarre 8
Espagne 8
honnÃªte 8
rÃ¨gles 8
gentil 8
disent 8
devoirs 8
inconvÃ©nient 8
so@@ 8
viendrai 8
cour@@ 8
ers 8
aimait 8
portÃ© 8
prÃ©fÃ©rÃ© 8
nÃ©e 8
ites 8
dÃ©couvert 8
venue 8
pe 8
dent 8
Ã©trange 8
prise 8
dev@@ 8
intÃ©ressant 8
restÃ© 8
croit 8
coupe 8
humeur 8
iste 8
der 8
ass@@ 8
dou@@ 8
existe 8
recherche 8
gauche 8
quiconque 8
annÃ©es 8
pommes 8
essay@@ 8
ferme 8
rire 8
aimÃ© 8
ds 8
voudriez 8
vi@@ 8
o 8
bu@@ 8
ages 8
raisons 8
correctement 8
jou@@ 8
tri@@ 8
seront 8
signe 8
voilÃ 8
ex@@ 8
sang 8
dispos@@ 8
gagner 8
voyager 8
mon@@ 8
tr@@ 8
haut 8
finalement 8
rait 8
docteur 8
M 8
prÃ©sent 8
aille 8
soin 8
tique 8
proche 8
arrÃªte 8
rou@@ 8
ance 8
bons 8
tuer 8
parlent 8
dÃ©pend 8
Ã©tat 8
ten@@ 8
tre 8
attends 8
enemy 7
prefer 7
sleep 7
thinks 7
safe 7
address 7
usual 7
kitchen 7
dance 7
universe 7
flowers 7
received 7
God 7
cake 7
winter 7
lose 7
clothes 7
started 7
guy 7
daughter 7
gun 7
feet 7
patient 7
windows 7
glasses 7
until 7
eaten 7
ate 7
least 7
rude 7
speech 7
newspaper 7
D@@ 7
eggs 7
visage 7
Ã©chec 7
appareil 7
Ã©nergie 7
bras 7
dÃ©Ã§u 7
aÃ©roport 7
avocat 7
imaginer 7
parie 7
chiens 7
malheureusement 7
cuisiner 7
nerveux 7
bicyclette 7
planÃ¨te 7
commenÃ§a 7
excuses 7
parfait 7
permis 7
Ã¢@@ 7
devint 7
vendre 7
cru 7
scientifique 7
tÃ©@@ 7
article 7
ions 7
tent 7
nage 7
amoureuse 7
arrivÃ©e 7
arriÃ¨re 7
effet 7
fer@@ 7
semaines 7
touche 7
mille 7
serv@@ 7
sembles 7
contente 7
embrasser 7
marre 7
occasion 7
bouteille 7
lors 7
ements 7
tor@@ 7
pay@@ 7
lis@@ 7
portable 7
eut 7
doivent 7
copine 7
J@@ 7
5 7
partout 7
sal@@ 7
intÃ©rÃªt 7
forme 7
gouvernement 7
comm@@ 7
auriez 7
salle 7
Ã©ri@@ 7
sept 7
vide 7
produire 7
rue 7
tranquille 7
dÃ©couvrir 7
fermer 7
expliquer 7
hasard 7
cl@@ 7
compagnie 7
lÃ© 7
auparavant 7
moral 7
Angleterre 7
rent 7
disposez 7
aies 7
automne 7
avis 7
cas 7
amÃ©liorer 7
vendredi 7
repas 7
euses 7
tour@@ 7
aimer 7
ise 7
AmÃ©rique 7
our@@ 7
sors 7
simple 7
tÃ¢che 7
maman 7
end@@ 7
parlait 7
cassÃ© 7
appartient 7
sache 7
morceau 7
ables 7
vraie 7
to@@ 7
sÃ©@@ 7
aimez 7
revenu 7
enti@@ 7
pen@@ 7
Ã©g@@ 7
ence 7
pou@@ 7
prÃ©senter 7
pour@@ 7
fl@@ 7
eu@@ 7
laver 7
bonnes 7
dÃ©part 7
ess@@ 7
cri@@ 7
erais 7
lam@@ 7
ouvrir 7
retourner 7
ard 7
rÃ©flÃ©chir 7
service 7
cherche 7
demanda 7
sÃ©rieux 7
gagne 7
demi 7
homework 6
inside 6
supposed 6
agree 6
excuse 6
felt 6
touch 6
correct 6
hate 6
advised 6
cry 6
Christmas 6
once 6
under 6
languages 6
sist@@ 6
picture 6
turned 6
began 6
health 6
die 6
pretty 6
building 6
fortune 6
hat 6
interesting 6
Spanish 6
ur@@ 6
lucky 6
No@@ 6
uncle 6
worst 6
shy 6
its 6
boss 6
open 6
-@@ 6
population 6
garage 6
innocent 6
diffÃ©rence 6
rideau 6
tien 6
voulu 6
chocolat 6
censÃ© 6
mensonge 6
existence 6
franchement 6
mecs 6
Devine 6
Ã©cureuils 6
Italie 6
films 6
matiÃ¨re 6
indiquer 6
vaches 6
cravate 6
invitÃ©es 6
suicidÃ© 6
prÃªts 6
prison 6
soldats 6
amusant 6
coÃ»ts 6
esti@@ 6
rÃ©jouis 6
arbres 6
probable 6
gl@@ 6
oubli@@ 6
souci 6
double 6
entre@@ 6
tenez 6
rhume 6
dor@@ 6
plaisir 6
devient 6
ser@@ 6
sage 6
sa@@ 6
dÃ©cida 6
mi@@ 6
couple 6
mesure 6
nombreuses 6
chang@@ 6
ais@@ 6
tou@@ 6
conduis@@ 6
y@@ 6
quer 6
nique 6
tait 6
ente 6
direction 6
ici@@ 6
tenu 6
rais 6
visiter 6
liste 6
nettoyer 6
blanc 6
ec@@ 6
rends 6
app@@ 6
gÃ© 6
voyez 6
nulle 6
alcool 6
ru@@ 6
seuls 6
gÃ©rer 6
courir 6
Ã©r@@ 6
grandes 6
gar@@ 6
po@@ 6
papa 6
suivre 6
petites 6
st@@ 6
aurions 6
droite 6
absolument 6
pend@@ 6
j@@ 6
certaine 6
Ã©glise 6
aie 6
rarement 6
ras 6
venait 6
compl@@ 6
al 6
cache 6
accepter 6
bi@@ 6
compter 6
Ã©tudie 6
onn@@ 6
imagine 6
parles 6
ture 6
fi@@ 6
moutons 6
asseoir 6
politique 6
atten@@ 6
fr@@ 6
ier 6
soixante 6
rÃ©veillÃ© 6
inquiÃ¨te 6
port@@ 6
nouvel 6
pri@@ 6
vivant 6
passÃ©e 6
sortes 6
plan@@ 6
prÃ©parer 6
rons 6
ager 6
calme 6
appr@@ 6
tres 6
entends 6
pla@@ 6
agent 6
rÃ´le 6
maladie 6
soyons 6
crÃ©@@ 6
aff@@ 6
souvenir 6
refaire 6
eus 6
frÃ¨res 6
fruits 6
pos@@ 6
disait 6
illes 6
Ã©cl@@ 6
nes 6
onnÃ© 6
cinÃ©ma 6
ger 6
iez 6
coucher 6
nature 6
fromage 6
entrer 6
quitter 6
occupe 6
vis@@ 6
pÃªcher 6
garder 6
arrivent 6
Ã©p@@ 6
Ã©viter 6
corriger 6
frÃ©qu@@ 6
ron@@ 6
consac@@ 6
certaines 6
photos 6
trente 6
empÃªcher 6
boit 6
clairement 6
cents 6
ju@@ 6
tion 6
poule 6
occuper 6
illÃ© 6
stes 6
Allemagne 6
soi 6
universitÃ© 6
esse 6
voy@@ 6
rÃ©parer 6
dure 6
aine 6
go@@ 6
car@@ 6
entend@@ 6
jouets 6
prÃªtes 6
Smith 6
tromp@@ 6
court 6
droits 6
erait 6
ales 6
ev@@ 6
coÃ»te 6
pierre 6
Thomas 6
chercher 6
importantes 6
br@@ 6
alitÃ© 6
public 6
nu@@ 6
ellement 6
vues 6
cap@@ 6
pÃ¢le 6
durant 6
battre 6
ble 6
trees 5
ashamed 5
eye 5
longer 5
care 5
lake 5
h@@ 5
stupid 5
accused 5
wedding 5
easily 5
cost 5
project 5
difference 5
area 5
lesson 5
cup 5
learned 5
ever@@ 5
tunnel 5
war 5
apple 5
solve 5
road 5
forget 5
invited 5
piece 5
river 5
outside 5
absent 5
man@@ 5
Un@@ 5
fortun@@ 5
turn 5
boat 5
cousin 5
blood 5
uni@@ 5
all@@ 5
kill 5
fruit 5
matins 5
Promettez 5
plafond 5
Ã©tudiante 5
comportement 5
exercice 5
horreur 5
postale 5
teurs 5
fonctionne 5
des@@ 5
hÃ©@@ 5
cÃ©lÃ¨bre 5
vus 5
cli@@ 5
apprends 5
atif 5
rÃ©flÃ©chi 5
espÃ©ranto 5
lou@@ 5
autrefois 5
avaient 5
joli 5
satisfait 5
plu 5
organ@@ 5
Ã¯@@ 5
bonheur 5
Salut 5
vienne 5
folle 5
retour 5
quement 5
occupÃ©s 5
remÃ¨de 5
pleu@@ 5
pique 5
Ã©lu 5
arrÃªt 5
fiÃ© 5
dÃ©cider 5
futur 5
bonjour 5
connaisse 5
conn@@ 5
prÃ©venu 5
quittÃ© 5
populaire 5
parla 5
soirÃ©e 5
tort 5
surprise 5
cheval 5
gue 5
souhaite 5
croient 5
lettres 5
Ã´@@ 5
demand@@ 5
Soleil 5
char@@ 5
fu@@ 5
ir 5
Ã¨rement 5
rÃ©aliser 5
possibilitÃ© 5
reti@@ 5
Ã¨me 5
aurai 5
ouvrit 5
urgence 5
chan@@ 5
bor@@ 5
Quels 5
aliments 5
frais 5
beurre 5
traduire 5
dirai 5
riches 5
cu@@ 5
copain 5
trai@@ 5
humour 5
super 5
impli@@ 5
totalement 5
centre 5
forte 5
distribu@@ 5
patience 5
enseigner 5
Ã©veillÃ© 5
dÃ©s@@ 5
neuf 5
bat@@ 5
douleur 5
ent@@ 5
commande 5
impression 5
voudrait 5
connaissait 5
portÃ©e 5
press@@ 5
crise 5
Ã©tang 5
lÃ©@@ 5
servi 5
hÃ©ros 5
chaude 5
meubles 5
ences 5
antes 5
champ 5
sau@@ 5
importante 5
Ã©lÃ¨ves 5
croyez 5
poster 5
chÃ© 5
objectif 5
ents 5
Ã©toile 5
af@@ 5
position 5
alliez 5
comporte 5
tai@@ 5
saisir 5
fus 5
conduit 5
onne 5
entr@@ 5
crime 5
parti@@ 5
enfin 5
chacun 5
donna 5
silencieux 5
froide 5
accep@@ 5
acide 5
mu@@ 5
utile 5
hÃ¢te 5
ront 5
petits 5
diffÃ©rent 5
poche 5
unique 5
sav@@ 5
rÃ©s 5
tombÃ©e 5
fro@@ 5
appelez 5
envoyer 5
rs 5
faits 5
Europe 5
mathÃ©matiques 5
ira 5
sortie 5
Ã¨te 5
cal@@ 5
Ã©cris 5
date 5
salaire 5
amuser 5
respecter 5
lÃ©g@@ 5
populaires 5
foi 5
lier 5
restÃ©e 5
rÃ©pondu 5
iller 5
sel 5
rÃ©ellement 5
bo@@ 5
enseign@@ 5
oiseau 5
grands 5
chant@@ 5
dÃ©r@@ 5
sentez 5
coupÃ© 5
attendu 5
por@@ 5
sort 5
signifie 5
conscience 5
Ã§@@ 5
Ã©rÃ© 5
voisins 5
niveau 5
sport 5
rÃ©sultats 5
viennent 5
dr@@ 5
dÃ©truit 5
march@@ 5
preuve 5
promesse 5
mien 5
tement 5
pÃ©@@ 5
met@@ 5
Ã©tudi@@ 5
bandes 5
fon@@ 5
cher@@ 5
couteau 5
ob@@ 5
promettre 5
site 5
rer 5
rend@@ 5
toucher 5
il@@ 5
mou@@ 5
connaissez 5
dos 5
tel 5
sentir 5
rejoindre 5
magazine 5
exc@@ 5
cartes 5
gars 5
jambe 5
ser 5
certainement 5
fume 5
vendu 5
longues 5
rencontrÃ©s 5
peuple 5
venez 5
foule 5
grÃ¢ce 5
comp@@ 5
gÃ©nÃ©ration 5
quelles 5
interdit 5
traitÃ© 5
dÃ©si@@ 5
mettez 5
dÃ©range 5
attrape 5
pi@@ 5
plait 5
trouver@@ 5
rÃ©solu 5
aque 5
page 5
tiens 5
bleu 5
ouvrez 5
lÃ¨ve 5
mariÃ©s 5
soup@@ 5
fou@@ 5
passez 5
cochon 5
/ 5
Ã©norme 5
mignonne 5
dus 5
soutien 5
mÃ©di@@ 5
terie 5
appar@@ 5
clair 5
base 5
ordinaire 5
suffit 5
oubliez 5
environ 5
ace 5
voit 5
volontÃ© 5
dirait 5
tionn@@ 5
ressources 5
regardez 5
tableau 5
dÃ©e 5
sienne 5
sion 5
details 4
nervous 4
tears 4
closed 4
Japanese 4
saying 4
futon 4
weeks 4
drive 4
talked 4
working 4
seem 4
abroad 4
strange 4
against 4
novel 4
stars 4
decision 4
grandmother 4
thinking 4
sing 4
second 4
appreciate 4
fact 4
dad 4
close 4
wrote 4
church 4
list 4
garden 4
present 4
bottle 4
study 4
kept 4
responsible 4
cars 4
arms 4
quiet 4
black 4
travel 4
yourself 4
hurt 4
manager 4
near 4
baby 4
wash 4
exam 4
shower 4
crying 4
lived 4
ately 4
else 4
bread 4
honest 4
clock 4
free 4
aper@@ 4
getting 4
pen 4
owe 4
video 4
bar 4
ivre 4
crayon 4
2013 4
AlgÃ©rie 4
qu 4
systÃ¨me 4
tons 4
taire 4
traiter 4
critique 4
devraient 4
celles 4
ateurs 4
sÃ©rieusement 4
destination 4
abord 4
gÃ©nÃ©ral 4
aines 4
scientifiques 4
blesser 4
parmi 4
gentillesse 4
avions 4
mer@@ 4
USA 4
ach@@ 4
ignor@@ 4
douÃ© 4
sex@@ 4
finir 4
ates 4
rÃ©alitÃ© 4
dommage 4
correcte 4
horrible 4
ain 4
folie 4
protÃ©ger 4
sauver 4
seriez 4
os 4
gÃ©nie 4
regard 4
bruit 4
sive 4
Ã®mes 4
prÃ©vu 4
pli@@ 4
exem@@ 4
endre 4
cass@@ 4
nul 4
Chine 4
plai@@ 4
ro@@ 4
bes 4
aimÃ©e 4
eront 4
veuilles 4
cor@@ 4
fleur 4
lent 4
prÃ©fÃ©rerais 4
agir 4
cul@@ 4
faisais 4
interrom@@ 4
queue 4
diable 4
utilisez 4
auteur 4
contrÃ´le 4
capitaine 4
russe 4
vent 4
toit 4
Bob 4
spÃ©ci@@ 4
couverture 4
fin@@ 4
quit@@ 4
dises 4
lignes 4
Inde 4
beautÃ© 4
bal@@ 4
perdue 4
ul@@ 4
avion 4
poli@@ 4
billet 4
sub@@ 4
achÃ¨te 4
musicien 4
ateur 4
attendons 4
pes 4
batt@@ 4
assurance 4
prendra 4
seconde 4
cure 4
DÃ©@@ 4
pÃªche 4
crain@@ 4
terminer 4
Linda 4
mÃ©rite 4
fantÃ´mes 4
voie 4
BrÃ©sil 4
tombe 4
parlons 4
supporter 4
cieux 4
prudente 4
mat@@ 4
appÃ©tit 4
dise 4
chanteuse 4
permettre 4
veniez 4
tenait 4
rappelez 4
Ã¨ne 4
ite 4
augmentÃ© 4
prof 4
puni 4
utilisÃ© 4
lÃ¨@@ 4
ff@@ 4
Ã©vit@@ 4
entÃ© 4
attend@@ 4
brillante 4
peinture 4
dira 4
contr@@ 4
ennu@@ 4
brÃ»@@ 4
ut 4
riz 4
entrÃ© 4
Ã©clata 4
intelligente 4
ordres 4
sert 4
philosophie 4
promets 4
3 4
gÃ©@@ 4
nue 4
suggÃ¨re 4
impliquÃ© 4
terais 4
diffÃ©rences 4
atteint 4
aÃ®@@ 4
trouveras 4
couramment 4
tire 4
gÃ©nÃ©ralement 4
ordre 4
chansons 4
jette 4
jouent 4
physique 4
couper 4
volÃ© 4
mez 4
tentÃ© 4
forÃªt 4
L@@ 4
traductions 4
connaissais 4
soli@@ 4
humaine 4
sensÃ© 4
poli 4
lentement 4
mauvaises 4
poin@@ 4
habituÃ© 4
assu@@ 4
prÃ©par@@ 4
publique 4
truc 4
Ap@@ 4
bouton 4
lycÃ©e 4
travailles 4
devait 4
tente 4
directeur 4
prÃ©vois 4
int 4
trouvait 4
abandonner 4
doute 4
pr@@ 4
rant 4
fil@@ 4
espÃ¨ce 4
Ã©n@@ 4
mentir 4
genoux 4
aboie 4
constituent 4
pensent 4
plaisante 4
utilise 4
permission 4
Japonais 4
donnÃ©es 4
log@@ 4
chons 4
vouliez 4
traverser 4
vase 4
Ã©car@@ 4
salade 4
aisÃ© 4
baleine 4
In@@ 4
carriÃ¨re 4
ains 4
sÃ©rie 4
debout 4
Ã©te@@ 4
triste 4
tra 4
cesse 4
faux 4
ocÃ©an 4
risque 4
contributeur 4
apprÃ©ci@@ 4
amical 4
piÃ¨ces 4
produits 4
fer 4
oiseaux 4
quinze 4
donnent 4
concentr@@ 4
puissiez 4
trans@@ 4
crit 4
parfaitement 4
restez 4
bÅ“uf 4
rÃ©ponds 4
lÃ¢che 4
Ã©chou@@ 4
r 4
risques 4
els 4
congÃ© 4
insul@@ 4
yait 4
terriblement 4
diffÃ©rents 4
profonde 4
forcer 4
traduction 4
manqu@@ 4
Ã©tude 4
coÃ»tÃ© 4
mÃ© 4
bon@@ 4
prononcer 4
couleur 4
mari@@ 4
force 4
trouvent 4
prises 4
apprentissage 4
apporte 4
mignons 4
passeport 4
suivant 4
Ã©pou@@ 4
pas@@ 4
noyÃ© 4
moyenne 4
sombre 4
circulation 4
conf@@ 4
inter@@ 4
Su@@ 4
brÃ»lÃ© 4
dessinÃ©es 4
blessÃ©e 4
joie 4
restes 4
iser 4
couteaux 4
voix 4
hab@@ 4
Ã©conomie 4
lesquelles 4
mai@@ 4
menti 4
apprend 4
chaleur 4
endormi 4
ingÃ©nieurs 4
nier 4
vÃ©ritable 4
pression 4
coupable 4
Londres 4
prÃ©sent@@ 4
mÃªmes 4
empÃªchÃ© 4
objets 4
marron 4
chinois 4
bour@@ 4
cancer 4
complet 4
monte 4
poÃ¨me 4
rapide 4
bÃ¢@@ 4
Ã¢me 4
deuxiÃ¨me 4
dÃ©goÃ»@@ 4
bordel 4
prennent 4
orange 4
mise 4
sÃ»rement 4
faible 4
sÃ©chÃ© 4
casser 4
AmÃ©ricains 4
ma@@ 4
gri@@ 4
sortez 4
assis 4
fs 4
ayant 4
puissance 4
culture 4
touchÃ© 4
mÃ©moire 4
canapÃ© 4
Ã©cri@@ 4
aimerait 4
fautes 4
Ã©tant 4
fidÃ¨le 4
image 4
lar@@ 4
rement 4
trez 4
mÃ©tro 4
tante 4
note 4
peint 4
prendrai 4
pleure 4
ign@@ 4
dÃ©tec@@ 4
prudent 4
appel@@ 4
sourire 4
lien 4
exig@@ 4
causÃ© 4
lÃ©gumes 4
Kate 4
cach@@ 4
naturel 4
fri@@ 4
caractÃ¨re 4
merveilleux 4
cru@@ 4
solution 4
gag@@ 4
ines 4
gorge 4
raconter 4
peau 4
malgrÃ© 4
E@@ 4
atteindre 4
pein@@ 4
tendance 4
ss@@ 4
utilis@@ 4
heureuses 4
chanteur 4
ail 4
conversation 4
concentrer 4
attendais 4
Jouons 4
billets 4
condition 4
naissance 4
volant 4
fous 4
devenus 4
jet@@ 4
jean 4
forts 4
possÃ¨de 4
tur@@ 4
entier 4
reux 4
contact 4
semblait 4
quitte 4
tez 4
cam@@ 4
confÃ©rence 4
cÃ©libataire 4
phÃ©nomÃ¨ne 4
Ã©ti@@ 4
souri@@ 4
impatience 4
troisiÃ¨me 4
mÃ©ri@@ 4
commenc@@ 4
reconnaissante 4
oul@@ 4
guitare 4
forcÃ© 4
remettre 4
rec@@ 4
commun 4
viol@@ 4
appelÃ©e 4
invitÃ©s 4
erons 4
fallait 4
voleur 4
fier 4
privÃ© 4
environnement 4
parole 4
semblant 4
nÃ´tre 4
indi@@ 4
Ã©poque 4
longs 4
chanceuse 4
tation 4
connaissance 4
Jim 4
pars 4
refus@@ 4
emprunter 4
rique 4
rel@@ 4
Ha 4
dÃ©f@@ 4
ponctuel 4
famous 3
rid 3
reasons 3
kindness 3
loved 3
movies 3
song 3
needs 3
business 3
report 3
museum 3
promises 3
Spain 3
warned 3
might 3
probably 3
pe@@ 3
ple@@ 3
exactly 3
realize 3
weekend 3
grand@@ 3
killed 3
trouble 3
my@@ 3
while 3
subject 3
street 3
some@@ 3
thin@@ 3
legs 3
life@@ 3
doesn 3
changed 3
sometimes 3
then 3
tree 3
Australia 3
rains 3
kiss 3
policeman 3
arrived 3
pai@@ 3
postcard 3
law 3
opened 3
ago 3
Italy 3
clear 3
cute 3
smoking 3
brown 3
bet 3
ban@@ 3
hur@@ 3
license 3
crowd 3
whole 3
success 3
camera 3
wore 3
embarrassed 3
town 3
view 3
lic@@ 3
rock 3
&apos;@@ 3
gueule 3
gne 3
har@@ 3
cis@@ 3
rÃ©di@@ 3
quasiment 3
irez 3
dÃ©passer 3
ligne 3
rier 3
fasses 3
sauter 3
monter 3
fallut 3
oc@@ 3
mangent 3
ic@@ 3
discutÃ© 3
tent@@ 3
rage 3
dÃ©couverte 3
Pro@@ 3
arrogants 3
indÃ©@@ 3
appartement 3
tiendra 3
cre@@ 3
aidera 3
vivait 3
Ã©prouve 3
esses 3
son@@ 3
vit@@ 3
tomba 3
promener 3
concerne 3
Ã©checs 3
As@@ 3
convient 3
Bats 3
Ã©coute 3
verse 3
spir@@ 3
poignÃ©e 3
cacahuÃ¨tes 3
alent@@ 3
contient 3
poison 3
souv@@ 3
enez 3
apparu 3
pouvaient 3
extrÃªmement 3
ravi 3
pure 3
habitait 3
Cessez 3
ade 3
rÃ©veille 3
deviner 3
attraper 3
sign@@ 3
Ã©vi@@ 3
pratiquement 3
adop@@ 3
Ã©gard 3
dÃ©pourvu 3
promenade 3
nel 3
command@@ 3
bÃ©nÃ©@@ 3
Nancy 3
prÃ©fÃ¨res 3
emprunte 3
verres 3
brill@@ 3
Ver@@ 3
hypothÃ¨se 3
Diable 3
auprÃ¨s 3
sauv@@ 3
signification 3
cordes 3
excuser 3
termine 3
DÃ©gage 3
dro@@ 3
rÃªves 3
bagages 3
el@@ 3
Ã¨vre 3
Ã©lo@@ 3
pul@@ 3
gÃ©ni@@ 3
excÃ¨s 3
conseilla 3
joueurs 3
cad@@ 3
destin 3
prouv@@ 3
pleurait 3
situe 3
lor@@ 3
ger@@ 3
bles 3
ris 3
cuisinier 3
essayez 3
rejet@@ 3
rÃ©es 3
frontiÃ¨re 3
coffre 3
ciseaux 3
premiers 3
sÃ»res 3
avril 3
dÃ©c@@ 3
souffle 3
tÃ©moin 3
Pardonnez 3
ra@@ 3
domaine 3
alisation 3
bien@@ 3
remise 3
digne 3
ar 3
science 3
Ã©teindre 3
cul 3
ouilles 3
endu 3
trouverez 3
denti@@ 3
habituellement 3
sieste 3
matinÃ©e 3
Ã©chapp@@ 3
rai 3
refusÃ© 3
atomique 3
rac@@ 3
bouteilles 3
rÃ©cemment 3
publiÃ© 3
presse 3
absurde 3
dÃ©clar@@ 3
utiles 3
Ã©tudient 3
cho@@ 3
cassÃ©e 3
efficace 3
Apportez 3
expÃ©ri@@ 3
ment@@ 3
cerveau 3
jure 3
statue 3
fond@@ 3
rÃ©sistance 3
facture 3
mondiale 3
Anne 3
trou@@ 3
tran@@ 3
Ã©levÃ©s 3
aurez 3
ection 3
impressionn@@ 3
loyer 3
igner 3
secours 3
jeter 3
parl@@ 3
assure 3
habit@@ 3
projets 3
tempÃªte 3
mag@@ 3
caus@@ 3
tives 3
cin@@ 3
glÃ© 3
pÃ©trole 3
jeta 3
Ã©coutez 3
senti@@ 3
dÃ©conne 3
abondance 3
abandonn@@ 3
retrouvÃ© 3
cinÃ©@@ 3
volontaire 3
off@@ 3
rir 3
drÃ´le 3
ennuyeux 3
bande 3
moteur 3
explication 3
titre 3
continuÃ© 3
moquer 3
disparu 3
tremblement 3
envis@@ 3
rÃ©e 3
construction 3
accent 3
sud 3
idÃ©@@ 3
parliez 3
passage 3
convaincu 3
tures 3
En@@ 3
rich@@ 3
issez 3
vague 3
pizza 3
addition 3
entretenir 3
impatient 3
siÃ¨ge 3
bouche 3
invention 3
fonctionnÃ© 3
choisi 3
enf@@ 3
commentaire 3
gentleman 3
pose 3
idiote 3
rÃªve 3
mangez 3
imagination 3
assi@@ 3
pauvres 3
garderai 3
sacrÃ© 3
bat 3
comprennent 3
gel@@ 3
poÃ¨te 3
aimaient 3
devenue 3
const@@ 3
fausse 3
lune 3
miel 3
remonter 3
dÃ©cor@@ 3
prÃª@@ 3
dÃ©pÃªcher 3
gran@@ 3
pensÃ©es 3
fo@@ 3
autoritÃ© 3
nerveu@@ 3
mang@@ 3
maths 3
rus@@ 3
virus 3
rie 3
cherchait 3
sÃ»rs 3
ition 3
sour@@ 3
enverrai 3
apparence 3
asse 3
sup@@ 3
Lavez 3
grandi 3
dirent 3
tueux 3
donnÃ©e 3
mourut 3
accor@@ 3
sions 3
Susan 3
dÃ©termination 3
symbole 3
voulaient 3
maisons 3
maj@@ 3
cuisiniÃ¨re 3
Ã©ch@@ 3
ath@@ 3
intelligents 3
montrent 3
quÃ©e 3
serrÃ© 3
fic@@ 3
saches 3
regrette 3
tempÃ©rature 3
hÃ©roÃ¯ne 3
arrose 3
riez 3
pigeons 3
Ã©coutes 3
SMS 3
eriez 3
tre@@ 3
pu@@ 3
nom@@ 3
amÃ©liorÃ© 3
unes 3
lles 3
haute 3
rempli 3
apporter 3
na 3
plaintes 3
sÅ“urs 3
guerrier 3
persÃ©vÃ©rance 3
ress@@ 3
tourner 3
architecte 3
tarte 3
diez 3
contraire 3
fournir 3
prudents 3
monnaie 3
fix@@ 3
actuellement 3
rentrÃ©e 3
sortons 3
fÃª@@ 3
vies 3
pal@@ 3
far@@ 3
prom@@ 3
persuader 3
mammifÃ¨re 3
solaire 3
survivants 3
obligÃ©e 3
dieu 3
rapporte 3
chambres 3
ires 3
allumer 3
chem@@ 3
igne 3
incalculable 3
dÃ©clarÃ© 3
prof@@ 3
posÃ© 3
ven@@ 3
difficultÃ© 3
poussÃ© 3
construit 3
ttes 3
promis 3
lais@@ 3
voler 3
conserv@@ 3
iciel 3
Ã©tudiÃ© 3
encourag@@ 3
con 3
avancÃ© 3
Å“uvre 3
changements 3
FranÃ§ais 3
assurer 3
collec@@ 3
ennes 3
manquÃ© 3
Nations 3
Unies 3
approche 3
dre 3
sorti 3
cÃ©@@ 3
refuse 3
intime 3
histoires 3
annulÃ©e 3
Ã»@@ 3
eusement 3
2 3
vement 3
prÃ©cieux 3
dÃ©couv@@ 3
rÃªv@@ 3
activitÃ© 3
vois@@ 3
envisage 3
ore 3
Monsieur 3
gea 3
perd 3
guÃ¨re 3
voulut 3
enfu@@ 3
arriver@@ 3
frappÃ© 3
difficiles 3
tais 3
aiss@@ 3
fournit 3
Canada 3
manquez 3
victoire 3
passa 3
amitiÃ© 3
travaillons 3
indique 3
viande 3
touristes 3
vÃª@@ 3
nor@@ 3
disputer 3
honneur 3
tal@@ 3
idÃ©es 3
publicitÃ© 3
fron@@ 3
options 3
glis@@ 3
natur@@ 3
pÃ©ril 3
bre 3
Con@@ 3
attirer 3
plu@@ 3
isme 3
citoyens 3
pratique 3
illez 3
croy@@ 3
exigÃ© 3
prÃ©sentÃ© 3
x 3
prÃ©voyez 3
objet 3
gÃ©ante 3
boivent 3
1@@ 3
litres 3
ignit 3
cible 3
habituer 3
fatiguÃ©e 3
scÃ¨ne 3
opÃ©ration 3
N@@ 3
commenÃ§@@ 3
Ã©tagÃ¨re 3
nuages 3
actuelle 3
compatis 3
form@@ 3
venons 3
lÃ©ger 3
Colomb 3
coupa 3
gardÃ© 3
autorisÃ© 3
pÃ©nÃ©trer 3
pÃ©riode 3
acti@@ 3
adorent 3
pardonn@@ 3
dÃ©pÃªchÃ© 3
file 3
longue 3
chouette 3
Ã©goÃ¯ste 3
professionnel 3
peindre 3
acc@@ 3
valeur 3
arrivÃ©s 3
nouveaux 3
points 3
La 3
consÃ©quences 3
zone 3
crÃ©Ã© 3
vivez 3
Å“uf 3
Ã©pousÃ© 3
employer 3
couvert 3
courageux 3
commentaires 3
fus@@ 3
dÃ©jeunÃ© 3
sortis 3
habill@@ 3
ader 3
dedans 3
pÃ©n@@ 3
entra 3
Bou@@ 3
pantalon 3
arrÃª@@ 3
salon 3
recommand@@ 3
tera 3
minimum 3
issons 3
quartier 3
apprÃ©cient 3
mondial 3
lapins 3
courte 3
itÃ©e 3
personnel 3
compÃ©t@@ 3
retourn@@ 3
soutenu 3
serons 3
mouvement 3
F@@ 3
achet@@ 3
maladies 3
sant 3
travaill@@ 3
vol 3
sse 3
placÃ© 3
Ã©cou@@ 3
intÃ©ressÃ©s 3
sez 3
Permettez 3
prÃ©sente 3
regarda 3
prÃ©venue 3
Ã©coutÃ© 3
reconn@@ 3
mour@@ 3
camion 3
ouvertes 3
disposais 3
rÃ©guliÃ¨rement 3
ann@@ 3
glace 3
lav@@ 3
visit@@ 3
tas 3
irait 3
eras 3
Ã©lÃ¨ve 3
su 3
sÃ©par@@ 3
fau@@ 3
opportunitÃ© 3
rÃ©colte 3
ile 3
ore@@ 3
ille 3
ps 3
matÃ©ri@@ 3
anc@@ 3
pass@@ 3
partira 3
essaya 3
fonc@@ 3
coups 3
ray@@ 3
conscient 3
nations 3
langage 3
eÃ»t 3
ole 3
seu@@ 3
chaussettes 3
morte 3
fÃ¢chÃ© 3
bres 3
entraÃ®ner 3
soudainement 3
dÃ©pensÃ© 3
aura 3
vÃ©ri@@ 3
chinoise 3
aisser 3
mÃ©daille 3
cou 3
acceptÃ© 3
Ã©tend@@ 3
tar@@ 3
dÃ©cÃ©dÃ© 3
manuel 3
amen@@ 3
allÃ©es 3
descend@@ 3
fÃ»mes 3
Ã¨s 3
texte 3
bÃ»@@ 3
rest@@ 3
ramassÃ© 3
derniÃ¨res 3
disposes 3
soucie 3
choc 3
siÃ¨cle 3
cont@@ 3
Ã©tend 3
anges 3
pneu 3
dig@@ 3
silencieuse 3
frappa 3
vÃ©cut 3
suivi 3
pÃ¨se 3
frappe 3
assist@@ 3
menti@@ 3
emment 3
jaloux 3
dingue 3
dessert 3
disposent 3
doutes 3
araignÃ©e 3
souff@@ 3
lave 3
travaillais 3
inqui@@ 3
hom@@ 3
n 3
conseille 3
sentait 3
trou 3
noire 3
diffÃ©rente 3
bas@@ 3
prÃ©visions 3
terme 3
enlÃ¨ve 3
col@@ 3
sale 3
tentation 3
nÃ©s 3
isÃ© 3
arrÃªtÃ©e 3
diffÃ¨re 3
supermarchÃ© 3
dÃ©sire 3
intÃ©resse 3
dentiste 3
tribunal 3
reprendre 3
aimerions 3
humains 3
rencontrons 3
doigt 3
latin 3
pan@@ 3
roi 3
ner@@ 3
connaÃ®@@ 3
effray@@ 3
sentiment 3
heurtÃ© 3
dÃ©so@@ 3
mec 3
cha 3
connaissent 3
Paul 3
semblent 3
trÃ©@@ 3
insist@@ 3
juge 3
lente 3
effrayÃ© 3
Ã©chouÃ© 3
chauff@@ 3
soucier 3
Ã©lectronique 3
Ce 3
sÃ© 3
sÃ©e 3
envers 3
emmÃ¨ne 3
aimais 3
cacher 3
jupe 3
maÃ®tre 3
putain 3
lin 3
internationale 3
ferions 3
dors 3
bel 3
amusante 3
arrivait 3
ris@@ 3
ram@@ 3
biscuits 3
eaux 3
explo@@ 3
instructions 3
membre 3
venues 3
souhaiter 3
aides 3
gratu@@ 3
siÃ¨cles 3
corde 3
alentours 3
maÃ®tri@@ 3
sÃ©rieuse 3
G@@ 3
rÃ©pu@@ 3
onner 3
yens 3
cÃ© 3
tÃ©lÃ©phones 3
devais 3
Ã©rer 3
Ã¨tre 3
cir@@ 3
aimons 3
preuves 3
constamment 3
bizarrement 3
dÃ¨s 3
appelons 3
rÃ©pare 3
assise 3
vive 3
match 3
gÃ©nies 3
etÃ© 3
regardes 3
copies 3
vitesse 3
boutique 3
prÃ©cipit@@ 3
pauvretÃ© 3
plaire 3
pleine 3
joindre 3
supplÃ©mentaire 3
erie 3
dez 3
ouvre 3
frapp@@ 3
miracle 3
attaquÃ©s 3
cÃ©rÃ©monie 3
considÃ©r@@ 3
clav@@ 3
angle 3
repasser 3
pareil 3
fiable 3
esp@@ 3
stre 3
rentr@@ 3
enseignÃ© 3
entiÃ¨re 3
compliquÃ© 3
V@@ 3
annu@@ 3
stupides 3
gues 3
rappelles 3
rap@@ 3
adorable 3
tromper 3
arriverait 3
invitÃ©e 3
tÃ©lÃ©@@ 3
crÃ©dit 3
da 3
mirent 3
reviendra 3
bar@@ 3
continuer 3
embarrass@@ 3
dÃ©gr@@ 3
quotidien 3
mariÃ©e 3
Ã§ons 3
Ã©gal 3
manquent 3
ambition 3
distance 3
viez 3
dÃ©licieux 3
exemple 3
circonstances 3
Ã©pais 3
B@@ 3
eables 3
pondu 3
suiv@@ 3
ino@@ 3
irais 3
parte 3
inst@@ 3
Kyoto 3
offen@@ 3
renvoy@@ 3
cherches 3
ta@@ 3
talent 3
coule 3
informations 3
regardant 3
zÃ©ro 3
suspecte 3
Ã©v@@ 3
pousse 3
bord 3
fran@@ 3
Ã©tudes 3
gentille 3
gau@@ 3
irs 3
fiÃ¨re 3
minuit 3
particuliÃ¨rement 3
sagesse 3
chon 3
critiques 3
rÃ©pÃ©tition 3
mÃ©tÃ©orologiques 3
quarante 3
milliers 3
sible 3
rentrÃ© 3
tandis 3
chaise 3
manquait 3
partis 3
