. 16814
? 2910
a 2754
&apos; 2660
the 2491
I 2471
de 2386
je 2239
to 2231
you 2149
, 2148
@-@ 1899
est 1824
pas 1551
il 1498
la 1460
Tom 1452
le 1417
que 1358
Ã 1350
is 1326
t 1257
vous 1253
n&apos; 1246
ne 1163
l&apos; 1033
me 992
un 978
tu 933
of 909
ce 852
j&apos; 852
in 839
s 792
he 784
les 766
en 738
! 732
that 710
ai 703
une 691
I@@ 686
it 681
d&apos; 670
nous 655
do 607
have 596
this 579
was 569
elle 538
are 522
my 515
for 509
on 508
don@@ 474
qu&apos; 464
not 456
pour 442
c&apos; 436
your 432
she 428
suis 423
and 423
as 421
we 416
m 405
et 404
des 397
be 395
what 393
&quot; 385
dans 383
y 362
re 335
with 326
qui 325
his 316
du 316
Ã§a 315
plus 313
want 311
like 307
s&apos; 298
you@@ 297
know 291
faire 288
au 288
moi 286
m&apos; 283
se 278
at 278
Ã©tait 277
all 277
her 265
tout 264
avec 264
te 260
can 257
fait 252
they 250
it@@ 248
d@@ 248
there 245
him 245
mon 243
son 233
go 233
how 232
Ãªtre 229
sont 226
si 224
did 224
es 223
has 221
ils 208
ve 203
think 202
sur 201
time 201
veux 200
Mary 199
very 199
an 198
no 198
out 196
get 188
di@@ 186
ll 186
lui 184
will 184
had 184
can@@ 180
trÃ¨s 180
temps 178
one 176
if 175
cette 173
about 172
were 172
Ãªtes 167
ont 164
from 163
ma 163
Ã©tÃ© 161
here 161
up 161
sa 159
votre 158
who 158
avez 156
but 155
par 151
so 149
just 148
oÃ¹ 147
why 145
by 143
would 142
us 142
when 141
pourquoi 140
d 138
e@@ 137
peux 136
ici 136
mais 136
dit 136
good 135
jamais 134
going 134
comment 133
bien 133
t&apos; 131
am 130
toi 129
chose 129
need 127
pense 126
where 125
we@@ 125
tell 123
see 122
more 122
sais 121
come 120
tous 120
cela 118
comme 117
never 117
been 117
ses 116
at@@ 115
too 114
peut 114
avons 113
th@@ 112
beaucoup 111
much 111
now 110
ton 110
vraiment 110
dire 109
help 109
than 108
please 108
en@@ 107
should 107
aime 105
re@@ 105
avait 104
only 104
elles 104
our 103
trop 102
really 102
train 101
mÃªme 99
could 99
quelque 99
car 98
take 98
Sami 97
voir 96
avoir 96
right 96
rien 96
he@@ 95
quand 95
es@@ 95
mes 94
work 93
any 92
monde 91
do@@ 91
deux 91
va 90
encore 90
besoin 89
man 89
parler 89
day 88
some 88
lÃ 86
aller 85
aux 85
sommes 85
personne 85
Ã©tais 84
love 83
homme 83
or 83
Ã© 82
got 82
peu 81
toujours 81
tes 80
last 80
ta 80
make 79
must 78
Ã©e 78
does 78
something 78
dois 77
argent 77
bon 75
aussi 75
lot 75
maison 74
money 74
is@@ 73
Marie 73
chez 73
soit 72
way 72
people 72
avais 72
arrive 72
fois 72
in@@ 72
long 72
home 71
vu 71
ed 71
went 71
notre 70
er 70
voiture 70
quoi 69
what@@ 69
quel 69
travail 69
avant 68
ent 68
speak 68
look 68
autre 68
them 67
dÃ©@@ 67
anything 67
give 67
maintenant 66
say 66
told 66
said 66
vais 66
sh@@ 66
eu 66
little 65
vie 65
sans 65
ons 64
find 64
dÃ©jÃ 64
leave 64
still 64
school 63
talk 63
back 63
ou 63
pÃ¨re 63
night 63
before 62
aujourd&apos; 62
hui 62
today 62
two 62
air 62
faut 61
well 61
ces 61
new 60
always 60
room 60
off 60
old 59
quelle 59
thought 59
house 59
combien 59
ait 58
parents 58
y&apos; 58
plaÃ®t 58
everything 57
porte 57
let 57
made 57
many 57
heures 57
believe 57
toutes 56
grand 56
sure 56
happy 56
nothing 56
enfants 55
ther@@ 55
ans 55
s@@ 55
again 54
Ã©cole 54
ar@@ 54
live 54
eat 54
French 54
read 54
jour 54
life 54
aide 54
feel 54
place 53
book 53
livre 53
into 53
aimerais 53
seul 53
which 52
toute 52
may 52
wanted 52
won@@ 52
ing 52
o@@ 52
aprÃ¨s 51
hier 51
ez 51
put 51
bonne 51
first 51
alone 51
these 50
cet 50
English 50
better 50
g@@ 50
away 50
took 50
w@@ 50
p@@ 50
Ã©s 50
juste 49
question 49
anglais 49
petit 49
able 49
already 49
try 49
chien 49
dog 49
demain 49
hard 48
franÃ§ais 48
mal 48
ant 48
their 48
passÃ© 48
buy 48
job 48
fut 48
three 47
mieux 47
venir 47
eau 47
without 47
enough 47
part 47
other 47
because 47
trois 46
done 46
late 46
used 46
pouvez 46
aider 46
nuit 46
assez 46
tomorrow 46
let@@ 45
the@@ 45
parle 45
Ã©@@ 45
best 44
after 44
over 44
dÃ» 44
down 44
gens 44
leur 44
father 44
seule 44
left 44
puis 43
keep 43
asked 43
children 43
seen 43
prendre 43
week 43
femme 43
accident 43
moins 43
fille 43
questions 43
sorry 42
door 42
plan 42
sait 42
Boston 42
choses 42
things 42
every 41
nouveau 41
fais 41
idea 41
peur 41
quelqu&apos; 41
soir 41
mind 41
depuis 41
stop 41
friend 41
thing 41
mÃ¨re 41
veut 41
doit 40
looking 40
savoir 40
ceci 40
voulais 40
saw 40
teacher 40
name 40
idÃ©e 40
heure 40
years 40
dis 40
quelques 40
b@@ 40
non 40
voulez 40
pensais 40
vos 40
often 39
T@@ 39
being 39
water 39
point 39
ts 39
busy 39
doing 39
partir 39
f@@ 39
manger 39
came 39
aurais 38
lire 38
even 38
play 38
moment 38
trouve 38
heureux 38
understand 38
simplement 37
demandÃ© 37
ever 37
afraid 37
un@@ 37
lost 37
Ã©es 37
great 37
ation 37
France 37
crois 37
e 37
call 36
yesterday 36
next 36
r@@ 36
wants 36
semaine 36
l@@ 36
remember 36
eux 36
pendant 36
autres 36
devrais 36
souvent 35
bad 35
cold 35
faites 35
m@@ 35
world 35
nom 35
con@@ 35
chance 35
allÃ© 35
knew 35
acheter 35
use 35
bus 34
vrai 34
ready 34
entre 34
problÃ¨me 34
; 34
attention 34
found 34
important 34
t@@ 34
pris 34
meet 33
om@@ 33
end 33
coul@@ 33
jusqu&apos; 33
young 33
pays 33
lit 33
bed 33
savais 33
sens 33
derniÃ¨re 33
possible 33
ate 33
S@@ 32
easy 32
retard 32
ers 32
chambre 32
devons 32
lettre 32
mort 32
wrong 32
Ã©taient 32
ted 32
i@@ 32
few 32
married 32
Dan 32
sleep 32
early 32
age 32
pu 32
ter 32
truth 32
petite 31
small 31
facile 31
stay 31
hear 31
books 31
mine 31
letter 31
most 31
aient 31
perdu 31
li@@ 31
around 31
drink 31
yet 31
sortir 31
far 31
famille 31
another 31
those 31
knows 31
doctor 31
par@@ 30
ie 30
k@@ 30
nos 30
Tatoeba 30
semble 30
everyone 30
everybody 30
jours 30
talking 30
pay 30
met 30
ville 30
photo 30
ask 30
: 30
tÃ´t 30
or@@ 30
trouvÃ© 30
care 30
trouver 29
year 29
aucun 29
morning 29
since 29
kind 29
myself 29
party 29
once 29
ami 29
true 29
mother 29
tÃ© 29
show 29
vÃ©ritÃ© 29
raison 29
mo@@ 28
n@@ 28
happened 28
watch 28
hope 28
happen 28
apprendre 28
learn 28
anymore 28
word 28
ti@@ 28
er@@ 28
allez 28
ch@@ 28
on@@ 28
sera 28
Ã¨rent 28
nice 28
arrivÃ© 27
penses 27
vue 27
st@@ 27
ques 27
lorsque 27
its 27
tant 27
vivre 27
ri@@ 27
coming 27
country 27
while 27
sous 27
passe 27
am@@ 27
difficile 27
an@@ 27
police 27
pourrais 27
al 27
loin 27
problem 27
having 27
main 27
seulement 27
jeune 27
histoire 27
tard 27
himself 26
likes 26
pourrait 26
laisse 26
aucune 26
piÃ¨ce 26
voyage 26
eur 26
livres 26
journÃ©e 26
such 26
c@@ 26
sois 26
garÃ§on 26
tired 26
free 26
red 26
lives 26
dont 26
croire 26
chat 26
opinion 26
same 26
minutes 26
restaurant 26
family 26
yourself 26
gave 26
langue 26
looks 26
situation 26
filles 25
hav@@ 25
achetÃ© 25
together 25
cr@@ 25
celui 25
al@@ 25
write 25
rain 25
mis 25
girl 25
tÃªte 25
friends 25
donne 25
fÃªte 25
yeux 25
mot 25
dis@@ 25
miss 25
parce 25
froid 25
a@@ 25
was@@ 25
makes 25
travaille 25
arrÃªter 25
autant 25
six 25
wait 25
cat 25
language 25
cours 24
vient 24
dÃ©solÃ© 24
bought 24
A@@ 24
ly 24
matin 24
shoul@@ 24
nouvelle 24
vas 24
might 24
days 24
chaque 24
turned 24
adore 24
sÃ»r 24
vite 24
prÃ¨s 24
enfant 24
child 24
big 24
demande 24
started 24
co@@ 24
someone 24
times 24
C@@ 24
turn 24
comprendre 24
donnÃ© 24
face 24
piano 24
vers 23
voulait 23
connais 23
meeting 23
ensemble 23
accord 23
dix 23
longtemps 23
dÃ©jeuner 23
tÃ©lÃ©phone 23
study 23
seems 23
premier 23
res@@ 23
until 23
soyez 23
Ã©crit 23
viens 23
prie 23
nourriture 23
person 23
Paris 23
em@@ 23
ale 23
devrait 23
ac@@ 23
frÃ¨re 23
difficult 23
bit 23
cannot 23
fun 23
secret 23
anyone 23
dites 23
lorsqu&apos; 23
hot 23
peine 23
beau 23
fort 23
nobody 23
beautiful 23
oul@@ 23
called 23
reading 23
mÃ©decin 23
matter 22
lo@@ 22
ad@@ 22
savez 22
travailler 22
station 22
joue 22
heard 22
ante 22
dÃ©teste 22
ated 22
grande 22
habitude 22
u@@ 22
woman 22
change 22
sick 22
fit 22
tennis 22
brother 22
getting 22
com@@ 22
colÃ¨re 22
rich 22
im@@ 22
premiÃ¨re 22
P@@ 22
presque 22
hours 22
working 22
pouvons 22
si@@ 22
each 22
sur@@ 22
information 22
essayer 22
girls 21
office 21
pensÃ© 21
fini 21
bureau 21
entendu 21
c 21
mer 21
mettre 21
rouge 21
ous 21
Japon 21
finished 21
food 21
eyes 21
cheveux 21
amie 21
plutÃ´t 21
meilleur 21
light 21
waiting 21
sÅ“ur 21
av@@ 21
allons 21
mois 21
ver@@ 21
cafÃ© 21
coffee 21
hand 21
dÃ®ner 21
dinner 21
bo@@ 21
sujet 21
jouer 21
trying 21
hate 21
story 21
own 21
bri@@ 21
open 21
sing 20
heart 20
occupÃ© 20
Japanese 20
lived 20
espÃ¨re 20
living 20
ten 20
ignore 20
... 20
rÃ©@@ 20
boy 20
pretty 20
pro@@ 20
contre 20
both 20
Japan 20
soon 20
ance 20
ine 20
Oh 20
phone 20
number 20
cut 20
almost 20
suppose 20
ais 20
10 20
ens 20
ds 20
belle 20
else 20
serait 20
forget 20
laisser 20
prÃªt 20
lait 20
hair 20
tried 20
table 20
five 20
glad 20
chemin 19
y@@ 19
partie 19
film 19
thinking 19
p 19
answer 19
fils 19
hurt 19
v@@ 19
cÅ“ur 19
appelle 19
future 19
Ã©crire 19
dollars 19
D@@ 19
rend 19
dehors 19
malade 19
regarde 19
TV 19
lieu 19
wish 19
oui 19
to@@ 19
noir 19
sent 19
lu@@ 19
itÃ© 19
compte 19
under 19
fin 19
oubliÃ© 19
felt 19
per@@ 19
advice 19
min@@ 19
pain 19
wife 19
venu 19
weather 19
pouvoir 19
regarder 19
tellement 19
prÃ©@@ 19
santÃ© 19
cause 19
fumer 19
ab@@ 19
fell 18
dur 18
annÃ©e 18
nager 18
swimming 18
ni 18
rester 18
M@@ 18
entreprise 18
laquelle 18
walk 18
arrived 18
ci 18
puisse 18
break 18
qu@@ 18
vin 18
Layla 18
born 18
fast 18
Mar@@ 18
visit 18
h@@ 18
prix 18
black 18
vieux 18
vÃ©lo 18
sister 18
amour 18
laissÃ© 18
problÃ¨mes 18
l 18
angry 18
tu@@ 18
maniÃ¨re 18
langues 18
behind 18
careful 18
through 18
become 18
then 18
davantage 18
milk 18
veuillez 18
ago 18
importe 18
alors 18
died 18
rendre 18
ainsi 18
dormir 18
habite 18
appris 18
less 18
devez 18
ag@@ 18
village 18
class 18
ment 17
font 17
works 17
ded 17
worry 17
marche 17
W@@ 17
game 17
guess 17
killed 17
others 17
feu 17
tonight 17
heureuse 17
news 17
donc 17
wine 17
serai 17
against 17
vois 17
correct 17
surprised 17
payer 17
high 17
interested 17
parlez 17
close 17
Ã¨re 17
for@@ 17
quatre 17
store 17
between 17
envie 17
whole 17
art 17
students 17
quite 17
wonder 17
ps 17
tr@@ 17
pourriez 17
vit 17
derriÃ¨re 17
rencontrer 17
nouvelles 17
riche 17
peuvent 17
pensez 17
lu 17
mots 17
words 17
telle 17
amis 17
trip 17
aimes 17
attendre 17
exactly 17
cinq 17
ants 17
ement 17
mangÃ© 17
che 17
entendre 17
devriez 17
decided 17
danger 17
ches 16
serais 16
hurry 16
so@@ 16
became 16
dÃ©t@@ 16
ci@@ 16
intention 16
prochain 16
large 16
company 16
bl@@ 16
no@@ 16
yours 16
immÃ©diatement 16
faim 16
clear 16
pouvait 16
hands 16
musique 16
couple 16
mit 16
fatiguÃ© 16
known 16
midi 16
promise 16
faÃ§on 16
order 16
instant 16
du@@ 16
h 16
exactement 16
public 16
voudrais 16
ap@@ 16
euse 16
ter@@ 16
run 16
magasin 16
th 16
gr@@ 16
window 16
apprÃ©cie 16
mange 16
cost 16
propos 16
chaud 16
ting 16
professeur 16
boulot 16
efforts 16
daughter 16
bas 16
tri@@ 16
death 16
fenÃªtre 16
gu@@ 16
ins 16
Mr 16
laissez 16
ball 16
longer 16
watching 16
f 16
coup 16
smoking 16
intelligent 16
biÃ¨re 16
amoureux 15
bou@@ 15
F@@ 15
as@@ 15
certain 15
crazy 15
dernier 15
summer 15
conduire 15
fish 15
dÃ©solÃ©e 15
mu@@ 15
swim 15
mauvais 15
devrions 15
leurs 15
spend 15
fire 15
anybody 15
making 15
Ã¢ge 15
date 15
mains 15
music 15
parlÃ© 15
era 15
montre 15
city 15
tÃ©lÃ©vision 15
certains 15
verre 15
girlfriend 15
ro@@ 15
ferai 15
yes 15
ceux 15
ity 15
sometimes 15
dark 15
four 15
merci 15
start 15
lucky 15
telling 15
endroit 15
thank 15
pl@@ 15
sou@@ 15
bicycle 15
aire 15
Ã©tiez 15
el 15
past 15
ir@@ 15
languages 15
route 15
ages 15
commencÃ© 15
nÃ©cessaire 15
Tokyo 15
tour 15
poor 15
lose 15
nÃ© 15
ets 15
ni@@ 15
sÃ»re 15
erreur 15
vacances 15
ations 15
health 15
beer 15
maybe 15
tÃ©s 14
movie 14
capable 14
rÃ©union 14
also 14
rather 14
Dieu 14
gi@@ 14
compris 14
caught 14
hungry 14
John 14
su@@ 14
thinks 14
comes 14
sÃ©curitÃ© 14
hospital 14
i 14
written 14
favorite 14
playing 14
essaie 14
cuisine 14
classe 14
set 14
impossible 14
pouvais 14
cher 14
chats 14
cats 14
probably 14
easily 14
sucre 14
der 14
br@@ 14
trouble 14
voici 14
choix 14
po@@ 14
marchÃ© 14
ler 14
saying 14
sense 14
over@@ 14
half 14
has@@ 14
personnes 14
terre 14
devant 14
utiliser 14
ex@@ 14
student 14
type 14
mor@@ 14
listen 14
connaÃ®t 14
boire 14
fine 14
expÃ©rience 14
ren@@ 14
chemise 14
shirt 14
lunch 14
ho@@ 14
R@@ 14
voulons 14
30 14
essayÃ© 14
Ah 14
sleeping 14
u 14
hommes 14
idiot 14
near 14
Terre 14
arriver 14
ai@@ 14
bÃ©bÃ© 14
hotel 14
libre 14
later 14
prends 14
leaving 14
poser 14
Ã‰@@ 13
coat 13
irai 13
rencontrÃ© 13
speaking 13
ic@@ 13
confiance 13
venus 13
taxi 13
agree 13
ette 13
taking 13
breakfast 13
rez 13
bill 13
ates 13
H@@ 13
computer 13
souviens 13
rendu 13
Ã©tranger 13
allemand 13
German 13
serez 13
feeling 13
head 13
sorte 13
savait 13
ill@@ 13
dress 13
passer 13
porter 13
cro@@ 13
ge 13
sugar 13
ec@@ 13
attend 13
parfois 13
appreciate 13
numÃ©ro 13
courant 13
choice 13
droit 13
gh@@ 13
garÃ§ons 13
se@@ 13
boys 13
month 13
ent@@ 13
forgot 13
opened 13
cake 13
tÃ©lÃ© 13
completely 13
clothes 13
ticket 13
erai 13
shot 13
rent 13
bientÃ´t 13
radio 13
kept 13
boÃ®te 13
bu@@ 13
celle 13
aurait 13
experience 13
safe 13
perdre 13
least 13
clock 13
wash 13
content 13
different 13
Internet 13
looked 13
men 13
learned 13
lie 13
fruit 13
Ã©quipe 13
team 13
propre 13
mistake 13
baby 13
ressemble 13
whose 13
hÃ´tel 13
dÃ©cidÃ© 13
problems 13
charge 13
stayed 13
de@@ 13
town 13
Jane 13
whatever 12
gl@@ 12
birthday 12
poste 12
poisson 12
double 12
furent 12
minute 12
clean 12
New 12
mon@@ 12
inside 12
paper 12
either 12
allait 12
strong 12
marry 12
mi@@ 12
sentence 12
costume 12
drive 12
touch 12
hÃ´pital 12
ty 12
faisons 12
box 12
afternoon 12
die 12
prefer 12
glasses 12
gone 12
probablement 12
j@@ 12
dr@@ 12
pri@@ 12
wrote 12
facilement 12
message 12
tomber 12
ordinateur 12
end@@ 12
comprends 12
ru@@ 12
fleurs 12
flowers 12
cook 12
God 12
key 12
real 12
stupid 12
reste 12
women 12
n 12
Ã©tudiants 12
gros 12
eurs 12
dispose 12
parviens 12
second 12
donnez 12
vi@@ 12
travers 12
floor 12
arrÃªtÃ© 12
surpris 12
legs 12
au@@ 12
emploi 12
keys 12
complÃ¨tement 12
necessary 12
nombre 12
changÃ© 12
changed 12
garde 12
sort 12
needed 12
grosse 12
appelÃ© 12
admire 12
smoke 12
broke 12
slept 12
hit 12
invited 12
Earth 12
b 12
occupÃ©e 12
dead 12
ue 12
hat 12
espagnol 12
Spanish 12
esprit 12
pi@@ 12
ence 12
began 12
hour 12
present 12
visite 12
wer@@ 12
genre 12
picture 12
vaut 12
ten@@ 12
revoir 11
forward 11
manteau 11
absent 11
des@@ 11
ciel 11
soleil 11
sun 11
loved 11
cri@@ 11
anniversaire 11
rentrer 11
selon 11
dangerous 11
excuse 11
kids 11
win 11
japonais 11
article 11
York 11
marcher 11
plan@@ 11
expensive 11
Ã¨res 11
enjoy 11
feelings 11
immediately 11
veulent 11
devenu 11
gare 11
whether 11
ire 11
comp@@ 11
Å“il 11
talked 11
neige 11
adresse 11
sentences 11
ally 11
sac 11
patient 11
chi@@ 11
interesting 11
simple 11
L@@ 11
rel@@ 11
g 11
plusieurs 11
stars 11
prÃªte 11
aires 11
spoke 11
glass 11
el@@ 11
discuter 11
tenir 11
king 11
fasse 11
car@@ 11
sw@@ 11
res 11
catch 11
ues 11
NoÃ«l 11
walked 11
penser 11
5 11
deal 11
gÃ¢teau 11
femmes 11
Ã©galement 11
cent 11
moitiÃ© 11
cÃ´tÃ© 11
taken 11
wearing 11
shoes 11
bring 11
rem@@ 11
fa@@ 11
terminÃ© 11
marier 11
heavy 11
ant@@ 11
vo@@ 11
learning 11
agit 11
aise 11
running 11
evening 11
produit 11
bi@@ 11
o 11
blessÃ© 11
front 11
clÃ©s 11
sit 11
needs 11
pre@@ 11
sol 11
arme 11
seem 11
Ã¢mes 11
commence 11
conseils 11
savent 11
respect 11
played 11
sea 11
moindre 11
mar@@ 11
nombreux 11
ou@@ 11
mets 11
donn@@ 11
eaten 11
takes 11
ch 11
prenez 11
river 11
supposed 11
fl@@ 11
chapeau 11
husband 11
course 11
nature 11
fact 11
hors 11
examen 11
kill 11
pire 11
cute 11
allÃ©e 11
man@@ 11
dort 11
tion 11
test 11
ra 11
eating 11
fera 11
dessus 11
animal 11
taille 11
Smith 11
pe@@ 11
/ 11
B@@ 11
bibliothÃ¨que 10
library 10
seeing 10
har@@ 10
manque 10
mis@@ 10
park 10
fou 10
famous 10
tic 10
short 10
cl@@ 10
dangereux 10
rÃ©pondre 10
tears 10
teach 10
jeu 10
Ã©tudier 10
studying 10
enseignant 10
ful 10
cre@@ 10
tent 10
sentiments 10
prÃ©fÃ¨re 10
vis 10
tÃ©es 10
phrase 10
finish 10
eye 10
revenir 10
lis 10
journal 10
terrible 10
worked 10
shall 10
address 10
vouloir 10
strange 10
plupart 10
mauvaise 10
pleurer 10
parti 10
occasion 10
rapidement 10
stupide 10
dance 10
nu@@ 10
tor@@ 10
out@@ 10
pied 10
lumiÃ¨re 10
smart 10
sound 10
realize 10
appeler 10
carte 10
quÃ© 10
Christmas 10
devoir 10
ettes 10
closed 10
pluie 10
clÃ© 10
commencer 10
quickly 10
ating 10
cu@@ 10
tÃ©e 10
thÃ©orie 10
theory 10
broken 10
portait 10
chaussures 10
pieds 10
sub@@ 10
ique 10
patience 10
ferais 10
ayez 10
liked 10
prÃ©fÃ©rÃ©e 10
chante 10
dormi 10
speaks 10
gets 10
imagine 10
using 10
jambes 10
mal@@ 10
faisait 10
top 10
mountain 10
instituteur 10
voitures 10
innocent 10
drunk 10
Ã‰tats 10
Unis 10
prend 10
donner 10
us@@ 10
tree 10
bout 10
pleut 10
ves 10
quiet 10
service 10
send 10
dÃ©sormais 10
G@@ 10
aff@@ 10
goes 10
reason 10
Europe 10
lunettes 10
M 10
balle 10
building 10
fortune 10
pauvre 10
vieil 10
riviÃ¨re 10
outside 10
mari 10
exist 10
suite 10
join 10
thÃ©Ã¢tre 10
changer 10
case 10
crying 10
rock 10
discours 10
ies 10
snow 10
zoo 10
lam@@ 10
plays 10
affaire 10
bois 10
magazine 10
ard 10
concert 10
history 10
sommeil 10
Ã©tions 10
succÃ¨s 10
teur 10
Ã©couter 10
football 10
writing 10
guys 10
sti@@ 9
nervous 9
ked 9
rappeler 9
fall 9
driving 9
cour@@ 9
post 9
intÃ©rieur 9
view 9
men@@ 9
hold 9
ring 9
avenir 9
papier 9
fallu 9
huit 9
chanson 9
affaires 9
phrases 9
ites 9
pleased 9
venue 9
ning 9
pe 9
bag 9
dent 9
der@@ 9
rÃ© 9
abroad 9
figure 9
dev@@ 9
amies 9
vol@@ 9
direction 9
sauf 9
mean 9
dogs 9
popular 9
traffic 9
prochaine 9
ise 9
sociÃ©tÃ© 9
price 9
courage 9
white 9
autour 9
ride 9
bike 9
ass@@ 9
char@@ 9
exc@@ 9
advised 9
mÃ©@@ 9
fin@@ 9
inter@@ 9
fu@@ 9
line 9
printemps 9
single 9
spring 9
owe 9
projet 9
complete 9
ks 9
J@@ 9
regardÃ© 9
television 9
none 9
sts 9
consider 9
allowed 9
dÃ© 9
usually 9
usual 9
hiver 9
winter 9
stand 9
suit 9
Ã©t@@ 9
vingt 9
poids 9
cup 9
expect 9
guerre 9
OK 9
tient 9
secrets 9
cadeau 9
figured 9
shop 9
cou@@ 9
enne 9
montagne 9
fi@@ 9
population 9
parapluie 9
umbrella 9
rencontre 9
montrer 9
rendez 9
position 9
gun 9
herself 9
et@@ 9
blood 9
moral 9
entrÃ©e 9
dispos@@ 9
older 9
suffisamment 9
prit 9
kiss 9
gives 9
vieille 9
dictionnaire 9
dictionary 9
sooner 9
demander 9
rÃ©soudre 9
solve 9
quelconque 9
allÃ©s 9
somewhere 9
afin 9
mariÃ© 9
low 9
bu 9
lies 9
ran 9
wear 9
fat 9
viendra 9
plein 9
enti@@ 9
avance 9
carry 9
rÃ©ussi 9
sport 9
oncle 9
rou@@ 9
sight 9
photos 9
levÃ© 9
eu@@ 9
conf@@ 9
weekend 9
given 9
dimanche 9
ju@@ 9
ble 9
lequel 9
distance 9
vont 9
devenir 9
sandwich 9
full 9
go@@ 9
connaÃ®tre 9
earth 9
existence 9
Thomas 9
actually 9
- 9
meilleure 9
ur@@ 9
groupe 9
esti@@ 8
satisfied 8
tombÃ© 8
vivent 8
ms 8
viendrai 8
parc 8
solution 8
cli@@ 8
considered 8
ions 8
per 8
aimait 8
move 8
understood 8
attrapÃ© 8
cooking 8
sa@@ 8
trust 8
Ã©pouser 8
rest 8
portÃ© 8
surprise 8
mourir 8
seat 8
song 8
business 8
slow 8
travaillÃ© 8
del@@ 8
prÃ©fÃ©rÃ© 8
tou@@ 8
nÃ©e 8
dÃ©couvert 8
jardin 8
ev@@ 8
gar@@ 8
jeunes 8
Ã©trange 8
kitchen 8
vÃ©cu 8
prise 8
prÃ©sident 8
lac 8
intÃ©ressant 8
restÃ© 8
ay@@ 8
croit 8
Ã©toiles 8
cry 8
ains 8
robe 8
coupe 8
dÃ©cision 8
baiser 8
humeur 8
accused 8
fe@@ 8
danser 8
iste 8
choisir 8
pay@@ 8
lis@@ 8
coin 8
envoyÃ© 8
reÃ§u 8
cap@@ 8
dou@@ 8
dri@@ 8
Bob 8
existe 8
proposition 8
chanter 8
recherche 8
gauche 8
ar 8
sal@@ 8
erreurs 8
form 8
tuÃ© 8
ties 8
conseil 8
follow 8
ArrÃªtez 8
ling 8
leÃ§on 8
lesson 8
government 8
comm@@ 8
quiconque 8
super 8
involved 8
annÃ©es 8
pend@@ 8
spoken 8
vÃªtements 8
pommes 8
essay@@ 8
during 8
hardly 8
thirty 8
ferme 8
rire 8
aimÃ© 8
vide 8
voudriez 8
mistakes 8
wh@@ 8
oublie 8
space 8
ture 8
sommet 8
animaux 8
ding 8
raisons 8
correctement 8
road 8
cars 8
jou@@ 8
fr@@ 8
piscine 8
pool 8
United 8
seront 8
return 8
signe 8
pr@@ 8
voilÃ 8
fro@@ 8
ze 8
sang 8
crime 8
rÃ©ponse 8
mienne 8
finally 8
fo@@ 8
gagner 8
Australie 8
Australia 8
America 8
apple 8
voyager 8
travel 8
seras 8
haut 8
human 8
r 8
finalement 8
ered 8
tour@@ 8
rait 8
prepared 8
docteur 8
expected 8
rec@@ 8
our@@ 8
prÃ©sent 8
aille 8
bÃ¢timent 8
moyen 8
pos@@ 8
permission 8
twice 8
piece 8
across 8
portes 8
vase 8
Å“ufs 8
eggs 8
missed 8
check 8
honte 8
ashamed 8
pres@@ 8
ours 8
lundi 8
w 8
propres 8
pen 8
ative 8
soin 8
disappointed 8
id@@ 8
tique 8
proche 8
pen@@ 8
els 8
uncle 8
worse 8
asleep 8
arrÃªte 8
brown 8
bar 8
pour@@ 8
vacation 8
Monday 8
speech 8
ass 8
Sunday 8
00 8
pleuvoir 8
payÃ© 8
bateau 8
site 8
manquer 8
ess@@ 8
prÃªter 8
pause 8
il@@ 8
dents 8
bons 8
jeux 8
vidÃ©o 8
video 8
Chinese 8
luck 8
cancer 8
ouvert 8
rappelle 8
tuer 8
worth 8
parlent 8
k 8
court 8
dÃ©pend 8
along 8
Kate 8
sion 8
bread 8
Ã©tat 8
condition 8
quit 8
serious 8
tre 8
attends 8
Jim 8
dÃ©tails 7
details 7
wor@@ 7
sky 7
ennemi 7
here@@ 7
enemy 7
Ã¢@@ 7
devint 7
ear@@ 7
ters 7
vendre 7
seriously 7
destination 7
according 7
cru 7
larmes 7
ck 7
scientifique 7
tÃ©@@ 7
rude 7
mer@@ 7
nage 7
amoureuse 7
z@@ 7
arrivÃ©e 7
fuck 7
Excusez 7
sp@@ 7
medicine 7
allais 7
ser@@ 7
arriÃ¨re 7
sage 7
wise 7
cur@@ 7
effet 7
gen@@ 7
hurried 7
fer@@ 7
semaines 7
brought 7
touche 7
ais@@ 7
mille 7
serv@@ 7
connu 7
sembles 7
contente 7
rapport 7
report 7
greatest 7
embrasser 7
received 7
roman 7
novel 7
corps 7
body 7
ering 7
bizarre 7
ici@@ 7
pale 7
marre 7
compl@@ 7
inconvÃ©nient 7
warned 7
visited 7
bouteille 7
bottle 7
lors 7
ements 7
thanks 7
decision 7
be@@ 7
shower 7
ist 7
garage 7
letters 7
mariage 7
choose 7
cor@@ 7
tea 7
portable 7
ess 7
app@@ 7
ats 7
familiar 7
eut 7
doivent 7
reti@@ 7
tai@@ 7
copine 7
vent 7
difference 7
area 7
ali@@ 7
teeth 7
partout 7
helped 7
lever 7
intÃ©rÃªt 7
forme 7
beginning 7
energy 7
boyfriend 7
gouvernement 7
hom@@ 7
eless 7
dec@@ 7
bal@@ 7
weight 7
auriez 7
law 7
salle 7
ennuis 7
Ã©ri@@ 7
ection 7
Ã©tudiant 7
sept 7
awake 7
tre@@ 7
laughing 7
bat@@ 7
produire 7
Linda 7
rue 7
costs 7
tranquille 7
impression 7
garden 7
dÃ©couvrir 7
mat@@ 7
off@@ 7
funny 7
Ã©tage 7
eng@@ 7
espace 7
fermer 7
animals 7
responsable 7
responsible 7
expliquer 7
explain 7
hasard 7
thirsty 7
avoid 7
ents 7
painting 7
sounds 7
af@@ 7
ier 7
compagnie 7
lÃ© 7
3 7
auparavant 7
arbre 7
jolie 7
land 7
Angleterre 7
parti@@ 7
ager 7
perte 7
loss 7
filled 7
raining 7
disposez 7
aies 7
automne 7
avis 7
pomme 7
cas 7
amÃ©liorer 7
vendredi 7
Friday 7
feet 7
grow 7
disent 7
repas 7
plage 7
met@@ 7
beach 7
euses 7
Susan 7
jouÃ© 7
fenÃªtres 7
windows 7
held 7
aimer 7
listening 7
all@@ 7
AmÃ©rique 7
sors 7
fil@@ 7
silent 7
cal@@ 7
espoir 7
tÃ¢che 7
task 7
maman 7
parlait 7
cassÃ© 7
sign 7
appartient 7
sache 7
morceau 7
bet 7
cool 7
ger 7
tly 7
ables 7
means 7
vraie 7
natural 7
patron 7
vis@@ 7
parties 7
sÃ©@@ 7
aimez 7
revenu 7
2 7
fishing 7
ay 7
Ã©g@@ 7
shut 7
reach 7
spent 7
fix 7
unfortunately 7
ver 7
pou@@ 7
manager 7
x 7
pas@@ 7
prÃ©senter 7
succeeded 7
No@@ 7
injured 7
laver 7
forgive 7
cents 7
bonnes 7
ines 7
dÃ©part 7
passed 7
tall 7
erais 7
ought 7
ales 7
paid 7
11 7
ouvrir 7
retourner 7
aine 7
timide 7
shy 7
guy 7
aiment 7
loves 7
rÃ©flÃ©chir 7
orange 7
newspaper 7
common 7
dÃ©but 7
culture 7
nez 7
success 7
depends 7
painted 7
plenty 7
cherche 7
page 7
cru@@ 7
blue 7
E@@ 7
upstairs 7
pass 7
scared 7
conversation 7
demanda 7
tur@@ 7
sÃ©rieux 7
suspect 7
won 7
copies 7
gagne 7
wing 7
demi 7
following 7
ha 7
nerveux 6
rÃ©jouis 6
arbres 6
feuilles 6
trees 6
leaves 6
probable 6
devoirs 6
homework 6
oubli@@ 6
sell 6
mail 6
souci 6
entre@@ 6
tenez 6
rhume 6
emporter 6
Pro@@ 6
protect 6
arrogant 6
meant 6
leg 6
chicken 6
dor@@ 6
USA 6
plaisir 6
devient 6
cruel 6
back@@ 6
telephone 6
eight 6
cuisiner 6
futon 6
ignor@@ 6
movies 6
organ@@ 6
als 6
dÃ©cida 6
far@@ 6
weeks 6
prison 6
wore 6
mesure 6
under@@ 6
nombreuses 6
difficultÃ©s 6
chang@@ 6
keeps 6
horrible 6
ying 6
ain 6
poison 6
conduis@@ 6
ade 6
dro@@ 6
musÃ©e 6
museum 6
wake 6
os 6
quer 6
regard 6
nique 6
tait 6
Espagne 6
Spain 6
ente 6
lake 6
Nancy 6
borrow 6
tenu 6
rais 6
watched 6
conn@@ 6
exercise 6
visiter 6
chiens 6
liste 6
list 6
active 6
accusÃ© 6
bes 6
gue 6
issue 6
univers 6
universe 6
nettoyer 6
dream 6
wedding 6
blanc 6
thÃ© 6
demand@@ 6
ming 6
cul@@ 6
cho@@ 6
rends 6
intÃ©ressÃ© 6
project 6
gÃ© 6
perhaps 6
normal 6
voyez 6
nulle 6
alcool 6
forced 6
ary 6
seuls 6
gÃ©rer 6
handle 6
courir 6
faster 6
Ã©r@@ 6
agreed 6
ty@@ 6
grandes 6
chan@@ 6
happening 6
science 6
bor@@ 6
foods 6
coÃ»t 6
cows 6
translate 6
papa 6
suivre 6
refused 6
Ã©nergie 6
ner 6
petites 6
treated 6
sed 6
humour 6
lazy 6
aurions 6
fight 6
droite 6
absolument 6
ul@@ 6
hundred 6
aw@@ 6
side 6
poli@@ 6
tasse 6
centre 6
statue 6
university 6
distribu@@ 6
pes 6
st 6
prices 6
certaine 6
impressed 6
cure 6
plans 6
Ã©glise 6
sings 6
church 6
aie 6
rarement 6
tt@@ 6
oned 6
threw 6
street 6
ras 6
venait 6
hi@@ 6
cache 6
power 6
press@@ 6
accepter 6
stopped 6
upset 6
compter 6
served 6
Ã©tudie 6
onn@@ 6
prof@@ 6
parles 6
faute 6
market 6
ences 6
imaginer 6
several 6
reasons 6
ected 6
moutons 6
sheep 6
construction 6
drinking 6
ff@@ 6
accent 6
asseoir 6
cousin 6
politique 6
atten@@ 6
attend@@ 6
pizza 6
soixante 6
wonderful 6
rÃ©veillÃ© 6
inquiÃ¨te 6
worried 6
ut 6
semblez 6
gentleman 6
States 6
burst 6
imagination 6
port@@ 6
nouvel 6
vivant 6
alive 6
passÃ©e 6
sortes 6
comfortable 6
lend 6
growing 6
England 6
prÃ©parer 6
rons 6
tunnel 6
calme 6
virus 6
tire 6
appr@@ 6
knife 6
sup@@ 6
tres 6
ths 6
says 6
kissed 6
entends 6
ill 6
grandfather 6
contrat 6
cal 6
pla@@ 6
agent 6
rÃ´le 6
fon@@ 6
maladie 6
size 6
soyons 6
lots 6
crÃ©@@ 6
sav@@ 6
lic@@ 6
souvenir 6
ad 6
rs 6
lawyer 6
refaire 6
pu@@ 6
punctual 6
eus 6
rencontrÃ©e 6
fly 6
frÃ¨res 6
fruits 6
invitÃ© 6
disait 6
rÃ¨gles 6
rules 6
illes 6
mom 6
bre@@ 6
loi 6
tal@@ 6
Ã©cl@@ 6
war 6
nes 6
onnÃ© 6
Americans 6
cinÃ©ma 6
lar@@ 6
iez 6
rob@@ 6
dly 6
plu@@ 6
coucher 6
ang@@ 6
O@@ 6
force 6
accept 6
por@@ 6
anger 6
regret 6
fromage 6
entrer 6
Nations 6
quitter 6
occupe 6
conscience 6
theater 6
concentr@@ 6
montrez 6
pÃªcher 6
garder 6
hu@@ 6
failed 6
douche 6
arrivent 6
Ã©p@@ 6
chanceux 6
Canada 6
Ã©viter 6
insul@@ 6
corriger 6
frÃ©qu@@ 6
ron@@ 6
gentil 6
enter 6
consac@@ 6
ri 6
laughed 6
malheureusement 6
options 6
fear 6
certaines 6
ber 6
trente 6
excuses 6
apologize 6
starting 6
empÃªcher 6
boit 6
clairement 6
honnÃªte 6
honest 6
oranges 6
ob@@ 6
enfance 6
childhood 6
ry 6
waste 6
boat 6
poule 6
occuper 6
illÃ© 6
rend@@ 6
commenÃ§a 6
stes 6
Allemagne 6
Germany 6
touched 6
minimum 6
fs 6
mou@@ 6
soi 6
matters 6
universitÃ© 6
esse 6
voy@@ 6
rÃ©parer 6
dure 6
bas@@ 6
games 6
ator 6
soul 6
hon@@ 6
sen@@ 6
entend@@ 6
drank 6
jouets 6
toys 6
prÃªtes 6
ma@@ 6
tromp@@ 6
nations 6
tra@@ 6
memory 6
ram@@ 6
worst 6
tie 6
months 6
admitted 6
image 6
promises 6
note 6
above 6
droits 6
license 6
ouverte 6
2013 6
direct 6
erait 6
appareil 6
coÃ»te 6
pierre 6
runs 6
chercher 6
importantes 6
embarrassed 6
taller 6
pictures 6
tom@@ 6
alitÃ© 6
singer 6
bright 6
warm 6
hide 6
ellement 6
countries 6
vues 6
admis 6
instructions 6
kinds 6
perfect 6
appar@@ 6
pÃ¢le 6
Ã©chec 6
cam@@ 6
scene 6
bother 6
talks 6
miracle 6
permis 6
angles 6
durant 6
battre 6
soif 6
refl@@ 6
gagnÃ© 6
Kyoto 6
sold 6
ge@@ 6
tation 6
planÃ¨te 6
planet 6
justice 6
teurs 5
fonctionne 5
system 5
hÃ©@@ 5
cÃ©lÃ¨bre 5
selling 5
fied 5
vus 5
ners 5
within 5
apprends 5
atif 5
voulu 5
rage 5
rid 5
insist@@ 5
scientific 5
rÃ©flÃ©chi 5
Devine 5
British 5
espÃ©ranto 5
Esperanto 5
lou@@ 5
suicidÃ© 5
kindness 5
though 5
club 5
desk 5
escape 5
autrefois 5
avaient 5
toilet 5
ach@@ 5
joli 5
savons 5
harder 5
button 5
satisfait 5
plu 5
Ã¯@@ 5
bonheur 5
Salut 5
Hi 5
throw 5
vienne 5
returned 5
changing 5
beat 5
folle 5
self 5
deserve 5
retour 5
truck 5
quement 5
N@@ 5
occupÃ©s 5
remÃ¨de 5
pleu@@ 5
skin 5
arti@@ 5
everywhere 5
pique 5
sive 5
guard 5
Ã©lu 5
elected 5
arrÃªt 5
sho@@ 5
nel 5
tive 5
pli@@ 5
fiÃ© 5
dÃ©cider 5
command@@ 5
decide 5
futur 5
bonjour 5
connaisse 5
prÃ©venu 5
willing 5
sons 5
quittÃ© 5
populaire 5
parla 5
soirÃ©e 5
tort 5
push 5
mood 5
cheval 5
ss@@ 5
souhaite 5
croient 5
lettres 5
flower 5
Ã´@@ 5
taxes 5
lent 5
Soleil 5
falling 5
difficulty 5
players 5
iled 5
pt 5
ir 5
Ã¨rement 5
rÃ©aliser 5
Italie 5
Italy 5
possibilitÃ© 5
proud 5
Ã¨me 5
diffÃ©rence 5
ra@@ 5
rac@@ 5
proposal 5
aurai 5
goods 5
ouvrit 5
urgence 5
quit@@ 5
amusant 5
lines 5
Quels 5
aliments 5
frais 5
beurre 5
butter 5
rise 5
vaches 5
interest 5
traduire 5
dirai 5
dad 5
riches 5
hur@@ 5
copain 5
local 5
trai@@ 5
bicyclette 5
useful 5
impli@@ 5
totalement 5
rap@@ 5
forte 5
Anne 5
seven 5
enseigner 5
teaching 5
Ã©veillÃ© 5
att@@ 5
dÃ©s@@ 5
matiÃ¨re 5
favourite 5
subject 5
assure 5
neuf 5
bite 5
coÃ»ts 5
mag@@ 5
douleur 5
caused 5
commande 5
candy 5
owes 5
voudrait 5
connaissait 5
ati@@ 5
hiding 5
portÃ©e 5
crise 5
Ã©tang 5
pond 5
lÃ©@@ 5
meal 5
dise 5
servi 5
hÃ©ros 5
chaude 5
meubles 5
standing 5
le@@ 5
sale 5
fault 5
earthquake 5
antes 5
champ 5
ite 5
sau@@ 5
importante 5
rose 5
prÃªts 5
nonsense 5
Ã©lÃ¨ves 5
cs 5
croyez 5
poster 5
convinced 5
chÃ© 5
objectif 5
En@@ 5
add 5
ings 5
Ã©toile 5
star 5
and@@ 5
contr@@ 5
impatient 5
ll@@ 5
parked 5
alliez 5
comporte 5
mai@@ 5
invention 5
rice 5
saisir 5
opportunity 5
fus 5
conduit 5
ned 5
onne 5
entr@@ 5
walks 5
senti 5
believed 5
happens 5
enfin 5
chacun 5
calm 5
math 5
excited 5
bras 5
donna 5
arms 5
pped 5
silencieux 5
autumn 5
froide 5
U@@ 5
Union 5
accep@@ 5
acide 5
utile 5
rains 5
improve 5
physical 5
hÃ¢te 5
danced 5
ront 5
petits 5
contract 5
diffÃ©rent 5
race 5
determined 5
poche 5
mad 5
policeman 5
bear 5
illness 5
poin@@ 5
ved 5
unique 5
rÃ©s 5
rarely 5
tombÃ©e 5
smile 5
ker 5
pigeons 5
appelez 5
envoyer 5
tells 5
Ap@@ 5
hole 5
smaller 5
faits 5
mathÃ©matiques 5
ira 5
bedroom 5
sortie 5
Ã¨te 5
data 5
log@@ 5
Ã©cris 5
salaire 5
support 5
huge 5
amuser 5
gold 5
ards 5
respecter 5
fix@@ 5
lÃ©g@@ 5
populaires 5
foi 5
lier 5
restÃ©e 5
rÃ©pondu 5
iller 5
In@@ 5
sel 5
feriez 5
rÃ©ellement 5
drop 5
enseign@@ 5
pushed 5
becoming 5
oiseau 5
bird 5
grands 5
chant@@ 5
dÃ©r@@ 5
sentez 5
share 5
friendly 5
changes 5
smells 5
coupÃ© 5
attendu 5
signifie 5
visage 5
ic 5
mel@@ 5
gotten 5
cheese 5
fer 5
mensonge 5
Ã§@@ 5
refuse 5
refus@@ 5
stories 5
dÃ©Ã§u 5
trans@@ 5
Ã©rÃ© 5
led 5
beef 5
ahead 5
exam 5
objective 5
voisins 5
due 5
ching 5
niveau 5
control 5
bug 5
fully 5
rÃ©sultats 5
results 5
state 5
viennent 5
offer 5
dÃ©truit 5
bon@@ 5
march@@ 5
soldats 5
soldiers 5
color 5
prises 5
losing 5
2@@ 5
Con@@ 5
preuve 5
evidence 5
forever 5
promesse 5
mien 5
tement 5
pÃ©@@ 5
1@@ 5
average 5
pat@@ 5
Ã©tudi@@ 5
contact 5
bandes 5
bank 5
form@@ 5
traveling 5
cher@@ 5
couteau 5
anywhere 5
drinks 5
clearly 5
singing 5
bur@@ 5
promettre 5
remar@@ 5
ply 5
blame 5
lied 5
rer 5
tru@@ 5
def@@ 5
followed 5
chocolat 5
chocolate 5
pression 5
stopping 5
toucher 5
indiquer 5
remercier 5
Ã©cureuils 5
squirrels 5
connaissez 5
dos 5
green 5
tel 5
sentir 5
ably 5
rejoindre 5
parie 5
magazines 5
pack 5
salt 5
sat 5
listened 5
cartes 5
cards 5
exp@@ 5
gars 5
ns 5
jambe 5
ser 5
certainement 5
visit@@ 5
fool 5
fume 5
ol@@ 5
rang 5
ore@@ 5
vendu 5
paying 5
gri@@ 5
longues 5
rencontrÃ©s 5
peuple 5
venez 5
foule 5
contin@@ 5
grÃ¢ce 5
cravate 5
gÃ©nÃ©ration 5
generation 5
quelles 5
appointment 5
boss 5
helps 5
interdit 5
traitÃ© 5
rement 5
promesses 5
mÃ©tro 5
dÃ©si@@ 5
mettez 5
dÃ©range 5
attrape 5
nation@@ 5
plait 5
cont@@ 5
conseillÃ© 5
trouver@@ 5
succeed 5
sleepy 5
rÃ©solu 5
col@@ 5
camera 5
dessert 5
aque 5
tiens 5
welcome 5
guide 5
arrested 5
bleu 5
stylo 5
ta@@ 5
ner@@ 5
ouvrez 5
recognize 5
lÃ¨ve 5
mariÃ©s 5
Paul 5
soup@@ 5
fou@@ 5
pollution 5
campagne 5
passez 5
cochon 5
piggy 5
grandmother 5
upon 5
shi@@ 5
clever 5
avocat 5
ok 5
Ã©norme 5
ake 5
gues 5
alternative 5
jean 5
mignonne 5
dus 5
parfait 5
ors 5
soutien 5
mÃ©di@@ 5
terie 5
absolutely 5
fired 5
lonely 5
clair 5
Ju@@ 5
wears 5
round 5
deny 5
built 5
sist@@ 5
match 5
base 5
baseball 5
exhausted 5
stood 5
brothers 5
ordinaire 5
delicious 5
machine 5
suffit 5
marteau 5
hammer 5
op@@ 5
V@@ 5
oubliez 5
rumeur 5
doors 5
environ 5
ace 5
calling 5
voit 5
viol@@ 5
ambition 5
fermÃ© 5
volontÃ© 5
dirait 5
tionn@@ 5
talent 5
ressources 5
regardez 5
ness 5
ely 5
soccer 5
tableau 5
likely 5
terribly 5
total 5
waited 5
Ch@@ 5
dÃ©e 5
sienne 5
systÃ¨me 4
tons 4
taire 4
traiter 4
critique 4
devraient 4
celles 4
forgotten 4
ateurs 4
sÃ©rieusement 4
class@@ 4
assi@@ 4
abord 4
gÃ©nÃ©ral 4
franchement 4
frankly 4
locked 4
atives 4
aines 4
scientifiques 4
scientists 4
blesser 4
parmi 4
gentillesse 4
avions 4
sunny 4
esses 4
ambulance 4
son@@ 4
lion 4
ward 4
films 4
horreur 4
douÃ© 4
sex@@ 4
effect 4
happiness 4
washed 4
finir 4
any@@ 4
fac@@ 4
rÃ©alitÃ© 4
egg 4
dommage 4
thousand 4
correcte 4
boo@@ 4
verse 4
gathered 4
lin@@ 4
pure 4
folie 4
protÃ©ger 4
sauver 4
request 4
seriez 4
symbol 4
Promettez 4
sign@@ 4
gÃ©nie 4
kissing 4
picnic 4
lover 4
bruit 4
noise 4
adop@@ 4
attitude 4
aggressive 4
Mike 4
Ã®mes 4
prÃ©vu 4
smo@@ 4
exem@@ 4
exam@@ 4
la@@ 4
hello 4
believes 4
weird 4
endre 4
cass@@ 4
nul 4
Chine 4
China 4
plai@@ 4
exercice 4
hell 4
among 4
wi@@ 4
horse 4
biolog@@ 4
aimÃ©e 4
spending 4
my@@ 4
eront 4
veuilles 4
unless 4
fleur 4
password 4
zed 4
society 4
Ken 4
four@@ 4
pul@@ 4
prÃ©fÃ©rerais 4
cle@@ 4
boring 4
agir 4
prom@@ 4
behave 4
faisais 4
cad@@ 4
fallen 4
younger 4
interrom@@ 4
queue 4
diable 4
moved 4
utilisez 4
blo@@ 4
ger@@ 4
bles 4
microscope 4
ris 4
possibility 4
auteur 4
removed 4
contrÃ´le 4
capitaine 4
ushed 4
russe 4
Russian 4
gonna 4
exact 4
action 4
wind 4
toit 4
spÃ©ci@@ 4
giving 4
couverture 4
discount 4
dises 4
denti@@ 4
lignes 4
Inde 4
India 4
oun@@ 4
troubles 4
accompli@@ 4
pleasure 4
ends 4
bottles 4
diagno@@ 4
ia 4
uni@@ 4
ease 4
beautÃ© 4
beauty 4
perdue 4
sixty 4
avion 4
plane 4
billet 4
achÃ¨te 4
potatoes 4
musicien 4
musician 4
ateur 4
attendons 4
trou@@ 4
batt@@ 4
War 4
tro@@ 4
remind 4
id 4
lock 4
assurance 4
insurance 4
igner 4
deeply 4
wide 4
prendra 4
seconde 4
terms 4
DÃ©@@ 4
pÃªche 4
crain@@ 4
vies 4
concerned 4
terminer 4
dry 4
mÃ©rite 4
fantÃ´mes 4
ghosts 4
voie 4
mess 4
BrÃ©sil 4
Brazil 4
tombe 4
parlons 4
supporter 4
cieux 4
cir@@ 4
prudente 4
compar@@ 4
cinema 4
rideau 4
curtain 4
crisis 4
thin@@ 4
middle 4
appÃ©tit 4
count 4
hero 4
weak 4
badly 4
chanteuse 4
keeping 4
permettre 4
afford 4
veniez 4
empty 4
tenait 4
rappelez 4
Ã¨ne 4
feed 4
properly 4
esp@@ 4
brain 4
augmentÃ© 4
less@@ 4
prof 4
puni 4
utilisÃ© 4
punished 4
lÃ¨@@ 4
lay 4
Sou@@ 4
irs 4
Ã©vit@@ 4
available 4
entÃ© 4
passage 4
tures 4
10@@ 4
Joh@@ 4
vague 4
brillante 4
peinture 4
dira 4
slipped 4
had@@ 4
ennu@@ 4
bored 4
intended 4
social 4
Osaka 4
firm 4
avo@@ 4
hand@@ 4
brÃ»@@ 4
Eiffel 4
stri@@ 4
ping 4
eats 4
riz 4
entrÃ© 4
Ã©clata 4
entered 4
advantage 4
intelligente 4
ordres 4
sert 4
philosophie 4
philosophy 4
crossed 4
promets 4
Ho@@ 4
bat 4
beating 4
hor@@ 4
valid 4
gÃ©@@ 4
nue 4
suggÃ¨re 4
suggest 4
const@@ 4
impliquÃ© 4
foreign 4
burned 4
terais 4
diffÃ©rences 4
atteint 4
reached 4
aÃ®@@ 4
sol@@ 4
trouveras 4
couramment 4
me@@ 4
wood 4
gÃ©nÃ©ralement 4
ended 4
ordre 4
Helen 4
blind 4
wondering 4
chansons 4
songs 4
jette 4
flies 4
jouent 4
physique 4
appearance 4
asse 4
arrogance 4
couper 4
save 4
volÃ© 4
mez 4
tentÃ© 4
forÃªt 4
traductions 4
The 4
translations 4
shame 4
connaissais 4
acted 4
soli@@ 4
accor@@ 4
sensitive 4
humaine 4
god 4
sensÃ© 4
sensible 4
act 4
chem@@ 4
anti@@ 4
poli 4
polite 4
lentement 4
slowly 4
ath@@ 4
grew 4
mauvaises 4
appro@@ 4
habituÃ© 4
sex 4
sun@@ 4
fic@@ 4
assu@@ 4
prÃ©par@@ 4
temperature 4
cally 4
publique 4
truc 4
od@@ 4
SMS 4
bouton 4
lycÃ©e 4
travailles 4
devait 4
tente 4
directeur 4
prÃ©vois 4
int 4
healthy 4
trouvait 4
abandonner 4
doute 4
doubts 4
rant 4
comportement 4
invitÃ©es 4
espÃ¨ce 4
Ã©n@@ 4
mentir 4
awesome 4
genoux 4
aboie 4
constituent 4
pensent 4
plaisante 4
utilise 4
Japonais 4
donnÃ©es 4
consu@@ 4
pie 4
chons 4
vouliez 4
traverser 4
postale 4
postcard 4
clo@@ 4
pot 4
censÃ© 4
holiday 4
repaired 4
faith 4
impact 4
Ã©car@@ 4
rule 4
salade 4
salad 4
promised 4
aisÃ© 4
baleine 4
whale 4
ap 4
carriÃ¨re 4
special 4
Al@@ 4
lum@@ 4
sÃ©rie 4
robot 4
ea@@ 4
ires 4
debout 4
Ã©te@@ 4
triste 4
sad 4
rank 4
instead 4
ven@@ 4
tra 4
cesse 4
acceptable 4
sin@@ 4
faux 4
conserv@@ 4
ocÃ©an 4
encourag@@ 4
risque 4
contributeur 4
apprÃ©ci@@ 4
contributor 4
amical 4
intelligence 4
breath 4
dishes 4
showed 4
dating 4
collec@@ 4
piÃ¨ces 4
anci@@ 4
hobby 4
produits 4
ugly 4
highly 4
ish 4
oiseaux 4
birds 4
solved 4
quinze 4
donnent 4
ori@@ 4
mature 4
danger@@ 4
