. 16753
de 7164
la 3907
je 3749
est 3186
a 3024
@-@ 2993
? 2913
pas 2913
l&apos; 2882
vous 2596
, 2562
que 2527
il 2465
le 2461
Ã 2266
ne 1983
en 1725
n&apos; 1693
Tom 1595
un 1568
ce 1539
tu 1414
les 1406
j&apos; 1388
&apos; 1349
ai 1309
une 1241
I 1235
the 1231
to 1112
you 1092
nous 1068
me 1060
d&apos; 892
elle 873
des 853
suis 851
faire 794
! 777
t 769
train 764
qu&apos; 748
et 737
plus 726
pour 719
c&apos; 689
fait 679
is 671
dans 629
qui 594
Ã§a 582
&quot; 578
Ãªtre 547
Ã©tait 541
m&apos; 511
sont 509
mon 504
y 490
Ã©tÃ© 484
si 472
as 470
s&apos; 466
tout 459
of 448
air 447
moi 446
vie 433
temps 431
in 421
son 417
avec 409
du 407
s 406
ont 400
au 400
ils 387
se 381
Ãªtes 381
votre 375
he 369
te 365
that 364
chose 362
it 345
avez 345
I@@ 344
cette 341
veux 336
on 331
trÃ¨s 326
sur 324
do 322
dit 315
aide 308
peux 297
have 296
lui 292
this 283
my 277
sa 276
was 270
grand 266
es 258
are 255
for 252
pourquoi 252
mais 246
oÃ¹ 244
don@@ 241
avons 240
par 239
comment 236
pense 236
ici 232
monde 232
dire 231
autre 231
ma 229
we 227
your 227
maison 227
comme 221
homme 221
she 220
not 219
sais 217
be 213
tous 212
jamais 212
gens 208
parler 205
and 200
m 200
beaucoup 199
deux 198
voir 197
mÃªme 196
trop 194
avoir 192
what 190
sommes 188
bien 186
Ã©cole 185
petite 183
Ã©tais 182
vraiment 182
avait 180
Mary 176
quelque 176
quand 174
aime 174
besoin 173
aller 171
with 170
toi 169
peut 168
bon 165
argent 163
re 162
voiture 162
encore 161
plaÃ®t 160
t&apos; 158
like 155
his 154
peu 154
you@@ 153
know 152
want 152
va 152
ses 148
personne 148
Marie 147
bonne 147
notre 146
eau 142
at 140
vu 139
it@@ 138
yeux 138
ou 136
rien 136
all 135
fois 135
langue 134
aussi 134
ton 132
cela 131
there 130
d@@ 130
vais 130
maintenant 130
autres 130
toujours 130
lÃ 130
her 129
dois 128
they 127
main 127
nuit 127
dÃ©jÃ 127
travail 126
mes 126
eu 125
heure 125
can 123
him 122
sans 122
mort 121
an 120
quel 120
mÃ¨re 120
did 119
enfants 119
go 117
has 117
pÃ¨re 116
soit 114
petit 114
how 113
pouvez 113
avais 112
chien 111
ve 110
ces 110
voulez 110
femme 109
simplement 109
heures 109
venir 108
avant 108
very 107
porte 107
Sami 106
elles 106
if 105
jour 105
no 104
time 104
anglais 104
ta 103
di@@ 102
had 101
can@@ 100
franÃ§ais 100
aujourd&apos; 100
hui 100
think 99
out 99
ll 98
combien 98
seul 98
get 97
quoi 97
livre 97
arrive 96
one 95
tes 95
chez 95
journÃ©e 94
choses 94
aimerais 93
fille 92
aider 92
but 90
question 90
assez 90
trois 90
would 89
sortir 89
were 87
Terre 87
re@@ 86
derniÃ¨re 86
ans 85
maniÃ¨re 85
aux 85
prendre 84
dÃ» 84
manger 83
will 82
mieux 82
aprÃ¨s 82
Ã© 82
so 81
idÃ©e 80
from 79
dis 79
peur 79
lire 79
allÃ© 79
livres 79
about 78
here 78
up 78
questions 78
quelle 78
musique 78
Ã©e 78
sait 77
passÃ© 77
demain 77
who 76
retard 76
pu 76
trouve 76
us 75
heureux 75
partir 75
just 74
hier 74
juste 74
semaine 74
parents 73
d 73
parle 73
tÃªte 73
leur 73
mal 72
ami 72
acheter 72
toutes 72
when 71
place 71
where 71
never 71
arrÃªter 71
puis 71
demandÃ© 71
seule 71
why 70
mis 70
croire 70
souvent 70
faut 70
part 69
jeune 69
pris 69
ville 68
trouvÃ© 68
sens 68
need 67
at@@ 67
good 67
please 67
nouveau 67
dÃ©@@ 67
going 66
pensais 66
nom 66
sol 66
histoire 66
e@@ 65
by 65
savoir 65
tell 64
er 64
aurais 64
prix 64
problÃ¨me 64
en@@ 63
come 63
help 63
ent 63
chambre 63
nourriture 63
am 62
see 62
more 62
we@@ 62
entreprise 62
trouver 62
soir 62
fut 62
toute 62
ons 61
than 61
es@@ 61
in@@ 61
photo 61
quelqu&apos; 61
raison 61
sera 61
moins 61
th@@ 60
allons 60
filles 60
Ã©taient 60
doit 60
amie 59
facile 59
really 58
ait 58
dormir 58
famille 58
chemin 58
piÃ¨ce 58
been 57
professeur 57
perdu 57
tÃ´t 57
regarder 56
dur 56
veut 56
penses 56
could 55
too 55
car 55
fais 55
colÃ¨re 55
problÃ¨mes 55
pays 55
jours 55
entre 54
faites 54
crois 54
lettre 54
devriez 54
habitude 54
should 53
do@@ 53
vrai 53
arrivÃ© 53
voulais 53
cet 53
pourrais 52
vÃ©ritÃ© 52
mÃ©decin 52
depuis 52
much 51
accident 51
take 51
situation 51
mari 51
vos 51
premiÃ¨re 51
savais 51
difficile 51
dÃ©solÃ© 51
nouvelle 51
ez 51
only 50
now 50
enfant 50
fÃªte 50
savez 50
accord 50
semble 50
lit 50
devrais 50
Ã©s 50
day 49
work 49
eux 49
travailler 49
parce 49
loin 49
sÃ»r 49
allez 48
meilleur 48
garÃ§on 48
point 47
chance 47
some 47
moment 47
sois 47
frÃ¨re 47
donnÃ© 47
occupÃ© 47
langues 47
soyez 47
any 46
Boston 46
Dan 46
vue 46
quelques 46
non 46
demande 46
mot 46
our 45
man 45
laissÃ© 45
vite 45
ci 45
nos 45
connais 45
tard 45
vin 45
entendu 45
Ã©@@ 45
he@@ 44
cÅ“ur 44
matin 44
vieille 44
Ã©tranger 44
cours 44
expÃ©rience 44
presque 44
long 43
ant 43
peine 43
apprendre 43
riche 43
comprendre 43
grande 43
laisse 43
cuisine 43
ceci 43
people 42
prÃªt 42
voyage 42
vas 42
achetÃ© 42
fumer 42
tÃ©lÃ©phone 42
vivre 42
jouer 42
make 41
adore 41
magasin 41
route 41
jeux 41
oubliÃ© 41
devons 41
dÃ©teste 41
premier 41
biÃ¨re 41
voulait 41
p@@ 40
must 40
is@@ 40
way 40
plan 40
lot 40
anything 40
s@@ 40
instant 40
amour 40
vÃ©lo 40
Unis 40
malade 40
cafÃ© 40
rester 40
home 39
say 39
right 39
able 39
France 39
hommes 39
essayer 39
pourrait 39
love 38
little 38
ed 38
got 38
g@@ 38
end 38
commencÃ© 38
devrait 38
ferai 38
Japon 38
rouge 38
essayÃ© 38
vieux 38
annÃ©e 38
autant 38
pendant 38
possible 37
jusqu&apos; 37
pouvons 37
santÃ© 37
lu 37
dÃ©jeuner 37
sÅ“ur 37
longtemps 37
mettre 37
ensemble 37
cheveux 37
erreur 37
Ã©es 37
ar@@ 36
does 36
today 36
week 36
give 36
money 36
devrions 36
fort 36
boulot 36
marier 36
seulement 36
levÃ© 36
laisser 36
entendre 36
well 35
speak 35
still 35
chat 35
attention 35
viens 35
sociÃ©tÃ© 35
envie 35
belle 35
what@@ 34
look 34
went 34
important 34
bus 34
amis 34
froid 34
grosse 34
classe 34
fils 34
donne 34
mangÃ© 34
prie 34
bureau 34
sujet 34
Tatoeba 33
something 33
told 33
nothing 33
leave 33
off 33
intention 33
bas 33
Ã©tiez 33
peuvent 33
Ã©crit 33
plupart 33
moindre 33
boÃ®te 33
fatiguÃ© 33
travaille 33
noir 33
cinq 33
vient 33
vit 33
school 32
live 32
wanted 32
new 32
last 32
before 32
talk 32
room 32
mer 32
two 32
or 32
them 32
e 32
mains 32
serez 32
fin 32
espÃ¨re 32
pensÃ© 32
venu 32
serait 32
mots 32
b@@ 31
mauvais 31
dites 31
montre 31
aimes 31
tÃ©lÃ©vision 31
nÃ© 31
chaque 31
tant 31
joue 31
prÃ¨s 31
aient 31
everything 30
again 30
thought 30
ts 30
many 30
opinion 30
minutes 30
rendre 30
midi 30
appelÃ© 30
dix 30
Ã©crire 30
aucun 30
pouvait 30
mienne 30
vacances 30
passe 30
old 29
find 29
won@@ 29
better 29
ther@@ 29
back 29
sure 29
happy 29
father 29
alone 29
police 29
restaurant 29
ie 29
film 29
pourriez 29
poisson 29
amoureux 29
femmes 29
nager 29
Ã‰tats 29
puisse 29
verre 29
contre 29
intÃ©rieur 29
sous 29
tÃ© 29
may 28
let 28
always 28
read 28
took 28
house 28
con@@ 28
try 28
night 28
ation 28
l@@ 28
feel 28
m@@ 28
ter 28
mois 28
nÃ©cessaire 28
propos 28
veuillez 28
laissez 28
fenÃªtre 28
gare 28
surpris 28
hÃ´tel 28
espagnol 28
sÃ»re 28
lait 28
fini 28
Ã¨rent 28
French 27
children 27
first 27
into 27
f@@ 27
job 27
li@@ 27
secret 27
o@@ 27
r@@ 27
aise 27
payer 27
merci 27
celui 27
pauvre 27
allemand 27
bÃ©bÃ© 27
utiliser 27
rencontrer 27
oui 27
dÃ®ner 27
lorsque 27
three 26
these 26
book 26
English 26
made 26
other 26
: 26
information 26
par@@ 26
garÃ§ons 26
esprit 26
poser 26
rendu 26
alors 26
feu 26
beau 26
propre 26
appris 26
aucune 26
ques 26
eur 26
dont 26
n@@ 25
hard 25
sorry 25
late 25
cold 25
said 25
understand 25
tomorrow 25
Ã©quipe 25
rÃ©union 25
devez 25
lieu 25
pensez 25
lunettes 25
endroit 25
pouvais 25
souviens 25
pause 25
parlÃ© 25
faÃ§on 25
voulons 25
partie 25
tellement 25
S@@ 24
T@@ 24
yesterday 24
eat 24
down 24
wants 24
life 24
without 24
sh@@ 24
suppose 24
c@@ 24
piano 24
appeler 24
Ã¢ge 24
montagne 24
piscine 24
hÃ´pital 24
quatre 24
numÃ©ro 24
chemise 24
chats 24
lorsqu&apos; 24
dÃ©cidÃ© 24
derriÃ¨re 24
importe 24
Dieu 24
sac 24
nouvelles 24
water 23
ing 23
their 23
name 23
seen 23
away 23
mo@@ 23
already 23
tennis 23
ri@@ 23
because 23
pain 23
ti@@ 23
age 23
six 23
ale 23
content 23
rencontrÃ© 23
prÃ©fÃ©rÃ©e 23
changÃ© 23
choix 23
blessÃ© 23
faim 23
parlez 23
sÃ©curitÃ© 23
marchÃ© 23
manteau 23
essaie 23
nombre 23
perdre 23
k@@ 22
done 22
after 22
om@@ 22
even 22
let@@ 22
wrong 22
art 22
an@@ 22
im@@ 22
i@@ 22
efforts 22
table 22
vers 22
parfois 22
Ã©pouser 22
conduire 22
Ã©tudiants 22
clÃ©s 22
prenez 22
certains 22
coup 22
tÃ©lÃ© 22
dernier 22
chaud 22
dÃ©solÃ©e 22
libre 22
ante 22
which 21
er@@ 21
put 21
M@@ 21
idea 21
afraid 21
letter 21
y&apos; 21
w@@ 21
knew 21
ted 21
t@@ 21
ch@@ 21
or@@ 21
tour 21
fleurs 21
habite 21
riviÃ¨re 21
voudrais 21
marche 21
appelle 21
sentiments 21
font 21
regarde 21
regardÃ© 21
conseils 21
gÃ¢teau 21
moitiÃ© 21
heureuse 21
leurs 21
attendre 21
anniversaire 21
rend 21
plutÃ´t 21
often 20
best 20
asked 20
teacher 20
ignore 20
play 20
mind 20
costume 20
enough 20
stop 20
most 20
believe 20
left 20
fit 20
dog 20
; 20
thing 20
tuÃ© 20
savait 20
serais 20
japonais 20
probablement 20
genre 20
dessus 20
terre 20
neige 20
ordinateur 20
rÃ©@@ 20
ais 20
easy 19
being 19
door 19
keep 19
A@@ 19
its 19
al@@ 19
ready 19
buy 19
Paris 19
pay 19
great 19
ers 19
Oh 19
com@@ 19
l 19
on@@ 19
av@@ 19
garde 19
Australie 19
mets 19
donnez 19
avenir 19
davantage 19
boire 19
arme 19
instituteur 19
prochain 19
mange 19
bibliothÃ¨que 19
connaÃ®t 19
nombreux 19
thÃ©Ã¢tre 19
comprends 19
exactement 19
ainsi 19
dehors 19
itÃ© 19
compte 19
pouvoir 19
prÃ©@@ 19
every 18
st@@ 18
busy 18
used 18
rain 18
since 18
learn 18
bed 18
things 18
dis@@ 18
cr@@ 18
drink 18
10 18
qu@@ 18
few 18
ens 18
ag@@ 18
res@@ 18
village 18
intelligent 18
mit 18
oncle 18
courant 18
affaire 18
devenu 18
prends 18
immÃ©diatement 18
sucre 18
venus 18
veulent 18
emploi 18
serai 18
apprÃ©cie 18
telle 18
v@@ 18
ni 18
laquelle 18
sur@@ 18
small 17
bad 17
years 17
c 17
doing 17
everybody 17
remember 17
u@@ 17
country 17
once 17
lost 17
per@@ 17
married 17
ment 17
came 17
ine 17
found 17
having 17
those 17
C@@ 17
cat 17
lo@@ 17
bri@@ 17
ciel 17
facilement 17
dormi 17
bientÃ´t 17
hors 17
thÃ©orie 17
tenir 17
clÃ© 17
compris 17
pire 17
occupÃ©e 17
donc 17
vois 17
Ã¨re 17
che 17
happened 16
call 16
meet 16
over 16
watch 16
saw 16
world 16
... 16
tired 16
Layla 16
myself 16
coming 16
party 16
true 16
ci@@ 16
al 16
a@@ 16
am@@ 16
ver@@ 16
hot 16
truth 16
face 16
ants 16
em@@ 16
ennuis 16
pleurer 16
Ã©tage 16
chapeau 16
voici 16
difficultÃ©s 16
ressemble 16
dort 16
phrases 16
chaussures 16
ceux 16
phrase 16
dÃ©t@@ 16
euse 16
himself 15
stay 15
ever 15
write 15
mine 15
kind 15
dollars 15
talking 15
ac@@ 15
du@@ 15
tu@@ 15
hand 15
big 15
family 15
co@@ 15
sleep 15
radio 15
wait 15
No@@ 15
oul@@ 15
Ah 15
idiot 15
pro@@ 15
bl@@ 15
danger 15
cause 15
ab@@ 15
seras 15
taille 15
NoÃ«l 15
plage 15
vÃªtements 15
discours 15
irai 15
allÃ©e 15
voitures 15
papier 15
rÃ©soudre 15
poste 15
jardin 15
fera 15
droit 15
soleil 15
cher 15
allÃ©s 15
hiver 15
capable 15
aire 15
ches 14
looking 14
bought 14
ly 14
next 14
hope 14
morning 14
coul@@ 14
girl 14
lives 14
the@@ 14
impossible 14
friend 14
h 14
ance 14
ad@@ 14
around 14
sent 14
use 14
under 14
miss 14
lu@@ 14
ds 14
was@@ 14
ir@@ 14
P@@ 14
dinner 14
show 14
makes 14
problem 14
milk 14
bo@@ 14
pl@@ 14
ate 14
ins 14
ement 14
met 14
u 14
ren@@ 14
no@@ 14
ations 14
attend 14
intÃ©ressÃ© 14
jeu 14
dÃ©cision 14
gagnÃ© 14
adresse 14
envoyÃ© 14
honte 14
parapluie 14
balle 14
lumiÃ¨re 14
prÃ©fÃ¨re 14
rappeler 14
rÃ©ponse 14
type 14
sorte 14
arrÃªtÃ© 14
aurait 14
montrer 14
tÃ©s 14
bou@@ 14
era 14
personnes 14
devant 14
arriver 14
y@@ 13
office 13
minute 13
large 13
hear 13
yours 13
taxi 13
ten 13
study 13
books 13
station 13
seems 13
everyone 13
H@@ 13
anymore 13
boy 13
change 13
finished 13
TV 13
while 13
der 13
getting 13
for@@ 13
tr@@ 13
someone 13
gr@@ 13
ages 13
another 13
ask 13
knows 13
gave 13
beautiful 13
ap@@ 13
si@@ 13
gu@@ 13
R@@ 13
ler 13
ai@@ 13
ets 13
pluie 13
danser 13
chanson 13
lis 13
Å“il 13
ouvert 13
demander 13
prochaine 13
conseil 13
rÃ©pondre 13
larmes 13
fasse 13
pleut 13
vieil 13
donner 13
enseignant 13
prÃªte 13
pieds 13
guerre 13
ArrÃªtez 13
jambes 13
leÃ§on 13
tomber 13
Ã‰@@ 13
confiance 13
rez 13
passer 13
sou@@ 13
erai 13
celle 13
certain 12
might 12
days 12
D@@ 12
red 12
young 12
pretty 12
woman 12
friends 12
body 12
correct 12
eyes 12
cro@@ 12
to@@ 12
light 12
ter@@ 12
phone 12
bit 12
same 12
cannot 12
fun 12
anyone 12
yet 12
far 12
rent 12
started 12
behind 12
vi@@ 12
times 12
ge 12
yourself 12
hair 12
each 12
five 12
admire 12
doctor 12
care 12
language 12
turn 12
looks 12
f 12
ill@@ 12
min@@ 12
i 12
semblez 12
bÃ¢timent 12
bateau 12
mariÃ© 12
penser 12
attrapÃ© 12
sommeil 12
pleuvoir 12
dÃ©tails 12
fenÃªtres 12
lundi 12
pomme 12
Ã©galement 12
manquer 12
Å“ufs 12
mourir 12
carte 12
cÃ´tÃ© 12
vis 12
musÃ©e 12
parc 12
fou 12
Ã©couter 12
examen 12
ayez 12
vÃ©cu 12
dangereux 12
mauvaise 12
revoir 12
terminÃ© 12
stupide 12
furent 12
ette 12
allait 12
faisons 12
porter 12
reste 12
gros 12
eurs 12
dispose 12
parviens 12
travers 12
complÃ¨tement 12
visite 12
vaut 12
works 11
sing 11
as@@ 11
crazy 11
likes 11
W@@ 11
answer 11
matter 11
mu@@ 11
hurt 11
guess 11
lived 11
meeting 11
together 11
walk 11
fire 11
date 11
caught 11
John 11
tonight 11
shoul@@ 11
heard 11
such 11
break 11
journal 11
written 11
Mar@@ 11
soon 11
word 11
wish 11
cut 11
po@@ 11
un@@ 11
advice 11
ticket 11
else 11
ps 11
hours 11
au@@ 11
Tokyo 11
chi@@ 11
Internet 11
glad 11
less 11
story 11
class 11
charge 11
ni@@ 11
nice 11
mor@@ 11
mar@@ 11
zoo 11
so@@ 11
gi@@ 11
Ã©tudier 11
roman 11
bu 11
stylo 11
poids 11
chanceux 11
projet 11
avance 11
cadeau 11
parti 11
aiment 11
meilleure 11
dictionnaire 11
robe 11
timide 11
dents 11
payÃ© 11
oublie 11
rapidement 11
rentrer 11
selon 11
marcher 11
Ã¨res 11
plusieurs 11
aires 11
discuter 11
res 11
ant@@ 11
agit 11
produit 11
Ã¢mes 11
commence 11
savent 11
donn@@ 11
ra 11
year 10
swimming 10
game 10
article 10
New 10
mon@@ 10
others 10
living 10
rather 10
future 10
happen 10
bill 10
couple 10
until 10
ated 10
promise 10
patient 10
ay@@ 10
order 10
cats 10
high 10
nu@@ 10
yes 10
h@@ 10
message 10
courage 10
sugar 10
sister 10
brother 10
close 10
start 10
child 10
coffee 10
quite 10
vo@@ 10
languages 10
working 10
early 10
ago 10
words 10
innocent 10
died 10
death 10
lunch 10
30 10
ball 10
des@@ 10
cent 10
ire 10
concert 10
su@@ 10
/ 10
bu@@ 10
tri@@ 10
el 10
ou@@ 10
viendra 10
invitÃ© 10
rapport 10
conseillÃ© 10
ouverte 10
vidÃ©o 10
Excusez 10
travaillÃ© 10
reÃ§u 10
sommet 10
fallu 10
proposition 10
emporter 10
jeunes 10
perte 10
lac 10
espoir 10
huit 10
choisir 10
amies 10
baiser 10
coin 10
montrez 10
affaires 10
manque 10
tÃ©es 10
revenir 10
vouloir 10
pied 10
quÃ© 10
devoir 10
ettes 10
commencer 10
tÃ©e 10
portait 10
rem@@ 10
ique 10
ferais 10
chante 10
mal@@ 10
faisait 10
prend 10
bout 10
dÃ©sormais 10
suite 10
changer 10
bois 10
Ã©tions 10
succÃ¨s 10
teur 10
girls 9
F@@ 9
whatever 9
cri@@ 9
hav@@ 9
worry 9
G@@ 9
fish 9
double 9
ic@@ 9
heart 9
plan@@ 9
expensive 9
spend 9
anybody 9
breakfast 9
hungry 9
known 9
favorite 9
born 9
turned 9
ous 9
visit 9
both 9
interesting 9
Japan 9
food 9
dress 9
girlfriend 9
j@@ 9
public 9
dr@@ 9
pri@@ 9
ro@@ 9
end@@ 9
br@@ 9
inter@@ 9
number 9
run 9
store 9
ec@@ 9
almost 9
mother 9
rich 9
sense 9
past 9
completely 9
shoes 9
ex@@ 9
tent 9
student 9
weather 9
secrets 9
then 9
front 9
us@@ 9
poor 9
tried 9
service 9
aff@@ 9
Europe 9
hit 9
reading 9
pe 9
ates 9
rou@@ 9
5 9
se@@ 9
open 9
Smith 9
tion 9
dev@@ 9
o 9
ass@@ 9
football 9
venue 9
ites 9
ten@@ 9
M 9
savons 9
Ã©tudiant 9
fermÃ© 9
animaux 9
jouÃ© 9
faute 9
senti 9
mariage 9
allais 9
accusÃ© 9
corps 9
promesses 9
arbre 9
patron 9
rappelle 9
prÃªter 9
espace 9
lever 9
jolie 9
marteau 9
responsable 9
coÃ»t 9
tombÃ© 9
ennemi 9
enfance 9
vivent 9
chanter 9
Ã©toiles 9
portes 9
douche 9
moyen 9
erreurs 9
propres 9
prÃ©sident 9
men@@ 9
rÃ© 9
vol@@ 9
sauf 9
autour 9
mÃ©@@ 9
ues 9
printemps 9
dÃ© 9
Ã©t@@ 9
vingt 9
tient 9
cou@@ 9
enne 9
rencontre 9
rendez 9
entrÃ©e 9
suffisamment 9
prit 9
quelconque 9
afin 9
ue 9
plein 9
rÃ©ussi 9
dimanche 9
lequel 9
vont 9
devenir 9
connaÃ®tre 9
groupe 9
fell 8
absent 8
hurry 8
loved 8
became 8
summer 8
thinking 8
cl@@ 8
dangerous 8
excuse 8
swim 8
Japanese 8
York 8
inside 8
enjoy 8
clear 8
music 8
comp@@ 8
computer 8
surprise 8
ty 8
free 8
fast 8
against 8
simple 8
sick 8
person 8
tor@@ 8
ise 8
smart 8
char@@ 8
realize 8
appreciate 8
single 8
dark 8
difficult 8
four 8
cap@@ 8
th 8
ent@@ 8
window 8
telling 8
n 8
students 8
super 8
pend@@ 8
ting 8
heavy 8
patience 8
wife 8
listen 8
careful 8
ho@@ 8
bi@@ 8
population 8
umbrella 8
trip 8
experience 8
fu@@ 8
trying 8
shirt 8
least 8
af@@ 8
different 8
Mr 8
near 8
our@@ 8
lie 8
team 8
own 8
vide 8
longer 8
watching 8
fl@@ 8
outside 8
imagine 8
sal@@ 8
fi@@ 8
sub@@ 8
decided 8
course 8
B@@ 8
direction 8
photos 8
ble 8
nature 8
ence 8
sandwich 8
animal 8
mi@@ 8
Jane 8
pay@@ 8
moral 8
- 8
ard 8
univers 8
tasse 8
admis 8
feriez 8
dÃ©but 8
rumeur 8
nez 8
banque 8
remercier 8
ri 8
campagne 8
loi 8
princesse 8
rencontrÃ©e 8
connu 8
contrat 8
soif 8
thÃ© 8
feuilles 8
bizarre 8
Espagne 8
honnÃªte 8
rÃ¨gles 8
gentil 8
disent 8
devoirs 8
inconvÃ©nient 8
viendrai 8
cour@@ 8
aimait 8
portÃ© 8
prÃ©fÃ©rÃ© 8
nÃ©e 8
dÃ©couvert 8
dent 8
Ã©trange 8
prise 8
intÃ©ressant 8
restÃ© 8
croit 8
coupe 8
humeur 8
iste 8
dou@@ 8
existe 8
recherche 8
gauche 8
quiconque 8
annÃ©es 8
pommes 8
essay@@ 8
ferme 8
rire 8
aimÃ© 8
voudriez 8
raisons 8
correctement 8
jou@@ 8
seront 8
signe 8
voilÃ 8
sang 8
dispos@@ 8
gagner 8
voyager 8
haut 8
finalement 8
rait 8
docteur 8
prÃ©sent 8
aille 8
soin 8
tique 8
proche 8
arrÃªte 8
bons 8
tuer 8
parlent 8
dÃ©pend 8
Ã©tat 8
tre 8
attends 8
sti@@ 7
nervous 7
coat 7
mis@@ 7
ded 7
movie 7
solution 7
studying 7
clean 7
killed 7
arrived 7
immediately 7
taking 7
hands 7
news 7
thinks 7
sentence 7
touch 7
hospital 7
ev@@ 7
gar@@ 7
German 7
set 7
L@@ 7
feeling 7
rel@@ 7
prefer 7
city 7
glasses 7
stars 7
compl@@ 7
el@@ 7
garage 7
car@@ 7
out@@ 7
easily 7
black 7
exc@@ 7
catch 7
app@@ 7
ru@@ 7
line 7
owe 7
choice 7
ks 7
tai@@ 7
J@@ 7
none 7
between 7
Bob 7
whole 7
God 7
opened 7
consider 7
key 7
deal 7
lucky 7
felt 7
ais@@ 7
cake 7
ties 7
angry 7
bicycle 7
women 7
clothes 7
fa@@ 7
wonder 7
thirty 7
forget 7
Linda 7
speaks 7
become 7
position 7
exactly 7
sort 7
crime 7
called 7
wash 7
har@@ 7
r 7
cre@@ 7
dictionary 7
rec@@ 7
fil@@ 7
hate 7
b 7
cor@@ 7
Spanish 7
sport 7
later 7
bar 7
00 7
ales 7
existence 7
ture 7
cents 7
Thomas 7
Kate 7
cu@@ 7
court 7
ici@@ 7
condition 7
vis@@ 7
go@@ 7
prison 7
tou@@ 7
fr@@ 7
visage 7
Ã©chec 7
appareil 7
Ã©nergie 7
bras 7
dÃ©Ã§u 7
aÃ©roport 7
avocat 7
imaginer 7
parie 7
chiens 7
malheureusement 7
cuisiner 7
nerveux 7
bicyclette 7
planÃ¨te 7
commenÃ§a 7
excuses 7
parfait 7
permis 7
Ã¢@@ 7
devint 7
vendre 7
cru 7
scientifique 7
tÃ©@@ 7
ions 7
nage 7
amoureuse 7
arrivÃ©e 7
arriÃ¨re 7
effet 7
fer@@ 7
semaines 7
touche 7
mille 7
serv@@ 7
sembles 7
contente 7
embrasser 7
marre 7
occasion 7
bouteille 7
lors 7
ements 7
lis@@ 7
portable 7
eut 7
doivent 7
copine 7
partout 7
intÃ©rÃªt 7
forme 7
gouvernement 7
comm@@ 7
auriez 7
salle 7
Ã©ri@@ 7
sept 7
produire 7
rue 7
tranquille 7
dÃ©couvrir 7
fermer 7
expliquer 7
hasard 7
compagnie 7
lÃ© 7
auparavant 7
Angleterre 7
disposez 7
aies 7
automne 7
avis 7
cas 7
amÃ©liorer 7
vendredi 7
repas 7
euses 7
tour@@ 7
aimer 7
AmÃ©rique 7
sors 7
tÃ¢che 7
maman 7
parlait 7
cassÃ© 7
appartient 7
sache 7
morceau 7
ables 7
vraie 7
sÃ©@@ 7
aimez 7
revenu 7
enti@@ 7
pen@@ 7
Ã©g@@ 7
pou@@ 7
prÃ©senter 7
pour@@ 7
eu@@ 7
laver 7
bonnes 7
dÃ©part 7
ess@@ 7
erais 7
lam@@ 7
ouvrir 7
retourner 7
rÃ©flÃ©chir 7
cherche 7
demanda 7
sÃ©rieux 7
gagne 7
demi 7
library 6
ked 6
wor@@ 6
sky 6
fall 6
driving 6
p 6
speaking 6
cli@@ 6
kids 6
win 6
per 6
company 6
also 6
ring 6
agree 6
paper 6
sp@@ 6
making 6
strong 6
marry 6
far@@ 6
comes 6
drive 6
talked 6
terrible 6
box 6
wine 6
address 6
afternoon 6
der@@ 6
figure 6
ering 6
Nancy 6
head 6
mean 6
ains 6
dogs 6
list 6
surprised 6
accused 6
dance 6
wrote 6
king 6
choose 6
ity 6
waiting 6
sometimes 6
fin@@ 6
cho@@ 6
interested 6
flowers 6
destination 6
walked 6
forgot 6
ch 6
real 6
usually 6
cost 6
quickly 6
thank 6
hom@@ 6
stand 6
saying 6
vent 6
theory 6
broken 6
over@@ 6
has@@ 6
learning 6
tre@@ 6
through 6
legs 6
kept 6
mountain 6
keys 6
accent 6
necessary 6
daughter 6
United 6
tree 6
fro@@ 6
land 6
finally 6
tunnel 6
met@@ 6
sleeping 6
Susan 6
respect 6
fon@@ 6
broke 6
goes 6
reason 6
somewhere 6
fruit 6
fortune 6
cal@@ 6
permission 6
mistake 6
cure 6
lies 6
vase 6
hat 6
fo@@ 6
In@@ 6
mat@@ 6
hotel 6
lar@@ 6
husband 6
bor@@ 6
plu@@ 6
pres@@ 6
force 6
problems 6
pi@@ 6
kill 6
rock 6
ences 6
brown 6
press@@ 6
present 6
luck 6
cancer 6
conf@@ 6
orange 6
beer 6
culture 6
history 6
2013 6
ut 6
magazine 6
sion 6
man@@ 6
conn@@ 6
appar@@ 6
ents 6
gue 6
site 6
ur@@ 6
diffÃ©rence 6
rideau 6
tien 6
voulu 6
chocolat 6
censÃ© 6
mensonge 6
franchement 6
mecs 6
Devine 6
Ã©cureuils 6
Italie 6
films 6
matiÃ¨re 6
indiquer 6
vaches 6
cravate 6
invitÃ©es 6
suicidÃ© 6
prÃªts 6
soldats 6
amusant 6
coÃ»ts 6
esti@@ 6
rÃ©jouis 6
arbres 6
probable 6
gl@@ 6
oubli@@ 6
souci 6
entre@@ 6
tenez 6
rhume 6
dor@@ 6
plaisir 6
devient 6
ser@@ 6
sage 6
sa@@ 6
dÃ©cida 6
mesure 6
nombreuses 6
chang@@ 6
conduis@@ 6
quer 6
nique 6
tait 6
ente 6
tenu 6
rais 6
visiter 6
liste 6
nettoyer 6
blanc 6
rends 6
gÃ© 6
voyez 6
nulle 6
alcool 6
seuls 6
gÃ©rer 6
courir 6
Ã©r@@ 6
grandes 6
papa 6
suivre 6
petites 6
aurions 6
droite 6
absolument 6
certaine 6
Ã©glise 6
aie 6
rarement 6
ras 6
venait 6
cache 6
accepter 6
compter 6
Ã©tudie 6
onn@@ 6
parles 6
moutons 6
asseoir 6
politique 6
atten@@ 6
ier 6
soixante 6
rÃ©veillÃ© 6
inquiÃ¨te 6
port@@ 6
nouvel 6
vivant 6
passÃ©e 6
sortes 6
prÃ©parer 6
rons 6
ager 6
calme 6
appr@@ 6
tres 6
entends 6
pla@@ 6
agent 6
rÃ´le 6
maladie 6
soyons 6
crÃ©@@ 6
souvenir 6
refaire 6
eus 6
frÃ¨res 6
fruits 6
pos@@ 6
disait 6
illes 6
Ã©cl@@ 6
nes 6
onnÃ© 6
cinÃ©ma 6
ger 6
iez 6
coucher 6
fromage 6
entrer 6
quitter 6
occupe 6
pÃªcher 6
garder 6
arrivent 6
Ã©p@@ 6
Ã©viter 6
corriger 6
frÃ©qu@@ 6
ron@@ 6
consac@@ 6
certaines 6
trente 6
empÃªcher 6
boit 6
clairement 6
ju@@ 6
poule 6
occuper 6
illÃ© 6
stes 6
Allemagne 6
soi 6
universitÃ© 6
esse 6
voy@@ 6
rÃ©parer 6
dure 6
aine 6
entend@@ 6
jouets 6
prÃªtes 6
tromp@@ 6
droits 6
erait 6
coÃ»te 6
pierre 6
chercher 6
importantes 6
alitÃ© 6
ellement 6
vues 6
pÃ¢le 6
durant 6
battre 6
satisfied 5
seeing 5
here@@ 5
park 5
ear@@ 5
selling 5
post 5
tears 5
insist@@ 5
ful 5
club 5
feelings 5
z@@ 5
understood 5
telephone 5
harder 5
futon 5
gen@@ 5
rest 5
finish 5
whether 5
eye 5
horrible 5
seat 5
business 5
slow 5
worked 5
del@@ 5
sentences 5
greatest 5
die 5
arti@@ 5
abroad 5
kitchen 5
received 5
g 5
gone 5
visited 5
sons 5
spoke 5
bottle 5
glass 5
probably 5
traffic 5
be@@ 5
shower 5
fe@@ 5
ist 5
ss@@ 5
mer@@ 5
universe 5
price 5
sw@@ 5
ming 5
ride 5
ats 5
trouble 5
complete 5
cook 5
gh@@ 5
difference 5
faster 5
rac@@ 5
area 5
ali@@ 5
agreed 5
ty@@ 5
usual 5
helped 5
winter 5
cows 5
beginning 5
local 5
government 5
involved 5
half 5
taken 5
poli@@ 5
law 5
wearing 5
expect 5
st 5
Anne 5
OK 5
laughing 5
plans 5
sings 5
gets 5
figured 5
space 5
using 5
sale 5
construction 5
explain 5
sit 5
cousin 5
cars 5
fine 5
needs 5
pizza 5
painting 5
mai@@ 5
seem 5
imagination 5
pr@@ 5
blood 5
lose 5
happens 5
needed 5
older 5
virus 5
ves 5
gives 5
send 5
knife 5
ill 5
grandfather 5
cal 5
sea 5
os 5
sooner 5
lic@@ 5
men 5
pigeons 5
learned 5
all@@ 5
Earth 5
mag@@ 5
building 5
twice 5
low 5
river 5
poin@@ 5
tal@@ 5
ar 5
cool 5
dise 5
exist 5
dly 5
active 5
join 5
natural 5
Nations 5
refus@@ 5
parties 5
fact 5
disappointed 5
bes 5
objective 5
Canada 5
shut 5
insul@@ 5
spent 5
fix 5
uncle 5
crying 5
off@@ 5
unfortunately 5
options 5
ver 5
cute 5
sup@@ 5
ies 5
began 5
contact 5
given 5
oranges 5
snow 5
ines 5
tall 5
distance 5
touched 5
minimum 5
fs 5
quit@@ 5
eating 5
11 5
pression 5
and@@ 5
worth 5
ach@@ 5
ff@@ 5
tra@@ 5
ram@@ 5
x 5
months 5
2 5
mÃ©tro 5
cur@@ 5
tire 5
note 5
col@@ 5
dessert 5
USA 5
ain 5
scared 5
piggy 5
ite 5
regard 5
jean 5
pas@@ 5
serious 5
cam@@ 5
concentr@@ 5
sist@@ 5
pes 5
fer 5
copies 5
miracle 5
3 5
Ap@@ 5
cul@@ 5
tur@@ 5
matins 5
Promettez 5
plafond 5
Ã©tudiante 5
comportement 5
exercice 5
horreur 5
postale 5
teurs 5
fonctionne 5
hÃ©@@ 5
cÃ©lÃ¨bre 5
vus 5
apprends 5
atif 5
rÃ©flÃ©chi 5
espÃ©ranto 5
lou@@ 5
autrefois 5
avaient 5
joli 5
satisfait 5
plu 5
organ@@ 5
Ã¯@@ 5
bonheur 5
Salut 5
vienne 5
folle 5
retour 5
quement 5
occupÃ©s 5
remÃ¨de 5
pleu@@ 5
pique 5
Ã©lu 5
arrÃªt 5
fiÃ© 5
dÃ©cider 5
futur 5
bonjour 5
connaisse 5
prÃ©venu 5
quittÃ© 5
populaire 5
parla 5
soirÃ©e 5
tort 5
cheval 5
souhaite 5
croient 5
lettres 5
Ã´@@ 5
demand@@ 5
Soleil 5
ir 5
Ã¨rement 5
rÃ©aliser 5
possibilitÃ© 5
reti@@ 5
Ã¨me 5
aurai 5
ouvrit 5
urgence 5
chan@@ 5
Quels 5
aliments 5
frais 5
beurre 5
traduire 5
dirai 5
riches 5
copain 5
trai@@ 5
humour 5
impli@@ 5
totalement 5
centre 5
forte 5
distribu@@ 5
enseigner 5
Ã©veillÃ© 5
dÃ©s@@ 5
neuf 5
bat@@ 5
douleur 5
commande 5
impression 5
voudrait 5
connaissait 5
portÃ©e 5
crise 5
Ã©tang 5
lÃ©@@ 5
servi 5
hÃ©ros 5
chaude 5
meubles 5
antes 5
champ 5
sau@@ 5
importante 5
Ã©lÃ¨ves 5
croyez 5
poster 5
chÃ© 5
objectif 5
Ã©toile 5
alliez 5
comporte 5
saisir 5
fus 5
conduit 5
onne 5
entr@@ 5
parti@@ 5
enfin 5
chacun 5
donna 5
silencieux 5
froide 5
accep@@ 5
acide 5
utile 5
hÃ¢te 5
ront 5
petits 5
diffÃ©rent 5
poche 5
unique 5
sav@@ 5
rÃ©s 5
tombÃ©e 5
appelez 5
envoyer 5
rs 5
faits 5
mathÃ©matiques 5
ira 5
sortie 5
Ã¨te 5
Ã©cris 5
salaire 5
amuser 5
respecter 5
lÃ©g@@ 5
populaires 5
foi 5
lier 5
restÃ©e 5
rÃ©pondu 5
iller 5
sel 5
rÃ©ellement 5
enseign@@ 5
oiseau 5
grands 5
chant@@ 5
dÃ©r@@ 5
sentez 5
coupÃ© 5
attendu 5
por@@ 5
signifie 5
conscience 5
Ã§@@ 5
Ã©rÃ© 5
voisins 5
niveau 5
rÃ©sultats 5
viennent 5
dÃ©truit 5
march@@ 5
preuve 5
promesse 5
mien 5
tement 5
pÃ©@@ 5
Ã©tudi@@ 5
bandes 5
cher@@ 5
couteau 5
ob@@ 5
promettre 5
rer 5
rend@@ 5
toucher 5
il@@ 5
mou@@ 5
connaissez 5
dos 5
tel 5
sentir 5
rejoindre 5
cartes 5
gars 5
jambe 5
ser 5
certainement 5
fume 5
vendu 5
longues 5
rencontrÃ©s 5
peuple 5
venez 5
foule 5
grÃ¢ce 5
gÃ©nÃ©ration 5
quelles 5
interdit 5
traitÃ© 5
dÃ©si@@ 5
mettez 5
dÃ©range 5
attrape 5
plait 5
trouver@@ 5
rÃ©solu 5
aque 5
page 5
tiens 5
bleu 5
ouvrez 5
lÃ¨ve 5
mariÃ©s 5
soup@@ 5
fou@@ 5
passez 5
cochon 5
Ã©norme 5
mignonne 5
dus 5
soutien 5
mÃ©di@@ 5
terie 5
clair 5
base 5
ordinaire 5
suffit 5
oubliez 5
environ 5
ace 5
voit 5
volontÃ© 5
dirait 5
tionn@@ 5
ressources 5
regardez 5
tableau 5
dÃ©e 5
sienne 5
details 4
system 4
homework 4
enemy 4
famous 4
tic 4
short 4
assi@@ 4
ally 4
teach 4
view 4
rid 4
protect 4
British 4
arrogant 4
rude 4
meant 4
hold 4
sunny 4
desk 4
move 4
ambulance 4
fuck 4
medicine 4
back@@ 4
cooking 4
als 4
shall 4
self 4
poison 4
dro@@ 4
N@@ 4
wake 4
strange 4
attitude 4
tive 4
exam@@ 4
cry 4
warned 4
willing 4
popular 4
among 4
push 4
mood 4
wedding 4
password 4
Ken 4
tea 4
bike 4
advised 4
prom@@ 4
behave 4
sound 4
pt 4
Italy 4
possibility 4
perhaps 4
boys 4
normal 4
closed 4
exact 4
ary 4
month 4
wind 4
handle 4
science 4
allowed 4
stupid 4
oun@@ 4
ling 4
boyfriend 4
sed 4
suit 4
dec@@ 4
beauty 4
lazy 4
rap@@ 4
side 4
spoken 4
bring 4
cup 4
university 4
statue 4
during 4
Green 4
lock 4
hardly 4
seven 4
liked 4
assure 4
second 4
vies 4
oned 4
candy 4
evening 4
costs 4
verse 4
cir@@ 4
mistakes 4
ati@@ 4
crisis 4
eng@@ 4
meal 4
served 4
prof@@ 4
shop 4
keeping 4
top 4
earthquake 4
ding 4
several 4
reasons 4
sheep 4
esp@@ 4
road 4
rose 4
nonsense 4
Sou@@ 4
irs 4
drunk 4
sounds 4
pre@@ 4
Osaka 4
changed 4
gun 4
worried 4
Eiffel 4
invention 4
gentleman 4
States 4
herself 4
burst 4
safe 4
return 4
et@@ 4
hi@@ 4
ze 4
comfortable 4
lend 4
reached 4
loss 4
kiss 4
quiet 4
blind 4
clock 4
ade 4
feet 4
danced 4
acted 4
sensible 4
chem@@ 4
polite 4
slowly 4
ered 4
windows 4
held 4
sign@@ 4
my@@ 4
smile 4
solve 4
ker 4
ad 4
SMS 4
slept 4
White 4
eaten 4
takes 4
piece 4
baby 4
ards 4
dead 4
clo@@ 4
supposed 4
impact 4
war 4
sign 4
whose 4
eggs 4
bet 4
Americans 4
ran 4
drop 4
ashamed 4
wear 4
tly 4
sin@@ 4
ours 4
accept 4
w 4
hobby 4
collec@@ 4
regret 4
cheese 4
ori@@ 4
case 4
pen 4
ative 4
bar@@ 4
pass@@ 4
beef 4
ot@@ 4
carry 4
failed 4
reach 4
stayed 4
ety 4
sight 4
tem@@ 4
â€‹ 4
manager 4
1@@ 4
pure 4
id@@ 4
tures 4
vacation 4
shelf 4
( 4
) 4
vague 4
prepare 4
ass 4
forgive 4
honest 4
Sunday 4
file 4
hour 4
boat 4
La 4
zone 4
book@@ 4
passed 4
engineers 4
test 4
offen@@ 4
salon 4
health 4
pat@@ 4
matters 4
video 4
leaving 4
Pro@@ 4
plays 4
bas@@ 4
de@@ 4
acti@@ 4
super@@ 4
magazines 4
shy 4
exp@@ 4
picture 4
guy 4
ner 4
angle 4
newspaper 4
rang 4
nations 4
Con@@ 4
pe@@ 4
ris@@ 4
success 4
above 4
suicide 4
V@@ 4
town 4
fix@@ 4
cont@@ 4
adop@@ 4
denti@@ 4
ta@@ 4
observe 4
Paul 4
guys 4
wee 4
impatient 4
blonde 4
const@@ 4
ection 4
pis@@ 4
disposes 4
gues 4
instructions 4
ner@@ 4
natur@@ 4
ra@@ 4
eras 4
enn@@ 4
bles 4
suspect 4
igner 4
esses 4
fic@@ 4
-@@ 4
ivre 4
crayon 4
AlgÃ©rie 4
qu 4
systÃ¨me 4
tons 4
taire 4
traiter 4
critique 4
devraient 4
celles 4
ateurs 4
sÃ©rieusement 4
abord 4
gÃ©nÃ©ral 4
aines 4
scientifiques 4
blesser 4
parmi 4
gentillesse 4
avions 4
ignor@@ 4
douÃ© 4
sex@@ 4
finir 4
rÃ©alitÃ© 4
dommage 4
correcte 4
folie 4
protÃ©ger 4
sauver 4
seriez 4
gÃ©nie 4
bruit 4
sive 4
Ã®mes 4
prÃ©vu 4
pli@@ 4
exem@@ 4
endre 4
cass@@ 4
nul 4
Chine 4
plai@@ 4
aimÃ©e 4
eront 4
veuilles 4
fleur 4
lent 4
prÃ©fÃ©rerais 4
agir 4
faisais 4
interrom@@ 4
queue 4
diable 4
utilisez 4
auteur 4
contrÃ´le 4
capitaine 4
russe 4
toit 4
spÃ©ci@@ 4
couverture 4
dises 4
lignes 4
Inde 4
uni@@ 4
beautÃ© 4
bal@@ 4
perdue 4
ul@@ 4
avion 4
billet 4
achÃ¨te 4
musicien 4
ateur 4
attendons 4
batt@@ 4
assurance 4
prendra 4
seconde 4
DÃ©@@ 4
pÃªche 4
crain@@ 4
terminer 4
mÃ©rite 4
fantÃ´mes 4
voie 4
BrÃ©sil 4
tombe 4
parlons 4
supporter 4
cieux 4
prudente 4
appÃ©tit 4
chanteuse 4
permettre 4
veniez 4
tenait 4
rappelez 4
Ã¨ne 4
augmentÃ© 4
prof 4
puni 4
utilisÃ© 4
lÃ¨@@ 4
Ã©vit@@ 4
entÃ© 4
attend@@ 4
brillante 4
peinture 4
dira 4
contr@@ 4
ennu@@ 4
brÃ»@@ 4
riz 4
entrÃ© 4
Ã©clata 4
intelligente 4
ordres 4
sert 4
philosophie 4
promets 4
gÃ©@@ 4
nue 4
suggÃ¨re 4
impliquÃ© 4
terais 4
diffÃ©rences 4
atteint 4
aÃ®@@ 4
trouveras 4
couramment 4
gÃ©nÃ©ralement 4
ordre 4
chansons 4
jette 4
jouent 4
physique 4
couper 4
volÃ© 4
mez 4
tentÃ© 4
forÃªt 4
traductions 4
connaissais 4
soli@@ 4
humaine 4
sensÃ© 4
poli 4
lentement 4
mauvaises 4
habituÃ© 4
assu@@ 4
prÃ©par@@ 4
publique 4
truc 4
bouton 4
lycÃ©e 4
travailles 4
devait 4
tente 4
directeur 4
prÃ©vois 4
int 4
trouvait 4
abandonner 4
doute 4
rant 4
espÃ¨ce 4
Ã©n@@ 4
mentir 4
genoux 4
aboie 4
constituent 4
pensent 4
plaisante 4
utilise 4
Japonais 4
donnÃ©es 4
log@@ 4
chons 4
vouliez 4
traverser 4
Ã©car@@ 4
salade 4
aisÃ© 4
baleine 4
carriÃ¨re 4
sÃ©rie 4
debout 4
Ã©te@@ 4
triste 4
tra 4
cesse 4
faux 4
ocÃ©an 4
risque 4
contributeur 4
apprÃ©ci@@ 4
amical 4
piÃ¨ces 4
produits 4
oiseaux 4
quinze 4
donnent 4
puissiez 4
trans@@ 4
crit 4
parfaitement 4
restez 4
bÅ“uf 4
rÃ©ponds 4
lÃ¢che 4
Ã©chou@@ 4
risques 4
els 4
congÃ© 4
yait 4
terriblement 4
diffÃ©rents 4
profonde 4
forcer 4
traduction 4
manqu@@ 4
Ã©tude 4
coÃ»tÃ© 4
mÃ© 4
bon@@ 4
prononcer 4
couleur 4
mari@@ 4
trouvent 4
prises 4
apprentissage 4
apporte 4
mignons 4
passeport 4
suivant 4
Ã©pou@@ 4
noyÃ© 4
moyenne 4
sombre 4
circulation 4
Su@@ 4
brÃ»lÃ© 4
dessinÃ©es 4
blessÃ©e 4
joie 4
restes 4
iser 4
couteaux 4
voix 4
hab@@ 4
Ã©conomie 4
lesquelles 4
menti 4
apprend 4
chaleur 4
endormi 4
ingÃ©nieurs 4
nier 4
vÃ©ritable 4
coupable 4
Londres 4
prÃ©sent@@ 4
mÃªmes 4
empÃªchÃ© 4
objets 4
marron 4
chinois 4
bour@@ 4
complet 4
monte 4
poÃ¨me 4
rapide 4
bÃ¢@@ 4
Ã¢me 4
deuxiÃ¨me 4
dÃ©goÃ»@@ 4
bordel 4
prennent 4
mise 4
sÃ»rement 4
faible 4
sÃ©chÃ© 4
casser 4
AmÃ©ricains 4
ma@@ 4
gri@@ 4
sortez 4
assis 4
ayant 4
puissance 4
touchÃ© 4
mÃ©moire 4
canapÃ© 4
Ã©cri@@ 4
aimerait 4
fautes 4
Ã©tant 4
fidÃ¨le 4
image 4
rement 4
trez 4
tante 4
peint 4
prendrai 4
pleure 4
ign@@ 4
dÃ©tec@@ 4
prudent 4
appel@@ 4
sourire 4
lien 4
exig@@ 4
causÃ© 4
lÃ©gumes 4
cach@@ 4
naturel 4
fri@@ 4
caractÃ¨re 4
merveilleux 4
cru@@ 4
gag@@ 4
gorge 4
raconter 4
peau 4
malgrÃ© 4
E@@ 4
atteindre 4
pein@@ 4
tendance 4
utilis@@ 4
heureuses 4
chanteur 4
ail 4
conversation 4
concentrer 4
attendais 4
Jouons 4
billets 4
naissance 4
volant 4
fous 4
devenus 4
jet@@ 4
forts 4
possÃ¨de 4
entier 4
reux 4
semblait 4
quitte 4
tez 4
confÃ©rence 4
cÃ©libataire 4
phÃ©nomÃ¨ne 4
Ã©ti@@ 4
souri@@ 4
impatience 4
troisiÃ¨me 4
mÃ©ri@@ 4
commenc@@ 4
reconnaissante 4
guitare 4
forcÃ© 4
remettre 4
commun 4
viol@@ 4
appelÃ©e 4
invitÃ©s 4
erons 4
fallait 4
voleur 4
fier 4
privÃ© 4
environnement 4
parole 4
semblant 4
nÃ´tre 4
indi@@ 4
Ã©poque 4
longs 4
chanceuse 4
tation 4
connaissance 4
Jim 4
pars 4
emprunter 4
rique 4
Ha 4
dÃ©f@@ 4
ponctuel 4
forward 3
trees 3
leaves 3
ms 3
treat 3
sell 3
ters 3
Invite 3
seriously 3
according 3
jum@@ 3
locked 3
discussed 3
scientific 3
considered 3
definite 3
apartment 3
leg 3
kindness 3
ero@@ 3
chicken 3
escape 3
cruel 3
toilet 3
drag@@ 3
lion 3
either 3
tier 3
eight 3
button 3
movies 3
obs@@ 3
cured 3
guessed 3
hurried 3
washed 3
trust 3
weeks 3
hi 3
Kobe 3
throw 3
wore 3
under@@ 3
brought 3
returned 3
fac@@ 3
beat 3
boo@@ 3
song 3
gathered 3
deserve 3
report 3
pleased 3
playing 3
truck 3
ning 3
request 3
museum 3
inspiration 3
bag 3
pull 3
genius 3
lover 3
noise 3
tiny 3
Mike 3
lake 3
novel 3
instruc@@ 3
decide 3
watched 3
hypothesis 3
thanks 3
decision 3
wi@@ 3
biolog@@ 3
issue 3
spending 3
dream 3
flower 3
taxes 3
civi@@ 3
society 3
praised 3
An@@ 3
cle@@ 3
ess 3
difficulty 3
players 3
iled 3
familiar 3
younger 3
project 3
microscope 3
Christmas 3
corpus 3
trunk 3
ushed 3
captain 3
action 3
four@@ 3
television 3
roof 3
dri@@ 3
discount 3
champagne 3
happening 3
grand@@ 3
lines 3
foods 3
nap 3
butter 3
ating 3
repair 3
form 3
slip 3
troubles 3
translate 3
pleasure 3
dad 3
refused 3
follow 3
energy 3
ends 3
lesson 3
pick 3
urgent 3
treated 3
diagno@@ 3
ia 3
recently 3
ease 3
sixty 3
scr@@ 3
hall 3
resistance 3
tro@@ 3
remind 3
id 3
insurance 3
teaching 3
att@@ 3
favourite 3
wide 3
caused 3
dropped 3
tt@@ 3
oil 3
suc@@ 3
threw 3
street 3
owes 3
Brazil 3
garden 3
abundance 3
compar@@ 3
hiding 3
funny 3
floor 3
upset 3
industri@@ 3
badly 3
afford 3
le@@ 3
animals 3
responsible 3
inf@@ 3
ected 3
feed 3
entirely 3
lay 3
teachers 3
ina 3
10@@ 3
star 3
ll@@ 3
firm 3
parked 3
wonderful 3
stri@@ 3
eats 3
rice 3
entered 3
advantage 3
philosophy 3
crossed 3
beating 3
Gre@@ 3
valid 3
suggest 3
burned 3
believed 3
susp@@ 3
earlier 3
calm 3
filled 3
raining 3
math 3
sol@@ 3
pickpockets 3
autumn 3
America 3
Union 3
apple 3
sour 3
pleasant 3
Helen 3
songs 3
improve 3
travel 3
arrogance 3
Friday 3
grow 3
ths 3
The 3
kissed 3
Grand@@ 3
shame 3
impul@@ 3
human 3
race 3
anti@@ 3
houses 3
played 3
appro@@ 3
ved 3
sex 3
sun@@ 3
smoke 3
lots 3
rarely 3
prepared 3
temperature 3
100 3
looked 3
physi@@ 3
wea@@ 3
patients 3
stepped 3
T 3
expected 3
whichever 3
doubts 3
handed 3
complaints 3
invited 3
fly 3
respond 3
ow@@ 3
wasting 3
nav@@ 3
support 3
task 3
mom 3
across 3
bre@@ 3
lon@@ 3
gold 3
accus@@ 3
faith 3
rule 3
answered 3
salad 3
whale 3
class@@ 3
robot 3
check 3
acceptable 3
bran@@ 3
dge 3
atives 3
changes 3
intelligence 3
breath 3
imp@@ 3
means 3
anger 3
gotten 3
anci@@ 3
ugly 3
recommend 3
highly 3
ish 3
pair 3
tables 3
stories 3
danger@@ 3
concentrate 3
manual 3
activity 3
barking 3
paint 3
bes@@ 3
express 3
schedule 3
hu@@ 3
fir@@ 3
ay 3
cat@@ 3
alibi 3
favorable 3
bug 3
fully 3
enter 3
rum@@ 3
spends 3
wat@@ 3
propri@@ 3
ented 3
ient 3
political 3
cer@@ 3
2@@ 3
multilingu@@ 3
flat 3
passport 3
150 3
assume 3
average 3
alcohol 3
apologize 3
starting 3
pon@@ 3
operation 3
cultures 3
dar@@ 3
Monday 3
comic 3
injured 3
knives 3
speech 3
term 3
fond 3
barbecue 3
pregnant 3
selfish 3
habits 3
childhood 3
professional 3
waste 3
rais@@ 3
remar@@ 3
Euro@@ 3
blame 3
lied 3
pati@@ 3
followed 3
stopping 3
sor@@ 3
bal 3
related 3
Peter 3
profit 3
paid 3
40 3
a.m 3
D 3
pack 3
full 3
ator 3
plac@@ 3
Al@@ 3
Mayuko 3
soul 3
van@@ 3
star@@ 3
hor@@ 3
hon@@ 3
fucking 3
steak 3
vital 3
vote 3
common 3
drank 3
toys 3
fool 3
Charles 3
rav@@ 3
sitting 3
obligations 3
consci@@ 3
earth 3
k 3
ruined 3
sofa 3
crowd 3
tex@@ 3
serviettes 3
effort 3
worst 3
permit 3
tru@@ 3
U@@ 3
boss 3
spell 3
cks 3
admitted 3
American 3
famili@@ 3
K@@ 3
spor@@ 3
depends 3
begin 3
Mennad 3
forces 3
automobiles 3
plenty 3
nation@@ 3
direct 3
bai@@ 3
moon 3
Jones 3
sleepy 3
programme 3
along 3
