. 16988
I 6296
the 4980
you 4886
to 4458
a 3334
? 2908
is 2610
&apos;t 2282
, 1942
of 1816
it 1784
he 1744
in 1656
that 1608
&apos;s 1520
Tom 1480
do 1210
have 1192
me 1186
this 1158
was 1138
we 1078
my 1036
are 1034
for 1018
she 960
don 940
what 922
not 912
can 864
your 864
and 840
be 778
&apos;m 774
on 704
with 652
his 628
&apos;re 624
want 622
like 614
know 582
they 578
there 570
all 556
! 554
at 544
her 528
him 490
how 476
go 466
as 466
did 448
has 442
think 404
very 400
time 398
no 396
out 388
&apos;ve 382
get 374
&quot; 372
will 368
&apos;ll 368
had 368
one 354
if 348
about 344
were 344
an 336
here 330
who 328
from 326
up 320
didn 304
but 300
just 296
so 294
why 292
would 288
when 282
Mary 282
by 282
good 270
going 266
where 258
need 254
us 252
tell 246
am 244
see 244
more 244
come 240
should 236
&apos;d 236
never 234
been 234
too 228
much 222
now 220
help 218
than 216
please 216
only 208
could 206
let 204
really 204
our 202
@-@ 198
take 196
right 194
work 186
any 184
man 182
day 176
some 176
love 166
must 164
got 164
last 162
make 158
something 158
car 158
does 156
or 150
doesn 148
money 148
people 146
lot 146
way 144
home 142
went 142
speak 136
look 136
them 134
anything 134
give 134
say 132
told 132
said 132
little 130
find 128
today 128
leave 128
still 128
night 128
school 126
talk 126
back 126
before 124
two 124
well 122
long 122
new 120
always 120
off 120
everything 118
old 118
thought 118
room 118
house 118
won 116
made 114
many 114
believe 114
nothing 112
happy 110
life 110
again 108
live 108
eat 108
French 108
read 108
feel 108
isn 106
book 106
sure 106
into 106
father 106
which 104
may 104
wanted 104
first 102
alone 102
these 100
put 100
English 100
better 100
away 100
took 100
Sami 100
dog 100
already 98
try 98
tomorrow 98
hard 96
late 96
their 96
buy 96
job 96
three 94
without 94
enough 94
other 94
because 94
done 92
used 92
after 88
down 88
left 88
best 86
over 86
keep 86
asked 86
children 86
seen 86
sorry 84
door 84
things 84
re@@ 84
every 82
idea 82
mind 82
stop 82
friend 82
thing 82
looking 80
saw 80
teacher 80
name 80
years 80
often 78
being 78
busy 78
doing 78
came 78
water 76
even 76
play 76
understand 76
use 76
afraid 74
lost 74
great 74
call 72
yesterday 72
next 72
world 72
wants 72
ed 72
remember 72
place 70
bad 70
cold 70
ever 70
week 70
knew 70
found 70
everyone 68
ready 68
ted 68
meet 66
easy 64
young 64
wrong 64
few 64
married 64
sleep 64
early 64
truth 64
small 62
stay 62
hear 62
books 62
red 62
letter 62
most 62
bed 62
around 62
drink 62
mother 62
yet 62
far 62
another 62
those 62
knows 62
doctor 62
aren 60
year 60
kind 60
everybody 60
talking 60
pay 60
ing 60
mine 60
care 60
parents 58
morning 58
since 58
myself 58
party 58
true 58
show 58
ask 58
happened 56
watch 56
ts 56
hope 56
happen 56
learn 56
anymore 56
once 56
word 56
nice 56
couldn 54
coming 54
country 54
while 54
e@@ 54
family 54
problem 54
having 54
himself 52
likes 52
its 52
such 52
tired 52
free 52
girl 52
lives 52
same 52
yourself 52
gave 52
looks 52
haven 50
es 50
train 50
together 50
write 50
able 50
in@@ 50
friends 50
miss 50
makes 50
wait 50
cat 50
language 50
bought 48
plan 48
rain 48
might 48
days 48
turned 48
person 48
child 48
big 48
started 48
someone 48
nobody 48
called 48
met 48
turn 48
study 46
seems 46
until 46
woman 46
f@@ 46
&apos; 46
dis@@ 46
end 46
brother 46
difficult 46
bit 46
cannot 46
fun 46
anyone 46
wasn 46
times 46
beautiful 46
reading 46
matter 44
meeting 44
heard 44
boy 44
sick 44
waiting 44
getting 44
hot 44
dinner 44
hours 44
working 44
d@@ 44
o@@ 44
each 44
girls 42
sing 42
ten 42
Boston 42
accident 42
finished 42
question 42
food 42
eyes 42
light 42
sister 42
rich 42
coffee 42
hand 42
trying 42
questions 42
hate 42
story 42
own 42
s@@ 42
open 42
office 40
heart 40
Japanese 40
lived 40
ly 40
living 40
pretty 40
both 40
Japan 40
soon 40
wife 40
number 40
cut 40
; 40
almost 40
y 40
else 40
forget 40
hair 40
tried 40
five 40
glad 40
thinking 38
answer 38
hurt 38
company 38
TV 38
wish 38
phone 38
under 38
felt 38
advice 38
France 38
weather 38
milk 38
important 38
fell 36
k@@ 36
swimming 36
son 36
walk 36
arrived 36
future 36
break 36
born 36
fast 36
change 36
visit 36
black 36
angry 36
Dan 36
behind 36
careful 36
through 36
become 36
then 36
ago 36
died 36
less 36
class 36
m 36
works 34
worry 34
game 34
guess 34
killed 34
others 34
m@@ 34
tonight 34
news 34
wine 34
against 34
surprised 34
high 34
interested 34
store 34
between 34
whole 34
students 34
quite 34
wonder 34
age 34
words 34
trip 34
bus 34
exactly 34
: 34
wouldn 34
decided 34
de@@ 34
hurry 32
became 32
ting 32
yours 32
er 32
al@@ 32
station 32
hands 32
known 32
promise 32
p@@ 32
order 32
city 32
a@@ 32
run 32
window 32
cost 32
daughter 32
death 32
ate 32
Mr 32
longer 32
watching 32
b@@ 32
smoking 32
S@@ 30
ded 30
crazy 30
summer 30
p 30
fish 30
swim 30
Tatoeba 30
large 30
s 30
spend 30
fire 30
anybody 30
making 30
clear 30
music 30
chance 30
correct 30
girlfriend 30
yes 30
sometimes 30
opinion 30
close 30
dark 30
start 30
lucky 30
telling 30
thank 30
bicycle 30
past 30
student 30
languages 30
poor 30
face 30
health 30
beer 30
maybe 30
movie 28
point 28
also 28
rather 28
caught 28
hungry 28
thinks 28
comes 28
hospital 28
written 28
favorite 28
part 28
playing 28
set 28
cats 28
probably 28
ds 28
to@@ 28
easily 28
four 28
cake 28
saying 28
sense 28
half 28
listen 28
fine 28
shirt 28
lose 28
lunch 28
sleeping 28
t@@ 28
near 28
st@@ 28
baby 28
hotel 28
la@@ 28
later 28
leaving 28
possible 28
pe@@ 26
speaking 26
A@@ 26
agree 26
taking 26
breakfast 26
en@@ 26
computer 26
hat 26
German 26
feeling 26
head 26
ro@@ 26
sugar 26
ity 26
appreciate 26
trouble 26
choice 26
boys 26
month 26
th 26
God 26
forgot 26
opened 26
real 26
minutes 26
over@@ 26
completely 26
hasn 26
clothes 26
restaurant 26
shot 26
di@@ 26
kept 26
six 26
experience 26
safe 26
least 26
C@@ 26
wash 26
different 26
looked 26
men 26
learned 26
ball 26
team 26
mistake 26
whose 26
problems 26
stayed 26
town 26
coat 24
whatever 24
birthday 24
W@@ 24
clean 24
inside 24
pa@@ 24
paper 24
either 24
strong 24
it@@ 24
marry 24
sentence 24
drive 24
touch 24
box 24
afternoon 24
prefer 24
glasses 24
gone 24
dress 24
li@@ 24
wrote 24
ers 24
cook 24
police 24
po@@ 24
key 24
deal 24
stupid 24
secret 24
women 24
floor 24
legs 24
bo@@ 24
keys 24
necessary 24
pre@@ 24
changed 24
ma@@ 24
needed 24
con@@ 24
smoke 24
broke 24
slept 24
invited 24
Earth 24
information 24
si@@ 24
dead 24
Spanish 24
situation 24
shouldn 24
piano 24
i@@ 24
began 24
hour 24
present 24
picture 24
forward 22
sun 22
loved 22
tic 22
dangerous 22
kids 22
ca@@ 22
win 22
th@@ 22
expensive 22
enjoy 22
feelings 22
immediately 22
D@@ 22
ra@@ 22
whether 22
talked 22
ent 22
sentences 22
ous 22
interesting 22
sh@@ 22
Paris 22
spoke 22
glass 22
ance 22
catch 22
tennis 22
flowers 22
walked 22
da@@ 22
er@@ 22
taken 22
wearing 22
shoes 22
bring 22
heavy 22
learning 22
b 22
running 22
evening 22
g@@ 22
using 22
needs 22
seem 22
ses 22
played 22
sea 22
do@@ 22
t 22
hit 22
eaten 22
takes 22
river 22
supposed 22
husband 22
ch 22
fact 22
kill 22
cute 22
weren 22
eating 22
library 20
seeing 20
F@@ 20
park 20
famous 20
short 20
tears 20
teach 20
studying 20
bill 20
rest 20
couple 20
finish 20
eye 20
... 20
n@@ 20
worked 20
shall 20
address 20
Layla 20
ally 20
die 20
strange 20
stars 20
public 20
sw@@ 20
smart 20
Oh 20
h@@ 20
sound 20
realize 20
Christmas 20
closed 20
quickly 20
moment 20
sed 20
theory 20
broken 20
d 20
liked 20
second 20
speaks 20
gets 20
top 20
mountain 20
sit 20
drunk 20
te 20
tree 20
send 20
co@@ 20
goes 20
reason 20
lie 20
fruit 20
building 20
attention 20
low 20
outside 20
exist 20
ans 20
lo@@ 20
join 20
case 20
crying 20
snow 20
test 20
plays 20
history 20
writing 20
guys 20
o 20
nervous 18
mis@@ 18
driving 18
post 18
excuse 18
ck 18
view 18
at@@ 18
ful 18
hold 18
understood 18
date 18
John 18
ac@@ 18
dollars 18
pleased 18
bag 18
abroad 18
med 18
g 18
mean 18
traffic 18
dance 18
ha@@ 18
price 18
ride 18
bike 18
advised 18
single 18
spring 18
owe 18
complete 18
for@@ 18
television 18
none 18
consider 18
art 18
allowed 18
usually 18
usual 18
winter 18
10 18
stand 18
lu@@ 18
ticket 18
cup 18
expect 18
P@@ 18
pain 18
figured 18
ti@@ 18
shop 18
cted 18
front 18
umbrella 18
est 18
gun 18
herself 18
blood 18
older 18
table 18
kiss 18
quiet 18
gives 18
respect 18
dictionary 18
sooner 18
mo@@ 18
solve 18
somewhere 18
village 18
lies 18
ran 18
fat 18
air 18
carry 18
sa@@ 18
uncle 18
bri@@ 18
sight 18
weekend 18
given 18
full 18
min@@ 18
earth 18
ps 18
B@@ 18
actually 18
&apos;clock 18
absent 16
ters 16
considered 16
move 16
ring 16
cooking 16
trust 16
H@@ 16
fa@@ 16
terrible 16
ked 16
seat 16
song 16
business 16
slow 16
kitchen 16
re 16
cry 16
dogs 16
popular 16
el@@ 16
accused 16
c@@ 16
out@@ 16
sent 16
line 16
dad 16
land 16
cra@@ 16
king 16
ve 16
follow 16
lesson 16
government 16
suit 16
n 16
involved 16
spoken 16
during 16
hardly 16
thirty 16
OK 16
mistakes 16
space 16
road 16
cars 16
l@@ 16
photo 16
Tokyo 16
pool 16
United 16
return 16
finally 16
Australia 16
ves 16
America 16
apple 16
travel 16
human 16
prepared 16
expected 16
ch@@ 16
twice 16
r@@ 16
piece 16
across 16
sign 16
eggs 16
missed 16
check 16
ashamed 16
wear 16
danger 16
w 16
course 16
pen 16
disappointed 16
worse 16
rock 16
asleep 16
vacation 16
Monday 16
speech 16
Sunday 16
pro@@ 16
video 16
Chinese 16
luck 16
le 16
guy 16
worth 16
ad@@ 16
bread 16
sha@@ 16
pass 16
e 16
serious 16
details 14
satisfied 14
sky 14
ary 14
enemy 14
fall 14
seriously 14
according 14
rude 14
New 14
M@@ 14
fuck 14
medicine 14
wise 14
ic 14
hurried 14
brought 14
ced 14
report 14
tly 14
greatest 14
cu@@ 14
der@@ 14
received 14
patient 14
sho@@ 14
figure 14
novel 14
body 14
warned 14
visited 14
bottle 14
thanks 14
decision 14
shower 14
ant 14
letters 14
choose 14
white 14
tea 14
ming 14
bra@@ 14
familiar 14
cr@@ 14
difference 14
area 14
suppose 14
teeth 14
helped 14
form 14
beginning 14
per@@ 14
energy 14
boyfriend 14
se 14
im@@ 14
weight 14
ga@@ 14
law 14
awake 14
laughing 14
dra@@ 14
efforts 14
costs 14
garden 14
com@@ 14
funny 14
en 14
animals 14
ding 14
responsible 14
explain 14
thirsty 14
the@@ 14
avoid 14
pla@@ 14
painting 14
sounds 14
ta@@ 14
ze 14
sort 14
loss 14
filled 14
raining 14
es@@ 14
Friday 14
feet 14
grow 14
30 14
beach 14
Ah 14
ill 14
har@@ 14
ved 14
windows 14
held 14
ct 14
ter 14
silent 14
task 14
fo@@ 14
bet 14
tes 14
means 14
natural 14
charge 14
fishing 14
shut 14
reach 14
spent 14
fix 14
gh@@ 14
unfortunately 14
brown 14
al 14
ation 14
succeeded 14
injured 14
forgive 14
passed 14
tall 14
ought 14
paid 14
shy 14
loves 14
newspaper 14
success 14
depends 14
painted 14
plenty 14
Jane 14
ri@@ 14
intelligent 14
along 14
blue 14
upstairs 14
scared 14
quit 14
wing 14
following 14
sti@@ 12
cked 12
trees 12
leaves 12
homework 12
certain 12
sell 12
mail 12
ners 12
double 12
minute 12
protect 12
York 12
meant 12
ling 12
leg 12
chicken 12
taxi 12
sp@@ 12
back@@ 12
telephone 12
eight 12
movies 12
gen@@ 12
als 12
weeks 12
wore 12
keeps 12
ying 12
T@@ 12
museum 12
wake 12
tion 12
Spain 12
lake 12
les 12
borrow 12
impossible 12
watched 12
exercise 12
list 12
be@@ 12
am@@ 12
pri@@ 12
universe 12
dream 12
wedding 12
message 12
arrive 12
ar@@ 12
tive 12
der 12
project 12
ms 12
ks 12
perhaps 12
forced 12
handle 12
faster 12
agreed 12
happening 12
I@@ 12
grandmother 12
foods 12
cows 12
translate 12
refused 12
treated 12
lazy 12
fight 12
hundred 12
side 12
university 12
prices 12
ex@@ 12
rent 12
sings 12
church 12
su@@ 12
threw 12
street 12
power 12
stopped 12
upset 12
served 12
radio 12
le@@ 12
market 12
several 12
reasons 12
sheep 12
drinking 12
ens 12
wonderful 12
worried 12
States 12
burst 12
alive 12
comfortable 12
wn 12
lend 12
growing 12
England 12
ty 12
knife 12
says 12
kissed 12
grandfather 12
ined 12
admire 12
ist 12
size 12
lots 12
Internet 12
idiot 12
listening 12
lawyer 12
punctual 12
fly 12
fortune 12
ce 12
rules 12
mom 12
war 12
so@@ 12
Americans 12
sub@@ 12
ours 12
accept 12
or@@ 12
mel@@ 12
theater 12
failed 12
ning 12
cks 12
laughed 12
des 12
ver 12
fear 12
manager 12
apologize 12
starting 12
ies 12
honest 12
00 12
childhood 12
waste 12
boat 12
distance 12
Germany 12
touched 12
matters 12
cause 12
animal 12
soul 12
common 12
drank 12
toys 12
G@@ 12
par@@ 12
id 12
R@@ 12
k 12
memory 12
mi@@ 12
worst 12
months 12
admitted 12
promises 12
above 12
license 12
runs 12
/ 12
embarrassed 12
taller 12
pictures 12
singer 12
bright 12
warm 12
driver 12
hide 12
ction 12
countries 12
kinds 12
perfect 12
cts 12
em@@ 12
pale 12
ating 12
scene 12
bother 12
talks 12
sold 12
ness 12
planet 12
ches 10
system 10
selling 10
fied 10
within 10
rid 10
scientific 10
British 10
arrogant 10
Esperanto 10
article 10
kindness 10
plan@@ 10
though 10
desk 10
escape 10
toilet 10
harder 10
button 10
Hi 10
throw 10
returned 10
changing 10
beat 10
mate 10
deserve 10
truck 10
consu@@ 10
skin 10
everywhere 10
guard 10
elected 10
decide 10
x 10
ins 10
willing 10
push 10
mood 10
flower 10
falling 10
difficulty 10
players 10
iled 10
fin@@ 10
ces 10
Italy 10
normal 10
proud 10
proposal 10
goods 10
ched 10
il 10
lines 10
butter 10
interest 10
du@@ 10
inter@@ 10
useful 10
an@@ 10
ely 10
tent 10
impressed 10
patience 10
seven 10
teaching 10
favourite 10
subject 10
bite 10
plans 10
caused 10
candy 10
owes 10
ages 10
secrets 10
hiding 10
pond 10
eng@@ 10
ine 10
meal 10
rea@@ 10
standing 10
fault 10
earthquake 10
nonsense 10
cs 10
convinced 10
innocent 10
add 10
star 10
firm 10
parked 10
eats 10
opportunity 10
et@@ 10
walks 10
believed 10
happens 10
calm 10
math 10
excited 10
arms 10
pped 10
autumn 10
rains 10
improve 10
physical 10
danced 10
ths 10
me@@ 10
contract 10
determined 10
mad 10
policeman 10
bear 10
illness 10
rarely 10
ils 10
smile 10
tells 10
hole 10
smaller 10
Europe 10
bedroom 10
data 10
support 10
huge 10
gold 10
de 10
president 10
drop 10
cool 10
pushed 10
becoming 10
bird 10
dly 10
ler 10
share 10
friendly 10
smells 10
cting 10
gotten 10
cheese 10
pi@@ 10
stories 10
parties 10
crea@@ 10
clu@@ 10
beef 10
ot@@ 10
ahead 10
exam 10
due 10
control 10
fully 10
results 10
state 10
offer 10
soldiers 10
color 10
losing 10
ber 10
evidence 10
forever 10
ren@@ 10
bar 10
average 10
bank 10
ho@@ 10
traveling 10
anywhere 10
drinks 10
clearly 10
singing 10
bur@@ 10
blame 10
lied 10
nature 10
followed 10
chocolate 10
stopping 10
squirrels 10
zoo 10
11 10
games 10
salt 10
sat 10
listened 10
cards 10
res 10
ns 10
conf@@ 10
fool 10
ear@@ 10
Smith 10
paying 10
concert 10
tie 10
medi@@ 10
generation 10
appointment 10
boss 10
helps 10
L@@ 10
direct 10
mu@@ 10
succeed 10
sleepy 10
camera 10
bu@@ 10
c 10
magazine 10
se@@ 10
ments 10
welcome 10
arrested 10
recognize 10
piggy 10
upon 10
clever 10
ke 10
absolutely 10
fired 10
lonely 10
wears 10
round 10
suspect 10
deny 10
built 10
create 10
exhausted 10
brothers 10
delicious 10
hammer 10
doors 10
calling 10
soccer 10
likely 10
terribly 10
waited 10
ru@@ 10
somebody 10
forgotten 8
solution 8
frankly 8
ic@@ 8
scientists 8
sunny 8
per 8
rely 8
cruel 8
ward 8
ignore 8
effect 8
happiness 8
washed 8
kers 8
egg 8
thousand 8
boo@@ 8
gathered 8
del@@ 8
self 8
request 8
symbol 8
kissing 8
picnic 8
aggressive 8
smo@@ 8
simple 8
hello 8
believes 8
weird 8
ining 8
China 8
hell 8
fit 8
among 8
j@@ 8
horse 8
dr@@ 8
issue 8
spending 8
unless 8
password 8
society 8
ants 8
boring 8
char@@ 8
ess 8
prom@@ 8
behave 8
fallen 8
younger 8
pt 8
moved 8
card 8
possibility 8
removed 8
ck@@ 8
ushed 8
captain 8
Russian 8
gonna 8
wind 8
Bob 8
giving 8
discount 8
is@@ 8
India 8
oun@@ 8
troubles 8
ties 8
pleasure 8
bottles 8
local 8
hom@@ 8
beauty 8
sixty 8
plane 8
potatoes 8
musician 8
War 8
remind 8
bi@@ 8
lock 8
brea@@ 8
insurance 8
deeply 8
terms 8
concerned 8
dry 8
Linda 8
ghosts 8
mess 8
Brazil 8
gra@@ 8
cinema 8
curtain 8
crisis 8
middle 8
count 8
increa@@ 8
eared 8
hero 8
weak 8
l 8
badly 8
keeping 8
afford 8
empty 8
feed 8
properly 8
brain 8
population 8
punished 8
lay 8
cousin 8
available 8
ings 8
ge 8
slipped 8
position 8
hadn 8
bored 8
dy 8
ping 8
comment 8
rice 8
entered 8
he@@ 8
advantage 8
philosophy 8
ned 8
crossed 8
beating 8
valid 8
hi@@ 8
suggest 8
foreign 8
burned 8
ated 8
reached 8
ol@@ 8
wood 8
ended 8
col@@ 8
blind 8
wondering 8
songs 8
clock 8
flies 8
appearance 8
save 8
The 8
translations 8
rum@@ 8
shame 8
acted 8
sensitive 8
cal 8
god 8
Susan 8
act 8
ical 8
polite 8
slowly 8
r 8
grew 8
sex 8
sun@@ 8
cre@@ 8
temperature 8
cally 8
healthy 8
doubts 8
awesome 8
permission 8
pie 8
postcard 8
holiday 8
vase 8
repaired 8
faith 8
less@@ 8
rule 8
salad 8
promised 8
whale 8
imagine 8
special 8
fi@@ 8
sad 8
rank 8
instead 8
bl@@ 8
ster 8
contributor 8
changes 8
breath 8
active 8
dishes 8
showed 8
dating 8
anger 8
hobby 8
regret 8
President 8
des@@ 8
ugly 8
highly 8
ish 8
birds 8
.@@ 8
cy 8
ori@@ 8
drea@@ 8
sy 8
paint 8
headache 8
schedule 8
coward 8
objective 8
neighbors 8
prove 8
sport 8
aw@@ 8
thr@@ 8
enter 8
ain 8
brush 8
sli@@ 8
political 8
opening 8
tongue 8
risk 8
European 8
draw 8
evolution 8
flat 8
passport 8
introduced 8
object 8
giant 8
5 8
alcohol 8
mor@@ 8
pres@@ 8
comic 8
shelf 8
staying 8
knives 8
prepare 8
film 8
voice 8
oranges 8
selfish 8
daughters 8
cate 8
economy 8
ble 8
book@@ 8
heat 8
engineers 8
cover 8
stri@@ 8
dressed 8
attacked 8
end@@ 8
zed 8
pressure 8
pants 8
guilty 8
London 8
ground 8
ability 8
green 8
ills 8
shou@@ 8
a.m 8
lights 8
sandwich 8
bas@@ 8
bly 8
cancer 8
pack 8
created 8
poem 8
introduce 8
fucking 8
sports 8
ner 8
mp 8
evil 8
ice 8
cream 8
packed 8
committed 8
tor 8
mathematics 8
higher 8
ship 8
belief 8
nose 8
ruined 8
sofa 8
crowd 8
cation 8
rise 8
spell 8
American 8
existence 8
judge 8
2 8
begin 8
text 8
crush 8
moon 8
jealous 8
vegetables 8
suddenly 8
Kate 8
twenty 8
argu@@ 8
ily 8
princess 8
wee 8
skirt 8
shi@@ 8
condition 8
apart 8
- 8
hang 8
op@@ 8
ang@@ 8
ab@@ 8
entire 8
shar@@ 8
rights 8
don@@ 8
go@@ 8
Ju@@ 8
res@@ 8
fe@@ 8
phenomenon 8
baseball 8
copies 8
sno@@ 8
ss 8
thick 8
soft 8
ceremony 8
angles 8
ink 8
washing 8
hanging 8
bs 8
guitar 8
rob@@ 8
step 8
guests 8
denied 8
sur@@ 8
sla@@ 8
refle@@ 8
failure 8
equal 8
spot 8
logy 8
group 8
rumor 8
saved 8
ge@@ 8
O@@ 8
spread 8
especially 8
winning 8
airport 8
raised 8
total 8
Jim 8
ality 8
stood 8
but@@ 6
here@@ 6
events 6
treat 6
cri@@ 6
online 6
puzzle 6
generally 6
raw 6
strangers 6
locked 6
cli@@ 6
discussed 6
insis@@ 6
nor 6
addicted 6
definite 6
apartment 6
club 6
mon@@ 6
ed@@ 6
becomes 6
solid 6
lion 6
modern 6
liking 6
rained 6
futon 6
scary 6
chess 6
cured 6
knock 6
guessed 6
mer 6
jail 6
security 6
tear 6
reality 6
surprise 6
peanuts 6
appear 6
poison 6
nerve 6
hates 6
addressed 6
drove 6
saving 6
dro@@ 6
fla@@ 6
Nor@@ 6
mp@@ 6
stic 6
genius 6
lover 6
noise 6
tiny 6
toward 6
walking 6
ctive 6
Nancy 6
bound 6
hypothesis 6
sons 6
rescued 6
sh 6
agre@@ 6
chat 6
pardon 6
silly 6
ister 6
bio@@ 6
logist 6
feels 6
ority 6
garage 6
cking 6
ise 6
taxes 6
praised 6
courage 6
An@@ 6
belong 6
laptop 6
app@@ 6
cho@@ 6
ter@@ 6
blo@@ 6
om@@ 6
explained 6
postpone 6
destination 6
border 6
trunk 6
scissors 6
shorter 6
straight 6
ci@@ 6
notice 6
despise 6
exact 6
April 6
roof 6
pping 6
deprived 6
speci@@ 6
proposed 6
blanket 6
stolen 6
search 6
science 6
artificial 6
cab 6
duty 6
concern 6
nap 6
ba@@ 6
bigger 6
repair 6
slip 6
atomic 6
ends 6
eless 6
recently 6
humor 6
inv@@ 6
qu@@ 6
super 6
effective 6
swear 6
statue 6
resistance 6
ir@@ 6
st 6
fighting 6
br@@ 6
storm 6
timid 6
dropped 6
oil 6
nuts 6
deserves 6
added 6
abundance 6
trapped 6
cir@@ 6
complex 6
obviously 6
volunteered 6
gift 6
ea@@ 6
explanation 6
tle 6
poured 6
loud 6
furniture 6
field 6
construction 6
entirely 6
larger 6
rose 6
accent 6
teachers 6
10@@ 6
rough 6
pp@@ 6
pizza 6
increased 6
ll@@ 6
intended 6
perfectly 6
iling 6
Tower 6
chosen 6
gentleman 6
imagination 6
admit 6
un 6
Ho@@ 6
gold@@ 6
Gre@@ 6
stranger 6
fro@@ 6
poet 6
begins 6
crime 6
cheer 6
decor@@ 6
requires 6
tunnel 6
earlier 6
authority 6
virus 6
pickpockets 6
Union 6
command 6
sour 6
service 6
disgusting 6
gradu@@ 6
discovered 6
easier 6
meals 6
Australian 6
ow 6
kid 6
Grand@@ 6
ele@@ 6
established 6
race 6
hand@@ 6
determination 6
houses 6
cated 6
heroin 6
closely 6
grandma 6
stepped 6
T 6
director 6
tallest 6
whichever 6
handed 6
wherever 6
complaints 6
fil@@ 6
further 6
endure 6
respond 6
gation 6
repeat 6
warrior 6
perseverance 6
wasting 6
bone 6
gotta 6
engagement 6
architect 6
salary 6
illegal 6
goodbye 6
managed 6
cure 6
tioned 6
gu@@ 6
provi@@ 6
proper 6
clo@@ 6
cheating 6
resist 6
celebrate 6
fol@@ 6
tal@@ 6
impact 6
duck 6
answered 6
operate 6
mammal 6
lar 6
survivors 6
sea@@ 6
series 6
rooms 6
conduct 6
cor@@ 6
stru@@ 6
ease 6
pl@@ 6
studied 6
advanced 6
status 6
seventy 6
classes 6
products 6
Nations 6
iron 6
recommend 6
faults 6
cookies 6
ven 6
cel@@ 6
solved 6
of@@ 6
pan@@ 6
ni@@ 6
mature 6
ously 6
poems 6
concentrate 6
manual 6
ker 6
activity 6
income 6
led 6
barking 6
loses 6
express 6
hu@@ 6
gs 6
entrance 6
apologized 6
ay 6
Canada 6
Se@@ 6
level 6
victory 6
friendship 6
bug 6
nu@@ 6
error 6
forecast 6
ou@@ 6
link 6
pencil 6
spends 6
meat 6
direction 6
ety 6
misunderstanding 6
ce@@ 6
ws 6
options 6
deli@@ 6
strength 6
photos 6
2@@ 6
citizens 6
practical 6
lack 6
contrary 6
itself 6
demanded 6
supp@@ 6
arm 6
drowned 6
lifetime 6
bil@@ 6
assume 6
joke 6
liters 6
foot 6
examination 6
professor 6
operation 6
mechan@@ 6
ism 6
f 6
dar@@ 6
clouds 6
cleaned 6
ets 6
hung 6
coa@@ 6
Columbus 6
no@@ 6
term 6
fond 6
pregnant 6
ines 6
remar@@ 6
ply 6
daily 6
mar@@ 6
website 6
def@@ 6
criminal 6
picked 6
intend 6
minimum 6
global 6
wide 6
No@@ 6
odd 6
rabbits 6
related 6
vers 6
ignored 6
fluent 6
ors 6
Pro@@ 6
mouth 6
te@@ 6
supported 6
native 6
eighteen 6
main 6
magazines 6
cash 6
ator 6
gated 6
Al@@ 6
sta@@ 6
hon@@ 6
trusted 6
amazing 6
nearly 6
ching 6
realized 6
ys 6
i 6
regularly 6
covered 6
orange 6
honey 6
certainly 6
safety 6
coun@@ 6
barely 6
rang 6
materi@@ 6
appetite 6
mistaken 6
sitting 6
nations 6
writer 6
culture 6
congratulations 6
jud@@ 6
sudden 6
shine 6
practi@@ 6
U@@ 6
crossing 6
themselves 6
medal 6
ff@@ 6
accepted 6
mistook 6
damaged 6
credit 6
anxious 6
carefully 6
belongs 6
complicated 6
apples 6
borrowed 6
aunt 6
itting 6
stuff 6
ordered 6
ma 6
suicide 6
forbidden 6
shock 6
2013 6
smell 6
ocean 6
century 6
ited 6
gay 6
remain 6
dete@@ 6
officer 6
sk@@ 6
remained 6
survive 6
heavily 6
spider 6
Thomas 6
crashed 6
desig@@ 6
cur@@ 6
dirty 6
stone 6
guide 6
organized 6
calls 6
rocks 6
supermarket 6
gas 6
football 6
dentist 6
fair 6
finger 6
Latin 6
plain 6
aside 6
King 6
dried 6
shit 6
Paul 6
oned 6
mercy 6
jack 6
prevented 6
bags 6
pollution 6
countryside 6
shopping 6
This 6
besides 6
master 6
international 6
Italian 6
stronger 6
tickets 6
sweet 6
handsome 6
wheel 6
flying 6
alternative 6
path 6
J@@ 6
resi@@ 6
instructions 6
7 6
member 6
planning 6
lately 6
mn 6
habit 6
downtown 6
hoping 6
musical 6
painful 6
warn 6
approve 6
understanding 6
tea@@ 6
,000 6
lying 6
cafeteria 6
hel@@ 6
phones 6
aimed 6
target 6
acid 6
ouse 6
correctly 6
result 6
hum@@ 6
wealthy 6
geniuses 6
lea@@ 6
smiling 6
pills 6
wed 6
precious 6
poverty 6
land@@ 6
Sun 6
yourselves 6
desire 6
persuade 6
kno@@ 6
miracle 6
whom 6
3 6
nearest 6
machine 6
battle 6
major 6
role 6
taught 6
20@@ 6
site 6
weapon 6
decei@@ 6
enjoys 6
ok 6
beaten 6
kes 6
doubt 6
ten@@ 6
lady 6
faces 6
zero 6
ju@@ 6
ank 6
exchange 6
lovely 6
den@@ 6
everyday 6
ight 6
ropes 6
laid 6
occasion 6
skinny 6
jeans 6
equ@@ 6
scholar 6
independent 6
thief 6
dear 6
Kyoto 6
els 6
private 6
necessarily 6
environment 6
bal@@ 6
thunder 6
ending 6
ddle 6
cru@@ 6
majority 6
eventually 6
Algeria 6
resources 6
type 6
departure 6
letting 6
workers 6
fuel 6
conversation 6
wisdom 6
ow@@ 6
swea@@ 6
psychic 6
Repetition 6
gl@@ 6
thy 6
tends 6
attack 6
nam@@ 6
thousands 6
chair 6
sen@@ 6
studies 6
streets 6
stock 6
challenge 6
ging 6
h 6
responsibility 6
third 6
unknown 6
shaking 6
stick 6
bees 6
elect 6
band 6
sisters 6
worn 6
subway 6
hun@@ 6
mati@@ 6
ably 6
ha 6
ceiling 6
cing 6
logical 6
hur@@ 6
ence 6
justice 6
product 6
ft 6
complaining 6
tiger 6
fashi@@ 4
tches 4
spare 4
sil@@ 4
cloud 4
unlikely 4
as@@ 4
cism 4
dit@@ 4
rays 4
partially 4
blin@@ 4
harvest 4
compu@@ 4
Invite 4
cla@@ 4
jum@@ 4
onto 4
moving 4
required 4
edu@@ 4
vain 4
rifle 4
neither 4
discovery 4
finite 4
rented 4
compelled 4
ank@@ 4
ero@@ 4
US 4
occurred 4
swim@@ 4
squirrel 4
honeymoon 4
free@@ 4
ambulance 4
jacket 4
rubbish 4
far@@ 4
Kobe 4
costume 4
difficulties 4
whites 4
ff 4
esti@@ 4
damage 4
horrible 4
ghty 4
whenever 4
hal@@ 4
handful 4
300 4
contribute 4
inqu@@ 4
Cairo 4
pianist 4
extremely 4
sheer 4
madness 4
wanting 4
ingenious 4
ultimate 4
grab 4
wet 4
pull 4
arti@@ 4
dent 4
gar@@ 4
cried 4
opera 4
attitude 4
violin 4
Mike 4
chairperson 4
bus@@ 4
happier 4
unemployed 4
manner 4
expectations 4
instru@@ 4
textbook 4
exam@@ 4
mur@@ 4
dered 4
north 4
digital 4
heavens 4
except 4
Y2K 4
hiking 4
hair@@ 4
style 4
meanings 4
ods 4
high@@ 4
puts 4
Par@@ 4
buying 4
dresses 4
funds 4
complain 4
cro@@ 4
appears 4
num@@ 4
erable 4
car@@ 4
eli@@ 4
tor@@ 4
Ken 4
Sun@@ 4
Droplets 4
plural 4
gend@@ 4
exc@@ 4
spo@@ 4
marketing 4
humiliated 4
fate 4
devil 4
bit@@ 4
map 4
cross 4
fertiliz@@ 4
visible 4
microscope 4
poor@@ 4
corpus 4
copy@@ 4
che@@ 4
headed 4
action 4
four@@ 4
November 4
De@@ 4
ember 4
blowing 4
dri@@ 4
witness 4
envy 4
meaning 4
knowledge 4
cket 4
ali@@ 4
wool 4
searching 4
politician 4
champagne 4
alist 4
May 4
5@@ 4
emergency 4
Hey 4
issues 4
ware 4
biggest 4
fresh 4
cipa@@ 4
sto@@ 4
memorize 4
sacred 4
errors 4
mostly 4
peaceful 4
pick 4
urgent 4
diagno@@ 4
ia 4
press 4
relea@@ 4
absurd 4
decla@@ 4
shocked 4
teenagers 4
itate 4
swinging 4
weigh 4
poun@@ 4
scra@@ 4
teenager 4
wasted 4
steps 4
mention 4
dity 4
polit@@ 4
hall 4
proved 4
tes@@ 4
center 4
World 4
Anne 4
Green 4
distributed 4
olish 4
tetanus 4
atta@@ 4
nasty 4
fellow 4
assure 4
hated 4
uneasy 4
presence 4
property 4
ste 4
ancho@@ 4
seldom 4
orders 4
cot@@ 4
toned 4
gged 4
punishment 4
chapter 4
produced 4
cabb@@ 4
urged 4
ben@@ 4
shoulder 4
leg@@ 4
forgetting 4
son@@ 4
In@@ 4
sing@@ 4
outer 4
pretend 4
ised 4
prof@@ 4
ately 4
detailed 4
bow@@ 4
bath 4
towards 4
pieces 4
sale 4
disappeared 4
amused 4
rewar@@ 4
experiences 4
consi@@ 4
narrow 4
fried 4
overlooked 4
sened 4
absolute 4
acc@@ 4
Sou@@ 4
irs 4
Christi@@ 4
shoot 4
insan@@ 4
greatly 4
itted 4
fu@@ 4
Osaka 4
sweep 4
answers 4
dolls 4
hy@@ 4
seconds 4
han@@ 4
heart@@ 4
burn 4
ilor 4
Eiffel 4
invention 4
elling 4
grass 4
bare 4
awoke 4
ordering 4
yed 4
blankets 4
follows 4
paintings 4
ironed 4
differences 4
alternatives 4
devastated 4
ghts 4
corner 4
fluently 4
bananas 4
scientist 4
pleasant 4
Helen 4
deaf 4
dumb 4
ef@@ 4
anyway 4
softly 4
arrogance 4
suffer@@ 4
Researchers 4
square 4
dea@@ 4
wall 4
woods 4
poisonous 4
proof 4
supportive 4
drawing 4
pulses 4
ef 4
pocket 4
expres@@ 4
anti@@ 4
athe@@ 4
que@@ 4
shoe 4
appro@@ 4
accustomed 4
Tur@@ 4
seeds 4
benefits 4
lous 4
confidence 4
admired 4
Pythagoras 4
Magic 4
numbers 4
comfort 4
affli@@ 4
torrents 4
sympathize 4
100 4
degrees 4
grade 4
celebra@@ 4
pigeons 4
examined 4
fif@@ 4
misery 4
meets 4
soldering 4
components 4
appointed 4
improved 4
foot@@ 4
prints 4
prisoner 4
White 4
sweaty 4
asking 4
repla@@ 4
cement 4
mag@@ 4
butter@@ 4
blings 4
irregular 4
mere 4
lap 4
iting 4
barks 4
tail 4
separatists 4
kidding 4
applying 4
defeated 4
suitcase 4
explo@@ 4
toy 4
glis@@ 4
bush 4
obey 4
stare 4
nine 4
supplies 4
civil 4
sow 4
measure 4
fl@@ 4
ey@@ 4
eb@@ 4
leaf 4
curiosity 4
inspired 4
career 4
class@@ 4
robot 4
arriving 4
replace 4
pin 4
countless 4
method 4
ur 4
patent 4
ggle 4
acceptable 4
bran@@ 4
buil@@ 4
chea@@ 4
ump 4
leather 4
dge 4
compromise 4
fake 4
colours 4
anged 4
Oc@@ 4
ean 4
praise 4
management 4
threatened 4
intelligence 4
theatre 4
Mondays 4
ble@@ 4
characters 4
colle@@ 4
coins 4
athlete 4
anci@@ 4
pair 4
sharp 4
mystery 4
author 4
teen 4
4 4
uses 4
sake 4
L 4
loa@@ 4
auth@@ 4
deciding 4
athletic 4
pal 4
attr@@ 4
pe 4
valuable 4
handled 4
disco@@ 4
regarded 4
messed 4
chain 4
eas@@ 4
ment 4
cancel@@ 4
Turkey 4
neighbor 4
nowhere 4
obliged 4
mea@@ 4
sir 4
Chile 4
mountains 4
murder 4
places 4
dialect 4
divorced 4
closest 4
miles 4
quali@@ 4
lun@@ 4
risked 4
stacked 4
pleasures 4
fog 4
Ear@@ 4
customers 4
trade 4
vent 4
bel@@ 4
Achieving 4
weld 4
bead 4
insul@@ 4
alibi 4
favorable 4
ian 4
congratulate 4
alert 4
ll 4
mpl@@ 4
biting 4
nails 4
smarter 4
Br@@ 4
wer 4
cheated 4
translation 4
tourists 4
off@@ 4
standards 4
argue 4
human@@ 4
maid 4
ented 4
ient 4
ideas 4
sin@@ 4
advertising 4
ag@@ 4
ell 4
wrinkled 4
smashed 4
Hungarian 4
sprang 4
counting 4
multilingu@@ 4
herit@@ 4
alism 4
encourage 4
â€‹ 4
tool 4
community 4
appreci@@ 4
ancestors 4
150 4
ie 4
communism 4
some@@ 4
Euro@@ 4
1@@ 4
bullet 4
mark 4
castle 4
spectators 4
charges 4
uncomfortable 4
flo@@ 4
pon@@ 4
cultures 4
spite 4
joy 4
( 4
) 4
sharpen 4
divorce 4
Christopher 4
general 4
customs 4
fucked 4
ass 4
shaken 4
barbecue 4
swee@@ 4
lemons 4
dun@@ 4
habits 4
vated 4
wanna 4
fur@@ 4
Whoever 4
fairly 4
Dis@@ 4
taste 4
crutches 4
bleeding 4
Unbelievable 4
At@@ 4
announ@@ 4
repor@@ 4
recent 4
fee@@ 4
grow@@ 4
ates 4
developed 4
virgin 4
fed 4
escaped 4
geous 4
comments 4
twelve 4
inly 4
climb 4
fridge 4
sei@@ 4
genuine 4
diamond 4
root 4
located 4
sor@@ 4
sphere 4
residential 4
warming 4
fs 4
oes 4
behavior 4
toothache 4
bea@@ 4
college 4
flash@@ 4
diplomat 4
confiscated 4
Peter 4
player 4
personal 4
profit 4
scolded 4
40 4
expecting 4
D 4
hardest 4
ounded 4
gunshot 4
carried 4
speaker 4
sna@@ 4
leader 4
power@@ 4
settled 4
shed 4
pharma@@ 4
recommended 4
nec@@ 4
super@@ 4
flu@@ 4
distant 4
causes 4
injury 4
diseases 4
sis 4
scri@@ 4
beauti@@ 4
mos@@ 4
flight 4
ane 4
oper@@ 4
cent 4
arguing 4
false 4
vacations 4
harm 4
exp@@ 4
Mayuko 4
decent 4
possi@@ 4
lities 4
pain@@ 4
ill@@ 4
hor@@ 4
revenge 4
disg@@ 4
retarded 4
torture 4
star@@ 4
steak 4
encounter 4
laugh 4
vital 4
Indeed 4
cist 4
birth 4
pill 4
loan 4
hol@@ 4
scarf 4
earthquakes 4
bitter 4
advertisements 4
vote 4
spee@@ 4
flavor 4
reques@@ 4
texting 4
content 4
Charles 4
bliss 4
puzz@@ 4
separate 4
Israel 4
chiev@@ 4
productive 4
devoted 4
describe 4
discharged 4
conspiracy 4
educated 4
cares 4
Cleopatra 4
slee@@ 4
grea@@ 4
effects 4
halfway 4
thering 4
Ara@@ 4
tour 4
cities 4
cious 4
shor@@ 4
appealed 4
effort 4
However 4
ize 4
practicing 4
permit 4
discover 4
honesty 4
skipped 4
classroom 4
percent 4
millionaire 4
faithful 4
spicy 4
forgiven 4
breasts 4
buttocks 4
Marie 4
K@@ 4
event 4
insulting 4
assaul@@ 4
surr@@ 4
Mennad 4
recipe 4
instant 4
access 4
distur@@ 4
breaking 4
rema@@ 4
ob@@ 4
Sa@@ 4
Africa 4
tom@@ 4
carri@@ 4
liber@@ 4
tempted 4
urinating 4
areas 4
debt 4
Moscow 4
Fa@@ 4
helpful 4
horrified 4
various 4
curren@@ 4
trap 4
disobeyed 4
ior 4
tire 4
jumped 4
finger@@ 4
yellow 4
9 4
Jones 4
note 4
fix@@ 4
weighs 4
assistant 4
lian 4
low@@ 4
eighty 4
dessert 4
hi 4
bath@@ 4
chunks 4
grapes 4
goo@@ 4
ey 4
ut 4
marshmallows 4
laughter 4
suffered 4
female 4
bars 4
Year 4
hid 4
Pen@@ 4
sion 4
benefit 4
based 4
estima@@ 4
assumptions 4
rates 4
rate 4
posted 4
corrected 4
YouTube 4
temptation 4
personality 4
ols 4
Saturday 4
needn 4
differs 4
aspir@@ 4
thro@@ 4
ddly 4
spy 4
pted 4
ders 4
skip 4
deep 4
court 4
ged 4
ite 4
abstract 4
USA 4
moral 4
dieting 4
squ@@ 4
beings 4
jogging 4
Sco@@ 4
Royal 4
observe 4
sacrifices 4
tendency 4
deser@@ 4
flags 4
quar@@ 4
explode 4
technology 4
Egyptian 4
pyramids 4
ky 4
Alger@@ 4
ering 4
deceptive 4
threat 4
anks 4
sink 4
bbed 4
garlic 4
instantly 4
labor 4
betray 4
gambling 4
USB 4
roast 4
And 4
morgue 4
pretended 4
throne 4
mum 4
impatient 4
relieved 4
gement 4
services 4
risks 4
contented 4
secretary 4
photo@@ 4
loop 4
wars 4
tin@@ 4
um 4
blonde 4
University 4
consequences 4
bygones 4
relation@@ 4
breaks 4
len@@ 4
chose 4
presenta@@ 4
complaint 4
internet 4
Apparently 4
Yokohama 4
pis@@ 4
ung 4
fle@@ 4
LO@@ 4
proposes 4
decl@@ 4
turns 4
surgery 4
stalling 4
regard 4
original 4
balls 4
tight 4
rational 4
brave 4
distinguish 4
enormous 4
foss@@ 4
ligh@@ 4
success@@ 4
someday 4
wers 4
el 4
iner 4
winds 4
suitable 4
downstairs 4
stamp 4
luggage 4
paycheck 4
knees 4
rush 4
pronounce 4
companions 4
attend 4
trusting 4
span 4
confli@@ 4
diploma@@ 4
setbacks 4
abandoned 4
victim 4
dings 4
beard 4
automobile 4
rescue 4
mastered 4
keeper 4
wider 4
audience 4
chairs 4
ent@@ 4
reg@@ 4
advance 4
movement 4
permanent 4
peace 4
sorrow 4
moves 4
cloudy 4
noon 4
hood 4
ev@@ 4
choo@@ 4
yen 4
dan@@ 4
emer@@ 4
ges 4
financial 4
adviser 4
artist 4
hunch 4
eter 4
ference 4
Arabic 4
nickname 4
plant 4
preserve 4
trumpet 4
reads 4
hits 4
nail 4
awkward 4
grounds 4
requ@@ 4
ots 4
revolution 4
seasons 4
behaving 4
skiing 4
notebook 4
Pee@@ 4
rainbow 4
pes 4
pronunciation 4
previous 4
plea@@ 4
mat@@ 4
professional 4
fer 4
tour@@ 4
experienced 4
aching 4
ph@@ 4
thus 4
joking 4
staring 4
wreck 4
quarter 4
speeding 4
leaped 4
foreig@@ 4
naive 4
neighborhood 4
eager 4
negoti@@ 4
ations 4
purpose 4
abducted 4
na@@ 4
cer 4
tions 4
ld@@ 4
intention 4
lions 4
Mil@@ 4
alaxy 4
scratching 4
extra 4
lowing 4
leisure 4
urges 4
pot 4
Cro@@ 4
zen 4
forehead 4
Maria 4
shooting 4
ordinary 4
ghost 4
board 4
leftovers 4
refre@@ 4
shes 4
ste@@ 4
reliable 4
gue 4
slain 4
hilltop 4
expenses 4
prettiest 4
rings 4
travels 4
bom@@ 4
factory 4
capital 4
cancel 4
tack 4
founded 4
ral 4
social 4
affairs 4
rare 4
curious 4
giants 4
Ko@@ 4
tou@@ 4
crowded 4
M 4
blow 4
fr@@ 4
fries 4
bunch 4
widow 4
expi@@ 4
ang 4
loving 4
vering 4
bloody 4
seemed 4
Chopin 4
treats 4
allows 4
sank 4
stomach 4
embarrassing 4
scho@@ 4
attend@@ 4
improving 4
expressions 4
subje@@ 4
heels 4
opposite 4
invol@@ 4
remo@@ 4
ad 4
bearing 4
violent 4
avo@@ 4
composed 4
critical 4
inclu@@ 4
software 4
ambition 4
ferred 4
clap 4
endings 4
sandwiches 4
example 4
ery 4
circumstances 4
hearing 4
favor 4
defeat 4
soldier 4
bra 4
fre@@ 4
honor 4
transported 4
anno@@ 4
rage 4
occur 4
swam 4
man@@ 4
Bur@@ 4
ese 4
mmit 4
batter@@ 4
thirteen 4
ians 4
Germans 4
hen 4
closet 4
ade 4
impression 4
ne@@ 4
Bye 4
jokes 4
immediate 4
freak 4
page 4
wel 4
cracy 4
remin@@ 4
Central 4
monkey 4
apo@@ 4
offended 4
identi@@ 4
dreams 4
explosion 4
aware 4
reti@@ 4
disagree 4
happiest 4
electricity 4
arse 4
stain 4
sounding 4
practice 4
talent 4
dness 4
WhatsApp 4
Group 4
gres@@ 4
clusterfuck 4
discuss 4
enjoyed 4
bridge 4
communication 4
joined 4
neck 4
absor@@ 4
jo@@ 4
See 4
tering 4
opinions 4
Ito 4
relief 4
jobs 4
brings 4
bastard 4
ion 4
June 4
temper 4
tune 4
Su@@ 4
relaxed 4
ons 4
pur@@ 4
otic 4
model 4
tch 4
saf@@ 4
immortal 4
ive 4
dreaming 4
midnight 4
exit 4
beg@@ 4
retired 4
destro@@ 4
Mo@@ 4
hoo@@ 4
tan@@ 4
Canadi@@ 4
pump 4
contain 4
diet 4
unhealthy 4
resourceful 4
saint 4
religion 4
beyond 4
criti@@ 4
jellyfish 4
cus 4
gh 4
beginners 4
uniforms 4
slid 4
Tanaka 4
Fill 4
invincible 4
pic@@ 4
thence 4
wound 4
bowed 4
manage 4
forty 4
Que@@ 4
Pre@@ 4
theless 4
image 4
pil@@ 4
eth 4
discourage 4
ious 4
debate 4
survival 4
capture 4
15 4
bul@@ 4
forest 4
glory 4
blocked 4
rug 4
repa@@ 4
frightened 4
character 4
delayed 4
eek 4
playground 4
receive 4
nel 4
blackboard 4
enti@@ 4
tles 4
pretending 4
beggars 4
hill 4
spin@@ 4
aggression 4
disliked 4
socks 4
loo@@ 4
charged 4
hers 4
jury 4
steering 4
essay 4
dust 4
arrest 4
bla@@ 4
pr@@ 4
suffer 4
Mus@@ 4
je@@ 4
southern 4
refuse 4
eleph@@ 4
interests 4
beans 4
sciences 4
amount 4
farm 4
dges 4
ative 4
zing 4
paused 4
smiled 4
section 4
En@@ 4
conclusions 4
collected 4
soa@@ 4
ignorance 4
abuse 4
bounce 4
Mars 4
alty 4
asks 4
crap 4
blog 4
stu@@ 4
gener@@ 4
mony 4
tattoo 4
reduced 4
betrayed 4
knocked 4
levant 4
drawings 4
horror 4
noti@@ 4
recognized 4
mer@@ 4
rope 4
International 4
punctu@@ 4
claims 4
ists 4
Com@@ 4
diary 4
can@@ 4
founda@@ 4
sunscreen 4
ues 4
freedom 4
part@@ 4
isi@@ 4
eu@@ 4
recovery 4
sou@@ 4
arrives 4
Capitalism 4
popu@@ 4
alphabet 4
Catholic 4
constantly 4
shows 4
trated 4
participa@@ 4
ama@@ 4
neigh@@ 4
surprising 4
match 4
command@@ 4
tal 4
attracted 4
surface 4
infor@@ 4
sits 4
perspective 4
dle 4
histor@@ 4
fail 4
N@@ 4
ones 4
ics 4
island 4
liar 4
Venus 4
ric 4
respected 4
sends 4
objects 4
bicycles 4
toe 4
hurts 4
hire 4
Olympic 4
easiest 4
il@@ 4
ton 4
od 4
dwar@@ 4
adapt 4
environmental 4
dumber 4
ry 4
presidential 4
carrying 4
ger 4
oldest 4
waist 4
ast 4
eeny 4
meeny 4
miny 4
moe 4
okay 4
Tony 4
marvelous 4
pox 4
gla@@ 4
beside 4
aboard 4
providing 4
Tha@@ 4
ckers 4
essential 4
views 4
ently 4
banana 4
advise 4
conference 4
printed 4
arrival 4
lead 4
baked 4
ttery 4
bru@@ 4
naked 4
pint 4
nit@@ 2
hen@@ 2
tons 2
worms 2
relax@@ 2
ssi@@ 2
ester@@ 2
messages 2
tional 2
temp@@ 2
inde@@ 2
Yukio 2
Mishima 2
1970 2
pul@@ 2
nes@@ 2
Gandrange 2
zes 2
FranÃ§ois 2
gons 2
servant 2
pretti@@ 2
obs@@ 2
mosa@@ 2
Cathy 2
1980 2
pirate 2
Halloween 2
undermine 2
net@@ 2
journal 2
au@@ 2
yuan 2
occu@@ 2
translated 2
Hooker 2
Dallas 2
wning 2
guides 2
source 2
inspiration 2
Hummer 2
limousines 2
conspi@@ 2
weep 2
evi@@ 2
kin@@ 2
couples 2
assu@@ 2
oth@@ 2
volunteering 2
Juba 2
rela@@ 2
analo@@ 2
wrapped 2
compla@@ 2
Jack@@ 2
meth@@ 2
ley 2
ug 2
signifi@@ 2
ss@@ 2
distan@@ 2
civi@@ 2
lized 2
infect@@ 2
geni@@ 2
Emilia 2
inent 2
icky 2
interru@@ 2
proving 2
Ger@@ 2
Julie 2
righ@@ 2
gar 2
influence 2
ex 2
Jan@@ 2
uary 2
even@@ 2
twelfth 2
zation 2
exis@@ 2
welcomed 2
typical 2
soci@@ 2
sear@@ 2
ckets 2
Dublin 2
hard@@ 2
wder 2
unsalted 2
Anti@@ 2
Kevin 2
Nash 2
yelling 2
pneu@@ 2
protes@@ 2
issu@@ 2
tum 2
ican 2
rapp@@ 2
verted 2
pendu@@ 2
wny 2
weighing 2
absur@@ 2
mug 2
campus 2
stands 2
foun@@ 2
Gables 2
troops 2
trenches 2
voted 2
semi 2
treatment 2
worldwide 2
choir 2
vies 2
stron@@ 2
verse 2
witnessed 2
vicious 2
cle 2
para@@ 2
tiv@@ 2
versity 2
snob 2
us@@ 2
tries 2
industri@@ 2
lig@@ 2
yodeler 2
oxyg@@ 2
dering 2
infe@@ 2
esp@@ 2
Z@@ 2
les@@ 2
thern 2
ide@@ 2
politi@@ 2
Ar@@ 2
tina 2
fen@@ 2
mm 2
Jo@@ 2
unted 2
bad@@ 2
tered 2
Hopkins 2
woke 2
1912 2
ustrian 2
Franz 2
Reichelt 2
parachute 2
races 2
igh@@ 2
ushered 2
traveled 2
pra@@ 2
zip 2
typhoon 2
types 2
bin@@ 2
dden 2
Sandra 2
gro@@ 2
documents 2
suspe@@ 2
thou@@ 2
jel@@ 2
bac@@ 2
teria 2
sol@@ 2
patio 2
ly@@ 2
viet 2
lap@@ 2
Keller 2
trate 2
monade 2
Portugal 2
selfie 2
tre 2
ttering 2
wasps 2
ctri@@ 2
colonies 2
sensible 2
tucked 2
ker@@ 2
chi@@ 2
chem@@ 2
H 2
hydrog@@ 2
phon 2
Yukawa 2
sins 2
fon@@ 2
inci@@ 2
dence 2
tat@@ 2
os 2
communi@@ 2
sign@@ 2
my@@ 2
centi@@ 2
physi@@ 2
weaker 2
yself 2
patients 2
SMS 2
tale 2
SM@@ 2
prin@@ 2
Sally 2
beha@@ 2
foo 2
net 2
diplom@@ 2
our@@ 2
Fren@@ 2
verb 2
conju@@ 2
LÃ©a 2
wags 2
resour@@ 2
cal@@ 2
rers 2
navi@@ 2
inging 2
lon@@ 2
iness 2
poin@@ 2
trolman 2
ards 2
accus@@ 2
erra@@ 2
utious 2
trespassing 2
unrealistic 2
Pharamp 2
Thanksgiving 2
sal@@ 2
custom@@ 2
thermostat 2
ja@@ 2
weeds 2
bor@@ 2
dise 2
indus@@ 2
employed 2
untly 2
musici@@ 2
deci@@ 2
arri@@ 2
union 2
ski 2
preser@@ 2
vatives 2
flav@@ 2
Paci@@ 2
fic 2
positive 2
workforce 2
cable 2
yal 2
dynam@@ 2
interaction 2
Harbin 2
Reagan 2
1981 2
ambassad@@ 2
rit 2
ising 2
dom 2
vision 2
vided 2
ref@@ 2
u 2
My@@ 2
Q@@ 2
tables 2
Alejandra 2
danger@@ 2
Wi@@ 2
pages 2
bar@@ 2
verers 2
secon@@ 2
aug@@ 2
pass@@ 2
ports 2
descri@@ 2
bes 2
cocktail 2
sures 2
av@@ 2
bes@@ 2
condi@@ 2
fal@@ 2
sely 2
poker 2
photosyn@@ 2
exception 2
ick@@ 2
text@@ 2
strat@@ 2
gy 2
tching 2
ead 2
Princess 2
Bride 2
tact 2
Pal@@ 2
estin@@ 2
Gaza 2
tsunami 2
states 2
produ@@ 2
maged 2
watering 2
propri@@ 2
200 2
1985 2
conven@@ 2
scan@@ 2
dal 2
fatal 2
dol@@ 2
ences 2
ency 2
ystander 2
videotaped 2
bro@@ 2
2003 2
imag@@ 2
6@@ 2
ptem@@ 2
Lang@@ 2
uages 2
watermelon 2
unaided 2
claustropho@@ 2
bic 2
kara@@ 2
oke 2
Hon@@ 2
hang@@ 2
2.@@ 2
pure 2
force 2
weaken 2
ale 2
tem@@ 2
ctures 2
winded 2
imp@@ 2
lement 2
tracting 2
religi@@ 2
contact 2
masoch@@ 2
black@@ 2
vague 2
mal 2
toil@@ 2
touch@@ 2
4@@ 2
dant 2
culti@@ 2
file 2
unprofessional 2
Sydney 2
till@@ 2
contribu@@ 2
Warcraft 2
adver@@ 2
value 2
Alaska 2
compli@@ 2
rais@@ 2
faul@@ 2
lan@@ 2
La 2
Stampa 2
Barack 2
Obama 2
zone 2
fluctu@@ 2
presen@@ 2
coura@@ 2
ceed 2
lit@@ 2
offen@@ 2
Bu@@ 2
ddhis@@ 2
salon 2
invitation 2
pared 2
Banque 2
tterns 2
belie@@ 2
ah 2
mosqu@@ 2
den 2
cast@@ 2
partment 2
pat@@ 2
congratula@@ 2
altru@@ 2
ems 2
whales 2
contribut@@ 2
ject 2
inno@@ 2
cence 2
bigot 2
ose 2
diagon@@ 2
pea@@ 2
illed 2
amica@@ 2
pression 2
acti@@ 2
vities 2
accidents 2
violence 2
cirrho@@ 2
liver 2
waving 2
que 2
ins@@ 2
sprin@@ 2
purification 2
wards 2
fluores@@ 2
isance 2
elled 2
incorrigible 2
vanish 2
Nagasaki 2
usted 2
valedictorian 2
ession 2
enri@@ 2
watered 2
discrimin@@ 2
ption 2
angle 2
volcanoes 2
stes 2
wire 2
cigarettes 2
bed@@ 2
ye 2
row 2
yolks 2
boy@@ 2
olives 2
harv@@ 2
ear 2
collisions 2
whiplash 2
uffle 2
alistic 2
unpleasant 2
calcula@@ 2
Ti@@ 2
Tra@@ 2
veller 2
tramp 2
Sam 2
yells 2
hula 2
hoop 2
curry 2
aban@@ 2
offi@@ 2
cial 2
obligations 2
radi@@ 2
unforgettable 2
dispu@@ 2
consci@@ 2
undervalue 2
underestimate 2
separa@@ 2
dum@@ 2
tuberculosis 2
tex@@ 2
rew 2
wishes 2
suspi@@ 2
sty 2
serviettes 2
professions 2
collaborative 2
mem@@ 2
bers 2
exper@@ 2
iment 2
minim@@ 2
wandering 2
dd@@ 2
Ir@@ 2
truths 2
K 2
Avatar 2
Belfast 2
commission 2
contents 2
intact 2
slow@@ 2
ret@@ 2
begin@@ 2
AdÃ©laÃ¯de 2
abyle 2
post@@ 2
spor@@ 2
volume 2
mÃ©tro 2
ong 2
regrettable 2
universal 2
ired 2
fore 2
Creative 2
Commons 2
tribution 2
2.0 2
fr 2
tendin@@ 2
Marseille 2
gion 2
uncommon 2
forces 2
seize 2
weapons 2
pa 2
u@@ 2
obiles 2
Hitler 2
national 2
trebled 2
zees 2
ther 2
dev@@ 2
Wayne 2
enjo@@ 2
yable 2
and@@ 2
tuous 2
adul@@ 2
lest 2
bon 2
waits 2
42 2
incon@@ 2
cei@@ 2
vable 2
contradiction 2
ture 2
typo 2
programme 2
Jackson 2
Neymar 2
Braz@@ 2
umber 2
ops 2
wages 2
cents 2
weirdo 2
cky 2
pean@@ 2
raisins 2
chewing 2
gum 2
zards 2
cess 2
worker 2
laugh@@ 2
advis@@ 2
plu@@ 2
writes 2
worries 2
eau 2
aphrodisia@@ 2
writers 2
af@@ 2
tiz@@ 2
mit 2
pay@@ 2
actuari@@ 2
asse@@ 2
compen@@ 2
sation 2
zure 2
cinem@@ 2
kets 2
licen@@ 2
destin@@ 2
ado@@ 2
orp@@ 2
ple@@ 2
mentation 2
mission 2
desp@@ 2
exha@@ 2
ustion 2
ugust 2
tsman 2
kilt 2
Alain 2
Resnais 2
indica@@ 2
dire@@ 2
ctly 2
desc@@ 2
David 2
Milan 2
tub 2
atmo@@ 2
accompl@@ 2
ished 2
upright 2
Du@@ 2
aise 2
prou@@ 2
hea@@ 2
transfusions 2
8 2
pois@@ 2
whatsoever 2
Luxembourg 2
tab@@ 2
quir@@ 2
Matoub 2
Lounes 2
ld 2
answ@@ 2
trades 2
triple 2
ris@@ 2
wroom 2
tradition 2
traps 2
conclusion 2
pu@@ 2
suspicion 2
cel 2
excellent 2
watchful 2
wiretapping 2
treasure 2
suf@@ 2
fici@@ 2
Kathy 2
Oscar 2
version 2
knowle@@ 2
anxi@@ 2
respect@@ 2
ene@@ 2
ficial 2
ured 2
Tufts 2
econom@@ 2
Francesco 2
const@@ 2
conne@@ 2
magi@@ 2
cian 2
Sarah 2
Mage 2
Wikileaks 2
Ou@@ 2
Char@@ 2
eting 2
ears 2
disposes 2
passes 2
incom@@ 2
backs 2
rain@@ 2
Robinson 2
notes 2
administration 2
sources 2
venue 2
pyra@@ 2
propos@@ 2
Jeanne 2
Mongo@@ 2
lia 2
cali@@ 2
ats 2
conver@@ 2
simula@@ 2
50 2
rel 2
ay@@ 2
wept 2
visits 2
ust 2
recon@@ 2
nat@@ 2
urally 2
salted 2
tooth@@ 2
usso 2
cen@@ 2
turies 2
sculpture 2
pickpocket 2
Java 2
JavaSCRIPT 2
ball@@ 2
Barbara 2
aled 2
Tibet 2
festival 2
appar@@ 2
prison 2
whispered 2
Kasparov 2
challenger 2
troubled 2
lar@@ 2
Stephen 2
Colbert 2
reu@@ 2
pho@@ 2
stered 2
camer@@ 2
bile 2
tripping 2
non 2
termine 2
diam@@ 2
circum@@ 2
bles 2
conditions 2
Celsius 2
pizzeria 2
concentr@@ 2
welling 2
recei@@ 2
ving 2
wiped 2
1789 2
Butterbrot 2
labor@@ 2
ory 2
stam@@ 2
Jupiter 2
ke@@ 2
Max 2
Patricia 2
repro@@ 2
clarification 2
need@@ 2
clea@@ 2
vage 2
unrelated 2
oud 2
Sato 2
document 2
holi@@ 2
Oxford 2
witnesses 2
preg@@ 2
wolves 2
sau@@ 2
yard 2
Kakongo 2
wins 2
correspon@@ 2
secre@@ 2
27 2
ites 2
alphanum@@ 2
key@@ 2
basket 2
Appen@@ 2
fain@@ 2
unforgivable 2
soluble 2
mul@@ 2
expe@@ 2
truly 2
final 2
employ@@ 2
escor@@ 2
mises 2
opti@@ 2
illusion 2
gam@@ 2
wicked 2
War@@ 2
Babyl@@ 2
gard@@ 2
utensils 2
Brasilia 2
Naomi 2
bles@@ 2
Yu@@ 2
gosla@@ 2
via 2
manipula@@ 2
sugges@@ 2
play@@ 2
cap@@ 2
tured 2
cultu@@ 2
urmanji 2
magnifi@@ 2
unlocked 2
lov@@ 2
Rick 2
ere 2
Capitu@@ 2
alas 2
ruse 2
Miho 2
Noriko 2
rac@@ 2
upload 2
stea@@ 2
1920 2
verdict 2
Shinobu 2
sis@@ 2
portion 2
Jimmy 2
prince 2
gon@@ 2
Bamako 2
Mal@@ 2
deed 2
refuge 2
â€½ 2
sel@@ 2
ls 2
wadays 2
ender 2
lin@@ 2
Nara 2
tage 2
sul@@ 2
ore@@ 2
calcu@@ 2
hypo@@ 2
triangle 2
person@@ 2
pago@@ 2
da 2
ques 2
Istanbul 2
excel@@ 2
pour@@ 2
whiskey 2
igni@@ 2
idioma@@ 2
assistance 2
radium 2
val 2
structure 2
weden 2
Coca 2
Cola 2
inven@@ 2
Fanta 2
Secon@@ 2
sse 2
aine 2
victims 2
washes 2
unching 2
reci@@ 2
unclear 2
Ubuntu 2
ziest 2
bou@@ 2
scen@@ 2
Allah 2
dding 2
ounce 2
pacifis@@ 2
patriotis@@ 2
expos@@ 2
annu@@ 2
oc@@ 2
currence 2
ug@@ 2
Ted 2
bby 2
Sachiko 2
Akiko 2
strict 2
emplo@@ 2
rand@@ 2
om 2
bot@@ 2
cop@@ 2
ees 2
Myanmar 2
yachts 2
rechargea@@ 2
mists 2
YouTu@@ 2
Fritz 2
Fred 2
wiggled 2
toes 2
influ@@ 2
enced 2
ssed 2
toma@@ 2
vegetable 2
applications 2
loyal 2
lent 2
auto 2
kilom@@ 2
legal 2
era 2
troleum 2
wolf 2
vengeance 2
B 2
stable 2
sus@@ 2
hockey 2
understands 2
perfection@@ 2
eel 2
wned 2
Lu@@ 2
eness 2
demo@@ 2
Park 2
zombies 2
Mira@@ 2
cul@@ 2
cousins 2
Cambo@@ 2
dia 2
ax 2
Eu@@ 2
cyber@@ 2
expert 2
rement 2
pains 2
oped 2
Nobel 2
rati@@ 2
cisions 2
pun@@ 2
sauce 2
ton@@ 2
gues 2
cym@@ 2
bal 2
fortun@@ 2
tis@@ 2
trousers 2
mile 2
Con@@ 2
allergies 2
addi@@ 2
motel 2
commerci@@ 2
catalo@@ 2
Palais 2
euros 2
din@@ 2
humour 2
jazz 2
1860 2
Lincoln 2
traditions 2
core 2
thermom@@ 2
impres@@ 2
sive 2
boracasli 2
borro@@ 2
cam@@ 2
ig@@ 2
brioche 2
lum@@ 2
ber@@ 2
untapped 2
pti@@ 2
spa@@ 2
craft 2
wered 2
usters 2
ids 2
bambo@@ 2
Paderborn 2
2000 2
32 2
83 2
waffles 2
utilized 2
poses 2
dorm@@ 2
ories 2
idi@@ 2
care@@ 2
grou@@ 2
stupi@@ 2
dow 2
hamburger 2
obje@@ 2
tants 2
combustion 2
stem 2
S 2
Mondrian 2
menti@@ 2
translating 2
Shounan 2
waistcoat 2
salons 2
occup@@ 2
Okin@@ 2
underwear 2
yogurt 2
unrelenting 2
wave 2
sev@@ 2
pick@@ 2
sca@@ 2
Spot 2
sprint 2
past@@ 2
sermon 2
excellence 2
terri@@ 2
thed 2
reprise 2
All 2
tower 2
Jimi 2
Hendrix 2
fans 2
unsatisfied 2
tern@@ 2
tr@@ 2
ack 2
Harry 2
instruments 2
questionnaire 2
RAM 2
Nakagawa 2
bon@@ 2
yor 2
continu@@ 2
adverti@@ 2
âŠ‚ 2
ote 2
inclusion 2
Dardanus 2
sius 2
suit@@ 2
pir@@ 2
Shakespeare 2
Di@@ 2
et 2
unpopular 2
trifling 2
incident 2
Hanako 2
Da@@ 2
ta.gov 2
range 2
tings 2
heal@@ 2
dures 2
8@@ 2
1888 2
Debus@@ 2
lude 2
ternoon 2
non@@ 2
passion@@ 2
hund@@ 2
sp 2
Hitomi 2
ne 2
necess@@ 2
Cartw@@ 2
pru@@ 2
illing 2
port 2
Naples 2
clim@@ 2
Mis@@ 2
jam@@ 2
unanimous 2
Miyazaki 2
distri@@ 2
casino 2
$ 2
uniqueness 2
scar@@ 2
Ukraine 2
Mozart 2
origin@@ 2
Salz@@ 2
unned 2
kis@@ 2
worthy 2
continue 2
volcano 2
upts 2
statisti@@ 2
Jordan 2
confi@@ 2
francs 2
Ori@@ 2
mental 2
form@@ 2
visions 2
putation 2
obli@@ 2
wildly 2
Sabah 2
handball 2
anta 2
Chan@@ 2
trous 2
1914 2
barrica@@ 2
xury 2
are@@ 2
spe@@ 2
whistle 2
Henry 2
Baskervilles 2
alter@@ 2
surveillance 2
org@@ 2
poe@@ 2
shir@@ 2
.m 2
museu@@ 2
chur@@ 2
sers 2
Mohammed 2
dispos@@ 2
Cristina 2
profes@@ 2
ents 2
intercep@@ 2
transformed 2
progra@@ 2
Taniguchi 2
distribu@@ 2
refu@@ 2
encoura@@ 2
adi@@ 2
streng@@ 2
convin@@ 2
crit@@ 2
winner 2
chil@@ 2
compar@@ 2
wild 2
probab@@ 2
Ital@@ 2
exclus@@ 2
ail@@ 2
sav@@ 2
code 2
sandwi@@ 2
ylic 2
organi@@ 2
Commun@@ 2
voyage 2
lecture 2
mula@@ 2
trombone 2
Newton 2
4000 2
BC 2
stric@@ 2
tremists 2
tensions 2
Califor@@ 2
nia 2
spatial 2
wareness 2
clipse 2
Martin 2
Luther 2
tyre 2
twin 2
travelers 2
ot 2
bel 2
ici@@ 2
cles 2
milit@@ 2
Ankara 2
prose 2
ser@@ 2
progres@@ 2
smil@@ 2
rouge 2
usting 2
sm@@ 2
ith 2
ctor 2
sible 2
Goro 2
san 2
sole@@ 2
engag@@ 2
Ri@@ 2
chard 2
V@@ 2
camp 2
illusions 2
Sayoko 2
dange@@ 2
peci@@ 2
wildlife 2
waved 2
piti@@ 2
pli@@ 2
route 2
truant 2
particu@@ 2
tors 2
Portu@@ 2
marathon 2
scre@@ 2
objection 2
ure 2
gigan@@ 2
reconstru@@ 2
loy@@ 2
condu@@ 2
visitors 2
dy@@ 2
wimps 2
useless 2
parasol 2
uding 2
wfall 2
stan@@ 2
verestimated 2
urban 2
Rh@@ 2
param@@ 2
edi@@ 2
mil@@ 2
ar 2
cti@@ 2
outrage 2
cook@@ 2
Tim 2
Rem@@ 2
Chil@@ 2
ren 2
duo 2
mou@@ 2
ygoing 2
nigh@@ 2
ggl@@ 2
distances 2
psycho@@ 2
music@@ 2
gi@@ 2
mayonnaise 2
irre@@ 2
Kazakhstan 2
Asi@@ 2
jong 2
vegetarians 2
appoin@@ 2
2030 2
ped 2
infantile 2
acro@@ 2
bat 2
pier 2
py 2
manu@@ 2
factures 2
variety 2
dotes 2
grand@@ 2
inspection 2
Atomic 2
ergy 2
gency 2
trips 2
terror@@ 2
virginity 2
calories 2
sec 2
blondes 2
unwrapped 2
satis@@ 2
wealth 2
tter 2
former 2
eBay 2
intersection 2
passion 2
Cath@@ 2
ares 2
Albi@@ 2
Vo@@ 2
Breand@@ 2
Ã¡n 2
cer@@ 2
ind@@ 2
dies 2
tempor@@ 2
separ@@ 2
contin@@ 2
zenly 2
blu@@ 2
traged 2
reco@@ 2
wounds 2
confis@@ 2
arith@@ 2
bracelet 2
demand@@ 2
25 2
underwater 2
unclasp 2
manus@@ 2
passing 2
warmer 2
vocated 2
Sta@@ 2
Mar@@ 2
ket 2
her@@ 2
one@@ 2
28 2
motion@@ 2
Amnesty 2
Facebook 2
Google 2
collection 2
user 2
ing@@ 2
indication 2
cus@@ 2
mour@@ 2
Nelson 2
Mandela 2
frus@@ 2
defe@@ 2
tuning 2
tig@@ 2
John@@ 2
tyranny 2
whipped 2
pisto@@ 2
paro@@ 2
Simpsons 2
Joe 2
Carlton 2
Michael 2
imparti@@ 2
parti@@ 2
zement 2
Fadil 2
sympath@@ 2
Be@@ 2
2001 2
Goldman 2
Sachs 2
Russi@@ 2
acrony@@ 2
BRIC 2
confir@@ 2
suspici@@ 2
Akagi 2
weaved 2
wreaths 2
vacy 2
Uranus 2
accu@@ 2
LSD 2
pic 2
dictatorial 2
werewolf 2
happ@@ 2
ache 2
youth 2
plorable 2
div@@ 2
ner@@ 2
Marty 2
Apollo 2
poser 2
udders 2
unimpressed 2
Mer@@ 2
influences 2
Deutschland 2
volunteers 2
unsolved 2
twitted 2
skir@@ 2
golf 2
trusts 2
urinate 2
eschato@@ 2
privil@@ 2
eg@@ 2
passage 2
accor@@ 2
apa@@ 2
oms 2
priv@@ 2
embarra@@ 2
Jenny 2
guil@@ 2
Vince 2
acci@@ 2
interrup@@ 2
schedu@@ 2
Dame 2
Mi@@ 2
wildflowers 2
prises 2
volumes 2
offense 2
vitamin 2
A 2
tox@@ 2
lev@@ 2
Trang 2
update 2
Matt 2
TickDisplay 2
fun@@ 2
frame 2
animation 2
alien 2
techno@@ 2
chall@@ 2
Oliver 2
videogames 2
ocre 2
oro@@ 2
log@@ 2
tremendous 2
ophysi@@ 2
thermodynam@@ 2
climato@@ 2
wels 2
concen@@ 2
Eric 2
uled 2
Alfred 2
monot@@ 2
onous 2
sulfu@@ 2
fore@@ 2
phosp@@ 2
colo@@ 2
sus 2
Rome 2
tragedy 2
photogra@@ 2
pher 2
trembling 2
geyser 2
magnitude 2
stand@@ 2
ard 2
ki@@ 2
threa@@ 2
unsual 2
inst@@ 2
BBC 2
chan@@ 2
troublemaker 2
derni@@ 2
RocÃ­o 2
insolent 2
jban 2
ush 2
rival 2
bb@@ 2
violently 2
trangely 2
ever@@ 2
ways 2
gence 2
urgency 2
admira@@ 2
ada@@ 2
ceremon@@ 2
iously 2
triumph 2
nation@@ 2
commerce 2
valley 2
violets 2
yprus 2
translucent 2
logi@@ 2
rying 2
pet 2
wounded 2
wondered 2
spea@@ 2
ounds 2
cit@@ 2
oted 2
bis@@ 2
hop 2
fabri@@ 2
ger@@ 2
mean@@ 2
popular@@ 2
twisting 2
expla@@ 2
menu 2
ssing 2
capa@@ 2
gor@@ 2
fect 2
location 2
ucasian 2
chapp@@ 2
exor@@ 2
survi@@ 2
Crea@@ 2
ement 2
concer@@ 2
ard@@ 2
vark 2
ire 2
parano@@ 2
Taro 2
Akagawa 2
ore 2
unhappy 2
perception 2
clean@@ 2
porter 2
thin@@ 2
wegian 2
sentiment 2
2016 2
undress 2
Anki 2
cour@@ 2
tropical 2
forms 2
gular 2
contr@@ 2
unemotional 2
vel 2
holl@@ 2
conscience 2
vegetarian 2
willed 2
skilled 2
plash 2
tubes 2
allergi@@ 2
designers 2
wds 2
ban@@ 2
ath@@ 2
illi@@ 2
nation 2
rus@@ 2
bec 2
dem@@ 2
on@@ 2
str@@ 2
spi@@ 2
gni@@ 2
zant 2
lik@@ 2
corre@@ 2
correspond 2
mes 2
ap@@ 2
unambitious 2
uttled 2
Berlin 2
Scandinav@@ 2
ditation 2
ignor@@ 2
1972 2
ggled 2
differ@@ 2
fav@@ 2
unimaginable 2
ji 2
dino@@ 2
urs 2
unfaithful 2
translator 2
ram@@ 2
tual 2
Ta@@ 2
La@@ 2
zi 2
sage 2
604 2
C. 2
Henan 2
vince 2
copi@@ 2
tains 2
12 2
dif@@ 2
serva@@ 2
applau@@ 2
dimension 2
client 2
ques@@ 2
fall@@ 2
Per@@ 2
sian 2
ier 2
impati@@ 2
Contr@@ 2
ol 2
injustice 2
O 2
tray 2
dissu@@ 2
gr@@ 2
umbling 2
waking 2
unopened 2
tricky 2
unskilled 2
libr@@ 2
arian 2
Bernard 2
Chartres 2
virtue 2
distin@@ 2
stairs 2
depar@@ 2
mus@@ 2
centre 2
60 2
kilos 2
Ch@@ 2
ris 2
unfit 2
warning 2
intu@@ 2
itive 2
wrap 2
ei@@ 2
oul 2
astro@@ 2
accompli@@ 2
multi@@ 2
ple 2
1974 2
ror 2
points 2
quanti@@ 2
gri@@ 2
act@@ 2
Anna 2
reli@@ 2
rapi@@ 2
visitor 2
Hum@@ 2
comm@@ 2
uncontrollably 2
triggered 2
sk 2
sts 2
examine 2
intimi@@ 2
mashed 2
lis@@ 2
dispersion 2
Sm@@ 2
all@@ 2
pen@@ 2
pachinko 2
.. 2
fus@@ 2
videos 2
advan@@ 2
tages 2
vanity 2
ctor@@ 2
quo 2
any@@ 2
dict 2
ises 2
Jeanette 2
icy 2
wimp 2
bab@@ 2
ysit 2
respon@@ 2
dictions 2
umbrellas 2
Matsuyama 2
voluntarily 2
venture 2
Innsbruck 2
disapp@@ 2
earing 2
gre@@ 2
wallet 2
gle@@ 2
Re@@ 2
tives 2
urry 2
onaire 2
hou@@ 2
Steve 2
anthropo@@ 2
pie@@ 2
unearthed 2
vation 2
turning 2
outons 2
igno@@ 2
persuad@@ 2
suggestions 2
vacuum 2
qui@@ 2
condition@@ 2
vendors 2
penc@@ 2
ambitious 2
confusion 2
description 2
seller 2
fascin@@ 2
protection 2
bre@@ 2
dog@@ 2
Mac@@ 2
Philip 2
Andrew 2
Bethesda 2
ances 2
nicotine 2
articles 2
Picasso 2
citiz@@ 2
unintended 2
redu@@ 2
actu@@ 2
warmth 2
talisman 2
spir@@ 2
inse@@ 2
Reven@@ 2
Sonia 2
nette 2
tractor 2
uttered 2
waiter 2
myst@@ 2
