. 16814
? 2910
a 2809
the 2491
I 2471
de 2419
je 2239
to 2231
you 2149
, 2148
@-@ 1899
est 1821
pas 1551
il 1509
la 1463
Tom 1452
le 1448
que 1391
Ã 1350
is 1348
t 1269
vous 1252
ne 1185
l&apos; 1033
me 1015
un 980
tu 935
of 909
ce 871
n&apos; 869
j&apos; 852
in 849
s 793
he 783
les 776
en 742
! 732
it 713
that 710
ai 708
une 699
I&apos; 677
nous 655
d&apos; 652
do 606
have 596
this 579
was 569
elle 552
are 517
my 517
on 515
for 509
don&apos; 469
qu&apos; 464
not 456
pour 442
c&apos; 436
as 433
your 432
she 428
des 424
suis 423
and 422
we 416
m 413
et 406
be 403
what 393
dans 386
&quot; 385
re 359
y 351
with 326
qui 325
du 323
te 322
Ã§a 317
his 316
plus 313
want 311
like 307
s&apos; 298
you&apos; 295
know 291
at 290
faire 288
au 288
se 287
moi 286
m&apos; 283
all 278
Ã©tait 277
tout 264
her 264
avec 264
can 257
fait 252
they 250
there 245
him 245
mon 243
son 234
go 233
how 232
Ãªtre 231
es 229
it&apos; 226
sont 226
si 224
did 224
has 221
ve 217
ils 210
time 206
think 202
sur 201
veux 200
very 200
Mary 199
out 198
no 198
dÃ©@@ 192
get 188
an 185
ll 185
lui 184
will 184
had 184
trÃ¨s 180
temps 178
one 176
can&apos; 176
cette 175
if 175
about 172
were 172
ont 172
Ãªtes 169
sa 167
re@@ 167
from 163
Ã©tÃ© 163
ma 163
here 161
up 161
avez 159
votre 158
who 158
but 155
didn&apos; 152
d 152
par 151
just 148
so 148
Ã© 147
oÃ¹ 147
why 145
us 144
would 142
by 142
dit 142
when 141
pourquoi 140
mais 139
t&apos; 138
peux 136
ici 136
good 135
jamais 134
comment 133
going 133
bien 133
er 132
toi 129
chose 129
pense 128
need 127
Ã©e 125
where 125
ses 124
we&apos; 123
tell 123
sais 123
am 122
see 122
more 122
tes 122
come 120
tous 120
cela 118
comme 117
never 117
been 117
too 114
peut 114
avons 113
beaucoup 111
much 111
ton 111
now 110
vraiment 110
dire 109
help 109
than 108
please 108
should 107
aime 105
avait 104
our 104
only 104
mes 103
elles 103
trop 102
really 102
Ã©@@ 102
train 101
ons 101
mÃªme 99
in@@ 99
could 99
quelque 99
voir 98
car 98
take 98
right 97
rien 97
Sami 97
ent 96
avoir 96
quand 95
va 94
that&apos; 94
work 93
any 92
he&apos; 91
monde 91
deux 91
en@@ 90
encore 90
besoin 89
rÃ©@@ 89
parler 89
day 88
some 88
man 87
ta 87
lÃ 86
aller 85
sommes 85
personne 85
Ã©tais 84
love 83
homme 83
aux 82
or 82
got 82
peu 81
last 81
toujours 81
make 79
must 78
does 78
something 78
&apos; 77
dois 77
ant 77
con@@ 77
argent 77
chez 77
lot 76
s@@ 76
bon 75
aussi 75
g@@ 75
f@@ 75
maison 74
doesn&apos; 74
money 74
Marie 73
soit 72
way 72
people 72
arrive 72
fois 72
long 72
home 71
tÃ© 71
avais 71
vu 71
quel 71
went 71
eu 71
notre 70
voiture 70
quoi 69
avant 69
travail 69
speak 68
what&apos; 68
Ã©s 68
vie 68
look 68
autre 68
vais 67
them 67
anything 67
give 67
p@@ 66
maintenant 66
say 66
told 66
said 66
little 65
ces 65
sans 65
find 64
ter 64
dÃ©jÃ 64
leave 64
still 64
a@@ 64
par@@ 63
school 63
talk 63
back 63
pÃ¨re 63
night 63
before 62
porte 62
let 62
aujourd&apos; 62
hui 62
today 62
two 62
di@@ 62
faut 61
well 61
air 61
Ã©es 61
new 60
always 60
off 60
old 59
quelle 59
thought 59
room 59
la@@ 59
ou 59
house 59
combien 59
e 59
ra@@ 58
parents 58
plaÃ®t 58
everything 57
made 57
sure 57
many 57
heures 57
believe 57
toutes 56
m@@ 56
grand 56
ch@@ 56
nothing 56
enfants 55
ca@@ 55
ts 55
happy 55
again 54
Ã©cole 54
live 54
eat 54
French 54
read 54
ans 54
jour 54
aide 54
feel 54
isn&apos; 53
place 53
book 53
livre 53
life 53
into 53
aimerais 53
use 53
seul 53
b@@ 52
which 52
toute 52
may 52
wanted 52
c@@ 52
ti@@ 52
she&apos; 52
prÃ©@@ 52
ma@@ 52
i@@ 52
ait 51
aprÃ¨s 51
won&apos; 51
hier 51
venir 51
o@@ 51
put 51
ez 51
bonne 51
first 51
alone 51
d@@ 51
demain 51
these 50
cet 50
English 50
better 50
away 50
took 50
e@@ 50
n@@ 50
passÃ© 50
Ã¨re 50
juste 49
late 49
question 49
anglais 49
petit 49
i 49
already 49
try 49
chien 49
dog 49
hard 48
eau 48
franÃ§ais 48
mal 48
their 48
prendre 48
u 48
eux 48
buy 48
job 48
fut 48
three 47
mieux 47
sa@@ 47
able 47
without 47
enough 47
po@@ 47
part 47
other 47
on@@ 47
because 47
trois 46
done 46
li@@ 46
used 46
leur 46
pouvez 46
aider 46
nuit 46
tomorrow 46
ta@@ 45
let&apos; 45
sait 45
nÃ© 45
parle 45
assez 45
best 44
after 44
dÃ» 44
down 44
pa@@ 44
gens 44
it@@ 44
father 44
seule 44
pla@@ 44
left 44
ine 44
ment 43
puis 43
over 43
keep 43
asked 43
children 43
seen 43
peur 43
week 43
femme 43
non 43
accident 43
er@@ 43
moins 43
itÃ© 43
fille 43
questions 43
sorry 42
door 42
plan 42
dis 42
Boston 42
t@@ 42
choses 42
things 42
every 41
nouveau 41
fais 41
idea 41
quelqu&apos; 41
soir 41
mind 41
depuis 41
ante 41
sou@@ 41
stop 41
friend 41
res 41
thing 41
mÃ¨re 41
veut 41
doit 40
looking 40
ie 40
savoir 40
ceci 40
voulais 40
saw 40
lire 40
teacher 40
name 40
idÃ©e 40
there&apos; 40
heure 40
years 40
quelques 40
voulez 40
pensais 40
vos 40
often 39
v@@ 39
being 39
point 39
busy 39
doing 39
ire 39
they&apos; 39
partir 39
ro@@ 39
manger 39
came 39
mo@@ 38
gu@@ 38
water 38
even 38
play 38
moment 38
trouve 38
heureux 38
pendant 38
understand 38
si@@ 37
simplement 37
ci@@ 37
aurais 37
demandÃ© 37
its 37
afraid 37
em@@ 37
r@@ 37
es@@ 37
nom 37
ar@@ 37
lost 37
ren@@ 37
or@@ 37
ri@@ 37
great 37
dis@@ 37
per@@ 37
im@@ 37
France 37
crois 37
call 36
yesterday 36
next 36
wants 36
semaine 36
ed 36
remember 36
autres 36
fi@@ 36
devrais 36
pris 36
souvent 35
bad 35
cold 35
ers 35
faites 35
lo@@ 35
ever 35
world 35
eur 35
C@@ 35
chance 35
allÃ© 35
knew 35
acheter 35
ise 35
end 35
found 35
ques 34
al@@ 34
qu@@ 34
bus 34
vrai 34
ins 34
ready 34
entre 34
problÃ¨me 34
ge 34
ted 34
co@@ 34
; 34
attention 34
com@@ 34
important 34
pu 34
meet 33
l@@ 33
jusqu&apos; 33
young 33
pays 33
savais 33
sens 33
an@@ 33
derniÃ¨re 33
trouvÃ© 33
possible 33
easy 32
retard 32
ten@@ 32
chambre 32
sur@@ 32
devons 32
lettre 32
mort 32
lit 32
wrong 32
Ã©taient 32
met 32
for@@ 32
few 32
married 32
Dan 32
sleep 32
early 32
truth 32
petite 31
small 31
age 31
fa@@ 31
facile 31
ac@@ 31
stay 31
hear 31
no@@ 31
books 31
red 31
letter 31
most 31
bed 31
once 31
perdu 31
around 31
ing 31
drink 31
l 31
is@@ 31
da@@ 31
yet 31
sortir 31
far 31
famille 31
another 31
those 31
knows 31
doctor 31
aren&apos; 30
nos 30
ants 30
Tatoeba 30
cra@@ 30
semble 30
mi@@ 30
everyone 30
everybody 30
jours 30
sera 30
yeux 30
talking 30
pay 30
ville 30
photo 30
che 30
: 30
tÃ´t 30
care 30
trouver 29
year 29
A@@ 29
aucun 29
morning 29
rez 29
u@@ 29
mer 29
since 29
kind 29
myself 29
donne 29
party 29
ami 29
mÃ©@@ 29
sous 29
true 29
mine 29
tant 29
mother 29
ais 29
show 29
vÃ©ritÃ© 29
ask 29
raison 29
tard 29
S@@ 28
vers 28
happened 28
watch 28
hope 28
ad@@ 28
happen 28
apprendre 28
learn 28
anymore 28
bo@@ 28
word 28
ou@@ 28
to@@ 28
ation 28
allez 28
nice 28
so@@ 27
arrivÃ© 27
cours 27
vient 27
penses 27
vue 27
lorsque 27
couldn&apos; 27
rain 27
vivre 27
tour@@ 27
coming 27
country 27
br@@ 27
while 27
prÃ¨s 27
passe 27
difficile 27
police 27
ens 27
pourrais 27
loin 27
problem 27
having 27
main 27
seulement 27
jeune 27
histoire 27
k@@ 26
himself 26
y@@ 26
likes 26
pourrait 26
laisse 26
aucune 26
piÃ¨ce 26
voyage 26
ille 26
livres 26
journÃ©e 26
such 26
pi@@ 26
sois 26
garÃ§on 26
tired 26
free 26
lives 26
dont 26
il@@ 26
croire 26
chat 26
am@@ 26
ds 26
opinion 26
de@@ 26
same 26
minutes 26
st@@ 26
restaurant 26
family 26
cou@@ 26
yourself 26
gave 26
sÃ©@@ 26
table 26
cat 26
langue 26
looks 26
donnÃ© 26
situation 26
filles 25
as@@ 25
haven&apos; 25
achetÃ© 25
connais 25
together 25
celui 25
write 25
bou@@ 25
mis 25
girl 25
ra 25
tÃªte 25
pro@@ 25
friends 25
ex@@ 25
fÃªte 25
mot 25
miss 25
parce 25
froid 25
makes 25
Ã¨rent 25
travaille 25
arrÃªter 25
autant 25
six 25
wait 25
c 25
mar@@ 25
language 25
eurs 24
Tom&apos; 24
dÃ©solÃ© 24
pensÃ© 24
bought 24
matin 24
nouvelle 24
vas 24
ble 24
might 24
days 24
chaque 24
ig@@ 24
turned 24
adore 24
sÃ»r 24
change 24
lu@@ 24
mal@@ 24
vite 24
ler 24
enfant 24
child 24
do@@ 24
min@@ 24
big 24
demande 24
rent 24
ver@@ 24
started 24
someone 24
lait 24
called 24
turn 24
comprendre 24
face 24
piano 24
voulait 23
fini 23
meeting 23
entendu 23
ensemble 23
dix 23
longtemps 23
dÃ©jeuner 23
tÃ©lÃ©phone 23
study 23
seems 23
premier 23
until 23
soyez 23
Ã©crit 23
aient 23
cu@@ 23
tion 23
viens 23
prie 23
nourriture 23
person 23
Paris 23
devrait 23
ha@@ 23
el 23
ap@@ 23
frÃ¨re 23
difficult 23
bit 23
cannot 23
fun 23
ner 23
secret 23
anyone 23
dites 23
lorsqu&apos; 23
hot 23
wasn&apos; 23
peine 23
beau 23
fort 23
times 23
nobody 23
beautiful 23
reading 23
mÃ©decin 23
ches 22
pe@@ 22
av@@ 22
mon@@ 22
fer@@ 22
matter 22
leurs 22
accord 22
savez 22
travailler 22
station 22
joue 22
heard 22
dÃ©teste 22
grande 22
habitude 22
woman 22
sick 22
ves 22
ages 22
waiting 22
tennis 22
sister 22
brother 22
getting 22
dÃ© 22
illes 22
colÃ¨re 22
ab@@ 22
ag@@ 22
rÃ© 22
ni@@ 22
premiÃ¨re 22
ser@@ 22
presque 22
hours 22
working 22
pouvons 22
each 22
information 22
essayer 22
girls 21
sing 21
office 21
at@@ 21
P@@ 21
cr@@ 21
su@@ 21
Ã¨res 21
tent 21
bureau 21
ten 21
dev@@ 21
nÃ©e 21
rouge 21
Japon 21
finished 21
food 21
rais 21
eyes 21
cher 21
ill@@ 21
fit 21
cheveux 21
pri@@ 21
cro@@ 21
plutÃ´t 21
meilleur 21
light 21
jou@@ 21
sÅ“ur 21
allons 21
mois 21
rich 21
r 21
cafÃ© 21
coffee 21
hand 21
serait 21
dÃ®ner 21
dinner 21
venu 21
pÃ©@@ 21
sujet 21
jouer 21
trying 21
pl@@ 21
hate 21
story 21
own 21
open 21
nager 20
heart 20
occupÃ© 20
Japanese 20
lived 20
espÃ¨re 20
living 20
erai 20
ignore 20
ient 20
mettre 20
... 20
boy 20
gar@@ 20
pretty 20
contre 20
f 20
both 20
Japan 20
soon 20
amie 20
Oh 20
ir 20
ter@@ 20
phone 20
number 20
quÃ© 20
cut 20
se@@ 20
almost 20
suppose 20
mor@@ 20
crÃ©@@ 20
10 20
tions 20
belle 20
por@@ 20
else 20
ir@@ 20
forget 20
laisser 20
prÃªt 20
enne 20
tellement 20
hair 20
tried 20
five 20
ate 20
glad 20
ju@@ 20
chemin 19
passer 19
partie 19
film 19
thinking 19
answer 19
fils 19
hurt 19
cÅ“ur 19
ni 19
ly 19
M@@ 19
appelle 19
future 19
Ã©crire 19
dollars 19
au@@ 19
ite 19
rend 19
dehors 19
serai 19
na@@ 19
malade 19
regarde 19
TV 19
ance 19
rem@@ 19
lieu 19
wish 19
oui 19
noir 19
sent 19
le@@ 19
compte 19
under 19
fin 19
oubliÃ© 19
felt 19
ai@@ 19
advice 19
Ã§@@ 19
fon@@ 19
pain 19
wife 19
vit 19
gra@@ 19
weather 19
pouvoir 19
tre 19
regarder 19
santÃ© 19
cause 19
era 19
fumer 19
fell 18
dur 18
mis@@ 18
des@@ 18
aire 18
F@@ 18
annÃ©e 18
swimming 18
vi@@ 18
th@@ 18
rester 18
entreprise 18
laquelle 18
walk 18
arrived 18
ci 18
puisse 18
mains 18
break 18
B@@ 18
D@@ 18
vin 18
Layla 18
born 18
fast 18
visit 18
porter 18
prix 18
black 18
vieux 18
vÃ©lo 18
char@@ 18
h@@ 18
amour 18
laissÃ© 18
ru@@ 18
problÃ¨mes 18
angry 18
maniÃ¨re 18
ga@@ 18
langues 18
behind 18
careful 18
through 18
become 18
then 18
davantage 18
milk 18
veuillez 18
ago 18
lu 18
importe 18
alors 18
died 18
rendre 18
go@@ 18
ainsi 18
dormir 18
habite 18
ement 18
appris 18
less 18
devez 18
village 18
ger 18
class 18
font 17
Ã‰@@ 17
works 17
pres@@ 17
nu@@ 17
pen@@ 17
worry 17
marche 17
p 17
game 17
guess 17
ions 17
killed 17
men@@ 17
others 17
gi@@ 17
feu 17
tonight 17
heureuse 17
news 17
donc 17
wine 17
against 17
vois 17
correct 17
ale 17
surprised 17
payer 17
gue 17
high 17
tenir 17
cÃ© 17
interested 17
parlez 17
close 17
om@@ 17
gÃ© 17
quatre 17
store 17
between 17
envie 17
whole 17
art 17
Ãª@@ 17
marchÃ© 17
students 17
quite 17
wonder 17
pourriez 17
b 17
derriÃ¨re 17
rencontrer 17
nouvelles 17
riche 17
peuvent 17
pensez 17
mots 17
words 17
telle 17
amis 17
trip 17
aimes 17
attendre 17
Ã¨@@ 17
exactly 17
ue 17
dispos@@ 17
wouldn&apos; 17
cinq 17
mangÃ© 17
entendre 17
devriez 17
decided 17
danger 17
ser 16
serais 16
hurry 16
Ã¢@@ 16
became 16
cour@@ 16
ines 16
ss@@ 16
ting 16
appar@@ 16
intention 16
prochain 16
large 16
company 16
yours 16
immÃ©diatement 16
fire 16
faim 16
pouvait 16
hands 16
musique 16
couple 16
fatiguÃ© 16
known 16
tient 16
midi 16
promise 16
faÃ§on 16
der 16
order 16
sen@@ 16
city 16
instant 16
el@@ 16
exactement 16
pu@@ 16
public 16
voudrais 16
yes 16
run 16
magasin 16
dou@@ 16
window 16
apprÃ©cie 16
mange 16
cost 16
propos 16
chaud 16
tez 16
professeur 16
ies 16
tu@@ 16
gl@@ 16
boulot 16
efforts 16
lÃ©@@ 16
sÃ© 16
ob@@ 16
ents 16
pre@@ 16
daughter 16
bas 16
tour 16
mets 16
mu@@ 16
death 16
fenÃªtre 16
L@@ 16
Mr 16
laissez 16
ball 16
pos@@ 16
longer 16
watching 16
pe 16
euse 16
coup 16
smoking 16
intelligent 16
biÃ¨re 16
eu@@ 15
amoureux 15
ded 15
certain 15
crazy 15
dernier 15
summer 15
conduire 15
fish 15
dÃ©solÃ©e 15
swim 15
mauvais 15
plan@@ 15
devrions 15
venus 15
y&apos; 15
spend 15
anybody 15
making 15
Ã¢ge 15
clear 15
frapp@@ 15
G@@ 15
music 15
parlÃ© 15
ites 15
type 15
Ã©r@@ 15
der@@ 15
montre 15
tÃ©lÃ©vision 15
certains 15
cats 15
verre 15
girlfriend 15
cation 15
du@@ 15
autor@@ 15
j@@ 15
ferai 15
ceux 15
sometimes 15
fin@@ 15
fu@@ 15
apprÃ©ci@@ 15
dark 15
four 15
donnez 15
chan@@ 15
merci 15
start 15
lucky 15
telling 15
endroit 15
thank 15
cha@@ 15
bicycle 15
Ã©tiez 15
past 15
Ã©ri@@ 15
ction 15
yer 15
languages 15
route 15
ner@@ 15
commencÃ© 15
nÃ©cessaire 15
af@@ 15
Tokyo 15
poor 15
gÃ©@@ 15
lose 15
vo@@ 15
ur@@ 15
sÃ»re 15
end@@ 15
erreur 15
iez 15
sor@@ 15
vacances 15
regar@@ 15
pous@@ 15
ver 15
bri@@ 15
health 15
h 15
beer 15
ps 15
maybe 15
ciel 14
movie 14
sau@@ 14
capable 14
pour@@ 14
tement 14
rÃ©union 14
also 14
rather 14
Dieu 14
son@@ 14
compris 14
dra@@ 14
date 14
caught 14
hungry 14
John 14
tÃ©es 14
rest@@ 14
thinks 14
comes 14
sÃ©curitÃ© 14
cs 14
hospital 14
mit 14
written 14
favorite 14
tou@@ 14
playing 14
venue 14
die 14
essaie 14
cuisine 14
classe 14
set 14
impossible 14
pouvais 14
tation 14
chats 14
probably 14
cor@@ 14
out@@ 14
easily 14
sucre 14
trouble 14
rait 14
voici 14
choix 14
bi@@ 14
cake 14
saying 14
sense 14
cent 14
over@@ 14
half 14
col@@ 14
personnes 14
terre 14
devant 14
utiliser 14
student 14
listen 14
connaÃ®t 14
al 14
lie 14
boire 14
irs 14
sit 14
fine 14
expÃ©rience 14
ut 14
commen@@ 14
chemise 14
shirt 14
lunch 14
sse 14
voulons 14
30 14
essayÃ© 14
Ah 14
tÃ©e 14
sleeping 14
bl@@ 14
tr@@ 14
hommes 14
idiot 14
near 14
Terre 14
arriver 14
bÃ©bÃ© 14
hotel 14
libre 14
man@@ 14
later 14
prends 14
leaving 14
poser 14
irai 13
rencontrÃ© 13
cla@@ 13
ette 13
mang@@ 13
speaking 13
lou@@ 13
confiance 13
taxi 13
agree 13
taking 13
breakfast 13
rer 13
bill 13
computer 13
souviens 13
voy@@ 13
Mary&apos; 13
ple@@ 13
rendu 13
Ã©tranger 13
tait 13
chi@@ 13
nel 13
allemand 13
German 13
serez 13
feeling 13
head 13
sorte 13
savait 13
dance 13
car@@ 13
rÃª@@ 13
sugar 13
ity 13
attend 13
parfois 13
appreciate 13
appro@@ 13
numÃ©ro 13
courant 13
choice 13
droit 13
garÃ§ons 13
boys 13
penser 13
tri@@ 13
month 13
th 13
alis@@ 13
forgot 13
opened 13
real 13
refus@@ 13
inter@@ 13
tÃ©lÃ© 13
completely 13
hasn&apos; 13
clothes 13
ticket 13
terminÃ© 13
shot 13
res@@ 13
chÃ© 13
bientÃ´t 13
radio 13
kept 13
boÃ®te 13
vis@@ 13
celle 13
aurait 13
experience 13
considÃ©@@ 13
safe 13
Ã¢mes 13
perdre 13
parti@@ 13
least 13
cher@@ 13
clock 13
ence 13
wash 13
content 13
different 13
mou@@ 13
nes 13
Internet 13
looked 13
men 13
learned 13
fruit 13
Ã©quipe 13
team 13
propre 13
mistake 13
baby 13
ressemble 13
whose 13
hÃ´tel 13
dÃ©cidÃ© 13
problems 13
charge 13
cÃ©@@ 13
manqu@@ 13
stayed 13
taille 13
town 13
Jane 13
sti@@ 12
coat 12
whatever 12
yons 12
birthday 12
poste 12
poisson 12
W@@ 12
double 12
furent 12
minute 12
clean 12
ouv@@ 12
New 12
pou@@ 12
inside 12
dor@@ 12
paper 12
sp@@ 12
either 12
allait 12
strong 12
Ã¯@@ 12
marry 12
sentence 12
costume 12
infor@@ 12
H@@ 12
drive 12
touch 12
hÃ´pital 12
faisons 12
hu@@ 12
box 12
afternoon 12
arti@@ 12
op@@ 12
atten@@ 12
bÃ©@@ 12
prefer 12
glasses 12
sh@@ 12
gone 12
prÃªte 12
dress 12
probablement 12
wrote 12
facilement 12
message 12
arriv@@ 12
four@@ 12
ettes 12
tomber 12
ordinateur 12
comprends 12
prom@@ 12
ues 12
fleurs 12
cook 12
essa@@ 12
God 12
deal 12
ellement 12
stupid 12
ba@@ 12
ique 12
reste 12
women 12
Ã©tudiants 12
gros 12
lÃ© 12
dispose 12
sub@@ 12
teur 12
parviens 12
second 12
ennu@@ 12
travers 12
floor 12
arrÃªtÃ© 12
surpris 12
legs 12
bu@@ 12
emploi 12
keys 12
lÃ¨@@ 12
complÃ¨tement 12
necessary 12
dez 12
nombre 12
changÃ© 12
changed 12
garde 12
tres 12
donner 12
sort 12
needed 12
grosse 12
me@@ 12
R@@ 12
dÃ©si@@ 12
appelÃ© 12
iller 12
admire 12
smoke 12
broke 12
suite 12
slept 12
hit 12
invited 12
Earth 12
occupÃ©e 12
prenez 12
dead 12
hat 12
tra@@ 12
ires 12
mÃ© 12
espagnol 12
Spanish 12
viendra 12
esprit 12
shouldn&apos; 12
enti@@ 12
prÃ©sen@@ 12
began 12
hour 12
present 12
rement 12
visite 12
us@@ 12
genre 12
picture 12
and@@ 12
vaut 12
revoir 11
forward 11
manteau 11
absent 11
hÃ©@@ 11
soleil 11
sun 11
loved 11
tic 11
anniversaire 11
rentrer 11
selon 11
dangerous 11
excuse 11
kids 11
tif 11
win 11
japonais 11
article 11
York 11
marcher 11
expensive 11
mer@@ 11
enjoy 11
feelings 11
immediately 11
veulent 11
devenu 11
rai 11
gare 11
should&apos; 11
whether 11
Å“il 11
chang@@ 11
talked 11
neige 11
adresse 11
sentences 11
ous 11
sac 11
quer 11
patient 11
fr@@ 11
interesting 11
simple 11
plusieurs 11
stars 11
spoke 11
glass 11
ements 11
discuter 11
inte 11
bag@@ 11
fasse 11
Ã´@@ 11
Ã¨s 11
catch 11
bra@@ 11
tte 11
line 11
flowers 11
eng@@ 11
bles 11
NoÃ«l 11
reti@@ 11
pass@@ 11
walked 11
bre 11
5 11
key 11
gÃ¢teau 11
T@@ 11
femmes 11
Ã©galement 11
moitiÃ© 11
cÃ´tÃ© 11
taken 11
wearing 11
shoes 11
bring 11
tes@@ 11
marier 11
heavy 11
learning 11
agit 11
aise 11
DÃ©@@ 11
running 11
evening 11
produit 11
using 11
blessÃ© 11
front 11
clÃ©s 11
dÃ©e 11
needs 11
sol 11
arme 11
seem 11
intÃ©res@@ 11
prend 11
ze 11
conseils 11
savent 11
respect 11
played 11
sea 11
moindre 11
riez 11
nombreux 11
eaten 11
takes 11
river 11
supposed 11
dents 11
can@@ 11
chapeau 11
husband 11
ch 11
ours 11
course 11
nature 11
changer 11
fact 11
hors 11
hab@@ 11
tique 11
cer 11
examen 11
kill 11
rou@@ 11
cute 11
levÃ© 11
allÃ©e 11
dort 11
ne@@ 11
test 11
weren&apos; 11
eating 11
fera 11
dessus 11
animal 11
Smith 11
dÃ©li@@ 11
/ 11
bibliothÃ¨que 10
library 10
seeing 10
har@@ 10
manque 10
tons 10
sÃ©e 10
park 10
fou 10
famous 10
short 10
dangereux 10
rÃ©pondre 10
tears 10
mÃ©e 10
cli@@ 10
ck 10
teach 10
jeu 10
Ã©tudier 10
studying 10
entre@@ 10
sez 10
tÃ©@@ 10
enseignant 10
o 10
contr@@ 10
per 10
sentiments 10
prÃ©fÃ¨re 10
serv@@ 10
ton@@ 10
igno@@ 10
vis 10
rest 10
phrase 10
finish 10
comp@@ 10
eye 10
revenir 10
lis 10
journal 10
terrible 10
worked 10
shall 10
address 10
vouloir 10
ally 10
dent 10
strange 10
plupart 10
prise 10
cen@@ 10
mauvaise 10
nor@@ 10
pleurer 10
parti 10
occasion 10
rapidement 10
stupide 10
fe@@ 10
dr@@ 10
sw@@ 10
pied 10
lumiÃ¨re 10
sin@@ 10
smart 10
exc@@ 10
sound 10
cho@@ 10
realize 10
appeler 10
carte 10
Christmas 10
devoir 10
eaux 10
closed 10
pluie 10
clÃ© 10
commencer 10
habitu@@ 10
quickly 10
sed 10
thÃ©orie 10
theory 10
broken 10
portait 10
chaussures 10
pieds 10
gÃ©e 10
sis@@ 10
essay@@ 10
patience 10
ferais 10
atta@@ 10
ayez 10
liked 10
prÃ©fÃ©rÃ©e 10
chante 10
bons 10
cir@@ 10
para@@ 10
dormi 10
speaks 10
gets 10
imagine 10
jambes 10
faisait 10
top 10
mountain 10
Ã¨ne 10
instituteur 10
voitures 10
innocent 10
attend@@ 10
drunk 10
Ã‰tats 10
Unis 10
tree 10
commence 10
bout 10
fo@@ 10
pleut 10
quiet 10
service 10
send 10
site 10
agent 10
dÃ©sormais 10
te@@ 10
bres 10
goes 10
reason 10
Europe 10
lunettes 10
M 10
fil@@ 10
balle 10
tie 10
building 10
fortune 10
pauvre 10
low 10
tar@@ 10
vieil 10
riviÃ¨re 10
iter 10
lies 10
ard 10
dait 10
outside 10
mari 10
exist 10
join 10
thÃ©Ã¢tre 10
bar@@ 10
fer 10
case 10
ments 10
entend@@ 10
pire 10
crying 10
rock 10
discours 10
lis@@ 10
ux 10
milli@@ 10
isÃ© 10
snow 10
zoo 10
plays 10
bas@@ 10
affaire 10
bois 10
magazine 10
concert 10
nez 10
history 10
sommeil 10
Ã©tions 10
succÃ¨s 10
Ã©couter 10
football 10
writing 10
guys 10
explo@@ 9
nervous 9
tÃ©s 9
rappeler 9
cri@@ 9
oubli@@ 9
driving 9
post 9
connu 9
intÃ©rieur 9
view 9
va@@ 9
gro@@ 9
ful 9
cer@@ 9
cle 9
hold 9
nage 9
trouv@@ 9
avenir 9
papier 9
understood 9
fallu 9
huit 9
els 9
gen@@ 9
lar@@ 9
chanson 9
affaires 9
phrases 9
pleased 9
fla@@ 9
iner 9
bag 9
pleu@@ 9
abroad 9
ven@@ 9
med 9
ges 9
figure 9
amies 9
direction 9
x 9
g 9
tenu 9
sauf 9
mean 9
igne 9
dogs 9
traffic 9
prochaine 9
tor@@ 9
sociÃ©tÃ© 9
price 9
courage 9
white 9
autour 9
ride 9
bike 9
advised 9
app@@ 9
printemps 9
single 9
spring 9
cha 9
Ã¨rement 9
owe 9
projet 9
complete 9
jet@@ 9
voyez 9
rend@@ 9
regardÃ© 9
television 9
none 9
consider 9
allowed 9
fou@@ 9
bor@@ 9
gr@@ 9
usually 9
usual 9
hiver 9
winter 9
utilis@@ 9
hom@@ 9
stand 9
suit 9
n 9
cents 9
bal@@ 9
vingt 9
ef@@ 9
poids 9
cup 9
father&apos; 9
expect 9
guerre 9
rons 9
OK 9
ste 9
cieux 9
secrets 9
cadeau 9
figured 9
shop 9
montagne 9
cted 9
population 9
ff@@ 9
parapluie 9
umbrella 9
rencontre 9
cl@@ 9
montrer 9
rendez 9
position 9
siÃ¨@@ 9
gun 9
taire 9
herself 9
blood 9
moral 9
entrÃ©e 9
pÃªcher 9
Ã®@@ 9
older 9
ve@@ 9
uses 9
suffisamment 9
prit 9
kiss 9
gives 9
seras 9
mour@@ 9
vieille 9
ture 9
dictionnaire 9
dictionary 9
sooner 9
demander 9
rÃ©soudre 9
solve 9
quelconque 9
allÃ©s 9
somewhere 9
pr@@ 9
afin 9
mariÃ© 9
lit@@ 9
bu 9
tal@@ 9
In@@ 9
ran 9
enseig@@ 9
tion@@ 9
emplo@@ 9
fat 9
plein 9
pan@@ 9
prÃ©ci@@ 9
ot@@ 9
avance 9
arriver@@ 9
carry 9
rÃ©ussi 9
sport 9
indi@@ 9
oncle 9
dispu@@ 9
sight 9
photos 9
conf@@ 9
met@@ 9
weekend 9
given 9
dimanche 9
don@@ 9
indre 9
quotidi@@ 9
lequel 9
distance 9
fs 9
vont 9
devenir 9
sandwich 9
full 9
connaÃ®tre 9
earth 9
existence 9
appel@@ 9
Thomas 9
sha@@ 9
actually 9
cier 9
o&apos; 9
- 9
jo@@ 9
meilleure 9
groupe 9
gne 8
tombÃ© 8
vivent 8
dit@@ 8
gla@@ 8
viendrai 8
parc 8
aim@@ 8
fall 8
ters 8
solution 8
den@@ 8
fus@@ 8
considered 8
pul@@ 8
cre@@ 8
aimait 8
move 8
ring 8
attrapÃ© 8
cooking 8
trust 8
Ã©pouser 8
surprise 8
mourir 8
ked 8
seat 8
song 8
business 8
slow 8
travaillÃ© 8
prÃ©fÃ©rÃ© 8
dÃ©couvert 8
intÃ©ress@@ 8
ori@@ 8
quement 8
jardin 8
jeunes 8
Ã©trange 8
kitchen 8
vÃ©cu 8
prÃ©sident 8
lac 8
intÃ©ressant 8
restÃ© 8
vol@@ 8
croit 8
pale 8
Ã©toiles 8
cry 8
robe 8
coupe 8
popular 8
dÃ©cision 8
be@@ 8
baiser 8
humeur 8
publi@@ 8
accused 8
danser 8
itÃ©s 8
choisir 8
isÃ©e 8
coin 8
envoyÃ© 8
gÃ©ni@@ 8
tive 8
conse@@ 8
taires 8
tin 8
ms 8
reÃ§u 8
yez 8
cap@@ 8
Ã¨me 8
vent 8
Bob 8
existe 8
proposition 8
chanter 8
recherche 8
gauche 8
Con@@ 8
I@@ 8
land 8
quit@@ 8
sal@@ 8
king 8
erreurs 8
lais@@ 8
tuÃ© 8
suivre 8
conseil 8
follow 8
ArrÃªtez 8
leÃ§on 8
lesson 8
ri 8
government 8
quiconque 8
super 8
involved 8
Ã©ta@@ 8
annÃ©es 8
side 8
spoken 8
vÃªtements 8
pommes 8
bat@@ 8
during 8
hardly 8
thirty 8
ferme 8
rire 8
aimÃ© 8
cure 8
voudriez 8
mistakes 8
fri@@ 8
oublie 8
space 8
continu@@ 8
culture 8
sommet 8
animaux 8
raisons 8
correctement 8
road 8
cars 8
ol@@ 8
convain@@ 8
entr@@ 8
piscine 8
pool 8
United 8
seront 8
ang@@ 8
lots 8
return 8
signe 8
voilÃ 8
hor@@ 8
nue 8
prennent 8
sang 8
Ã¨te 8
tin@@ 8
crime 8
rÃ©ponse 8
mienne 8
ises 8
obli@@ 8
finally 8
gagner 8
Australie 8
Australia 8
ths 8
tÃ©ri@@ 8
America 8
accep@@ 8
apple 8
gie 8
voyager 8
travel 8
haut 8
human 8
finalement 8
prepared 8
docteur 8
expected 8
int 8
E@@ 8
prÃ©sent 8
z@@ 8
bÃ¢timent 8
moyen 8
permission 8
twice 8
piece 8
across 8
portes 8
actu@@ 8
rentr@@ 8
vase 8
sign 8
Å“ufs 8
eggs 8
itez 8
missed 8
check 8
honte 8
condu@@ 8
ashamed 8
wear 8
visage 8
lundi 8
w 8
propres 8
pen 8
Ã»@@ 8
soin 8
disappointed 8
proche 8
souha@@ 8
dure 8
uncle 8
ron@@ 8
worse 8
asleep 8
arrÃªte 8
lle 8
brown 8
isme 8
bar 8
pend@@ 8
pon@@ 8
vacation 8
tais 8
Monday 8
tis 8
speech 8
Sunday 8
00 8
dant 8
pleuvoir 8
payÃ© 8
bateau 8
compli@@ 8
lan@@ 8
manquer 8
prÃªter 8
illÃ© 8
pause 8
jeux 8
vidÃ©o 8
video 8
Chinese 8
luck 8
ales 8
cancer 8
mettez 8
ouvert 8
rappelle 8
tuer 8
worth 8
parlent 8
court 8
gement 8
dÃ©pend 8
all@@ 8
ent@@ 8
derni@@ 8
ev@@ 8
along 8
Kate 8
lÃ¨ve 8
bread 8
Ã©tat 8
pass 8
condition 8
quit 8
serious 8
attends 8
ge@@ 8
Jim 8
esti@@ 7
dÃ©tails 7
details 7
anci@@ 7
satisfied 7
sky 7
ennemi 7
ary 7
enemy 7
devint 7
vendre 7
seriously 7
destination 7
ssi@@ 7
according 7
sses 7
cru 7
larmes 7
tenez 7
scientifique 7
gez 7
rude 7
aider@@ 7
amoureuse 7
arrivÃ©e 7
fuck 7
Excusez 7
inven@@ 7
medicine 7
allais 7
arriÃ¨re 7
promen@@ 7
sage 7
wise 7
effet 7
ic 7
hurried 7
semaines 7
diffÃ©rent 7
brought 7
ced 7
touche 7
mille 7
alent@@ 7
sembles 7
contente 7
iste 7
mÃ©r@@ 7
rapport 7
report 7
ade 7
ina 7
requ@@ 7
tly 7
greatest 7
veille 7
os 7
embrasser 7
pas@@ 7
received 7
sho@@ 7
roman 7
cti@@ 7
novel 7
exam@@ 7
corps 7
body 7
nÃ©@@ 7
bizarre 7
prÃ©f@@ 7
marre 7
V@@ 7
inconvÃ©nient 7
warned 7
visited 7
sons 7
bouteille 7
bottle 7
lors 7
thanks 7
sauv@@ 7
decision 7
shower 7
bour@@ 7
ref@@ 7
garage 7
letters 7
mariage 7
choose 7
tea 7
lent 7
ming 7
ct@@ 7
plu@@ 7
familiar 7
erais 7
fix@@ 7
eut 7
pauv@@ 7
cuisin@@ 7
ier 7
doivent 7
retour@@ 7
copine 7
difference 7
area 7
denti@@ 7
grand@@ 7
teeth 7
partout 7
helped 7
lever 7
intÃ©rÃªt 7
forme 7
form 7
beginning 7
energy 7
hur@@ 7
ennes 7
boyfriend 7
gouvernement 7
weight 7
auriez 7
law 7
Ap@@ 7
salle 7
ennuis 7
mondi@@ 7
lon@@ 7
pes 7
je@@ 7
ti 7
impression@@ 7
Ã©tudiant 7
couver@@ 7
sept 7
dem@@ 7
awake 7
laughing 7
vide 7
bite 7
produire 7
Linda 7
rue 7
bon@@ 7
costs 7
tranquille 7
impression 7
garden 7
dÃ©couvrir 7
funny 7
Ã©tage 7
prÃ©par@@ 7
espace 7
prof@@ 7
fermer 7
animals 7
ding 7
responsable 7
responsible 7
expliquer 7
explain 7
hasard 7
accus@@ 7
thirsty 7
the@@ 7
rs 7
avoid 7
tures 7
painting 7
sounds 7
compagnie 7
3 7
et@@ 7
auparavant 7
arbre 7
hi@@ 7
fro@@ 7
jolie 7
ja@@ 7
Angleterre 7
perte 7
loss 7
filled 7
trom@@ 7
raining 7
conna@@ 7
disposez 7
donna 7
automne 7
avis 7
pomme 7
utile 7
cas 7
amÃ©liorer 7
vendredi 7
Friday 7
feet 7
grow 7
cherch@@ 7
disent 7
repas 7
plage 7
beach 7
euses 7
ill 7
Susan 7
dÃ©termin@@ 7
jouÃ© 7
ist 7
poin@@ 7
ved 7
quÃ©e 7
fenÃªtres 7
windows 7
held 7
aimer 7
rÃ©s 7
ct 7
AmÃ©rique 7
sors 7
aille 7
donn@@ 7
prendrai 7
silent 7
cal@@ 7
espoir 7
tÃ¢che 7
task 7
maman 7
clo@@ 7
parlait 7
cassÃ© 7
appartient 7
Ã©rer 7
sache 7
morceau 7
bet 7
Al@@ 7
cool 7
tra 7
propos@@ 7
means 7
ble@@ 7
vraie 7
colle@@ 7
natural 7
patron 7
iti@@ 7
pÃ©ri@@ 7
parties 7
correspon@@ 7
aimez 7
revenu 7
2 7
manu@@ 7
fishing 7
nit 7
shut 7
reach 7
spent 7
fix 7
gh@@ 7
citÃ© 7
unfortunately 7
hon@@ 7
J@@ 7
atti@@ 7
preuve 7
croy@@ 7
manager 7
1@@ 7
prÃ©senter 7
succeeded 7
No@@ 7
lev@@ 7
Su@@ 7
Ã©tudi@@ 7
injured 7
iser 7
laver 7
fond 7
forgive 7
cit@@ 7
bonnes 7
dÃ©part 7
ations 7
remar@@ 7
passed 7
tall 7
coura@@ 7
sui@@ 7
viend@@ 7
ors 7
ought 7
paid 7
11 7
ouvrir 7
retourner 7
faite 7
super@@ 7
van@@ 7
timide 7
shy 7
guy 7
da 7
sta@@ 7
aiment 7
loves 7
liÃ¨rement 7
rÃ©flÃ©chir 7
orange 7
newspaper 7
dÃ©but 7
success 7
depends 7
painted 7
plenty 7
cherche 7
page 7
cru@@ 7
blue 7
rencontr@@ 7
quar@@ 7
upstairs 7
len@@ 7
scared 7
conversation 7
demanda 7
ban@@ 7
cts 7
sÃ©rieux 7
suspect 7
won 7
ph@@ 7
copies 7
gagne 7
wing 7
demi 7
esse 7
following 7
ha 7
nerveux 6
conten@@ 6
rÃ©jouis 6
cked 6
but@@ 6
arbres 6
feuilles 6
trees 6
leaves 6
probable 6
devoirs 6
homework 6
ear@@ 6
ends 6
sell 6
rier 6
mail 6
souci 6
ners 6
ic@@ 6
ur 6
rage 6
barra@@ 6
rhume 6
insis@@ 6
emporter 6
Pro@@ 6
protect 6
arrogant 6
vions 6
meant 6
ling 6
leg 6
chicken 6
USA 6
plaisir 6
bles@@ 6
devient 6
cruel 6
back@@ 6
telephone 6
eight 6
Ã©cri@@ 6
concer@@ 6
cuisiner 6
futon 6
movies 6
als 6
inÃ© 6
dÃ©cida 6
weeks 6
prison 6
wore 6
mesure 6
nombreuses 6
difficultÃ©s 6
keeps 6
horrible 6
ying 6
ain 6
verse 6
nent 6
poison 6
venez 6
conduis@@ 6
dro@@ 6
Ãªte 6
musÃ©e 6
museum 6
wake 6
consu@@ 6
mp@@ 6
trem@@ 6
regard 6
prati@@ 6
ado@@ 6
Espagne 6
Spain 6
ente 6
lake 6
Nancy 6
mur@@ 6
uni@@ 6
borrow 6
watched 6
Ã¨se 6
exercise 6
visiter 6
chiens 6
Di@@ 6
liste 6
list 6
tho@@ 6
excus@@ 6
active 6
accusÃ© 6
issue 6
univers 6
universe 6
nettoyer 6
dream 6
wedding 6
Ã©lo@@ 6
blanc 6
thÃ© 6
portable 6
dan@@ 6
rends 6
intÃ©ressÃ© 6
traver@@ 6
blo@@ 6
project 6
ks 6
ennent 6
perhaps 6
cis@@ 6
coup@@ 6
normal 6
Ã©cra@@ 6
nulle 6
alcool 6
sÃ»@@ 6
forced 6
PrÃ©@@ 6
seuls 6
handle 6
courir 6
faster 6
ali@@ 6
agreed 6
grandes 6
happening 6
science 6
guer@@ 6
tit 6
foods 6
coÃ»t 6
cows 6
Ã©chapp@@ 6
translate 6
papa 6
dad 6
refused 6
Ã©nergie 6
petites 6
treated 6
dÃ©clar@@ 6
humour 6
lazy 6
aurions 6
fight 6
rapp@@ 6
droite 6
absolument 6
hundred 6
tasse 6
centre 6
statue 6
university 6
tance 6
prices 6
certaine 6
plans 6
Ã©glise 6
sings 6
church 6
na 6
mag@@ 6
rarement 6
threw 6
street 6
ras 6
ajou@@ 6
venait 6
Ã©g@@ 6
cache 6
who&apos; 6
power 6
accepter 6
stopped 6
upset 6
imag@@ 6
compter 6
served 6
Ã©tudie 6
rea@@ 6
parles 6
faute 6
market 6
imaginer 6
several 6
reasons 6
moutons 6
sheep 6
construction 6
drinking 6
N@@ 6
accent 6
idÃ©@@ 6
asseoir 6
liez 6
cousin 6
politique 6
issez 6
pizza 6
star 6
identi@@ 6
addi@@ 6
soixante 6
secon@@ 6
wonderful 6
rÃ©veillÃ© 6
inquiÃ¨te 6
worried 6
fonction@@ 6
semblez 6
gentleman 6
compos@@ 6
States 6
burst 6
imagination 6
nouvel 6
non@@ 6
bat 6
vivant 6
alive 6
passÃ©e 6
sortes 6
comfortable 6
wn 6
lend 6
growing 6
England 6
prÃ©parer 6
tunnel 6
calme 6
ty 6
virus 6
chait 6
aies 6
tire 6
stes 6
gle 6
sour@@ 6
knife 6
says 6
kissed 6
entends 6
rum@@ 6
grandfather 6
daire 6
contrat 6
Ã©le@@ 6
cal 6
ined 6
poli 6
rÃ´le 6
maladie 6
size 6
soyons 6
pren@@ 6
sav@@ 6
souvenir 6
listening 6
lawyer 6
refaire 6
punctual 6
ira 6
rencontrÃ©e 6
fly 6
frÃ¨res 6
fruits 6
invitÃ© 6
disait 6
rÃ¨gles 6
rules 6
how&apos; 6
mom 6
loi 6
ards 6
pru@@ 6
war 6
Americans 6
comm@@ 6
cinÃ©ma 6
hi 6
personn@@ 6
yÃ© 6
constru@@ 6
rob@@ 6
arri@@ 6
coucher 6
accept 6
mel@@ 6
regret 6
fromage 6
entrer 6
Nations 6
quitter 6
occupe 6
conscience 6
fau@@ 6
theater 6
vement 6
montrez 6
garder 6
failed 6
douche 6
arrivent 6
chanceux 6
ning 6
Canada 6
Ã©viter 6
cks 6
occup@@ 6
insul@@ 6
corriger 6
frÃ©qu@@ 6
produ@@ 6
gentil 6
enter 6
fran@@ 6
laughed 6
ce@@ 6
malheureusement 6
options 6
fear 6
certaines 6
lour@@ 6
yens 6
trente 6
bil@@ 6
bla@@ 6
excuses 6
apologize 6
starting 6
incon@@ 6
ration 6
empÃªcher 6
issent 6
ho@@ 6
boit 6
clairement 6
honnÃªte 6
honest 6
oranges 6
reg@@ 6
enfance 6
childhood 6
waste 6
boat 6
poule 6
occuper 6
offen@@ 6
sais@@ 6
commenÃ§a 6
Allemagne 6
Germany 6
arrÃª@@ 6
touched 6
minimum 6
chau@@ 6
soi 6
matters 6
universitÃ© 6
nait 6
rÃ©parer 6
amus@@ 6
bÃ¢@@ 6
soul 6
x@@ 6
common 6
drank 6
jouets 6
toys 6
prend@@ 6
id 6
prÃªtes 6
consci@@ 6
nations 6
k 6
memory 6
worst 6
entra@@ 6
aur@@ 6
etÃ© 6
months 6
admitted 6
image 6
promises 6
desc@@ 6
note 6
above 6
droits 6
license 6
ouverte 6
2013 6
direct 6
appareil 6
coÃ»te 6
pierre 6
runs 6
chercher 6
sion 6
importantes 6
embarrassed 6
taller 6
gag@@ 6
pictures 6
tom@@ 6
Ã®tr@@ 6
effra@@ 6
alitÃ© 6
singer 6
bright 6
warm 6
embarra@@ 6
hide 6
ion 6
countries 6
vues 6
admis 6
instructions 6
Mo@@ 6
vÃ©@@ 6
kinds 6
perfect 6
pÃ¢le 6
Ã©chec 6
ating 6
scene 6
bother 6
talks 6
miracle 6
permis 6
angles 6
durant 6
battre 6
part@@ 6
mati@@ 6
dra 6
logi@@ 6
exem@@ 6
soif 6
gagnÃ© 6
Kyoto 6
sold 6
ness 6
rÃ©vÃ©@@ 6
planÃ¨te 6
planet 6
justice 6
teurs 5
fonctionne 5
system 5
irez 5
cÃ©lÃ¨bre 5
celles 5
selling 5
tend 5
fied 5
vus 5
oc@@ 5
within 5
apprends 5
tives 5
voulu 5
rid 5
scientific 5
rÃ©flÃ©chi 5
Devine 5
British 5
espÃ©ranto 5
indÃ©@@ 5
Esperanto 5
ain@@ 5
suicidÃ© 5
kindness 5
though 5
club 5
desk 5
escape 5
autrefois 5
avaient 5
toilet 5
lion 5
tomb@@ 5
veu@@ 5
joli 5
savons 5
harder 5
este 5
button 5
satisfait 5
plu 5
As@@ 5
organ@@ 5
bonheur 5
stupi@@ 5
far@@ 5
Salut 5
Hi 5
throw 5
portÃ© 5
vienne 5
returned 5
fron@@ 5
changing 5
aima@@ 5
beat 5
mate 5
Vo@@ 5
mener 5
folle 5
spir@@ 5
Ã¨tes 5
del@@ 5
deserve 5
pouv@@ 5
occu@@ 5
extr@@ 5
habit@@ 5
retour 5
truck 5
dÃ©cl@@ 5
occupÃ©s 5
remÃ¨de 5
skin 5
Ã©vi@@ 5
everywhere 5
pique 5
nique 5
sive 5
assu@@ 5
guard 5
viol@@ 5
Ã©lu 5
elected 5
arrÃªt 5
bus@@ 5
instru@@ 5
fiÃ© 5
dÃ©cider 5
decide 5
futur 5
bonjour 5
num@@ 5
emprun@@ 5
cass@@ 5
connaisse 5
hypo@@ 5
aires 5
prÃ©venu 5
willing 5
quittÃ© 5
populaire 5
parla 5
soirÃ©e 5
tort 5
card 5
signifi@@ 5
push 5
mood 5
bes 5
Par@@ 5
cheval 5
bio@@ 5
souhaite 5
croient 5
lettres 5
flower 5
Ã¨vre 5
taxes 5
An@@ 5
Soleil 5
tel@@ 5
falling 5
illa 5
difficulty 5
players 5
iled 5
rÃ©pÃ©@@ 5
pt 5
prou@@ 5
rÃ©aliser 5
expli@@ 5
ger@@ 5
Italie 5
Italy 5
enfu@@ 5
ris 5
possibilitÃ© 5
provi@@ 5
che@@ 5
proud 5
gÃ©rer 5
diffÃ©rence 5
exis@@ 5
proposal 5
aurai 5
goods 5
bien@@ 5
ouvrit 5
reprÃ©sen@@ 5
Ch@@ 5
urgence 5
ched 5
ande 5
amusant 5
lines 5
Quels 5
aliments 5
frais 5
viv@@ 5
beurre 5
butter 5
vaches 5
rÃ©par@@ 5
Cor@@ 5
interest 5
traduire 5
ties 5
dirai 5
riches 5
rac@@ 5
copain 5
local 5
monie 5
mani@@ 5
absur@@ 5
bicyclette 5
inv@@ 5
useful 5
impli@@ 5
quÃ©s 5
totalement 5
puis@@ 5
ridicu@@ 5
laire 5
poli@@ 5
ely 5
vage 5
ure 5
forte 5
Anne 5
distribu@@ 5
trou@@ 5
tran@@ 5
nÃ©s 5
impressed 5
seven 5
enseigner 5
teaching 5
Ã©veillÃ© 5
matiÃ¨re 5
favourite 5
subject 5
assure 5
neuf 5
coÃ»ts 5
proje@@ 5
aie 5
propri@@ 5
douleur 5
caused 5
vies 5
candy 5
owes 5
voudrait 5
chou@@ 5
connaissait 5
cial 5
hiding 5
portÃ©e 5
of@@ 5
crise 5
sitÃ© 5
ea@@ 5
Ã©tang 5
pond 5
meal 5
dise 5
servi 5
hÃ©ros 5
chaude 5
meubles 5
standing 5
sale 5
raient 5
fault 5
goÃ»@@ 5
earthquake 5
champ 5
importante 5
rose 5
amÃ©lior@@ 5
prÃªts 5
nonsense 5
Ã©lÃ¨ves 5
seu@@ 5
Ã©v@@ 5
croyez 5
poster 5
convinced 5
objectif 5
En@@ 5
add 5
pp@@ 5
Ã©toile 5
impatient 5
parked 5
alliez 5
comporte 5
invention 5
eats 5
trice 5
idi@@ 5
he@@ 5
saisir 5
opportunity 5
fus 5
conduit 5
sacrÃ© 5
val@@ 5
walks 5
senti 5
deven@@ 5
tan@@ 5
believed 5
terais 5
happens 5
ager 5
enfin 5
diri@@ 5
chacun 5
dÃ©c@@ 5
calm 5
math 5
excited 5
bras 5
arms 5
pped 5
silencieux 5
autumn 5
froide 5
termin@@ 5
ute 5
Union 5
acide 5
deman@@ 5
dais 5
verrai 5
cement 5
rains 5
improve 5
physical 5
hÃ¢te 5
danced 5
ront 5
petits 5
rom@@ 5
contract 5
race 5
determined 5
poche 5
anti@@ 5
mad 5
policeman 5
ath@@ 5
bear 5
illness 5
montr@@ 5
pleuv@@ 5
viez 5
unique 5
secr@@ 5
nom@@ 5
rarely 5
tombÃ©e 5
tem@@ 5
smile 5
pigeons 5
appelez 5
envoyer 5
racon@@ 5
tells 5
cate 5
hole 5
diffÃ©ren@@ 5
smaller 5
faits 5
rempl@@ 5
rerais 5
mathÃ©matiques 5
eus 5
bedroom 5
sortie 5
lez 5
pay@@ 5
our@@ 5
rÃ©gu@@ 5
gation 5
din@@ 5
cherches 5
data 5
Ã©cris 5
ecte 5
salaire 5
support 5
huge 5
Ã©gal 5
amuser 5
gold 5
respecter 5
populaires 5
foi 5
lier 5
tiques 5
restÃ©e 5
rÃ©pondu 5
fl@@ 5
persuad@@ 5
sel 5
feriez 5
rÃ©ellement 5
allu@@ 5
pin 5
drop 5
calcula@@ 5
bre@@ 5
pushed 5
becoming 5
oiseau 5
bird 5
grands 5
dly 5
rang@@ 5
encoura@@ 5
sentez 5
share 5
friendly 5
changes 5
smells 5
nement 5
coupÃ© 5
attendu 5
signifie 5
anger 5
cting 5
spor@@ 5
gotten 5
cheese 5
recomman@@ 5
mensonge 5
form@@ 5
4 5
.@@ 5
refuse 5
stories 5
crea@@ 5
dÃ©Ã§u 5
trans@@ 5
mÃ©dica@@ 5
clu@@ 5
beef 5
pare@@ 5
ahead 5
exam 5
plais@@ 5
illard 5
objective 5
fir@@ 5
voisins 5
due 5
niveau 5
control 5
bug 5
fÃ©li@@ 5
fully 5
rÃ©sultats 5
results 5
state 5
cteur 5
viennent 5
istes 5
qui@@ 5
offer 5
honn@@ 5
endor@@ 5
dÃ©truit 5
soldats 5
soldiers 5
color 5
mari@@ 5
force 5
prises 5
losing 5
2@@ 5
ber 5
absen@@ 5
evidence 5
forever 5
exig@@ 5
supp@@ 5
promesse 5
mien 5
terai 5
average 5
contact 5
bandes 5
bank 5
traveling 5
phe 5
couteau 5
anywhere 5
vÃ© 5
drinks 5
donner@@ 5
clearly 5
singing 5
bur@@ 5
promettre 5
blame 5
enn@@ 5
lied 5
dÃ©cÃ©@@ 5
followed 5
chocolat 5
chocolate 5
pression 5
stopping 5
toucher 5
indiquer 5
issons 5
sidenti@@ 5
remercier 5
Ã©cureuils 5
squirrels 5
sÃ©par@@ 5
connaissez 5
dos 5
person@@ 5
green 5
tel 5
satis@@ 5
supplÃ©men@@ 5
sentir 5
rejoindre 5
games 5
achet@@ 5
parie 5
magazines 5
pack 5
fais@@ 5
salt 5
Ã©cou@@ 5
sat 5
listened 5
dorm@@ 5
cartes 5
cards 5
Per@@ 5
gars 5
ns 5
pÃª@@ 5
pronon@@ 5
jambe 5
pil@@ 5
certainement 5
visit@@ 5
Ã©cla@@ 5
fool 5
fume 5
rang 5
lang@@ 5
vendu 5
paying 5
vie@@ 5
trompe@@ 5
longues 5
rencontrÃ©s 5
peuple 5
Ã»t 5
foule 5
aig@@ 5
mem@@ 5
rÃ©du@@ 5
souda@@ 5
grÃ¢ce 5
cravate 5
medi@@ 5
gÃ©nÃ©ration 5
generation 5
quelles 5
isser 5
appointment 5
boss 5
helps 5
interdit 5
traitÃ© 5
promesses 5
mÃ©tro 5
tante 5
dÃ©range 5
liber@@ 5
nationale 5
souci@@ 5
Ã©rÃ© 5
plait 5
issant 5
som@@ 5
conseillÃ© 5
trouver@@ 5
erait 5
succeed 5
suivi 5
sleepy 5
rÃ©solu 5
camera 5
dessert 5
visions 5
nant 5
bilitÃ© 5
tiens 5
welcome 5
guide 5
arrested 5
diff@@ 5
bleu 5
stylo 5
ouvrez 5
recognize 5
sentiment 5
mariÃ©s 5
connaiss@@ 5
Paul 5
sembl@@ 5
origin@@ 5
corde 5
pollution 5
campagne 5
effe@@ 5
passez 5
cochon 5
piggy 5
ctu@@ 5
grandmother 5
upon 5
man&apos; 5
clever 5
avocat 5
ok 5
Ã©norme 5
ke 5
alternative 5
jean 5
mignonne 5
dus 5
yen 5
gratu@@ 5
parfait 5
tur@@ 5
cles 5
soutien 5
absolutely 5
fired 5
capit@@ 5
lonely 5
clair 5
Ju@@ 5
wears 5
round 5
deny 5
built 5
aper@@ 5
match 5
base 5
baseball 5
suppos@@ 5
create 5
exhausted 5
brothers 5
ordinaire 5
delicious 5
machine 5
suffit 5
marteau 5
hammer 5
oubliez 5
rumeur 5
doors 5
gues 5
environ 5
calling 5
voit 5
ambition 5
fermÃ© 5
volontÃ© 5
dirait 5
ada@@ 5
talent 5
cte 5
ressources 5
stu@@ 5
regardez 5
command@@ 5
rÃ©ussi@@ 5
soccer 5
particu@@ 5
tableau 5
criti@@ 5
likely 5
terribly 5
total 5
chant 5
waited 5
dÃ©f@@ 5
sienne 5
systÃ¨me 4
cel@@ 4
hen@@ 4
quel@@ 4
qua@@ 4
traiter 4
critique 4
rÃ©col@@ 4
devraient 4
forgotten 4
sÃ©rieusement 4
class@@ 4
abord 4
fal@@ 4
devin@@ 4
gÃ©nÃ©ral 4
taux 4
franchement 4
frankly 4
discu@@ 4
must&apos; 4
temp@@ 4
vain 4
scientifiques 4
ess@@ 4
scientists 4
itanni@@ 4
blesser 4
parmi 4
gentillesse 4
avions 4
endra 4
sunny 4
rely 4
illez 4
soli@@ 4
dÃ©mÃ©@@ 4
ambulance 4
toil@@ 4
progres@@ 4
moder@@ 4
ward 4
films 4
horreur 4
douÃ© 4
sexu@@ 4
cur@@ 4
effect 4
happiness 4
washed 4
finir 4
matique 4
kers 4
any@@ 4
rÃ©alitÃ© 4
ats 4
egg 4
dommage 4
thousand 4
correcte 4
boo@@ 4
gathered 4
self 4
pure 4
folie 4
protÃ©ger 4
sauver 4
request 4
Nor@@ 4
seriez 4
consom@@ 4
symbol 4
Promettez 4
pÃ© 4
gÃ©nie 4
stique 4
stic 4
kissing 4
picnic 4
lover 4
bruit 4
noise 4
recev@@ 4
attitude 4
aggressive 4
pourvu 4
Mike 4
Ã®mes 4
ber@@ 4
condition@@ 4
prÃ©vu 4
smo@@ 4
ctive 4
hello 4
assa@@ 4
believes 4
weird 4
endre 4
rela@@ 4
ining 4
nul 4
Chine 4
China 4
dÃ©con@@ 4
exercice 4
hell 4
among 4
boute@@ 4
termine 4
horse 4
aimÃ©e 4
spending 4
my@@ 4
rÃ©alis@@ 4
sÃ©es 4
veuilles 4
unless 4
fleur 4
password 4
society 4
Ken 4
demand@@ 4
prÃ©fÃ©rerais 4
gout@@ 4
cle@@ 4
boring 4
ess 4
agir 4
gÃ¢@@ 4
behave 4
famili@@ 4
faisais 4
fallen 4
younger 4
interrom@@ 4
pre 4
queue 4
diable 4
dur@@ 4
moved 4
Here&apos; 4
utilisez 4
microscope 4
possibility 4
rÃ©es 4
auteur 4
removed 4
contrÃ´le 4
fronti@@ 4
ffre 4
ck@@ 4
premi@@ 4
dire@@ 4
capitaine 4
ushed 4
russe 4
Russian 4
gonna 4
exact 4
action 4
cem@@ 4
wind 4
toit 4
spÃ©ci@@ 4
giving 4
couverture 4
discount 4
exac@@ 4
isa 4
dises 4
ther&apos; 4
lignes 4
matin@@ 4
confection@@ 4
dre 4
cip@@ 4
Inde 4
India 4
oun@@ 4
troubles 4
pleasure 4
compag@@ 4
bottles 4
sup@@ 4
trait@@ 4
diagno@@ 4
fes@@ 4
communi@@ 4
beautÃ© 4
beauty 4
adoles@@ 4
perdue 4
sixty 4
avion 4
ami@@ 4
plane 4
billet 4
accu@@ 4
prouv@@ 4
achÃ¨te 4
potatoes 4
musicien 4
musician 4
sit@@ 4
attendons 4
War 4
remind 4
enra@@ 4
ani@@ 4
lock 4
brea@@ 4
assurance 4
insurance 4
deeply 4
sag@@ 4
parl@@ 4
prendra 4
seconde 4
xi@@ 4
terms 4
pÃªche 4
concerned 4
commande 4
terminer 4
dry 4
senti@@ 4
pares@@ 4
mÃ©rite 4
fantÃ´mes 4
ghosts 4
voie 4
mess 4
BrÃ©sil 4
Brazil 4
tombe 4
parlons 4
supporter 4
prudente 4
comple@@ 4
xe 4
cinema 4
rideau 4
curtain 4
dence 4
Ã´le 4
crisis 4
thin@@ 4
middle 4
bes@@ 4
contrari@@ 4
appÃ©tit 4
count 4
onn@@ 4
increa@@ 4
eared 4
lig@@ 4
hero 4
weak 4
badly 4
chanteuse 4
keeping 4
permettre 4
afford 4
veniez 4
empty 4
tenait 4
rappelez 4
dispar@@ 4
fian@@ 4
Ã®tre 4
feed 4
properly 4
brain 4
augmentÃ© 4
minu@@ 4
prof 4
puni 4
utilisÃ© 4
punished 4
lay 4
Sou@@ 4
profes@@ 4
available 4
passage 4
cu 4
fen@@ 4
10@@ 4
vague 4
ings 4
brillante 4
oul 4
jus@@ 4
peinture 4
dira 4
slipped 4
blement 4
ll@@ 4
hadn&apos; 4
reuse 4
bored 4
social 4
Osaka 4
firm 4
avo@@ 4
rÃ©pon@@ 4
up@@ 4
dy 4
brÃ»@@ 4
Eiffel 4
ping 4
chois@@ 4
enf@@ 4
her@@ 4
ote 4
riz 4
rice 4
entrÃ© 4
Ã©clata 4
entered 4
advantage 4
intelligente 4
ordres 4
sert 4
philosophie 4
philosophy 4
ned 4
ix 4
pra@@ 4
crossed 4
promets 4
beating 4
valid 4
suggÃ¨re 4
suggest 4
impliquÃ© 4
foreign 4
burned 4
pein@@ 4
ated 4
suspe@@ 4
diffÃ©rences 4
gea 4
atteint 4
reached 4
Se@@ 4
rus@@ 4
trouveras 4
couramment 4
wood 4
gÃ©nÃ©ralement 4
U@@ 4
ended 4
lap@@ 4
ordre 4
Helen 4
blind 4
wondering 4
chansons 4
songs 4
jette 4
envo@@ 4
flies 4
jouent 4
physique 4
appearance 4
arrogance 4
couper 4
dipl@@ 4
Ã´me 4
save 4
volÃ© 4
mez 4
alien 4
tentÃ© 4
mÃ¨@@ 4
forÃªt 4
traductions 4
The 4
translations 4
donnÃ©e 4
appell@@ 4
Hon@@ 4
shame 4
compor@@ 4
connaissais 4
acted 4
accor@@ 4
sensitive 4
humaine 4
god 4
sensÃ© 4
sensible 4
act 4
chem@@ 4
ical 4
polite 4
mais@@ 4
lentement 4
slowly 4
maj@@ 4
grew 4
mauvaises 4
que@@ 4
habituÃ© 4
sex 4
rel@@ 4
Tur@@ 4
sun@@ 4
admi@@ 4
temperature 4
arro@@ 4
cally 4
publique 4
truc 4
SMS 4
bouton 4
lycÃ©e 4
travailles 4
devait 4
tente 4
directeur 4
unes 4
prin@@ 4
prÃ©vois 4
pris@@ 4
healthy 4
cez 4
ponctu@@ 4
trouvait 4
abandonner 4
doute 4
doubts 4
aine 4
heur@@ 4
intes 4
comportement 4
invitÃ©es 4
trer 4
espÃ¨ce 4
prÃ©cis@@ 4
diploma@@ 4
diplom@@ 4
Ã©ner@@ 4
mentir 4
Å“urs 4
awesome 4
genoux 4
coÃ»@@ 4
aboie 4
tail 4
constituent 4
pensent 4
plaisante 4
utilise 4
Japonais 4
donnÃ©es 4
gasp@@ 4
pie 4
Mar@@ 4
chons 4
vouliez 4
traverser 4
postale 4
postcard 4
glis@@ 4
pot 4
censÃ© 4
fol@@ 4
holiday 4
repaired 4
faith 4
less@@ 4
impact 4
Ã©car@@ 4
rule 4
salade 4
salad 4
promised 4
verrou@@ 4
aisÃ© 4
baleine 4
whale 4
carriÃ¨re 4
onnÃ© 4
special 4
sÃ©rie 4
robot 4
rap@@ 4
debout 4
Ã©te@@ 4
Ã©pin@@ 4
triste 4
sad 4
rank 4
instead 4
cesse 4
acceptable 4
bran@@ 4
ster 4
faux 4
ocÃ©an 4
risque 4
contributeur 4
avan@@ 4
parta@@ 4
contributor 4
amical 4
intelligence 4
breath 4
rejo@@ 4
dishes 4
showed 4
dating 4
piÃ¨ces 4
hobby 4
produits 4
Uni@@ 4
espÃ©r@@ 4
ugly 4
highly 4
ish 4
oiseaux 4
birds 4
teaux 4
myst@@ 4
quinze 4
donnent 4
q@@ 4
tables 4
his@@ 4
cy 4
annul@@ 4
mature 4
usement 4
concentr@@ 4
puissiez 4
drea@@ 4
activ@@ 4
compl@@ 4
crit 4
parfaitement 4
sy 4
z 4
restez 4
ore 4
ures 4
bÅ“uf 4
Mon@@ 4
sieur 4
paint 4
rÃ©ponds 4
meu@@ 4
expri@@ 4
express 4
headache 4
schedule 4
gs 4
lÃ¢che 4
coward 4
Where&apos; 4
Ã©chou@@ 4
lun@@ 4
difficil@@ 4
risques 4
brou@@ 4
Ã©pa@@ 4
iss@@ 4
neighbors 4
prove 4
hum@@ 4
congÃ© 4
everyone&apos; 4
alibi 4
irait 4
favorable 4
yait 4
terriblement 4
aw@@ 4
diffÃ©rents 4
profonde 4
thr@@ 4
forcer 4
brush 4
dÃ©jeu@@ 4
yon 4
sac@@ 4
traduction 4
vÃª@@ 4
off@@ 4
Ã©tude 4
human@@ 4
sli@@ 4
coÃ»tÃ© 4
political 4
pose 4
bru@@ 4
bro@@ 4
prononcer 4
ouver@@ 4
opening 4
couleur 4
tongue 4
trouvent 4
risk 4
rable 4
Euro@@ 4
cito@@ 4
commun@@ 4
autÃ© 4
apprentissage 4
European 4
draw 4
evolution 4
â€‹ 4
flat 4
apporte 4
mignons 4
passeport 4
passport 4
suivant 4
introduced 4
tien 4
object 4
Ãªtres 4
150 4
noyÃ© 4
devi@@ 4
giant 4
assume 4
ivent 4
moyenne 4
alcohol 4
foot 4
fatigu@@ 4
sombre 4
circulation 4
ables 4
mat@@ 4
opÃ©@@ 4
lement 4
cultures 4
brÃ»lÃ© 4
cter 4
dessinÃ©es 4
comic 4
shelf 4
blessÃ©e 4
joie 4
restes 4
staying 4
( 4
) 4
couteaux 4
knives 4
banque 4
compa@@ 4
prepare 4
venons 4
ets 4
pÃ©nÃ©@@ 4
orent 4
voix 4
voice 4
barbecue 4
file 4
selfish 4
daughters 4
ye 4
points 4
Ã©conomie 4
La 4
lesquelles 4
zone 4
economy 4
tern@@ 4
book@@ 4
menti 4
apprend 4
chaleur 4
heat 4
endormi 4
ingÃ©nieurs 4
engineers 4
nier 4
cover 4
stri@@ 4
dressed 4
attacked 4
zed 4
vÃ©ritable 4
diam@@ 4
pressure 4
pants 4
salon 4
coupable 4
guilty 4
Londres 4
London 4
tera 4
gent 4
mÃªmes 4
empÃªchÃ© 4
Ã©conom@@ 4
expliqu@@ 4
ground 4
confis@@ 4
Peter 4
objets 4
profit 4
marron 4
ability 4
ills 4
40 4
shou@@ 4
chinois 4
a.m 4
ignez 4
lights 4
issait 4
pea@@ 4
rÃ©gl@@ 4
bly 4
pharma@@ 4
mouv@@ 4
issÃ© 4
tain 4
princip@@ 4
adies 4
complet 4
ane 4
created 4
rÃ©pand@@ 4
monte 4
poÃ¨me 4
poem 4
rapide 4
Mayuko 4
introduce 4
Ã¢me 4
deuxiÃ¨me 4
nage@@ 4
dÃ©goÃ»@@ 4
bordel 4
fucking 4
sports 4
Ã»mes 4
cami@@ 4
mp 4
conn@@ 4
angle 4
cit 4
mise 4
evil 4
vote 4
ice 4
cream 4
fie 4
Dan&apos; 4
sÃ»rement 4
faible 4
Charles 4
sÃ©chÃ© 4
casser 4
packed 4
ore@@ 4
committed 4
souf@@ 4
tor 4
mathematics 4
AmÃ©ricains 4
gri@@ 4
higher 4
sortez 4
assis 4
aban@@ 4
ship 4
ayant 4
belief 4
puissance 4
nose 4
touchÃ© 4
mÃ©moire 4
canapÃ© 4
ruined 4
sofa 4
Ã©li@@ 4
chausset@@ 4
crowd 4
aimerait 4
Ã¢chÃ© 4
fautes 4
Ã©tant 4
effort 4
ize 4
could&apos; 4
Ã®ner 4
inement 4
permit 4
rise 4
spell 4
American 4
endom@@ 4
fidÃ¨le 4
pic@@ 4
judge 4
begin 4
Mennad 4
rÃ©e 4
texte 4
text 4
rare 4
attrape 4
peint 4
crush 4
ssÃ© 4
suicide 4
disposes 4
pleure 4
piÃ¨@@ 4
dÃ©te@@ 4
prudent 4
silenci@@ 4
Jones 4
matins 4
sourire 4
menti@@ 4
lien 4
cul@@ 4
jal@@ 4
jealous 4
server 4
causÃ© 4
lÃ©gumes 4
vegetables 4
suddenly 4
naturel 4
YouTube 4
twenty 4
caractÃ¨re 4
pis@@ 4
merveilleux 4
argu@@ 4
aspir@@ 4
gorge 4
Ã©tudiante 4
tÃ¨rent 4
hel@@ 4
raconter 4
vre 4
peau 4
malgrÃ© 4
atteindre 4
ily 4
King 4
observe 4
sacrifices 4
tendance 4
heureuses 4
ky 4
chanteur 4
jack 4
USB 4
ssÃ©e 4
ach@@ 4
princesse 4
princess 4
wee 4
morgue 4
soula@@ 4
services 4
skirt 4
respe@@ 4
Ã©taire 4
arrives 4
concentrer 4
photo@@ 4
attendais 4
blonde 4
Jouons 4
shi@@ 4
mations 4
internet 4
billets 4
Yokohama 4
naissance 4
bel 4
isez 4
abe@@ 4
apart 4
volant 4
gÃ©s 4
fous 4
devenus 4
Ã©p@@ 4
hang 4
biscu@@ 4
cali@@ 4
7 4
forts 4
planning 4
entire 4
tim@@ 4
shar@@ 4
possÃ¨de 4
rights 4
entier 4
musical 4
terie 4
reux 4
semblait 4
quitte 4
confÃ©rence 4
cÃ©libataire 4
stam@@ 4
logie 4
tre@@ 4
phÃ©nomÃ¨ne 4
phenomenon 4
ouse 4
bizar@@ 4
toire 4
ter&apos; 4
repro@@ 4
lea@@ 4
cus 4
souri@@ 4
siden@@ 4
sno@@ 4
ss 4
thick 4
ld@@ 4
soft 4
impatience 4
driver&apos; 4
Maria 4
troisiÃ¨me 4
ceremony 4
ink 4
washing 4
Ã©rie 4
reconnaissante 4
hanging 4
bom@@ 4
bs 4
annu@@ 4
20@@ 4
magnifi@@ 4
guitare 4
guitar 4
forcÃ© 4
mecs 4
ul@@ 4
step 4
remettre 4
Chopin 4
traite 4
chÃ©e 4
expressions 4
rÃ©f@@ 4
commun 4
one@@ 4
appelÃ©e 4
inclu@@ 4
ple 4
invitÃ©s 4
guests 4
denied 4
fre@@ 4
sla@@ 4
refle@@ 4
failure 4
laid 4
kilom@@ 4
jeans 4
fallait 4
equal 4
voleur 4
spot 4
logy 4
explosion 4
group 4
fier 4
privÃ© 4
environnement 4
rumor 4
WhatsApp 4
parole 4
absor@@ 4
cre 4
semblant 4
nÃ´tre 4
Ito 4
saved 4
O@@ 4
genti@@ 4
pur@@ 4
sciences 4
spread 4
especially 4
winning 4
Canadi@@ 4
aÃ©roport 4
airport 4
sain 4
religion 4
paro@@ 4
Tanaka 4
invincible 4
Ã©poque 4
longs 4
mÃ©tÃ©oro@@ 4
logiques 4
chanceuse 4
raised 4
connaissance 4
chair 4
agressi@@ 4
pars 4
15 4
pis 4
stock 4
isi@@ 4
emprunter 4
europÃ©@@ 4
Ã®ne 4
conclusions 4
ignorance 4
Mars 4
ones 4
ality 4
alphabet 4
Mac@@ 4
ponctuel 4
stood 4
surface 4
somebody 4
Tony 4
caf@@ 3
sil@@ 3
here@@ 3
events 3
treat 3
Invite 3
online 3
jum@@ 3
lut 3
puzzle 3
generally 3
raw 3
strangers 3
locked 3
Ã´ne 3
Ã©du@@ 3
discussed 3
dÃ©couver@@ 3
nor 3
Br@@ 3
arrog@@ 3
addicted 3
definite 3
apartment 3
di 3
ed@@ 3
vivait 3
trava@@ 3
Ã©prouve 3
becomes 3
solid 3
modern 3
Ã©n@@ 3
travaill@@ 3
liking 3
rained 3
netto@@ 3
scary 3
Ã©checs 3
chess 3
obs@@ 3
cured 3
knock 3
guessed 3
Kobe 3
jail 3
rates 3
security 3
tear 3
reality 3
isse 3
blan@@ 3
Tha@@ 3
vil@@ 3
Ã©coute 3
hal@@ 3
peanuts 3
300 3
contribu@@ 3
appear 3
nerve 3
hates 3
Ãªmement 3
vi 3
destin@@ 3
addressed 3
pick 3
drove 3
saving 3
source 3
inspiration 3
arch@@ 3
mation 3
pull 3
sign@@ 3
genius 3
urÃ© 3
Ã©ra 3
oir 3
tiny 3
Ã©gard 3
toward 3
pati@@ 3
walking 3
Ã®n@@ 3
comman@@ 3
Ã©rique 3
veloppÃ© 3
verres 3
laient 3
bound 3
hypothesis 3
Jackson 3
style 3
rescued 3
sh 3
agre@@ 3
lage 3
pardon 3
silly 3
Ã©gage 3
ister 3
log@@ 3
logist 3
feels 3
ority 3
cking 3
praised 3
belong 3
laptop 3
gend@@ 3
inent 3
marketing 3
humili@@ 3
situ@@ 3
ison 3
explained 3
visi@@ 3
visible 3
postpone 3
corpus 3
vÃ©ri@@ 3
border 3
trunk 3
scissors 3
shorter 3
straight 3
captain 3
notice 3
despise 3
cÃ©e 3
vier 3
April 3
ffle 3
roof 3
pping 3
tÃ©moin 3
priv@@ 3
deprived 3
oma@@ 3
speci@@ 3
proposed 3
blanket 3
stolen 3
champagne 3
search 3
Ã©teindre 3
vit@@ 3
trouverez 3
artificial 3
cab 3
duty 3
concern 3
nap 3
cipa@@ 3
bigger 3
sto@@ 3
repair 3
slip 3
accompli@@ 3
atom@@ 3
Atomic 3
urgent 3
eless 3
recently 3
humor 3
fain@@ 3
utiles 3
Ã©tudient 3
kilos 3
essenti@@ 3
alement 3
pendu@@ 3
effective 3
polit@@ 3
illi@@ 3
hall 3
expÃ©ri@@ 3
veau 3
swear 3
univer@@ 3
resistance 3
cture 3
Green 3
st 3
fighting 3
Ã©levÃ©s 3
choir 3
sion@@ 3
storm 3
caus@@ 3
timid 3
ancho@@ 3
dropped 3
trole 3
oil 3
Ã©coutez 3
nuts 3
deserves 3
added 3
abundance 3
abandon@@ 3
trapped 3
cinÃ©@@ 3
tiv@@ 3
complex 3
volontaire 3
obviously 3
volunteered 3
gift 3
some@@ 3
rais@@ 3
indus@@ 3
industri@@ 3
explanation 3
tle 3
poured 3
loud 3
ty@@ 3
furniture 3
tremblement 3
ences 3
consi@@ 3
field 3
esp@@ 3
entirely 3
larger 3
les@@ 3
acc@@ 3
soi@@ 3
teachers 3
Christi@@ 3
han@@ 3
intimi@@ 3
rough 3
increased 3
intended 3
merveille@@ 3
perfectly 3
toma@@ 3
iling 3
Tower 3
chosen 3
admit 3
jour@@ 3
Ho@@ 3
gold@@ 3
Gre@@ 3
stranger 3
bin@@ 3
types 3
poet 3
begins 3
usse 3
remon@@ 3
cheer 3
decor@@ 3
prÃª@@ 3
requires 3
alternatives 3
earlier 3
authority 3
pli@@ 3
pickpockets 3
ition 3
S 3
command 3
sour 3
disgusting 3
gradu@@ 3
discovered 3
easier 3
meals 3
Australian 3
dea@@ 3
ow 3
embrass@@ 3
kid 3
Grand@@ 3
sions 3
ele@@ 3
established 3
hand@@ 3
determination 3
symbo@@ 3
voulaient 3
houses 3
sins 3
intelli@@ 3
Ã©rence 3
fici@@ 3
cated 3
regre@@ 3
affli@@ 3
tage 3
100 3
Celsius 3
Ã¯ne 3
heroin 3
physi@@ 3
Ã©coutes 3
closely 3
50 3
patients 3
grandma 3
tale 3
stepped 3
T 3
director 3
tallest 3
whichever 3
mula@@ 3
handed 3
ld&apos; 3
wherever 3
complaints 3
net 3
Ã©ment 3
further 3
urer 3
endure 3
respond 3
repeat 3
warrior 3
vÃ©rance 3
perseverance 3
wasting 3
bone 3
gotta 3
engagement 3
archit@@ 3
architect 3
navi@@ 3
salary 3
illegal 3
goodbye 3
managed 3
tioned 3
proper 3
cheating 3
resist 3
celebrate 3
president 3
duck 3
answered 3
eb@@ 3
feu@@ 3
operate 3
mam@@ 3
mammal 3
lar 3
surviv@@ 3
survivors 3
sea@@ 3
Ã©rica@@ 3
spÃ©@@ 3
series 3
fabri@@ 3
client 3
cham@@ 3
rooms 3
ettre 3
Ã¨que 3
conduct 3
confir@@ 3
version 3
automobile 3
difficul@@ 3
stru@@ 3
ease 3
xim@@ 3
dge 3
voler 3
uns 3
Ã©tudiÃ© 3
studied 3
stat@@ 3
advanced 3
status 3
Å“uvre 3
Fran@@ 3
Ã§ais 3
seventy 3
classes 3
products 3
President 3
iron 3
recommend 3
pair 3
faults 3
cookies 3
ven 3
solved 3
auth@@ 3
tis@@ 3
dange@@ 3
ously 3
poems 3
concentrate 3
ative 3
urs 3
mission 3
manual 3
ker 3
Ã©ter 3
activity 3
aug@@ 3
income 3
led 3
vois@@ 3
barking 3
sures 3
Chil@@ 3
loses 3
voulut 3
divor@@ 3
entrance 3
miles 3
quali@@ 3
apologized 3
ay 3
commerce 3
bel@@ 3
level 3
victoire 3
victory 3
marr@@ 3
itiÃ© 3
cations 3
friendship 3
travaillons 3
error 3
forecast 3
const@@ 3
Ã©lÃ©@@ 3
link 3
pencil 3
spends 3
viande 3
meat 3
ety 3
misunderstanding 3
ances 3
ws 3
deli@@ 3
natu@@ 3
strength 3
multilingu@@ 3
citizens 3
practical 3
lack 3
contrary 3
itself 3
demanded 3
arm 3
jet 3
drowned 3
lifetime 3
joke 3
liters 3
teau 3
specta@@ 3
examination 3
sc@@ 3
fle@@ 3
flo@@ 3
operation 3
mechan@@ 3
ism 3
dar@@ 3
Ã©tagÃ¨re 3
clouds 3
divorce 3
cleaned 3
hung 3
coa@@ 3
Col@@ 3
Columbus 3
term 3
pÃªchÃ© 3
pregnant 3
K@@ 3
Ã©goÃ¯ste 3
habits 3
profession@@ 3
till@@ 3
Dis@@ 3
oppos@@ 3
valeur 3
levant 3
nouv@@ 3
At@@ 3
quences 3
repor@@ 3
ply 3
ates 3
daily 3
sig@@ 3
website 3
vivez 3
Å“uf 3
Ã©pousÃ© 3
tru@@ 3
def@@ 3
criminal 3
capa@@ 3
picked 3
intend 3
clim@@ 3
global 3
wide 3
mosqu@@ 3
odd 3
rabbits 3
related 3
pat@@ 3
ignored 3
Ã§o@@ 3
fluent 3
D 3
mouth 3
supported 3
native 3
fe 3
eighteen 3
gard@@ 3
distant 3
causes 3
autom@@ 3
obiles 3
cash 3
vol 3
ator 3
isance 3
gated 3
exp@@ 3
Ã®t 3
trusted 3
Rem@@ 3
Ã©coutÃ© 3
amazing 3
torture 3
Ã©vÃ¨@@ 3
nearly 3
steak 3
ching 3
realized 3
ys 3
quanti@@ 3
sacr@@ 3
vital 3
ule 3
regularly 3
covered 3
vez 3
honey 3
certainly 3
safety 3
impati@@ 3
coun@@ 3
Ã©lÃ¨ve 3
ann@@ 3
vres 3
tter 3
opportun@@ 3
ile 3
valis@@ 3
barely 3
engag@@ 3
materi@@ 3
Tra@@ 3
appetite 3
poss@@ 3
mistaken 3
sitting 3
naire 3
obligations 3
offi@@ 3
writer 3
congratulations 3
jud@@ 3
tex@@ 3
serviettes 3
geons 3
continue 3
sudden 3
shine 3
chin@@ 3
practi@@ 3
crossing 3
themselves 3
medal 3
rir 3
accepted 3
mistook 3
damaged 3
Ã©tend@@ 3
credit 3
anxi@@ 3
anxious 3
eusement 3
carefully 3
belongs 3
complicated 3
trez 3
apples 3
borrowed 3
aunt 3
itting 3
stuff 3
forces 3
ordered 3
um 3
forbidden 3
shock 3
smell 3
ocean 3
igni@@ 3
ited 3
gay 3
remain 3
dete@@ 3
moon 3
officer 3
anges 3
sk@@ 3
dig@@ 3
remained 3
travail@@ 3
vÃ©cut 3
survive 3
vali@@ 3
assis@@ 3
assistant 3
programme 3
oux 3
heavily 3
spider 3
raisins 3
ara@@ 3
travaillais 3
crashed 3
inqui@@ 3
bars 3
trou 3
desig@@ 3
estima@@ 3
compen@@ 3
jam@@ 3
dirty 3
stone 3
organized 3
need@@ 3
calls 3
rocks 3
supermarket 3
gas 3
fair 3
tribunal 3
finger 3
jogging 3
Latin 3
plain 3
aside 3
Royal 3
dried 3
shit 3
oned 3
pyrami@@ 3
trÃ©@@ 3
mercy 3
ris@@ 3
prevented 3
vitÃ© 3
bags 3
excellent 3
Ã©chouÃ© 3
countryside 3
shopping 3
Ã©lectronique 3
This 3
besides 3
respect@@ 3
master 3
vra@@ 3
international 3
Italian 3
apa@@ 3
stronger 3
tickets 3
sweet 3
handsome 3
Ou@@ 3
proposes 3
wheel 3
flying 3
sole@@ 3
original 3
notes 3
foss@@ 3
path 3
Jeanne 3
resi@@ 3
member 3
venues 3
lately 3
mn 3
bal 3
habit 3
confi@@ 3
downtown 3
hoping 3
ball@@ 3
sÃ©ri@@ 3
painful 3
warn 3
approve 3
understanding 3
tea@@ 3
,000 3
lying 3
cafeteria 3
tÃ©lÃ©phones 3
phones 3
Ã¨tre 3
aimed 3
target 3
preu@@ 3
bul@@ 3
techno@@ 3
acid 3
labor@@ 3
pare 3
correctly 3
vive 3
result 3
grou@@ 3
vaiss@@ 3
wealthy 3
geniuses 3
smiling 3
pills 3
wed 3
vitesse 3
precious 3
poverty 3
land@@ 3
Sun 3
extra 3
yourselves 3
desire 3
persuade 3
sus 3
kno@@ 3
whom 3
Re@@ 3
fra@@ 3
nearest 3
pareil 3
battle 3
employ@@ 3
major 3
role 3
Ã©ton@@ 3
taught 3
sus@@ 3
orable 3
mÃª@@ 3
tromper 3
curi@@ 3
weapon 3
decei@@ 3
enjoys 3
invit@@ 3
tÃ©lÃ©@@ 3
beaten 3
kes 3
gon@@ 3
expi@@ 3
ls 3
doubt 3
lady 3
virÃ© 3
faces 3
zero 3
ail@@ 3
mÃ©di@@ 3
violent 3
Ã§ons 3
ank 3
exchange 3
sandwi@@ 3
lovely 3
stances 3
everyday 3
Ã©pais 3
ropes 3
batter@@ 3
lÃ©gu@@ 3
skinny 3
vengeance 3
equ@@ 3
scholar 3
immÃ©di@@ 3
independent 3
thief 3
Central 3
dear 3
private 3
necessarily 3
environment 3
thunder 3
ending 3
ddle 3
communication 3
opinions 3
majority 3
zÃ©ro 3
vantes 3
cam@@ 3
eventually 3
Algeria 3
resources 3
spatial 3
tend@@ 3
Ã©tudes 3
gau@@ 3
departure 3
letting 3
workers 3
objection 3
ive 3
fuel 3
tÃ©nu@@ 3
vir@@ 3
wisdom 3
Ã©trang@@ 3
chon 3
ow@@ 3
swea@@ 3
psychic 3
Repetition 3
stric@@ 3
thy 3
tends 3
attack 3
nam@@ 3
thousands 3
28 3
Pre@@ 3
4000 3
Ã©volution 3
studies 3
streets 3
retar@@ 3
appli@@ 3
mus@@ 3
challenge 3
ging 3
jury 3
responsa@@ 3
responsibility 3
probab@@ 3
third 3
unknown 3
Mus@@ 3
w&apos; 3
milit@@ 3
shaking 3
stick 3
bees 3
sible 3
san 3
tut 3
piti@@ 3
ama@@ 3
elect 3
band 3
alty 3
sisters 3
blog 3
worn 3
nette 3
subway 3
hun@@ 3
rope 3
International 3
colo@@ 3
Ã©galitÃ© 3
ably 3
ceiling 3
Google 3
ment@@ 3
tig@@ 3
cing 3
pisto@@ 3
La@@ 3
Ã©trangers 3
volon@@ 3
perspective 3
logical 3
histor@@ 3
tages 3
iles 3
product 3
nation@@ 3
ft 3
dog@@ 3
complaining 3
tiger 3
Ã©puisÃ© 3
articles 3
fashi@@ 2
nit@@ 2
tches 2
spare 2
outons 2
cloud 2
unlikely 2
cism 2
rays 2
partially 2
blin@@ 2
harvest 2
compu@@ 2
onto 2
moving 2
required 2
messages 2
edu@@ 2
rifle 2
neither 2
discovery 2
rions 2
finite 2
rented 2
compelled 2
Yukio 2
Mishima 2
1970 2
reconnaiss@@ 2
ank@@ 2
ero@@ 2
nes@@ 2
US 2
occurred 2
swim@@ 2
Ã©cureu@@ 2
squirrel 2
Gandrange 2
honeymoon 2
Ã¨le 2
free@@ 2
FranÃ§ois 2
gons 2
mÃ©de@@ 2
cine 2
servant 2
jacket 2
mosa@@ 2
hÃ¢@@ 2
Cathy 2
rubbish 2
1980 2
pirate 2
Halloween 2
matiques 2
introdu@@ 2
rÃ©s@@ 2
net@@ 2
difficulties 2
whites 2
ff 2
damage 2
ghty 2
whenever 2
handful 2
yuan 2
contribute 2
lin@@ 2
inqu@@ 2
Cairo 2
pian@@ 2
pianist 2
pet 2
tradu@@ 2
Hooker 2
extremely 2
sheer 2
madness 2
Dallas 2
ingÃ©ni@@ 2
wanting 2
ingenious 2
guides 2
limousines 2
Hummer 2
ultimate 2
conspi@@ 2
attrap@@ 2
grab 2
wet 2
kin@@ 2
cried 2
couples 2
opera 2
agres@@ 2
violin 2
chairperson 2
happier 2
unemployed 2
manner 2
expectations 2
simp@@ 2
textbook 2
Lay@@ 2
Juba 2
dered 2
north 2
analo@@ 2
digital 2
heavens 2
except 2
Y2K 2
hiking 2
hair@@ 2
meanings 2
ods 2
high@@ 2
aver@@ 2
puts 2
buying 2
dresses 2
funds 2
complain 2
appears 2
erable 2
adres@@ 2
eli@@ 2
distan@@ 2
tue 2
imp@@ 2
civi@@ 2
Sun@@ 2
infect@@ 2
Droplets 2
plural 2
Emilia 2
spo@@ 2
humiliated 2
fate 2
devil 2
bit@@ 2
map 2
cross 2
fertiliz@@ 2
Julie 2
poor@@ 2
protÃ©@@ 2
copy@@ 2
righ@@ 2
male 2
ctement 2
headed 2
influence 2
J 2
ex 2
Jan@@ 2
zi@@ 2
November 2
De@@ 2
ember 2
blowing 2
sel@@ 2
dri@@ 2
witness 2
envy 2
meaning 2
knowledge 2
cket 2
wool 2
searching 2
politi@@ 2
ar 2
politician 2
soci@@ 2
alist 2
May 2
5@@ 2
emergency 2
Hey 2
Dublin 2
Ir@@ 2
issues 2
ware 2
biggest 2
hop 2
don 2
fresh 2
Anti@@ 2
memorize 2
sacred 2
errors 2
Kevin 2
Nash 2
mostly 2
paci@@ 2
peaceful 2
pneu@@ 2
ia 2
protes@@ 2
press 2
relea@@ 2
absurd 2
decla@@ 2
anta 2
shocked 2
copi@@ 2
teenagers 2
itate 2
swinging 2
weigh 2
poun@@ 2
scra@@ 2
teenager 2
wasted 2
steps 2
mention 2
dity 2
mentation 2
proved 2
mug 2
campus 2
center 2
Gables 2
World 2
distributed 2
olish 2
tetanus 2
semi 2
nasty 2
fellow 2
dÃ©tes@@ 2
hated 2
Å“ur 2
uneasy 2
presence 2
dom@@ 2
property 2
cin@@ 2
seldom 2
orders 2
cot@@ 2
toned 2
sec 2
gged 2
punishment 2
chapter 2
produced 2
cabb@@ 2
urged 2
ben@@ 2
mili@@ 2
shoulder 2
leg@@ 2
snob 2
forgetting 2
tries 2
sing@@ 2
outer 2
pretend 2
ised 2
ately 2
detailed 2
fai@@ 2
bow@@ 2
bath 2
towards 2
pieces 2
oxyg@@ 2
disappeared 2
Ã´tre 2
amused 2
rewar@@ 2
experiences 2
tro@@ 2
narrow 2
fried 2
overlooked 2
Z@@ 2
sened 2
absolute 2
ide@@ 2
Ar@@ 2
mm 2
shoot 2
insan@@ 2
Jo@@ 2
ing@@ 2
fication 2
greatly 2
itted 2
Am@@ 2
sweep 2
answers 2
dolls 2
hy@@ 2
seconds 2
Hopkins 2
heart@@ 2
burn 2
1912 2
Franz 2
Reichelt 2
parachute 2
ilor 2
elling 2
grass 2
institu@@ 2
races 2
bare 2
awoke 2
igh@@ 2
ordering 2
yed 2
blankets 2
phon 2
Sandra 2
states 2
follows 2
documents 2
paintings 2
ironed 2
differences 2
devastated 2
thou@@ 2
ghts 2
corner 2
facil@@ 2
bac@@ 2
sol@@ 2
patio 2
fluently 2
holl@@ 2
ly@@ 2
banan@@ 2
bananas 2
scientist 2
appr@@ 2
pleasant 2
Keller 2
deaf 2
dumb 2
anyway 2
softly 2
suppor@@ 2
suffer@@ 2
monade 2
poses 2
Researchers 2
square 2
ustr@@ 2
Portugal 2
selfie 2
wall 2
woods 2
vac@@ 2
poisonous 2
proof 2
supportive 2
sin 2
drawing 2
sensi@@ 2
ctri@@ 2
pulses 2
colonies 2
ef 2
pocket 2
H 2
hydrog@@ 2
expres@@ 2
Yukawa 2
athe@@ 2
vain@@ 2
shoe 2
accustomed 2
ol 2
seeds 2
benefits 2
lous 2
confidence 2
Pyth@@ 2
Mag@@ 2
admired 2
Pythagoras 2
Magic 2
numbers 2
comfort 2
torrents 2
sympathize 2
degrees 2
centi@@ 2
grade 2
celebra@@ 2
examined 2
fif@@ 2
misery 2
meets 2
lais 2
soldering 2
components 2
appointed 2
improved 2
foot@@ 2
prints 2
prisoner 2
Sally 2
White 2
sweaty 2
asking 2
repla@@ 2
wou@@ 2
foo 2
butter@@ 2
blings 2
conju@@ 2
irregular 2
mere 2
LÃ©a 2
lap 2
iting 2
barks 2
separatists 2
kidding 2
applying 2
defeated 2
suitcase 2
toy 2
bush 2
obey 2
stare 2
nine 2
erra@@ 2
supplies 2
civil 2
sow 2
measure 2
ey@@ 2
leaf 2
pruden@@ 2
curio@@ 2
curiosity 2
Pharamp 2
inspired 2
career 2
Thanksgiving 2
lum@@ 2
arriving 2
thermostat 2
replace 2
countless 2
method 2
patent 2
ggle 2
buil@@ 2
chea@@ 2
musici@@ 2
ump 2
bot@@ 2
leather 2
union 2
ski 2
compromise 2
fake 2
colours 2
anged 2
Paci@@ 2
Oc@@ 2
ean 2
praise 2
positive 2
management 2
threatened 2
procha@@ 2
cable 2
theatre 2
Mondays 2
interaction 2
dynam@@ 2
characters 2
ction@@ 2
coins 2
Harbin 2
athlete 2
regret@@ 2
Reagan 2
1981 2
ambassad@@ 2
ide 2
sharp 2
vision 2
mystery 2
author 2
teen 2
seize 2
sake 2
My@@ 2
L 2
loa@@ 2
deciding 2
athletic 2
Alejandra 2
pal 2
attr@@ 2
Es@@ 2
pages 2
valuable 2
handled 2
dÃ©couv@@ 2
disco@@ 2
regarded 2
messed 2
chain 2
eas@@ 2
ports 2
cancel@@ 2
Turkey 2
cocktail 2
nowhere 2
mes@@ 2
obliged 2
mea@@ 2
sir 2
Chile 2
mountains 2
murder 2
poker 2
endro@@ 2
photosyn@@ 2
thÃ©@@ 2
exception 2
places 2
dial@@ 2
dialect 2
divorced 2
closest 2
risked 2
stacked 2
pleasures 2
fog 2
Ear@@ 2
customers 2
strat@@ 2
trade 2
Princess 2
Bride 2
tact 2
Achieving 2
weld 2
bead 2
estin@@ 2
Gaza 2
ian 2
congratulate 2
tsunami 2
alert 2
mpl@@ 2
nation 2
gles 2
biting 2
nails 2
smarter 2
pus 2
reli@@ 2
wer 2
cheated 2
translation 2
offense 2
tourists 2
standards 2
quo 2
argue 2
200 2
1985 2
demo@@ 2
maid 2
ented 2
conven@@ 2
scan@@ 2
fatal 2
ideas 2
dol@@ 2
advertising 2
ell 2
wrinkled 2
smashed 2
Hungarian 2
sprang 2
2003 2
counting 2
meille@@ 2
erez 2
6 2
ptem@@ 2
Lang@@ 2
6@@ 2
herit@@ 2
alism 2
encourage 2
tool 2
community 2
appreci@@ 2
Ã©po@@ 2
past@@ 2
claustropho@@ 2
ancestors 2
kara@@ 2
communism 2
,@@ 2
bullet 2
mark 2
castle 2
affai@@ 2
bli@@ 2
spectators 2
charges 2
uncomfortable 2
dÃ©p@@ 2
spite 2
religi@@ 2
masoch@@ 2
joy 2
sharpen 2
passes 2
incorrigible 2
Christo@@ 2
Christopher 2
general 2
customs 2
touch@@ 2
fucked 2
ass 2
shaken 2
suc@@ 2
swee@@ 2
lemons 2
dun@@ 2
istr@@ 2
trous 2
culti@@ 2
vated 2
wanna 2
Sydney 2
fur@@ 2
Whoever 2
fairly 2
taste 2
Warcraft 2
Alaska 2
crutches 2
bleeding 2
Unbelievable 2
Stampa 2
Barack 2
Obama 2
announ@@ 2
recent 2
fee@@ 2
grow@@ 2
fluctu@@ 2
developed 2
virgin 2
fed 2
ignor@@ 2
avantage 2
escaped 2
geous 2
comments 2
12 2
twelve 2
inly 2
climb 2
fridge 2
sei@@ 2
genuine 2
diamond 2
ddhis@@ 2
root 2
invitation 2
compar@@ 2
Banque 2
located 2
sphere 2
Ã´t 2
residential 2
warming 2
oes 2
fli@@ 2
behavior 2
cast@@ 2
toothache 2
bea@@ 2
college 2
life@@ 2
flash@@ 2
diplomat 2
confiscated 2
altru@@ 2
player 2
personal 2
scolded 2
mil@@ 2
expecting 2
cence 2
hardest 2
lumi@@ 2
ounded 2
gunshot 2
bigot 2
ose 2
diagon@@ 2
basket 2
itive 2
ving@@ 2
carried 2
mater@@ 2
speaker 2
sna@@ 2
Ã©to@@ 2
leader 2
power@@ 2
settled 2
amica@@ 2
shed 2
recommended 2
acti@@ 2
nec@@ 2
flu@@ 2
accidents 2
violence 2
cirrho@@ 2
injury 2
diseases 2
sis 2
scri@@ 2
beauti@@ 2
mos@@ 2
flight 2
oper@@ 2
ins@@ 2
purification 2
dans@@ 2
fluores@@ 2
surpr@@ 2
arguing 2
false 2
vacations 2
harm 2
favor@@ 2
decent 2
mme 2
possi@@ 2
lities 2
Nagasaki 2
pain@@ 2
revenge 2
disg@@ 2
Ã´mes 2
att@@ 2
retarded 2
ession 2
star@@ 2
enri@@ 2
intÃ©ri@@ 2
encounter 2
discrimin@@ 2
laugh 2
Indeed 2
gran@@ 2
ints 2
birth 2
pill 2
loan 2
hol@@ 2
scarf 2
earthquakes 2
bitter 2
advertisements 2
spee@@ 2
flavor 2
vable 2
sex@@ 2
reques@@ 2
texting 2
cigarettes 2
bliss 2
puzz@@ 2
separate 2
boy@@ 2
Isra@@ 2
Ã«l 2
Israel 2
olives 2
collisions 2
chiev@@ 2
dies 2
jeu@@ 2
productive 2
chard 2
devoted 2
Sam 2
describe 2
hula 2
hoop 2
curry 2
nav@@ 2
discharged 2
conspiracy 2
educated 2
cares 2
tax@@ 2
Ã¢tre 2
Cleopa@@ 2
manche 2
cas@@ 2
slee@@ 2
grea@@ 2
effects 2
halfway 2
former 2
thering 2
Ã©cr@@ 2
Ara@@ 2
villes 2
cities 2
suspici@@ 2
cious 2
professions 2
shor@@ 2
appealed 2
collaborative 2
However 2
practicing 2
discover 2
honesty 2
Ro@@ 2
skipped 2
concen@@ 2
Avatar 2
classroom 2
nour@@ 2
Belfast 2
commission 2
percent 2
millionaire 2
AmÃ©rica@@ 2
intact 2
contents 2
faithful 2
spicy 2
AdÃ©laÃ¯de 2
famil@@ 2
forgiven 2
breasts 2
buttocks 2
abyle 2
event 2
gre@@ 2
insulting 2
assaul@@ 2
im 2
surr@@ 2
regrettable 2
recipe 2
access 2
Creative 2
Commons 2
2.0 2
fr 2
Ã”@@ 2
tendin@@ 2
distur@@ 2
Marseille 2
breaking 2
gion 2
Afri@@ 2
rema@@ 2
Sa@@ 2
Africa 2
carri@@ 2
Hitler 2
tempted 2
urinating 2
areas 2
debt 2
Mosco@@ 2
Moscow 2
Fa@@ 2
helpful 2
horri@@ 2
horrified 2
various 2
curren@@ 2
Wayne 2
century 2
trap 2
disobeyed 2
ior 2
adul@@ 2
jumped 2
finger@@ 2
yellow 2
9 2
42 2
contradiction 2
weighs 2
Neymar 2
lian 2
low@@ 2
maux 2
eighty 2
bath@@ 2
morc@@ 2
chewing 2
gum 2
chunks 2
grapes 2
goo@@ 2
ey 2
marshmallows 2
laughter 2
suffered 2
female 2
Year 2
hid 2
aphrodisia@@ 2
actuari@@ 2
augmen@@ 2
Pen@@ 2
benefit 2
based 2
assumptions 2
asse@@ 2
rate 2
sation 2
posted 2
corri@@ 2
corrected 2
temptation 2
personality 2
ols 2
licen@@ 2
Saturday 2
dÃ©sor@@ 2
differs 2
thro@@ 2
ddly 2
spy 2
orp@@ 2
pted 2
ders 2
skip 2
deep 2
ged 2
abstr@@ 2
abstract 2
exha@@ 2
dieting 2
squ@@ 2
beings 2
kilt 2
Sco@@ 2
Alain 2
Resnais 2
indica@@ 2
David 2
Milan 2
atmo@@ 2
accompl@@ 2
tendency 2
deser@@ 2
spa@@ 2
ries 2
flags 2
user 2
explode 2
transfusions 2
8 2
pois@@ 2
technology 2
Egyptian 2
pyramids 2
Luxembourg 2
tab@@ 2
quir@@ 2
Matoub 2
Lounes 2
Alger@@ 2
ering 2
deceptive 2
threat 2
anks 2
tradition 2
conclusion 2
adi@@ 2
sink 2
cÃ´@@ 2
bbed 2
suspicion 2
garlic 2
instantly 2
labor 2
cel 2
excel@@ 2
mage 2
betray 2
gambling 2
driver 2
suf@@ 2
Kathy 2
roast 2
And 2
pretended 2
throne 2
Oscar 2
relieved 2
vou@@ 2
risks 2
contented 2
secretary 2
loop 2
wars 2
blon@@ 2
Tufts 2
University 2
consequences 2
bygones 2
relation@@ 2
breaks 2
survi@@ 2
Francesco 2
presenta@@ 2
complaint 2
conne@@ 2
magi@@ 2
Sarah 2
Mage 2
Apparently 2
Wikileaks 2
ung 2
LO@@ 2
brill@@ 2
decl@@ 2
turns 2
incom@@ 2
neu@@ 2
surgery 2
tempor@@ 2
stalling 2
ram@@ 2
balls 2
tight 2
Robinson 2
rational 2
brave 2
distingu@@ 2
distinguish 2
enormous 2
administration 2
sources 2
ligh@@ 2
success@@ 2
someday 2
ut@@ 2
Mongo@@ 2
wers 2
conver@@ 2
simula@@ 2
winds 2
suitable 2
rel 2
tradi@@ 2
Ori@@ 2
downstairs 2
stamp 2
Qu@@ 2
recon@@ 2
luggage 2
paycheck 2
nat@@ 2
heur 2
knees 2
rush 2
monta@@ 2
strict 2
pronounce 2
nons 2
companions 2
trusting 2
span 2
confli@@ 2
setbacks 2
sculpture 2
abandoned 2
vic@@ 2
pickpocket 2
victim 2
dings 2
Java 2
JavaSCRIPT 2
beard 2
rescue 2
mastered 2
keeper 2
wider 2
audience 2
music@@ 2
chairs 2
Barbara 2
dotes 2
Tibet 2
advance 2
movement 2
prouve 2
festival 2
permanent 2
peace 2
sorrow 2
Kasparov 2
challenger 2
moves 2
cloudy 2
noon 2
hood 2
Stephen 2
Colbert 2
choo@@ 2
emer@@ 2
finan@@ 2
financial 2
adviser 2
artist 2
hunch 2
eter 2
ference 2
Arabic 2
nickname 2
conditions 2
pizzeria 2
plant 2
preserve 2
trumpet 2
reads 2
hits 2
nail 2
awkward 2
volution 2
1789 2
grounds 2
ots 2
revolution 2
Ã§u 2
seasons 2
behaving 2
Butterbrot 2
dÃ©ci@@ 2
ski@@ 2
skiing 2
notebook 2
Pee@@ 2
Jupiter 2
rainbow 2
bless@@ 2
rÃ©sul@@ 2
ciation 2
pronunciation 2
Ã¨de 2
previous 2
plea@@ 2
professional 2
Max 2
Patricia 2
experienced 2
aching 2
clarification 2
gÃ©n@@ 2
thus 2
joking 2
staring 2
wreck 2
Sato 2
document 2
aven@@ 2
speeding 2
leaped 2
foreig@@ 2
Oxford 2
naive 2
neighborhood 2
eager 2
pos 2
negoti@@ 2
purpose 2
abducted 2
Kakongo 2
alax@@ 2
lions 2
alaxy 2
scratching 2
lowing 2
leisure 2
urges 2
Cro@@ 2
zen 2
discus@@ 2
forehead 2
27 2
shooting 2
pect 2
ordinary 2
ghost 2
alphanum@@ 2
key@@ 2
leftovers 2
Appen@@ 2
refre@@ 2
shes 2
ste@@ 2
reliable 2
soluble 2
dres@@ 2
slain 2
hilltop 2
final 2
expenses 2
escor@@ 2
mises 2
prettiest 2
illusion 2
opti@@ 2
gam@@ 2
rings 2
travels 2
Babyl@@ 2
factory 2
Brasilia 2
capital 2
Naomi 2
Ã©pous@@ 2
cancel 2
X@@ 2
gosla@@ 2
manipula@@ 2
tack 2
cultu@@ 2
founded 2
ral 2
ji 2
rapi@@ 2
Rick 2
affairs 2
curious 2
Capitu@@ 2
giants 2
alas 2
ruse 2
Miho 2
Noriko 2
we@@ 2
crowded 2
distri@@ 2
1920 2
blow 2
verdict 2
Shinobu 2
portion 2
fries 2
Jimmy 2
prince 2
Australi@@ 2
fortun@@ 2
bunch 2
embra@@ 2
Bamako 2
Mal@@ 2
widow 2
refuge 2
â€½ 2
nigh@@ 2
ender 2
lin 2
loving 2
Nara 2
vering 2
bloody 2
professor 2
seemed 2
sul@@ 2
treats 2
calcu@@ 2
triangle 2
allows 2
sank 2
pago@@ 2
stomach 2
embarrassing 2
Istanbul 2
sco@@ 2
scho@@ 2
whis@@ 2
improving 2
idioma@@ 2
assistance 2
subje@@ 2
heels 2
opposite 2
invol@@ 2
radium 2
rÃ©sou@@ 2
teuse 2
structure 2
remo@@ 2
ad 2
bearing 2
ocre 2
Coca 2
Cola 2
Fanta 2
Secon@@ 2
erre 2
profon@@ 2
composed 2
inse@@ 2
critical 2
impor@@ 2
Ubuntu 2
Ã©nor@@ 2
software 2
ferred 2
clap 2
endings 2
sandwiches 2
example 2
ery 2
circumstances 2
hearing 2
Allah 2
pacifis@@ 2
patriotis@@ 2
expos@@ 2
favor 2
defeat 2
currence 2
soldier 2
nia 2
bra 2
Ted 2
ight 2
Sachiko 2
Akiko 2
honor 2
sci@@ 2
transpor@@ 2
cop@@ 2
transported 2
anno@@ 2
occur 2
swam 2
Myanmar 2
Bur@@ 2
ese 2
yachts 2
rechargea@@ 2
mmit 2
thirteen 2
ians 2
Fritz 2
Fred 2
influ@@ 2
Alle@@ 2
Germans 2
hen 2
closet 2
applications 2
loyal 2
auto 2
stable 2
Bye 2
hockey 2
perfection@@ 2
jokes 2
immediate 2
freak 2
servi@@ 2
wel 2
cracy 2
remin@@ 2
Park 2
monkey 2
apo@@ 2
Mira@@ 2
cousins 2
Cambo@@ 2
offended 2
expert 2
cyber@@ 2
dreams 2
aware 2
pains 2
disagree 2
happiest 2
ctric@@ 2
electricity 2
Nobel 2
rati@@ 2
cisions 2
meil@@ 2
arse 2
sauce 2
stain 2
cym@@ 2
sounding 2
practice 2
dness 2
ran@@ 2
ous@@ 2
tablea@@ 2
Group 2
gres@@ 2
clusterfuck 2
allergies 2
motel 2
discuss 2
enjoyed 2
bridge 2
magas@@ 2
journ@@ 2
commerci@@ 2
onique 2
catalo@@ 2
Palais 2
joined 2
neck 2
euros 2
dentist 2
See 2
tering 2
jazz 2
1860 2
Lincoln 2
sident 2
traditions 2
thermom@@ 2
cue 2
relief 2
boracasli 2
jobs 2
brings 2
brioche 2
bastard 2
Ã©qui@@ 2
vend@@ 2
June 2
temper 2
ids 2
bambo@@ 2
tune 2
relaxed 2
Paderborn 2
2000 2
32 2
83 2
cile 2
otic 2
model 2
tch 2
saf@@ 2
hamburger 2
immor@@ 2
immortal 2
pol@@ 2
combustion 2
tants 2
dreaming 2
midnight 2
exit 2
Mondrian 2
beg@@ 2
Ã©cu@@ 2
retired 2
dÃ©tru@@ 2
destro@@ 2
hoo@@ 2
Shounan 2
salons 2
pump 2
contain 2
Okin@@ 2
diet 2
unhealthy 2
resourceful 2
saint 2
examine 2
Spot 2
sprint 2
sermon 2
beyond 2
excellence 2
jellyfish 2
Ex@@ 2
pir@@ 2
gh 2
reprise 2
All 2
tower 2
Jimi 2
Hendrix 2
fans 2
beginners 2
Harry 2
uniforms 2
slid 2
instruments 2
questionnaire 2
Fill 2
RAM 2
Nakagawa 2
Ã©ti@@ 2
âŠ‚ 2
inclusion 2
Dardanus 2
thence 2
wound 2
trap@@ 2
bowed 2
pier 2
Shakespeare 2
manage 2
forty 2
factures 2
Que@@ 2
incident 2
To@@ 2
Joh@@ 2
Hanako 2
ta.gov 2
dures 2
inst@@ 2
1888 2
lude 2
Debus@@ 2
passion@@ 2
theless 2
Hitomi 2
Cartw@@ 2
port 2
Naples 2
aut@@ 2
eth 2
un@@ 2
recomm@@ 2
Miyazaki 2
discourage 2
ious 2
casino 2
debate 2
survival 2
capture 2
forest 2
glo@@ 2
Ukraine 2
glory 2
Mozart 2
Salz@@ 2
blocked 2
co 2
rug 2
repa@@ 2
frightened 2
statisti@@ 2
Jordan 2
francs 2
putation 2
character 2
delayed 2
eek 2
Sabah 2
handball 2
playground 2
receive 2
Chan@@ 2
1914 2
barrica@@ 2
Henry 2
Baskervilles 2
blackboard 2
surveillance 2
tles 2
pretending 2
beggars 2
hill 2
Mohammed 2
spin@@ 2
aggression 2
Cristina 2
disliked 2
socks 2
loo@@ 2
charged 2
intercep@@ 2
hers 2
Taniguchi 2
steering 2
crit@@ 2
essay 2
dust 2
arrest 2
Ital@@ 2
exclus@@ 2
suffer 2
code 2
Commun@@ 2
lecture 2
trombone 2
Newton 2
tensions 2
Califor@@ 2
clipse 2
southern 2
Martin 2
Luther 2
eleph@@ 2
ici@@ 2
Ankara 2
intÃ©rÃª@@ 2
interests 2
beans 2
prose 2
amount 2
farm 2
dges 2
zing 2
Goro 2
camp 2
paused 2
smiled 2
illusions 2
Sayoko 2
section 2
collection 2
collected 2
act@@ 2
soa@@ 2
marathon 2
abuse 2
bounce 2
gigan@@ 2
reconstru@@ 2
loy@@ 2
mignon@@ 2
asks 2
crap 2
songe 2
parasol 2
nag@@ 2
Rh@@ 2
param@@ 2
gener@@ 2
mony 2
outrage 2
Tim 2
duo 2
tattoo 2
reduced 2
betrayed 2
distances 2
knocked 2
psycho@@ 2
mayonnaise 2
Kazakhstan 2
velopp@@ 2
Asi@@ 2
drawings 2
jong 2
horror 2
noti@@ 2
recognized 2
2030 2
infantile 2
acro@@ 2
inspection 2
gence 2
punctu@@ 2
claims 2
terror@@ 2
ists 2
contin@@ 2
calories 2
blondes 2
eBay 2
intersection 2
passion 2
dement 2
Albi@@ 2
ois 2
ares 2
diary 2
Breand@@ 2
founda@@ 2
ind@@ 2
sunscreen 2
blu@@ 2
freedom 2
arith@@ 2
bracelet 2
peu@@ 2
25 2
manus@@ 2
recovery 2
Capitalism 2
popu@@ 2
motion@@ 2
Catholic 2
Amnesty 2
Facebook 2
indication 2
constantly 2
shows 2
Nelson 2
Mandela 2
frus@@ 2
trated 2
John@@ 2
participa@@ 2
Simpsons 2
Joe 2
Carlton 2
Michael 2
imparti@@ 2
Fadil 2
sympath@@ 2
2001 2
Goldman 2
Sachs 2
Russi@@ 2
orig@@ 2
acrony@@ 2
BRIC 2
neigh@@ 2
Akagi 2
Uranus 2
surprising 2
LSD 2
Com@@ 2
dictatorial 2
correspond 2
plorable 2
var@@ 2
div@@ 2
tal 2
Marty 2
attracted 2
Apollo 2
Mer@@ 2
bab@@ 2
influences 2
Deutschland 2
sits 2
golf 2
eschato@@ 2
privil@@ 2
crimin@@ 2
dle 2
serva@@ 2
Jenny 2
guil@@ 2
Vince 2
fail 2
acci@@ 2
interrup@@ 2
Dame 2
A 2
tox@@ 2
Trang 2
Reven@@ 2
Matt 2
TickDisplay 2
frame 2
animation 2
Oliver 2
vidÃ©@@ 2
ophysi@@ 2
thermodynam@@ 2
climato@@ 2
ics 2
Eric 2
island 2
liar 2
Alfred 2
monot@@ 2
sulfu@@ 2
ric 2
phosp@@ 2
Rome 2
respected 2
photogra@@ 2
geyser 2
sends 2
magnitude 2
objects 2
bicycles 2
BBC 2
RocÃ­o 2
toe 2
hurts 2
insolent 2
jban 2
rival 2
hire 2
admira@@ 2
Olympic 2
let@@ 2
location 2
easiest 2
popular@@ 2
od 2
menu 2
dwar@@ 2
adapt 2
environmental 2
dumber 2
ard@@ 2
exor@@ 2
ry 2
parano@@ 2
presidential 2
Taro 2
Akagawa 2
perception 2
carrying 2
2016 2
oldest 2
waist 2
Anki 2
tropical 2
ast 2
eeny 2
meeny 2
miny 2
moe 2
okay 2
designers 2
marvelous 2
pox 2
beside 2
bec 2
aboard 2
providing 2
ckers 2
Berlin 2
essential 2
Scandinav@@ 2
ditation 2
1972 2
views 2
ently 2
dino@@ 2
banana 2
advise 2
conference 2
604 2
C. 2
vince 2
Henan 2
pie@@ 2
printed 2
applau@@ 2
dimension 2
arrival 2
Contr@@ 2
injustice 2
dissu@@ 2
irement 2
lead 2
Bernard 2
Chartres 2
60 2
baked 2
intu@@ 2
astro@@ 2
1974 2
Anna 2
dispersion 2
pachinko 2
ttery 2
effor@@ 2
Jeanette 2
dictions 2
Matsuyama 2
Innsbruck 2
Steve 2
anthropo@@ 2
suggestions 2
naked 2
confusion 2
description 2
seller 2
fascin@@ 2
protection 2
Philip 2
Andrew 2
Bethesda 2
nicotine 2
Picasso 2
talisman 2
Sonia 2
pint 2
worms 1
scis@@ 1
ordinat@@ 1
relax@@ 1
ester@@ 1
tional 1
inde@@ 1
chers 1
zes 1
rappel@@ 1
pretti@@ 1
undermine 1
ilÃ 1
translated 1
wning 1
weep 1
evi@@ 1
oth@@ 1
emp@@ 1
volunteering 1
wrapped 1
compla@@ 1
Jack@@ 1
remer@@ 1
allo@@ 1
meth@@ 1
ley 1
deni@@ 1
wi@@ 1
ug 1
lized 1
geni@@ 1
icky 1
interru@@ 1
lor@@ 1
proving 1
Ger@@ 1
gar 1
uary 1
even@@ 1
twelfth 1
zation 1
sugg@@ 1
welcomed 1
typical 1
sear@@ 1
ckets 1
endu 1
hard@@ 1
wder 1
unsalted 1
ome 1
yelling 1
issu@@ 1
tum 1
mÃ©tr@@ 1
ican 1
verted 1
wny 1
weighing 1
ettez 1
stands 1
foun@@ 1
troops 1
trenches 1
vot@@ 1
voted 1
treatment 1
worldwide 1
occa@@ 1
rÃ©flÃ©ch@@ 1
siez 1
stron@@ 1
witnessed 1
vicious 1
mato@@ 1
phi@@ 1
commer@@ 1
versity 1
voudri@@ 1
yodeler 1
Wh@@ 1
dering 1
infe@@ 1
nourr@@ 1
thern 1
gent@@ 1
tina 1
unted 1
bad@@ 1
tered 1
woke 1
ustrian 1
timi@@ 1
ushered 1
traveled 1
0 1
zip 1
Sal@@ 1
typhoon 1
dden 1
possibil@@ 1
jel@@ 1
teria 1
wo@@ 1
viet 1
trate 1
lo 1
itu@@ 1
ttering 1
wasps 1
tucked 1
ker@@ 1
Q 1
inci@@ 1
Go@@ 1
tat@@ 1
weaker 1
yself 1
heu@@ 1
App@@ 1
SM@@ 1
souv@@ 1
beha@@ 1
Fren@@ 1
verb 1
rÃ©p@@ 1
wags 1
resour@@ 1
mement 1
rers 1
inging 1
iness 1
trolman 1
sem@@ 1
utious 1
trespassing 1
unrealistic 1
custom@@ 1
usion 1
weeds 1
Lin@@ 1
employed 1
untly 1
wor@@ 1
deci@@ 1
melon 1
preser@@ 1
vatives 1
flav@@ 1
fic 1
ces@@ 1
workforce 1
yal 1
rit 1
apparti@@ 1
ising 1
dom 1
vided 1
sak@@ 1
Q@@ 1
Ã¨ce 1
danger@@ 1
Wi@@ 1
manipu@@ 1
verers 1
exer@@ 1
passe@@ 1
descri@@ 1
neighbor@@ 1
amÃ©li@@ 1
venge@@ 1
condi@@ 1
sely 1
gÃ¨re 1
ick@@ 1
text@@ 1
gy 1
tching 1
ead 1
Pal@@ 1
maged 1
watering 1
Ã´ 1
dal 1
ency 1
ystander 1
videotaped 1
wom@@ 1
an&apos; 1
prÃ©fÃ©@@ 1
uages 1
watermelon 1
unaided 1
bic 1
ok@@ 1
oke 1
hang@@ 1
dÃ©la@@ 1
2.@@ 1
atte@@ 1
weaken 1
Ã©ren@@ 1
senten@@ 1
ctures 1
winded 1
tracting 1
patri@@ 1
black@@ 1
4@@ 1
unprofessional 1
versa@@ 1
adver@@ 1
value 1
perspe@@ 1
issance 1
eur@@ 1
faul@@ 1
presen@@ 1
fices 1
ceed 1
civ@@ 1
Bu@@ 1
exerc@@ 1
pared 1
tterns 1
belie@@ 1
ah 1
den 1
serve 1
partment 1
congratula@@ 1
ems 1
whales 1
tence 1
collabor@@ 1
contribut@@ 1
ject 1
inno@@ 1
illed 1
vities 1
liver 1
waving 1
uti@@ 1
sprin@@ 1
wards 1
elled 1
incorrigi@@ 1
vanish 1
venge 1
usted 1
valedictorian 1
watered 1
ption 1
volcanoes 1
wire 1
bed@@ 1
Ã” 1
row 1
dÃ©cou@@ 1
yolks 1
harv@@ 1
ear 1
whiplash 1
uffle 1
franch@@ 1
alistic 1
unpleasant 1
Ti@@ 1
veller 1
tramp 1
yells 1
yon@@ 1
radi@@ 1
unforgettable 1
undervalue 1
underestimate 1
separa@@ 1
dum@@ 1
tubercu@@ 1
tuberculosis 1
rew 1
wishes 1
suspi@@ 1
sty 1
bers 1
exper@@ 1
iment 1
minim@@ 1
ambul@@ 1
wandering 1
dd@@ 1
vÃ©r@@ 1
truths 1
Un@@ 1
K 1
neighbor 1
slow@@ 1
ret@@ 1
begin@@ 1
post@@ 1
supplÃ©@@ 1
volume 1
ong 1
universal 1
gir@@ 1
ired 1
fore 1
tribution 1
uncommon 1
weapons 1
pa 1
rettes 1
voud@@ 1
suici@@ 1
Ur@@ 1
national 1
trebled 1
zees 1
ther 1
enjo@@ 1
yable 1
tuous 1
lest 1
ban 1
waits 1
cei@@ 1
typo 1
Braz@@ 1
umber 1
ops 1
wages 1
weirdo 1
cky 1
pean@@ 1
zards 1
cess 1
worker 1
laugh@@ 1
Ã©t@@ 1
advis@@ 1
writes 1
worries 1
writers 1
tiz@@ 1
sements 1
zure 1
mas 1
cinem@@ 1
kets 1
gan@@ 1
desp@@ 1
fis@@ 1
ustion 1
reur 1
ugust 1
sy@@ 1
mpa 1
tsman 1
ctly 1
tub 1
ished 1
upright 1
Du@@ 1
hea@@ 1
tech@@ 1
whatsoever 1
lette 1
ld 1
answ@@ 1
trades 1
triple 1
wroom 1
traps 1
Y 1
objecti@@ 1
Ã§on 1
trav@@ 1
watchful 1
wiretapping 1
treasure 1
knowle@@ 1
ene@@ 1
ficial 1
ured 1
econom@@ 1
nex@@ 1
cian 1
Char@@ 1
eting 1
ears 1
backs 1
rain@@ 1
pyra@@ 1
lia 1
ange 1
abo@@ 1
ay@@ 1
wept 1
visits 1
ust 1
urally 1
salted 1
tooth@@ 1
pron@@ 1
itement 1
usso 1
turies 1
beau@@ 1
aled 1
N 1
whispered 1
troubled 1
reu@@ 1
pho@@ 1
stered 1
000 1
camer@@ 1
bile 1
tripping 1
inf@@ 1
circum@@ 1
iture 1
Ã©goÃ¯@@ 1
welling 1
ception 1
recei@@ 1
ving 1
suy@@ 1
wiped 1
j 1
ory 1
clari@@ 1
spati@@ 1
gaz@@ 1
vacu@@ 1
ke@@ 1
gou@@ 1
phÃ©@@ 1
clea@@ 1
unrelated 1
quarter 1
oud 1
magne 1
holi@@ 1
trig@@ 1
witnesses 1
hosp@@ 1
naise 1
preg@@ 1
wolves 1
yard 1
Mil@@ 1
wins 1
Ã¨tement 1
secre@@ 1
mainten@@ 1
fant@@ 1
chaus@@ 1
unforgivable 1
mul@@ 1
expe@@ 1
truly 1
wicked 1
War@@ 1
jard@@ 1
utensils 1
You@@ 1
Yu@@ 1
via 1
sugges@@ 1
play@@ 1
tured 1
urmanji 1
unlocked 1
lov@@ 1
ere 1
adm@@ 1
upload 1
stea@@ 1
deed 1
ang 1
wadays 1
pace 1
thÃ©or@@ 1
veil@@ 1
sant 1
whiskey 1
val 1
weden 1
victi@@ 1
victims 1
washes 1
unching 1
reci@@ 1
unclear 1
ziest 1
scen@@ 1
dding 1
ounce 1
bby 1
rand@@ 1
om 1
ees 1
bir@@ 1
mists 1
you@@ 1
YouTu@@ 1
wiggled 1
toes 1
enced 1
ssed 1
moire 1
vegetable 1
legal 1
troleum 1
wolf 1
B 1
Ã©qu@@ 1
hÃ´p@@ 1
understands 1
eel 1
cil@@ 1
wned 1
Lu@@ 1
fati@@ 1
chap@@ 1
eness 1
atomic 1
zom@@ 1
zombies 1
instan@@ 1
dia 1
ax 1
Eu@@ 1
oped 1
pun@@ 1
aka 1
trousers 1
mile 1
circu@@ 1
chic 1
did@@ 1
ennem@@ 1
cep@@ 1
core 1
impres@@ 1
borro@@ 1
untapped 1
pti@@ 1
craft 1
wered 1
usters 1
Ã¢che 1
Sach@@ 1
waffles 1
utilized 1
pagne 1
ories 1
dÃ¨le 1
care@@ 1
fle 1
tir 1
Å“u@@ 1
od@@ 1
dow 1
obje@@ 1
cy@@ 1
stem 1
um@@ 1
aises 1
translating 1
waistcoat 1
awa 1
alim@@ 1
underwear 1
yogurt 1
unrelenting 1
wave 1
sev@@ 1
pick@@ 1
sca@@ 1
board 1
stor@@ 1
ambi@@ 1
terri@@ 1
thed 1
watch@@ 1
unsatisfied 1
ack 1
Ãƒ 1
Â© 1
tails 1
yor 1
adverti@@ 1
sius 1
suit@@ 1
Ã©pu@@ 1
unpopular 1
trifling 1
mach@@ 1
Da@@ 1
range 1
tings 1
heal@@ 1
8@@ 1
ternoon 1
hund@@ 1
sp 1
nÃ©c@@ 1
necess@@ 1
solu 1
illing 1
Mis@@ 1
py@@ 1
fan@@ 1
unanimous 1
$ 1
uniqueness 1
scar@@ 1
bourg 1
unned 1
kis@@ 1
worthy 1
volcano 1
upts 1
grÃ© 1
mental 1
veillÃ© 1
wildly 1
pture 1
blis@@ 1
suffis@@ 1
Ã©lev@@ 1
xury 1
are@@ 1
spe@@ 1
whistle 1
alter@@ 1
org@@ 1
poe@@ 1
pends 1
shir@@ 1
.m 1
Ã©gl@@ 1
museu@@ 1
chur@@ 1
sers 1
perman@@ 1
amou@@ 1
transformed 1
Co@@ 1
progra@@ 1
refu@@ 1
streng@@ 1
convin@@ 1
winner 1
chil@@ 1
wild 1
ypti@@ 1
ylic 1
organi@@ 1
BC 1
usu@@ 1
mans 1
tremists 1
nie 1
wareness 1
tyre 1
twin 1
travelers 1
ilo@@ 1
ot 1
combus@@ 1
ides 1
yth@@ 1
pom@@ 1
smil@@ 1
usting 1
bet@@ 1
sm@@ 1
ith 1
ctor 1
ois@@ 1
Ri@@ 1
C 1
peci@@ 1
wildlife 1
waved 1
ince 1
truant 1
tors 1
Portu@@ 1
scre@@ 1
visitors 1
requi@@ 1
dy@@ 1
wimps 1
useless 1
uding 1
suiv@@ 1
wfall 1
abil@@ 1
stan@@ 1
verestimated 1
urban 1
edi@@ 1
ands 1
anim@@ 1
tÃ©mo@@ 1
cook@@ 1
mum 1
ren 1
ygoing 1
ggl@@ 1
irre@@ 1
mig@@ 1
ridi@@ 1
vegetarians 1
appoin@@ 1
ped 1
bate 1
py 1
variety 1
Inter@@ 1
Atom@@ 1
Ko@@ 1
ergy 1
gency 1
trips 1
psy@@ 1
virgin@@ 1
virginity 1
unwrapped 1
wealth 1
collis@@ 1
Cath@@ 1
Ã¡n 1
separ@@ 1
zenly 1
traged 1
reco@@ 1
wounds 1
mathÃ©@@ 1
Japo@@ 1
peop@@ 1
underwater 1
unclasp 1
passing 1
warmer 1
vocated 1
Sta@@ 1
ket 1
vÃ©rit@@ 1
cus@@ 1
defe@@ 1
tuning 1
anni@@ 1
tyranny 1
whipped 1
zement 1
Son@@ 1
Be@@ 1
tres@@ 1
weaved 1
wreaths 1
prÃ©fÃ©r@@ 1
vacy 1
caract@@ 1
pic 1
werewolf 1
happ@@ 1
ache 1
youth 1
R 1
surveill@@ 1
udders 1
unimpressed 1
volunteers 1
unsolved 1
ine@@ 1
twitted 1
skir@@ 1
trusts 1
urinate 1
eg@@ 1
constitu@@ 1
volu@@ 1
oms 1
dir@@ 1
sympathi@@ 1
seig@@ 1
schedu@@ 1
Ã‚@@ 1
Mi@@ 1
wildflowers 1
mi 1
volumes 1
vitam@@ 1
vitamin 1
update 1
contri@@ 1
fun@@ 1
chall@@ 1
videogames 1
voyÃ© 1
oro@@ 1
tremendous 1
wels 1
uled 1
onous 1
Venus 1
fore@@ 1
trag@@ 1
tragedy 1
lic 1
pher 1
trembling 1
colon@@ 1
stand@@ 1
ki@@ 1
threa@@ 1
unsual 1
troublemaker 1
vern@@ 1
uv@@ 1
Pau@@ 1
ush 1
bb@@ 1
lem@@ 1
violently 1
trangely 1
ever@@ 1
ways 1
urgency 1
ceremon@@ 1
iously 1
triumph 1
valley 1
violets 1
yprus 1
translu@@ 1
translucent 1
rying 1
wounded 1
wondered 1
spea@@ 1
ounds 1
chance@@ 1
oted 1
bis@@ 1
mean@@ 1
twisting 1
expla@@ 1
ssing 1
environ@@ 1
gor@@ 1
fect 1
ucasian 1
chapp@@ 1
cist 1
Crea@@ 1
rÃ¨@@ 1
quat@@ 1
vark 1
pag@@ 1
unhappy 1
clean@@ 1
urant 1
wegian 1
undress 1
forms 1
gular 1
unemotional 1
vel 1
vegetarian 1
willed 1
stud@@ 1
skilled 1
plash 1
tubes 1
aller@@ 1
allergi@@ 1
wds 1
alp@@ 1
hÃ´@@ 1
str@@ 1
spi@@ 1
gni@@ 1
zant 1
lik@@ 1
corre@@ 1
centur@@ 1
unambitious 1
uttled 1
ggled 1
veill@@ 1
differ@@ 1
fav@@ 1
inable 1
unimaginable 1
unfaithful 1
lise 1
tranqu@@ 1
translator 1
tual 1
Ta@@ 1
zi 1
tains 1
dif@@ 1
yenne 1
question@@ 1
ques@@ 1
fall@@ 1
sian 1
O 1
tray 1
nÃ©cessa@@ 1
Ã¢le 1
umbling 1
waking 1
unopened 1
tricky 1
bicyc@@ 1
unskilled 1
biblioth@@ 1
libr@@ 1
arian 1
virtue 1
distin@@ 1
stairs 1
depar@@ 1
unfit 1
Chin@@ 1
warning 1
wrap 1
ei@@ 1
multi@@ 1
ror 1
mom@@ 1
visitor 1
Ã©tr@@ 1
Hum@@ 1
Res@@ 1
uncontrollably 1
triggered 1
sk 1
X 1
sts 1
mashed 1
brio@@ 1
vari@@ 1
Sm@@ 1
Ã€ 1
.. 1
videos 1
advan@@ 1
vanity 1
ctor@@ 1
dict 1
icy 1
wimp 1
ysit 1
respon@@ 1
umbrellas 1
voluntarily 1
venture 1
resti@@ 1
disapp@@ 1
earing 1
omi 1
wallet 1
gle@@ 1
urry 1
onaire 1
hou@@ 1
unearthed 1
vation 1
turning 1
vacuum 1
vendors 1
penc@@ 1
ambiti@@ 1
ambitious 1
Bo@@ 1
citiz@@ 1
en&apos; 1
unintended 1
redu@@ 1
warmth 1
rec@@ 1
nais 1
trac@@ 1
tractor 1
uttered 1
-@@ 1
waiter 1
