. 16990
I 6296
the 4980
you 4886
to 4460
a 3340
? 2908
is 2610
&apos;t 2282
, 1942
of 1816
it 1786
he 1744
in 1662
that 1608
&apos;s 1520
Tom 1480
do 1212
have 1192
me 1190
this 1158
was 1138
we 1078
my 1038
are 1036
for 1018
she 960
don 940
what 922
not 912
can 864
your 864
and 842
be 778
&apos;m 774
on 710
with 652
his 628
&apos;re 624
want 622
like 614
know 582
they 578
there 570
all 554
! 554
at 544
her 530
him 490
how 476
go 466
as 466
did 448
has 442
think 404
very 400
time 398
no 396
out 388
&apos;ve 382
get 374
&quot; 372
will 368
&apos;ll 368
had 368
one 354
an 350
if 348
about 344
were 344
here 330
who 328
from 326
up 320
didn 304
but 300
just 296
so 294
why 292
would 288
when 282
Mary 282
by 282
good 270
going 268
where 258
need 254
us 252
am 248
tell 246
see 244
more 244
come 240
should 236
&apos;d 236
never 234
been 234
too 228
much 222
now 220
help 218
than 216
please 216
only 208
could 206
let 206
really 204
our 202
@-@ 198
take 196
right 194
man 186
work 186
any 184
day 176
some 176
love 166
must 164
got 164
last 162
or 162
make 158
something 158
car 158
does 156
doesn 148
money 148
people 146
lot 146
way 144
home 142
went 142
speak 136
look 136
them 134
anything 134
give 134
say 132
told 132
said 132
little 130
find 128
today 128
leave 128
still 128
night 128
school 126
talk 126
back 126
before 124
two 124
well 122
long 122
new 120
always 120
room 120
off 120
everything 118
old 118
thought 118
house 118
won 116
made 114
many 114
believe 114
happy 112
life 112
nothing 112
again 108
live 108
eat 108
French 108
read 108
sure 108
feel 108
isn 106
book 106
into 106
father 106
which 104
may 104
wanted 104
first 102
alone 102
these 100
put 100
English 100
better 100
away 100
took 100
Sami 100
dog 100
hard 98
already 98
tomorrow 98
their 96
try 96
buy 96
job 96
three 94
without 94
enough 94
other 94
because 94
done 92
late 92
after 88
down 88
left 88
best 86
over 86
keep 86
asked 86
children 86
seen 86
used 86
sorry 84
door 84
things 84
re@@ 84
every 82
idea 82
mind 82
stop 82
friend 82
thing 82
looking 80
saw 80
teacher 80
name 80
years 80
often 78
being 78
water 78
busy 78
doing 78
came 78
even 76
ed 76
understand 76
afraid 74
play 74
lost 74
great 74
call 72
yesterday 72
next 72
world 72
wants 72
remember 72
place 70
bad 70
cold 70
ever 70
week 70
red 70
knew 70
use 70
found 70
everyone 68
ready 68
meet 66
easy 64
young 64
wrong 64
few 64
married 64
sleep 64
early 64
truth 64
small 62
stay 62
hear 62
books 62
mine 62
letter 62
most 62
around 62
drink 62
mother 62
yet 62
far 62
another 62
those 62
knows 62
doctor 62
S@@ 60
aren 60
year 60
s@@ 60
kind 60
everybody 60
bed 60
talking 60
pay 60
un@@ 60
care 60
parents 58
ing 58
morning 58
since 58
myself 58
party 58
true 58
show 58
ask 58
happened 56
watch 56
its 56
hope 56
happen 56
able 56
learn 56
anymore 56
once 56
word 56
nice 56
couldn 54
in@@ 54
e@@ 54
coming 54
country 54
while 54
family 54
problem 54
having 54
himself 52
likes 52
such 52
tired 52
free 52
girl 52
lives 52
same 52
yourself 52
gave 52
looks 52
haven 50
es 50
train 50
together 50
write 50
days 50
ly 50
friends 50
d@@ 50
miss 50
makes 50
wait 50
cat 50
language 50
bought 48
plan 48
rain 48
might 48
turned 48
person 48
s 48
child 48
big 48
started 48
someone 48
nobody 48
called 48
met 48
turn 48
sing 46
study 46
seems 46
until 46
woman 46
f@@ 46
&apos; 46
end 46
brother 46
difficult 46
bit 46
cannot 46
fun 46
anyone 46
wasn 46
times 46
beautiful 46
reading 46
matter 44
meeting 44
heard 44
C@@ 44
boy 44
sick 44
g@@ 44
waiting 44
getting 44
ted 44
rich 44
hot 44
dinner 44
hours 44
working 44
each 44
girls 42
st@@ 42
ts 42
ten 42
Boston 42
accident 42
finished 42
question 42
food 42
eyes 42
a@@ 42
light 42
ers 42
sister 42
coffee 42
hand 42
trying 42
ate 42
questions 42
hate 42
story 42
own 42
open 42
office 40
heart 40
Japanese 40
lived 40
living 40
pretty 40
both 40
Japan 40
soon 40
wife 40
number 40
cut 40
; 40
almost 40
else 40
forget 40
hair 40
tried 40
ated 40
five 40
t@@ 40
glad 40
de@@ 40
B@@ 40
ded 38
thinking 38
answer 38
hurt 38
A@@ 38
m@@ 38
company 38
TV 38
wish 38
b@@ 38
phone 38
under 38
th 38
felt 38
advice 38
France 38
weather 38
milk 38
age 38
important 38
less 38
fell 36
k@@ 36
swimming 36
walk 36
arrived 36
future 36
break 36
born 36
fast 36
change 36
visit 36
ds 36
black 36
angry 36
m 36
Dan 36
behind 36
careful 36
through 36
o@@ 36
become 36
then 36
ago 36
R@@ 36
died 36
class 36
works 34
worry 34
game 34
guess 34
killed 34
others 34
D@@ 34
tonight 34
news 34
wine 34
against 34
surprised 34
high 34
di@@ 34
ity 34
interested 34
store 34
between 34
whole 34
students 34
quite 34
wonder 34
words 34
trip 34
bus 34
exactly 34
: 34
wouldn 34
decided 34
hurry 32
became 32
son 32
yours 32
clear 32
station 32
hands 32
known 32
promise 32
p 32
p@@ 32
city 32
run 32
window 32
cost 32
daughter 32
death 32
Mr 32
y 32
longer 32
watching 32
smoking 32
pe@@ 30
crazy 30
summer 30
fish 30
swim 30
Tatoeba 30
er@@ 30
large 30
spend 30
fire 30
anybody 30
making 30
music 30
T@@ 30
w@@ 30
ous 30
chance 30
order 30
correct 30
girlfriend 30
st 30
yes 30
sometimes 30
opinion 30
close 30
dark 30
start 30
lucky 30
telling 30
thank 30
bicycle 30
past 30
student 30
languages 30
poor 30
face 30
health 30
beer 30
maybe 30
F@@ 28
movie 28
point 28
also 28
rather 28
caught 28
hungry 28
al@@ 28
thinks 28
comes 28
hospital 28
written 28
favorite 28
part 28
playing 28
ses 28
set 28
cats 28
probably 28
to@@ 28
easily 28
four 28
cake 28
saying 28
sense 28
half 28
listen 28
le 28
fine 28
shirt 28
lose 28
lunch 28
sleeping 28
ball 28
near 28
si@@ 28
baby 28
P@@ 28
hotel 28
later 28
leaving 28
ri@@ 28
possible 28
coat 26
speaking 26
W@@ 26
th@@ 26
M@@ 26
agree 26
ra@@ 26
taking 26
breakfast 26
er 26
computer 26
hat 26
German 26
feeling 26
head 26
dress 26
li@@ 26
sugar 26
appreciate 26
trouble 26
choice 26
boys 26
month 26
God 26
forgot 26
opened 26
key 26
real 26
minutes 26
se 26
over@@ 26
completely 26
hasn 26
clothes 26
restaurant 26
ps 26
d 26
shot 26
b 26
kept 26
six 26
experience 26
safe 26
least 26
wash 26
different 26
looked 26
men 26
learned 26
team 26
mistake 26
tic 26
whose 26
problems 26
la@@ 26
stayed 26
town 26
whatever 24
birthday 24
clean 24
ling 24
inside 24
paper 24
either 24
strong 24
en@@ 24
marry 24
sentence 24
H@@ 24
drive 24
touch 24
box 24
afternoon 24
prefer 24
gone 24
ance 24
wrote 24
flowers 24
cook 24
police 24
deal 24
stupid 24
secret 24
women 24
u@@ 24
lu@@ 24
floor 24
legs 24
keys 24
l@@ 24
necessary 24
pre@@ 24
changed 24
needed 24
smoke 24
broke 24
slept 24
invited 24
Earth 24
information 24
dead 24
i@@ 24
O@@ 24
Spanish 24
situation 24
shouldn 24
piano 24
began 24
hour 24
present 24
picture 24
o 24
forward 22
sun 22
loved 22
dangerous 22
kids 22
at@@ 22
win 22
expensive 22
enjoy 22
feelings 22
immediately 22
it@@ 22
whether 22
ac@@ 22
talked 22
sentences 22
ally 22
interesting 22
glasses 22
sh@@ 22
Paris 22
spoke 22
glass 22
ro@@ 22
catch 22
h@@ 22
tennis 22
lie 22
walked 22
po@@ 22
N@@ 22
taken 22
wearing 22
shoes 22
bring 22
heavy 22
learning 22
running 22
evening 22
bo@@ 22
ding 22
sit 22
needs 22
ta@@ 22
seem 22
table 22
sea 22
co@@ 22
hit 22
eaten 22
takes 22
river 22
supposed 22
husband 22
lo@@ 22
fact 22
kill 22
cute 22
weren 22
eating 22
library 20
n@@ 20
seeing 20
ms 20
park 20
famous 20
short 20
tears 20
teach 20
studying 20
ful 20
date 20
bill 20
rest 20
couple 20
finish 20
eye 20
... 20
worked 20
shall 20
address 20
Layla 20
die 20
strange 20
med 20
les 20
stars 20
public 20
c@@ 20
ride 20
smart 20
Oh 20
sound 20
realize 20
Christmas 20
closed 20
ation 20
quickly 20
ve 20
moment 20
sed 20
n 20
theory 20
broken 20
liked 20
second 20
speaks 20
gets 20
top 20
mountain 20
drunk 20
ma@@ 20
tree 20
send 20
played 20
con@@ 20
goes 20
reason 20
fruit 20
building 20
L@@ 20
attention 20
low 20
outside 20
exist 20
ans 20
join 20
air 20
case 20
crying 20
al 20
snow 20
ting 20
plays 20
k 20
history 20
t 20
writing 20
guys 20
nervous 18
driving 18
post 18
mp 18
excuse 18
ck 18
view 18
hold 18
G@@ 18
z@@ 18
ring 18
John 18
mo@@ 18
dollars 18
ked 18
pleased 18
ning 18
bag 18
abroad 18
g 18
mean 18
popular 18
el@@ 18
traffic 18
dance 18
ha@@ 18
price 18
bike 18
der 18
advised 18
single 18
spring 18
owe 18
complete 18
for@@ 18
television 18
none 18
consider 18
art 18
cra@@ 18
usually 18
usual 18
king 18
ating 18
winter 18
10 18
stand 18
ent 18
ticket 18
cup 18
expect 18
pain 18
figured 18
using 18
shop 18
cted 18
front 18
umbrella 18
gun 18
2 18
herself 18
blood 18
older 18
ves 18
kiss 18
quiet 18
gives 18
ch@@ 18
respect 18
ved 18
do@@ 18
dictionary 18
sooner 18
ct 18
solve 18
y@@ 18
somewhere 18
r@@ 18
village 18
sign 18
ran 18
wear 18
ry 18
ch 18
est 18
fat 18
w 18
led 18
carry 18
uncle 18
bri@@ 18
sight 18
su@@ 18
weekend 18
given 18
test 18
full 18
earth 18
actually 18
&apos;clock 18
satisfied 16
absent 16
ary 16
c 16
fall 16
ic@@ 16
ca@@ 16
considered 16
pa@@ 16
move 16
understood 16
cooking 16
terrible 16
seat 16
song 16
business 16
slow 16
kitchen 16
bu@@ 16
cry 16
dogs 16
be@@ 16
accused 16
ant 16
ad@@ 16
out@@ 16
sent 16
line 16
sts 16
allowed 16
dad 16
I@@ 16
K@@ 16
follow 16
lesson 16
government 16
suit 16
an@@ 16
involved 16
am@@ 16
spoken 16
during 16
tr@@ 16
hardly 16
thirty 16
OK 16
mistakes 16
space 16
road 16
the@@ 16
cars 16
photo 16
Tokyo 16
pool 16
United 16
return 16
ze 16
finally 16
Australia 16
America 16
apple 16
travel 16
30 16
human 16
prepared 16
expected 16
twice 16
piece 16
across 16
lies 16
ti@@ 16
eggs 16
bet 16
missed 16
check 16
ashamed 16
danger 16
course 16
pen 16
disappointed 16
ates 16
ru@@ 16
worse 16
rock 16
00 16
asleep 16
vacation 16
Monday 16
speech 16
Sunday 16
video 16
Chinese 16
luck 16
e 16
guy 16
min@@ 16
i 16
worth 16
tri@@ 16
bread 16
sha@@ 16
pass 16
serious 16
details 14
cked 14
mis@@ 14
sky 14
enemy 14
seriously 14
according 14
rude 14
New 14
op@@ 14
fuck 14
medicine 14
wise 14
hurried 14
trust 14
wore 14
brought 14
fa@@ 14
ced 14
del@@ 14
report 14
greatest 14
received 14
patient 14
re 14
figure 14
novel 14
body 14
Ju@@ 14
warned 14
visited 14
bottle 14
thanks 14
decision 14
sh 14
shower 14
ster 14
letters 14
choose 14
zed 14
white 14
tea 14
end@@ 14
familiar 14
shed 14
difference 14
area 14
com@@ 14
suppose 14
teeth 14
helped 14
form 14
beginning 14
energy 14
boyfriend 14
tu@@ 14
weight 14
law 14
awake 14
laughing 14
efforts 14
costs 14
garden 14
ages 14
funny 14
le@@ 14
en 14
animals 14
responsible 14
explain 14
thirsty 14
avoid 14
painting 14
sounds 14
et@@ 14
sort 14
land 14
loss 14
filled 14
raining 14
pped 14
Friday 14
feet 14
grow 14
beach 14
Ah 14
har@@ 14
r 14
windows 14
held 14
ker 14
listening 14
silent 14
task 14
so@@ 14
or@@ 14
means 14
natural 14
charge 14
fishing 14
ay 14
shut 14
cks 14
reach 14
spent 14
fix 14
sa@@ 14
gh@@ 14
des 14
2@@ 14
unfortunately 14
ver 14
brown 14
succeeded 14
injured 14
forgive 14
pro@@ 14
passed 14
tall 14
ought 14
paid 14
shy 14
loves 14
newspaper 14
common 14
wi@@ 14
success 14
depends 14
painted 14
plenty 14
te 14
Jane 14
intelligent 14
wa@@ 14
along 14
se@@ 14
blue 14
upstairs 14
scared 14
quit 14
wing 14
following 14
trees 12
leaves 12
homework 12
certain 12
sell 12
mail 12
ners 12
double 12
minute 12
protect 12
York 12
meant 12
leg 12
chicken 12
taxi 12
back@@ 12
telephone 12
eight 12
movies 12
gen@@ 12
als 12
weeks 12
keeps 12
mate 12
ying 12
museum 12
wake 12
cu@@ 12
Spain 12
lake 12
borrow 12
impossible 12
ins 12
watched 12
exercise 12
list 12
ment 12
pri@@ 12
universe 12
dream 12
wedding 12
message 12
arrive 12
An@@ 12
bra@@ 12
project 12
ks 12
perhaps 12
forced 12
handle 12
faster 12
agreed 12
happening 12
grandmother 12
foods 12
cows 12
translate 12
per@@ 12
du@@ 12
refused 12
treated 12
lazy 12
qu@@ 12
fight 12
im@@ 12
hundred 12
side 12
ga@@ 12
ely 12
university 12
ches 12
prices 12
bi@@ 12
ex@@ 12
impressed 12
rent 12
sings 12
church 12
dra@@ 12
threw 12
street 12
power 12
stopped 12
upset 12
served 12
rea@@ 12
stri@@ 12
radio 12
market 12
several 12
reasons 12
sheep 12
drinking 12
ens 12
wonderful 12
worried 12
States 12
burst 12
alive 12
comfortable 12
wn 12
lend 12
growing 12
England 12
knife 12
ths 12
me@@ 12
says 12
kissed 12
ill 12
grandfather 12
ined 12
admire 12
size 12
lots 12
Internet 12
ils 12
idiot 12
lawyer 12
punctual 12
ter 12
fly 12
fortune 12
rules 12
mom 12
war 12
Americans 12
sub@@ 12
dly 12
ler 12
ours 12
accept 12
mel@@ 12
cting 12
theater 12
failed 12
ain 12
laughed 12
5 12
fear 12
ber 12
ang@@ 12
ren@@ 12
manager 12
apologize 12
starting 12
ies 12
honest 12
childhood 12
waste 12
ar@@ 12
boat 12
distance 12
Germany 12
touched 12
ns 12
matters 12
is@@ 12
ors 12
cause 12
games 12
cr@@ 12
animal 12
Al@@ 12
res 12
soul 12
drank 12
toys 12
par@@ 12
memory 12
mi@@ 12
worst 12
months 12
U@@ 12
admitted 12
promises 12
above 12
license 12
mu@@ 12
runs 12
/ 12
embarrassed 12
taller 12
pictures 12
singer 12
bright 12
warm 12
driver 12
hide 12
countries 12
kinds 12
perfect 12
cts 12
em@@ 12
pale 12
scene 12
ss 12
bother 12
talks 12
sold 12
ness 12
planet 12
system 10
wor@@ 10
ism 10
ters 10
selling 10
fied 10
within 10
rid 10
scientific 10
British 10
arrogant 10
Esperanto 10
article 10
kindness 10
though 10
ne@@ 10
desk 10
escape 10
toilet 10
sp@@ 10
harder 10
button 10
Hi 10
throw 10
returned 10
changing 10
beat 10
sti@@ 10
esti@@ 10
boo@@ 10
self 10
deserve 10
truck 10
consu@@ 10
mp@@ 10
skin 10
der@@ 10
everywhere 10
guard 10
elected 10
sho@@ 10
decide 10
ering 10
x 10
willing 10
fit 10
push 10
mood 10
flower 10
falling 10
ess 10
difficulty 10
players 10
iled 10
ats 10
fin@@ 10
ces 10
pt 10
Italy 10
normal 10
proud 10
J@@ 10
pping 10
proposal 10
goods 10
ched 10
il 10
lines 10
butter 10
interest 10
useful 10
oo@@ 10
patience 10
seven 10
teaching 10
favourite 10
subject 10
bite 10
plans 10
caused 10
candy 10
owes 10
secrets 10
hiding 10
pond 10
ine 10
meal 10
standing 10
fault 10
earthquake 10
fe@@ 10
nonsense 10
lay 10
convinced 10
innocent 10
add 10
ings 10
star 10
firm 10
parked 10
dy 10
opportunity 10
ned 10
walks 10
hi@@ 10
believed 10
happens 10
calm 10
math 10
ty 10
excited 10
autumn 10
ended 10
rains 10
improve 10
physical 10
ming 10
danced 10
contract 10
cal 10
determined 10
mad 10
policeman 10
bear 10
illness 10
cre@@ 10
rarely 10
smile 10
cally 10
tells 10
hole 10
pr@@ 10
smaller 10
Europe 10
bedroom 10
ce 10
data 10
support 10
huge 10
gold 10
de 10
president 10
oned 10
fi@@ 10
drop 10
cool 10
fu@@ 10
pushed 10
becoming 10
bird 10
share 10
friendly 10
smells 10
gotten 10
cheese 10
4 10
stories 10
parties 10
ities 10
beef 10
ahead 10
hu@@ 10
exam 10
due 10
ching 10
control 10
fully 10
results 10
state 10
offer 10
3 10
soldiers 10
color 10
losing 10
evidence 10
forever 10
bar 10
average 10
bank 10
traveling 10
anywhere 10
drinks 10
clearly 10
singing 10
bur@@ 10
blame 10
lied 10
nature 10
followed 10
chocolate 10
stopping 10
squirrels 10
zoo 10
11 10
bly 10
ator 10
salt 10
sat 10
listened 10
cards 10
ner 10
fool 10
ear@@ 10
Smith 10
paying 10
concert 10
tie 10
medi@@ 10
generation 10
appointment 10
boss 10
helps 10
Sa@@ 10
direct 10
succeed 10
sleepy 10
camera 10
magazine 10
ments 10
welcome 10
arrested 10
recognize 10
piggy 10
ic 10
upon 10
shi@@ 10
ction 10
clever 10
ke 10
go@@ 10
ent@@ 10
absolutely 10
fired 10
lonely 10
wears 10
round 10
suspect 10
deny 10
built 10
create 10
exhausted 10
stood 10
brothers 10
delicious 10
hammer 10
bs 10
20@@ 10
doors 10
Mi@@ 10
calling 10
mb@@ 10
ge@@ 10
soccer 10
likely 10
terribly 10
waited 10
war@@ 10
somebody 10
forgotten 8
ju@@ 8
solution 8
frankly 8
locked 8
cli@@ 8
scientists 8
0 8
lan@@ 8
mon@@ 8
sunny 8
per 8
rely 8
cruel 8
ward 8
ignore 8
effect 8
happiness 8
washed 8
kers 8
under@@ 8
egg 8
thousand 8
gathered 8
request 8
symbol 8
tion 8
kissing 8
picnic 8
aggressive 8
simple 8
hello 8
believes 8
weird 8
ining 8
China 8
hell 8
among 8
j@@ 8
horse 8
issue 8
spending 8
nu@@ 8
mer@@ 8
unless 8
password 8
society 8
boring 8
char@@ 8
behave 8
fallen 8
younger 8
moved 8
card 8
dis@@ 8
possibility 8
removed 8
ck@@ 8
cru@@ 8
captain 8
ci@@ 8
Russian 8
gonna 8
wind 8
Bob 8
giving 8
discount 8
ty@@ 8
ali@@ 8
sy 8
India 8
troubles 8
pleasure 8
ends 8
bottles 8
local 8
hom@@ 8
beauty 8
inter@@ 8
sixty 8
plane 8
sting 8
potatoes 8
musician 8
ir@@ 8
War 8
remind 8
lock 8
brea@@ 8
insurance 8
tre@@ 8
deeply 8
wide 8
terms 8
concerned 8
dry 8
Linda 8
ghosts 8
mess 8
Brazil 8
gra@@ 8
vi@@ 8
cinema 8
curtain 8
crisis 8
middle 8
count 8
increa@@ 8
eared 8
hero 8
weak 8
badly 8
yo@@ 8
keeping 8
afford 8
empty 8
feed 8
properly 8
brain 8
population 8
less@@ 8
punished 8
cousin 8
available 8
pla@@ 8
ge 8
slipped 8
position 8
hadn 8
bored 8
intended 8
eats 8
comment 8
rice 8
entered 8
he@@ 8
advantage 8
philosophy 8
plan@@ 8
yed 8
crossed 8
beating 8
valid 8
suggest 8
foreign 8
burned 8
reached 8
arms 8
wood 8
blind 8
wondering 8
songs 8
clock 8
flies 8
appearance 8
save 8
The 8
translations 8
shame 8
acted 8
sensitive 8
god 8
Susan 8
act 8
polite 8
slowly 8
grew 8
ered 8
sex 8
cated 8
temperature 8
wea@@ 8
T 8
healthy 8
doubts 8
awesome 8
permission 8
pie 8
pat@@ 8
postcard 8
gu@@ 8
holiday 8
vase 8
repaired 8
faith 8
rule 8
salad 8
promised 8
whale 8
imagine 8
lar 8
special 8
sad 8
rank 8
instead 8
tly 8
disa@@ 8
contributor 8
changes 8
breath 8
active 8
dishes 8
showed 8
dating 8
anger 8
ble@@ 8
hobby 8
regret 8
President 8
ugly 8
highly 8
ish 8
birds 8
solved 8
cy 8
ously 8
tive 8
drea@@ 8
ea@@ 8
clu@@ 8
paint 8
ged 8
ot@@ 8
headache 8
schedule 8
coward 8
objective 8
neighbors 8
prove 8
Se@@ 8
sport 8
aw@@ 8
ll 8
enter 8
brush 8
ety 8
sli@@ 8
political 8
opening 8
tongue 8
risk 8
European 8
draw 8
fo@@ 8
evolution 8
flat 8
passport 8
introduced 8
object 8
giant 8
1@@ 8
alcohol 8
ssing 8
comic 8
shelf 8
staying 8
knives 8
prepare 8
ho@@ 8
film 8
no@@ 8
voice 8
oranges 8
selfish 8
daughters 8
economy 8
book@@ 8
heat 8
engineers 8
cover 8
dressed 8
attacked 8
pressure 8
pants 8
guilty 8
London 8
related 8
ground 8
ability 8
green 8
ills 8
shou@@ 8
a.m 8
lights 8
sandwich 8
bas@@ 8
cancer 8
pack 8
created 8
poem 8
introduce 8
hon@@ 8
fucking 8
sports 8
evil 8
ice 8
packed 8
rang 8
committed 8
mathematics 8
higher 8
ship 8
belief 8
nose 8
ruined 8
sofa 8
crowd 8
cation 8
tru@@ 8
rise 8
spell 8
ff@@ 8
American 8
existence 8
judge 8
begin 8
Com@@ 8
Mar@@ 8
crush 8
cur@@ 8
ently 8
moon 8
jealous 8
vegetables 8
suddenly 8
Kate 8
twenty 8
ily 8
up@@ 8
princess 8
wee 8
skirt 8
condition 8
apart 8
- 8
hang 8
7 8
we@@ 8
entire 8
shar@@ 8
rights 8
don@@ 8
ges 8
phenomenon 8
8@@ 8
baseball 8
copies 8
sno@@ 8
thick 8
soft 8
ceremony 8
angles 8
ink 8
washing 8
hanging 8
guitar 8
step 8
guests 8
denied 8
sur@@ 8
sla@@ 8
refle@@ 8
failure 8
equal 8
spot 8
group 8
els 8
rumor 8
gre@@ 8
saved 8
spread 8
especially 8
winning 8
Mo@@ 8
airport 8
thy 8
raised 8
hun@@ 8
total 8
Jim 8
cs 8
pi@@ 8
ality 8
but@@ 6
here@@ 6
events 6
treat 6
online 6
cla@@ 6
puzzle 6
generally 6
raw 6
strangers 6
discussed 6
nor 6
addicted 6
definite 6
apartment 6
Yu@@ 6
197@@ 6
pul@@ 6
club 6
ed@@ 6
becomes 6
solid 6
Fran@@ 6
lion 6
modern 6
liking 6
rained 6
futon 6
scary 6
chess 6
cured 6
knock 6
guessed 6
mer 6
198@@ 6
jail 6
security 6
tear 6
reality 6
surprise 6
peanuts 6
appear 6
poison 6
nerve 6
hates 6
addressed 6
drove 6
saving 6
dro@@ 6
Nor@@ 6
stic 6
genius 6
gar@@ 6
lover 6
noise 6
tiny 6
toward 6
walking 6
ctive 6
Nancy 6
dered 6
bound 6
hypothesis 6
sons 6
rescued 6
chat 6
pardon 6
silly 6
Par@@ 6
feels 6
rug 6
ority 6
garage 6
cking 6
ian 6
taxes 6
praised 6
courage 6
warming 6
belong 6
laptop 6
itive 6
E@@ 6
app@@ 6
prom@@ 6
ky 6
itt@@ 6
blo@@ 6
om@@ 6
explained 6
postpone 6
destination 6
border 6
trunk 6
scissors 6
shorter 6
straight 6
notice 6
despise 6
exact 6
April 6
De@@ 6
roof 6
dri@@ 6
deprived 6
proposed 6
blanket 6
stolen 6
search 6
science 6
artificial 6
cab 6
duty 6
concern 6
nap 6
ba@@ 6
bigger 6
repair 6
slip 6
Atomic 6
eless 6
ia 6
recently 6
decl@@ 6
humor 6
inv@@ 6
super 6
ver@@ 6
effective 6
polit@@ 6
swear 6
stan@@ 6
statue 6
foun@@ 6
resistance 6
fighting 6
tent 6
storm 6
timid 6
dropped 6
cot@@ 6
oil 6
nuts 6
deserves 6
added 6
abundance 6
ssed 6
trapped 6
cious 6
complex 6
obviously 6
volunteered 6
gift 6
eng@@ 6
leg@@ 6
In@@ 6
explanation 6
poured 6
l 6
loud 6
furniture 6
field 6
construction 6
entirely 6
larger 6
rose 6
accu@@ 6
accent 6
teachers 6
ics 6
10@@ 6
insan@@ 6
rough 6
pp@@ 6
pizza 6
increased 6
itted 6
perfectly 6
iling 6
Au@@ 6
Tower 6
chosen 6
gentleman 6
imagination 6
admit 6
un 6
Ho@@ 6
gold@@ 6
Gre@@ 6
stranger 6
fro@@ 6
poet 6
begins 6
crime 6
cheer 6
decor@@ 6
requires 6
tunnel 6
earlier 6
authority 6
virus 6
pickpockets 6
ol@@ 6
Union 6
command 6
sour 6
pleasant 6
service 6
est@@ 6
rate 6
disgusting 6
gradu@@ 6
discovered 6
easier 6
meals 6
Australian 6
ow 6
kid 6
Grand@@ 6
established 6
race 6
hand@@ 6
determination 6
ical 6
houses 6
heroin 6
celebr@@ 6
closely 6
grandma 6
stepped 6
director 6
tallest 6
whichever 6
handed 6
wherever 6
complaints 6
fil@@ 6
mag@@ 6
further 6
endure 6
respond 6
bl@@ 6
gation 6
repeat 6
warrior 6
perseverance 6
ag@@ 6
wasting 6
bone 6
gotta 6
engagement 6
architect 6
salary 6
illegal 6
goodbye 6
managed 6
cure 6
provi@@ 6
proper 6
cheating 6
resist 6
celebrate 6
tal@@ 6
impact 6
duck 6
answered 6
fl@@ 6
mammal 6
crap 6
survivors 6
series 6
rooms 6
conduct 6
cor@@ 6
plu@@ 6
studied 6
advanced 6
status 6
seventy 6
classes 6
colle@@ 6
products 6
Nations 6
iron 6
recommend 6
faults 6
cookies 6
ven 6
pan@@ 6
ni@@ 6
mature 6
poems 6
concentrate 6
crea@@ 6
ve@@ 6
manual 6
activity 6
income 6
barking 6
loses 6
express 6
gs 6
entrance 6
na@@ 6
apologized 6
Canada 6
level 6
victory 6
friendship 6
bug 6
error 6
forecast 6
link 6
rum@@ 6
wer 6
pencil 6
spends 6
wat@@ 6
meat 6
direction 6
misunderstanding 6
ce@@ 6
ped 6
ws 6
options 6
strength 6
photos 6
oun@@ 6
her@@ 6
citizens 6
practical 6
lack 6
contrary 6
itself 6
demanded 6
supp@@ 6
arm 6
drowned 6
lifetime 6
bil@@ 6
assume 6
joke 6
liters 6
foot 6
mor@@ 6
examination 6
professor 6
pon@@ 6
mechan@@ 6
f 6
dar@@ 6
clouds 6
cleaned 6
hung 6
Columbus 6
term 6
fond 6
pregnant 6
professional 6
ines 6
cate 6
remar@@ 6
ble 6
daily 6
mar@@ 6
website 6
def@@ 6
criminal 6
picked 6
intend 6
minimum 6
global 6
ter@@ 6
No@@ 6
sw@@ 6
oes 6
odd 6
rabbits 6
vers 6
ignored 6
fluent 6
D 6
Pro@@ 6
ounded 6
mouth 6
supported 6
native 6
eighteen 6
main 6
sis 6
magazines 6
cash 6
cent 6
sta@@ 6
trusted 6
disgu@@ 6
amazing 6
sion 6
nearly 6
realized 6
ys 6
cist 6
regularly 6
covered 6
orange 6
honey 6
certainly 6
cream 6
confu@@ 6
safety 6
requ@@ 6
coun@@ 6
barely 6
whi@@ 6
materi@@ 6
appetite 6
mistaken 6
sitting 6
nations 6
writer 6
culture 6
congratulations 6
jud@@ 6
dd@@ 6
sudden 6
shine 6
practi@@ 6
crossing 6
themselves 6
medal 6
accepted 6
mistook 6
damaged 6
faithful 6
credit 6
anxious 6
carefully 6
belongs 6
complicated 6
apples 6
borrowed 6
aunt 6
text 6
itting 6
stuff 6
ordered 6
ma 6
tom@@ 6
suicide 6
forbidden 6
shock 6
2013 6
smell 6
ocean 6
century 6
ited 6
gay 6
remain 6
dete@@ 6
officer 6
sk@@ 6
remained 6
9 6
survive 6
vable 6
heavily 6
spider 6
Thomas 6
crashed 6
mit 6
dirty 6
stone 6
guide 6
disor@@ 6
calls 6
rocks 6
argu@@ 6
supermarket 6
gas 6
football 6
dentist 6
fair 6
finger 6
Latin 6
plain 6
aside 6
King 6
Mil@@ 6
dried 6
shit 6
Paul 6
Lu@@ 6
Mat@@ 6
mercy 6
jack 6
prevented 6
bags 6
pollution 6
countryside 6
shopping 6
This 6
besides 6
master 6
um 6
international 6
Italian 6
stronger 6
tickets 6
sweet 6
handsome 6
wheel 6
flying 6
alternative 6
path 6
el 6
resi@@ 6
instructions 6
member 6
planning 6
ab@@ 6
lately 6
habit 6
rush 6
downtown 6
hoping 6
musical 6
painful 6
warn 6
approve 6
trou@@ 6
understanding 6
tea@@ 6
v@@ 6
,000 6
lying 6
cafeteria 6
phones 6
aimed 6
target 6
acid 6
reads 6
ouse 6
fre@@ 6
correctly 6
result 6
ants 6
wealthy 6
dle 6
geniuses 6
smiling 6
pills 6
wed 6
precious 6
poverty 6
Sun 6
yourselves 6
desire 6
persuade 6
pot 6
kno@@ 6
miracle 6
whom 6
shes 6
nearest 6
machine 6
gi@@ 6
battle 6
major 6
role 6
taught 6
ten@@ 6
site 6
ral 6
weapon 6
decei@@ 6
enjoys 6
ook 6
M 6
beaten 6
kes 6
doubt 6
rob@@ 6
lady 6
faces 6
zero 6
ank 6
exchange 6
lovely 6
den@@ 6
everyday 6
ight 6
ropes 6
gg@@ 6
laid 6
occasion 6
skinny 6
jeans 6
equ@@ 6
scholar 6
eness 6
independent 6
thief 6
dear 6
Kyoto 6
private 6
necessarily 6
environment 6
bal@@ 6
thunder 6
ending 6
ddle 6
majority 6
eventually 6
Algeria 6
resources 6
.@@ 6
type 6
departure 6
letting 6
match 6
workers 6
fuel 6
conversation 6
wisdom 6
crit@@ 6
ow@@ 6
psychic 6
Repetition 6
attack 6
thousands 6
chair 6
sen@@ 6
studies 6
streets 6
stock 6
challenge 6
ging 6
responsibility 6
bru@@ 6
third 6
unknown 6
shaking 6
stick 6
bees 6
Be@@ 6
elect 6
band 6
sisters 6
ur@@ 6
worn 6
subway 6
disap@@ 6
ably 6
ha 6
ceiling 6
cing 6
ping 6
logical 6
hur@@ 6
ence 6
ric 6
justice 6
product 6
ft 6
predi@@ 6
complaining 6
tiger 6
fashi@@ 4
itches 4
spare 4
sil@@ 4
cloud 4
unlikely 4
dit@@ 4
rays 4
partially 4
blin@@ 4
harvest 4
compu@@ 4
Invite 4
onto 4
moving 4
required 4
edu@@ 4
tional 4
vain 4
rifle 4
insist@@ 4
neither 4
discovery 4
finite 4
rented 4
compelled 4
Mis@@ 4
ank@@ 4
thly 4
US 4
occurred 4
swi@@ 4
squirrel 4
honeymoon 4
free@@ 4
ambulance 4
jacket 4
athy 4
rubbish 4
far@@ 4
Kobe 4
costume 4
difficulties 4
whites 4
ff 4
damage 4
horrible 4
ghty 4
whenever 4
hal@@ 4
handful 4
300 4
contribute 4
quent 4
Cairo 4
pianist 4
trans@@ 4
lated 4
extremely 4
sheer 4
madness 4
wanting 4
ingenious 4
flat@@ 4
Hu@@ 4
mmer 4
ultimate 4
grab 4
wee@@ 4
wet 4
pull 4
arti@@ 4
kin@@ 4
cried 4
opera 4
attitude 4
violin 4
Mike 4
chairperson 4
happier 4
unemployed 4
manner 4
expectations 4
smoo@@ 4
instru@@ 4
textbook 4
exam@@ 4
volunte@@ 4
north 4
digital 4
wrapped 4
heavens 4
except 4
Y2K 4
hiking 4
hair@@ 4
style 4
meanings 4
agre@@ 4
high@@ 4
ley 4
puts 4
buying 4
dresses 4
funds 4
complain 4
ss@@ 4
appears 4
car@@ 4
tor@@ 4
ise 4
Ken 4
Sun@@ 4
Droplets 4
plural 4
exc@@ 4
spo@@ 4
br@@ 4
marketing 4
humiliated 4
cho@@ 4
fate 4
devil 4
map 4
cross 4
fertiliz@@ 4
visible 4
microscope 4
poor@@ 4
corpus 4
copy@@ 4
che@@ 4
headed 4
action 4
four@@ 4
November 4
even@@ 4
ember 4
blowing 4
witness 4
envy 4
meaning 4
knowledge 4
cket 4
speciali@@ 4
wool 4
searching 4
politician 4
champagne 4
May 4
5@@ 4
emergency 4
Hey 4
Du@@ 4
rel@@ 4
issues 4
ware 4
biggest 4
fresh 4
dai@@ 4
salted 4
sto@@ 4
memorize 4
sacred 4
errors 4
mostly 4
ties 4
peaceful 4
pick 4
urgent 4
diagno@@ 4
press 4
relea@@ 4
absurd 4
shocked 4
teenagers 4
itate 4
swinging 4
weigh 4
poun@@ 4
ny 4
teenager 4
wasted 4
steps 4
mention 4
dity 4
hall 4
proved 4
center 4
World 4
Anne 4
Green 4
distributed 4
lish 4
tetanus 4
atta@@ 4
nasty 4
fellow 4
assure 4
hated 4
uneasy 4
presence 4
property 4
ste 4
ancho@@ 4
seldom 4
orders 4
toned 4
gged 4
punishment 4
chapter 4
produced 4
cabb@@ 4
witne@@ 4
tiv@@ 4
urged 4
bene@@ 4
shoulder 4
forgetting 4
sing@@ 4
outer 4
pretend 4
prof@@ 4
ately 4
detailed 4
bow@@ 4
bath 4
towards 4
pieces 4
sale 4
disappeared 4
amused 4
rewar@@ 4
experiences 4
consi@@ 4
dering 4
narrow 4
fried 4
overlooked 4
ened 4
absolute 4
Sou@@ 4
Christi@@ 4
ences 4
shoot 4
Jo@@ 4
iny 4
tered 4
greatly 4
lest 4
Osaka 4
sweep 4
answers 4
dolls 4
hy@@ 4
dr@@ 4
seconds 4
han@@ 4
oke 4
heart@@ 4
burn 4
191@@ 4
ilor 4
Eiffel 4
invention 4
welling 4
grass 4
bare 4
awoke 4
pl@@ 4
ordering 4
travel@@ 4
blankets 4
zi@@ 4
pho@@ 4
follows 4
paintings 4
ironed 4
differences 4
alternatives 4
devastated 4
ghts 4
corner 4
fluently 4
bananas 4
scientist 4
et 4
col@@ 4
Helen 4
eller 4
deaf 4
dumb 4
ef@@ 4
anyway 4
softly 4
arrogance 4
suffer@@ 4
Researchers 4
square 4
dea@@ 4
Portu@@ 4
wall 4
woods 4
tering 4
poisonous 4
proof 4
supportive 4
drawing 4
es@@ 4
pulses 4
pocket 4
sses 4
athe@@ 4
ist 4
shoe 4
appro@@ 4
accustomed 4
Tur@@ 4
sun@@ 4
seeds 4
benefits 4
too@@ 4
confidence 4
admired 4
Pythagoras 4
Magic 4
numbers 4
mot@@ 4
comfort 4
affli@@ 4
torrents 4
sympathize 4
100 4
degrees 4
grade 4
pigeons 4
examined 4
fif@@ 4
misery 4
meets 4
soldering 4
components 4
appointed 4
improved 4
foot@@ 4
prints 4
prisoner 4
White 4
sweaty 4
asking 4
repla@@ 4
cement 4
butter@@ 4
diplom@@ 4
irregular 4
mere 4
lap 4
iting 4
barks 4
tail 4
separatists 4
kidding 4
applying 4
cal@@ 4
defeated 4
suitcase 4
explo@@ 4
rers 4
ing@@ 4
toy 4
rol@@ 4
motion@@ 4
clo@@ 4
bush 4
obey 4
stare 4
fol@@ 4
nine 4
supplies 4
civil 4
sow 4
measure 4
eye@@ 4
leaf 4
cau@@ 4
operate 4
foo@@ 4
res@@ 4
passing 4
alistic 4
curiosity 4
inspired 4
career 4
seas@@ 4
class@@ 4
mates 4
robot 4
arriving 4
sea@@ 4
replace 4
pin 4
countless 4
method 4
patent 4
strugg@@ 4
ease 4
emplo@@ 4
lun@@ 4
acceptable 4
bran@@ 4
buil@@ 4
chea@@ 4
deci@@ 4
leather 4
dge 4
compromise 4
fake 4
colours 4
serva@@ 4
tives 4
anged 4
praise 4
management 4
threatened 4
force 4
intelligence 4
theatre 4
Mondays 4
characters 4
coins 4
Har@@ 4
athlete 4
1 4
anci@@ 4
perate 4
desp@@ 4
sharp 4
mystery 4
author 4
teen 4
p.@@ 4
refu@@ 4
of@@ 4
sake 4
My@@ 4
L 4
load@@ 4
auth@@ 4
deciding 4
athletic 4
pal 4
attr@@ 4
Wi@@ 4
pe 4
valuable 4
handled 4
disco@@ 4
regarded 4
messed 4
chain 4
smo@@ 4
cancel@@ 4
bes 4
Turkey 4
neighbor 4
nowhere 4
obliged 4
mea@@ 4
sir 4
Chile 4
mountains 4
murder 4
places 4
dialect 4
divorced 4
closest 4
miles 4
quali@@ 4
risked 4
stacked 4
pleasures 4
fog 4
Ear@@ 4
customers 4
trade 4
vent 4
cat@@ 4
bel@@ 4
Pr@@ 4
Achieving 4
weld 4
bead 4
insul@@ 4
alibi 4
favorable 4
Pal@@ 4
congratulate 4
alert 4
mpl@@ 4
biting 4
nails 4
smarter 4
cheated 4
translation 4
tourists 4
off@@ 4
standards 4
argue 4
human@@ 4
sm@@ 4
aid 4
ented 4
ient 4
ideas 4
advertising 4
video@@ 4
ell 4
wrinkled 4
smashed 4
Hungarian 4
sprang 4
200@@ 4
counting 4
deli@@ 4
blu@@ 4
6@@ 4
multilingu@@ 4
alism 4
encourage 4
â€‹ 4
tool 4
community 4
appreci@@ 4
ancestors 4
150 4
ie 4
communism 4
some@@ 4
2.@@ 4
bullet 4
mark 4
castle 4
spectators 4
charges 4
uncomfortable 4
win@@ 4
imp@@ 4
coo@@ 4
cultures 4
spite 4
da@@ 4
joy 4
( 4
) 4
sharpen 4
divorce 4
lets 4
Christopher 4
general 4
customs 4
fucked 4
ass 4
shaken 4
barbecue 4
swee@@ 4
lemons 4
4@@ 4
dun@@ 4
habits 4
cul@@ 4
wanna 4
Whoever 4
fairly 4
taste 4
War@@ 4
craft 4
value 4
Ala@@ 4
crutches 4
bleeding 4
Unbelievable 4
At@@ 4
announ@@ 4
repor@@ 4
recent 4
Bar@@ 4
ack 4
fee@@ 4
grow@@ 4
developed 4
virgin 4
fed 4
escaped 4
geous 4
comments 4
twelve 4
climb 4
fridge 4
sei@@ 4
genuine 4
diamond 4
Bu@@ 4
root 4
located 4
sor@@ 4
sphere 4
residential 4
fs 4
ah 4
den 4
behavior 4
toothache 4
college 4
flash@@ 4
diplomat 4
confiscated 4
Peter 4
player 4
personal 4
profit 4
scolded 4
wha@@ 4
40 4
expecting 4
hardest 4
gunshot 4
carried 4
speaker 4
sna@@ 4
illed 4
leader 4
power@@ 4
settled 4
pharma@@ 4
recommended 4
necess@@ 4
super@@ 4
flu@@ 4
distant 4
causes 4
injury 4
acci@@ 4
diseases 4
liver 4
scri@@ 4
beauti@@ 4
wav@@ 4
flight 4
oper@@ 4
arguing 4
false 4
vacations 4
harm 4
exp@@ 4
Mayuko 4
decent 4
van@@ 4
pain@@ 4
ill@@ 4
hor@@ 4
revenge 4
sted 4
val@@ 4
edi@@ 4
ct@@ 4
ori@@ 4
retarded 4
conf@@ 4
torture 4
star@@ 4
steak 4
encounter 4
laugh 4
vital 4
Indeed 4
pres@@ 4
cri@@ 4
birth 4
pill 4
loan 4
hol@@ 4
scarf 4
volcan@@ 4
earthquakes 4
bitter 4
advertisements 4
vote 4
spee@@ 4
flavor 4
texting 4
content 4
Charles 4
bliss 4
Go@@ 4
puzz@@ 4
separate 4
Israel 4
id 4
ested 4
shu@@ 4
focu@@ 4
productive 4
Ti@@ 4
devoted 4
spla@@ 4
describe 4
cial 4
discharged 4
unfor@@ 4
conspiracy 4
resti@@ 4
educated 4
separ@@ 4
cares 4
Cleopatra 4
slee@@ 4
effects 4
halfway 4
thering 4
bre@@ 4
Ara@@ 4
tour 4
cities 4
dish@@ 4
shor@@ 4
appealed 4
effort 4
However 4
mini@@ 4
practicing 4
permit 4
discover 4
honesty 4
skipped 4
classroom 4
percent 4
millionaire 4
spicy 4
forgiven 4
breasts 4
buttocks 4
Marie 4
aby@@ 4
event 4
volu@@ 4
insulting 4
assaul@@ 4
surr@@ 4
Mennad 4
recipe 4
instant 4
access 4
distur@@ 4
breaking 4
regi@@ 4
Africa 4
carri@@ 4
Hit@@ 4
liber@@ 4
tempted 4
urinating 4
areas 4
debt 4
bled 4
ees 4
Moscow 4
operation 4
Fa@@ 4
ther 4
helpful 4
horrified 4
various 4
trap 4
disobeyed 4
ior 4
tire 4
jumped 4
finger@@ 4
yellow 4
Jones 4
note 4
fix@@ 4
ture 4
weighs 4
assistant 4
Ne@@ 4
lian 4
eighty 4
dessert 4
bath@@ 4
chunks 4
grapes 4
goo@@ 4
ey 4
cky 4
ut 4
marshmallows 4
laughter 4
suffered 4
female 4
bars 4
Year 4
wr@@ 4
ites 4
ries 4
hid 4
Pen@@ 4
benefit 4
based 4
actu@@ 4
ari@@ 4
assumptions 4
posted 4
corrected 4
YouTube 4
temptation 4
ure 4
personality 4
Saturday 4
needn 4
differs 4
aspir@@ 4
thro@@ 4
ddly 4
spy 4
read@@ 4
skip 4
deep 4
court 4
ite 4
abstract 4
USA 4
moral 4
us@@ 4
dieting 4
quid 4
beings 4
jogging 4
deri@@ 4
Royal 4
ctly 4
observe 4
sacrifices 4
accompli@@ 4
tendency 4
deser@@ 4
flags 4
quar@@ 4
explode 4
8 4
technology 4
Egyptian 4
pyramids 4
Alger@@ 4
deceptive 4
ple 4
threat 4
anks 4
sink 4
bbed 4
garlic 4
instantly 4
labor 4
betray 4
gambling 4
USB 4
roast 4
And 4
morgue 4
pretended 4
throne 4
mum 4
impatient 4
relieved 4
gement 4
services 4
risks 4
contented 4
secretary 4
loop 4
wars 4
blonde 4
University 4
consequences 4
bygones 4
relation@@ 4
breaks 4
len@@ 4
chose 4
presenta@@ 4
complaint 4
internet 4
Apparently 4
Yokohama 4
organized 4
pis@@ 4
ung 4
Char@@ 4
fle@@ 4
LO@@ 4
proposes 4
turns 4
surgery 4
stalling 4
regard 4
original 4
balls 4
tight 4
rational 4
brave 4
distinguish 4
enormous 4
foss@@ 4
gues 4
ligh@@ 4
success@@ 4
someday 4
Mon@@ 4
wers 4
iner 4
winds 4
suitable 4
downstairs 4
stamp 4
luggage 4
paycheck 4
knees 4
pronounce 4
companions 4
attend 4
trusting 4
span 4
confli@@ 4
setbacks 4
abandoned 4
victim 4
dings 4
Jav@@ 4
RI@@ 4
beard 4
automobile 4
rescue 4
mastered 4
keeper 4
wider 4
audience 4
chairs 4
advance 4
movement 4
permanent 4
peace 4
sorrow 4
whis@@ 4
moves 4
cloudy 4
noon 4
hood 4
Ste@@ 4
ele@@ 4
choo@@ 4
yen 4
dan@@ 4
emer@@ 4
screa@@ 4
financial 4
adviser 4
artist 4
hunch 4
eter 4
ference 4
Arabic 4
nickname 4
concentr@@ 4
plant 4
desig@@ 4
preserve 4
trumpet 4
hits 4
nail 4
awkward 4
grounds 4
revolution 4
seasons 4
behaving 4
skiing 4
notebook 4
Pee@@ 4
rainbow 4
pes 4
pronunciation 4
ke@@ 4
previous 4
plea@@ 4
mat@@ 4
fer 4
ax 4
experienced 4
aching 4
ph@@ 4
thus 4
joking 4
staring 4
av@@ 4
lea@@ 4
wreck 4
quarter 4
speeding 4
leaped 4
foreig@@ 4
naive 4
neighborhood 4
eager 4
negoti@@ 4
ations 4
purpose 4
abducted 4
cer 4
ard 4
ld@@ 4
intention 4
lions 4
scratching 4
extra 4
lowing 4
leisure 4
urges 4
Cro@@ 4
sus 4
zen 4
forehead 4
Maria 4
main@@ 4
shooting 4
ordinary 4
ghost 4
board 4
leftovers 4
refre@@ 4
ste@@ 4
reliable 4
slain 4
hilltop 4
expenses 4
ee 4
prettiest 4
rings 4
travels 4
bom@@ 4
factory 4
culate 4
capital 4
omi 4
cancel 4
tack 4
founded 4
social 4
ji 4
affairs 4
rare 4
curious 4
giants 4
Ko@@ 4
tou@@ 4
load 4
crowded 4
swal@@ 4
blow 4
Sh@@ 4
fr@@ 4
fries 4
Jim@@ 4
bunch 4
widow 4
expi@@ 4
ban@@ 4
sel@@ 4
ls 4
ender 4
loving 4
ara 4
vering 4
bloody 4
seemed 4
Chopin 4
treats 4
allows 4
sank 4
stomach 4
embarrassing 4
att@@ 4
ition 4
improving 4
expressions 4
subje@@ 4
heels 4
opposite 4
invol@@ 4
remo@@ 4
bearing 4
violent 4
anta 4
avo@@ 4
composed 4
critical 4
inclu@@ 4
software 4
ambition 4
ferred 4
clap 4
endings 4
sandwiches 4
example 4
ery 4
circumstances 4
hearing 4
tism 4
favor 4
defeat 4
soldier 4
bra 4
transported 4
hel@@ 4
anno@@ 4
rage 4
occur 4
swam 4
man@@ 4
Bur@@ 4
batter@@ 4
thirteen 4
ians 4
mists 4
Germans 4
hen 4
closet 4
ade 4
tro@@ 4
wolf 4
impression 4
Bye 4
jokes 4
lat@@ 4
immediate 4
freak 4
page 4
wel 4
cracy 4
remin@@ 4
Central 4
monkey 4
logy 4
offended 4
dreams 4
explosion 4
aware 4
reti@@ 4
disagree 4
happiest 4
electricity 4
bel 4
arse 4
sounding 4
practice 4
talent 4
dness 4
sers 4
WhatsApp 4
Group 4
Con@@ 4
clusterfuck 4
discuss 4
enjoyed 4
bridge 4
communication 4
joined 4
neck 4
absor@@ 4
jo@@ 4
See 4
18@@ 4
60 4
opinions 4
Ito 4
relief 4
sive 4
jobs 4
brings 4
bastard 4
ion 4
sters 4
June 4
temper 4
tune 4
Su@@ 4
relaxed 4
ons 4
pur@@ 4
model 4
saf@@ 4
immortal 4
dreaming 4
midnight 4
exit 4
beg@@ 4
retired 4
destro@@ 4
translat@@ 4
tan@@ 4
Canadi@@ 4
pump 4
contain 4
diet 4
unhealthy 4
resourceful 4
saint 4
religion 4
beyond 4
jellyfish 4
thed 4
gh 4
beginners 4
uniforms 4
swe@@ 4
slid 4
Tanaka 4
rep@@ 4
Fill 4
invincible 4
pic@@ 4
thence 4
wound 4
tends 4
bowed 4
spir@@ 4
manage 4
Di@@ 4
forty 4
Que@@ 4
nam@@ 4
Pre@@ 4
theless 4
sp 4
lings 4
Car@@ 4
image 4
discourage 4
ious 4
debate 4
survival 4
capture 4
uni@@ 4
15 4
bul@@ 4
cel@@ 4
forest 4
glory 4
blocked 4
contin@@ 4
frightened 4
character 4
wil@@ 4
delayed 4
playground 4
receive 4
Ch@@ 4
nel 4
Hen@@ 4
blackboard 4
pretending 4
beggars 4
hill 4
spin@@ 4
aggression 4
disliked 4
socks 4
loo@@ 4
charged 4
hers 4
stru@@ 4
jury 4
ince 4
steering 4
essay 4
dust 4
arrest 4
bla@@ 4
suffer 4
BC 4
je@@ 4
southern 4
refuse 4
tw@@ 4
eleph@@ 4
Ank@@ 4
interests 4
ets 4
beans 4
sciences 4
amount 4
farm 4
dges 4
ative 4
zing 4
V@@ 4
paused 4
smiled 4
section 4
wild@@ 4
iti@@ 4
conclusions 4
collected 4
soa@@ 4
pressed 4
ignorance 4
abuse 4
bounce 4
Mars 4
alty 4
visit@@ 4
asks 4
mated 4
blog 4
stu@@ 4
gener@@ 4
mony 4
tattoo 4
reduced 4
betrayed 4
knocked 4
logist 4
relevant 4
morous 4
drawings 4
actor 4
horror 4
noti@@ 4
vegetari@@ 4
recognized 4
rope 4
International 4
ner@@ 4
gency 4
punctu@@ 4
claims 4
diary 4
can@@ 4
sunscreen 4
ues 4
h 4
freedom 4
part@@ 4
ou@@ 4
trag@@ 4
ounds 4
recovery 4
sou@@ 4
arrives 4
Capitalism 4
alphabet 4
Catholic 4
constantly 4
circu@@ 4
shows 4
defe@@ 4
particip@@ 4
ama@@ 4
ement 4
neigh@@ 4
Akag@@ 4
surprising 4
happ@@ 4
comman@@ 4
tal 4
attracted 4
surface 4
infor@@ 4
sits 4
perspective 4
fail 4
ones 4
mes 4
trem@@ 4
ology 4
island 4
liar 4
ater 4
Venus 4
respected 4
sends 4
objects 4
bicycles 4
toe 4
hurts 4
hire 4
Olympic 4
easiest 4
ton 4
ood 4
dwar@@ 4
adapt 4
environmental 4
dumber 4
sian 4
presidential 4
ach 4
carrying 4
spu@@ 4
ger 4
oldest 4
waist 4
ast 4
une@@ 4
eeny 4
meeny 4
miny 4
moe 4
skilled 4
okay 4
Tony 4
marvelous 4
pox 4
gla@@ 4
beside 4
aboard 4
providing 4
Tha@@ 4
ckers 4
ambitious 4
essential 4
igno@@ 4
views 4
banana 4
advise 4
conference 4
ao@@ 4
printed 4
arrival 4
lead 4
pen@@ 4
baked 4
ttery 4
naked 4
pint 4
hen@@ 2
tons 2
asc@@ 2
criti@@ 2
relax@@ 2
ssi@@ 2
ester@@ 2
messages 2
temp@@ 2
inde@@ 2
kio 2
hima 2
andrange 2
Ã§ois 2
gons 2
servant 2
pretti@@ 2
obs@@ 2
sai@@ 2
pirate 2
alloween 2
net@@ 2
journal 2
au@@ 2
yuan 2
occu@@ 2
ooker 2
allas 2
guides 2
source 2
inspiration 2
limousines 2
conspi@@ 2
vident 2
couples 2
assu@@ 2
ba 2
mur@@ 2
rela@@ 2
analo@@ 2
compla@@ 2
Jack@@ 2
metho@@ 2
ini@@ 2
biologi@@ 2
signifi@@ 2
cro@@ 2
nel@@ 2
distan@@ 2
civili@@ 2
sinfectants 2
milia 2
inent 2
interru@@ 2
proving 2
Ger@@ 2
righ@@ 2
gar 2
influence 2
ex 2
anu@@ 2
twel@@ 2
exi@@ 2
wel@@ 2
pical 2
soci@@ 2
sear@@ 2
ckets 2
blin 2
hard@@ 2
pow@@ 2
ticip@@ 2
evin 2
ash 2
noun@@ 2
yel@@ 2
pneu@@ 2
prote@@ 2
issu@@ 2
ican 2
rapp@@ 2
pend@@ 2
weigh@@ 2
absur@@ 2
te@@ 2
mug 2
campus 2
ables 2
Po@@ 2
vot@@ 2
semi 2
world@@ 2
choir 2
vies 2
suc@@ 2
stron@@ 2
verse 2
cir@@ 2
cle 2
para@@ 2
divers@@ 2
ath 2
snob 2
son@@ 2
industrialis@@ 2
lig@@ 2
tit@@ 2
oxyg@@ 2
esp@@ 2
Z@@ 2
thern 2
irs 2
ide@@ 2
Ar@@ 2
gent@@ 2
ina 2
mm 2
dau@@ 2
bad@@ 2
ful@@ 2
opkins 2
z 2
eichelt 2
jump@@ 2
parachute 2
races 2
igh@@ 2
she@@ 2
pra@@ 2
types 2
bin@@ 2
dden 2
andra 2
gro@@ 2
documents 2
suspe@@ 2
thou@@ 2
jel@@ 2
bac@@ 2
teria 2
sol@@ 2
patio 2
ly@@ 2
So@@ 2
lap@@ 2
monade 2
gal 2
selfie 2
tre 2
was@@ 2
rumin@@ 2
electri@@ 2
colonies 2
sensible 2
ker@@ 2
ief 2
chem@@ 2
H 2
hydrog@@ 2
anti@@ 2
phon 2
kawa 2
sins 2
fon@@ 2
inci@@ 2
dence 2
tat@@ 2
communi@@ 2
sign@@ 2
my@@ 2
centi@@ 2
physi@@ 2
doo@@ 2
patients 2
SMS 2
tale 2
SM@@ 2
int 2
beha@@ 2
foo 2
net 2
our@@ 2
Fren@@ 2
conju@@ 2
Ã©a 2
resour@@ 2
navi@@ 2
lon@@ 2
iness 2
pointed 2
list@@ 2
ards 2
erra@@ 2
haramp 2
hanksgiving 2
sal@@ 2
custom@@ 2
thermostat 2
ja@@ 2
bor@@ 2
dise 2
indu@@ 2
musici@@ 2
arri@@ 2
union 2
ski 2
flav@@ 2
fic 2
cean 2
positive 2
cable 2
yal 2
dynami@@ 2
interaction 2
bin 2
eagan 2
ambassad@@ 2
pir@@ 2
des@@ 2
promis@@ 2
dom 2
vision 2
u 2
Q@@ 2
tables 2
lejandra 2
danger@@ 2
pages 2
bar@@ 2
sants 2
second@@ 2
aug@@ 2
pass@@ 2
ports 2
descri@@ 2
cocktail 2
sures 2
aven@@ 2
conditi@@ 2
fal@@ 2
sely 2
poker 2
photosyn@@ 2
exception 2
text@@ 2
strat@@ 2
eg@@ 2
ead 2
incess 2
tact 2
aza 2
tsunami 2
produ@@ 2
rou@@ 2
Brit@@ 2
maged 2
propri@@ 2
conven@@ 2
scan@@ 2
dal 2
fatal 2
sin@@ 2
condol@@ 2
ency 2
bro@@ 2
imag@@ 2
ptem@@ 2
itage 2
melon 2
ai@@ 2
claustropho@@ 2
bic 2
ng 2
kara@@ 2
Hon@@ 2
hang@@ 2
Europe@@ 2
pure 2
ken 2
ale 2
tem@@ 2
flo@@ 2
ctures 2
lement 2
dist@@ 2
religi@@ 2
contact 2
sadi@@ 2
masochi@@ 2
black@@ 2
vague 2
mal 2
toi@@ 2
touch@@ 2
dant 2
file 2
ydney 2
Dis@@ 2
til@@ 2
contribu@@ 2
advers@@ 2
ska 2
compli@@ 2
rai@@ 2
faul@@ 2
La 2
tampa 2
bama 2
Euro@@ 2
zone 2
fluctu@@ 2
presen@@ 2
coura@@ 2
num@@ 2
plain@@ 2
ceed 2
lit@@ 2
offen@@ 2
ddhi@@ 2
salon 2
invitation 2
pared 2
anque 2
belie@@ 2
mosqu@@ 2
cast@@ 2
partment 2
congratu@@ 2
altru@@ 2
ems 2
contribut@@ 2
ject 2
inno@@ 2
cence 2
bigot 2
ose 2
diagon@@ 2
repe@@ 2
ami@@ 2
pression 2
activ@@ 2
dents 2
violence 2
cirrho@@ 2
sque 2
ane 2
spr@@ 2
ink@@ 2
purification 2
wards 2
fluores@@ 2
elled 2
incorrigible 2
possibil@@ 2
agasaki 2
discrimin@@ 2
ption 2
angle 2
stes 2
ests 2
cigarettes 2
bed@@ 2
ye 2
row 2
boy@@ 2
olives 2
harv@@ 2
ear 2
collisions 2
ach@@ 2
ie@@ 2
ffle 2
calcul@@ 2
rav@@ 2
ells 2
hula 2
hoop 2
curry 2
aban@@ 2
offi@@ 2
obligations 2
radi@@ 2
get@@ 2
dispu@@ 2
consci@@ 2
dum@@ 2
tubercu@@ 2
tex@@ 2
mai@@ 2
ish@@ 2
suspi@@ 2
sty 2
cloth@@ 2
serviettes 2
ero@@ 2
professions 2
collaborative 2
mem@@ 2
experi@@ 2
wan@@ 2
K 2
vatar 2
elfast 2
commission 2
contents 2
intact 2
slow@@ 2
ret@@ 2
begin@@ 2
dÃ©laÃ¯de 2
famili@@ 2
post@@ 2
spor@@ 2
mÃ©tro 2
thr@@ 2
ong 2
regrettable 2
univer@@ 2
fore 2
reative 2
mons 2
fr 2
tendin@@ 2
seille 2
rema@@ 2
obe@@ 2
sity 2
forces 2
seize 2
pair 2
obiles 2
national 2
devi@@ 2
ayne 2
enjo@@ 2
adul@@ 2
bon 2
incon@@ 2
cei@@ 2
contradiction 2
programme 2
Jackson 2
ymar 2
Braz@@ 2
cents 2
weir@@ 2
hi 2
raisins 2
chewing 2
gum 2
zar@@ 2
rec@@ 2
laugh@@ 2
advis@@ 2
eau 2
aphrodisia@@ 2
af@@ 2
prior@@ 2
itiz@@ 2
pay@@ 2
asse@@ 2
compen@@ 2
sation 2
cinem@@ 2
kets 2
licen@@ 2
ani@@ 2
dest@@ 2
contex@@ 2
adop@@ 2
orp@@ 2
ple@@ 2
mentation 2
mission 2
low@@ 2
exha@@ 2
kilt 2
esnais 2
indi@@ 2
cates 2
dire@@ 2
desc@@ 2
avid 2
atmo@@ 2
aise 2
prou@@ 2
head@@ 2
cots 2
transfusions 2
pois@@ 2
xembourg 2
tab@@ 2
oub 2
ounes 2
ld 2
ans@@ 2
tra@@ 2
show@@ 2
tradition 2
ap@@ 2
conclusion 2
suspicion 2
chie@@ 2
vous 2
cel 2
excellent 2
que@@ 2
watch@@ 2
suf@@ 2
fici@@ 2
scar 2
version 2
knowle@@ 2
anxi@@ 2
respect@@ 2
photo@@ 2
plat@@ 2
Tu@@ 2
fts 2
econom@@ 2
cesco 2
const@@ 2
conne@@ 2
magi@@ 2
cian 2
arah 2
kileaks 2
Ou@@ 2
eting 2
ears 2
disposes 2
passes 2
incom@@ 2
pet@@ 2
backs 2
rain@@ 2
obinson 2
notes 2
administration 2
sources 2
venue 2
pyrami@@ 2
propos@@ 2
Je@@ 2
Jeanne 2
lia 2
conver@@ 2
simulation 2
50 2
mocr@@ 2
rel 2
ay@@ 2
vis@@ 2
recon@@ 2
natur@@ 2
tooth@@ 2
sso 2
centu@@ 2
diploma@@ 2
sculpture 2
pickpocket 2
ball@@ 2
bara 2
reg@@ 2
aled 2
festival 2
appar@@ 2
prison 2
asparov 2
challenger 2
lar@@ 2
phen 2
Col@@ 2
bert 2
reu@@ 2
stered 2
help@@ 2
camer@@ 2
bile 2
ennon 2
termine 2
diam@@ 2
circum@@ 2
sembles 2
conditions 2
Celsius 2
pizzeria 2
recei@@ 2
ving 2
7@@ 2
ef 2
tterbrot 2
labor@@ 2
ory 2
stam@@ 2
upiter 2
humi@@ 2
touri@@ 2
atricia 2
repro@@ 2
clarification 2
nee@@ 2
cle@@ 2
oud 2
document 2
holi@@ 2
xford 2
preg@@ 2
wol@@ 2
sau@@ 2
tions 2
akongo 2
ax@@ 2
misunder@@ 2
correspon@@ 2
secre@@ 2
alphanu@@ 2
basket 2
App@@ 2
inted 2
soluble 2
formul@@ 2
expe@@ 2
ague 2
final 2
tes 2
employ@@ 2
escor@@ 2
mises 2
opti@@ 2
illusion 2
gam@@ 2
fam@@ 2
Bra@@ 2
silia 2
gosla@@ 2
gue 2
mani@@ 2
sugges@@ 2
play@@ 2
cap@@ 2
bit@@ 2
cultu@@ 2
urman@@ 2
magnifi@@ 2
ick 2
ere 2
Cap@@ 2
itu@@ 2
alas 2
ruse 2
ho 2
oriko 2
lowed 2
eal 2
19@@ 2
verdict 2
inobu 2
sist@@ 2
portion 2
prince 2
gon@@ 2
uses 2
amako 2
Mal@@ 2
deed 2
refuge 2
interro@@ 2
â€½ 2
lin@@ 2
sul@@ 2
ore@@ 2
hypo@@ 2
triangle 2
person@@ 2
anticip@@ 2
pago@@ 2
da 2
ques 2
stanbul 2
excel@@ 2
scho@@ 2
pour@@ 2
ig@@ 2
idioma@@ 2
assistance 2
radium 2
val 2
structure 2
oca 2
Co@@ 2
la 2
inven@@ 2
sse 2
aine 2
victi@@ 2
reci@@ 2
buntu 2
bou@@ 2
scen@@ 2
lah 2
dding 2
ounce 2
pacifi@@ 2
patrio@@ 2
expos@@ 2
annu@@ 2
occur@@ 2
rence 2
ug@@ 2
fla@@ 2
bby 2
chiko 2
kiko 2
strict 2
rand@@ 2
om 2
bot@@ 2
cop@@ 2
anmar 2
yachts 2
rechargea@@ 2
YouTu@@ 2
Fr@@ 2
itz 2
influ@@ 2
enced 2
vege@@ 2
applications 2
loyal 2
lent 2
auto 2
kilom@@ 2
legal 2
era 2
leu@@ 2
vengeance 2
B 2
stable 2
roo@@ 2
hockey 2
murmu@@ 2
understan@@ 2
perfection@@ 2
eel 2
wned 2
demo@@ 2
atom@@ 2
zom@@ 2
apo@@ 2
cousins 2
ambo@@ 2
dia 2
Eu@@ 2
ident@@ 2
cyber@@ 2
expert 2
rement 2
pains 2
oped 2
rati@@ 2
sions 2
pun@@ 2
sauce 2
ton@@ 2
tin@@ 2
cy@@ 2
fortun@@ 2
Hi@@ 2
tis@@ 2
mile 2
allergies 2
addi@@ 2
motel 2
commerci@@ 2
catalo@@ 2
ais 2
euros 2
din@@ 2
humour 2
excu@@ 2
jazz 2
Lin@@ 2
coln 2
traditions 2
core 2
thermom@@ 2
impres@@ 2
boracasli 2
borro@@ 2
aig@@ 2
brioche 2
va@@ 2
por@@ 2
pti@@ 2
spa@@ 2
wered 2
ids 2
bambo@@ 2
curi@@ 2
aderborn 2
3@@ 2
utili@@ 2
poses 2
dorm@@ 2
ories 2
idio@@ 2
care@@ 2
grou@@ 2
stupi@@ 2
dow 2
ize 2
hamburger 2
obje@@ 2
combustion 2
stem 2
S 2
drian 2
menti@@ 2
hoo@@ 2
ounan 2
wai@@ 2
salons 2
occup@@ 2
rt 2
pick@@ 2
sca@@ 2
sprint 2
past@@ 2
sermon 2
excellence 2
terri@@ 2
serve 2
reprise 2
tower 2
endrix 2
fans 2
ern@@ 2
instruments 2
questionnaire 2
akagawa 2
bon@@ 2
continu@@ 2
adverti@@ 2
glan@@ 2
âŠ‚ 2
inclusion 2
abst@@ 2
ardanus 2
sire 2
sius 2
suit@@ 2
hakespeare 2
incident 2
anako 2
a.@@ 2
gov 2
range 2
rat@@ 2
heal@@ 2
dures 2
bussy 2
lude 2
ternoon 2
non@@ 2
passion@@ 2
dre@@ 2
cl@@ 2
ne 2
dec@@ 2
twright 2
pru@@ 2
illing 2
port 2
aples 2
pil@@ 2
jam@@ 2
anim@@ 2
yazaki 2
distri@@ 2
casino 2
$ 2
scar@@ 2
kraine 2
zart 2
origin@@ 2
Sal@@ 2
kis@@ 2
airs 2
ue 2
statisti@@ 2
ordan 2
confi@@ 2
dent 2
francs 2
mental 2
form@@ 2
visions 2
pu@@ 2
tation 2
oblig@@ 2
sweat@@ 2
ee@@ 2
handball 2
str@@ 2
barrica@@ 2
xu@@ 2
are@@ 2
spe@@ 2
askervilles 2
alter@@ 2
surveillance 2
org@@ 2
poe@@ 2
seu@@ 2
chur@@ 2
hammed 2
beh@@ 2
dispos@@ 2
ply 2
ristina 2
profes@@ 2
ents 2
intercep@@ 2
progra@@ 2
aniguchi 2
distribu@@ 2
encoura@@ 2
adi@@ 2
streng@@ 2
conv@@ 2
chil@@ 2
compar@@ 2
probabil@@ 2
Ital@@ 2
exclu@@ 2
ail@@ 2
sav@@ 2
code 2
sandwi@@ 2
lic 2
organi@@ 2
mun@@ 2
voyage 2
lecture 2
mul@@ 2
trombone 2
wton 2
4000 2
tensions 2
alifor@@ 2
nia 2
spatial 2
clipse 2
tin 2
pilo@@ 2
pos@@ 2
ici@@ 2
cles 2
milit@@ 2
prose 2
ser@@ 2
progre@@ 2
smil@@ 2
rouge 2
schoo@@ 2
ith 2
sible 2
oro 2
san 2
lem@@ 2
engag@@ 2
camp 2
illusions 2
yoko 2
En@@ 2
dang@@ 2
speci@@ 2
pli@@ 2
route 2
particu@@ 2
act@@ 2
ese 2
marathon 2
scre@@ 2
objection 2
gig@@ 2
reconstru@@ 2
loy@@ 2
condu@@ 2
dy@@ 2
squ@@ 2
parasol 2
ban 2
ad 2
param@@ 2
mil@@ 2
ar 2
cti@@ 2
outrage 2
cook@@ 2
im 2
Chil@@ 2
ren 2
duo 2
mou@@ 2
sy@@ 2
nigh@@ 2
distances 2
psycho@@ 2
musi@@ 2
mayonnaise 2
azakhstan 2
jong 2
point@@ 2
infantile 2
acro@@ 2
bat 2
pier 2
py 2
manu@@ 2
factures 2
vari@@ 2
dotes 2
grand@@ 2
inspection 2
gy 2
terrori@@ 2
virgin@@ 2
calories 2
sec 2
blondes 2
satis@@ 2
weal@@ 2
former 2
eBay 2
colli@@ 2
intersection 2
passion 2
mati@@ 2
Cath@@ 2
Vo@@ 2
reand@@ 2
Ã¡@@ 2
cer@@ 2
dations 2
dies 2
tempor@@ 2
enly 2
reco@@ 2
confis@@ 2
arith@@ 2
bracelet 2
deman@@ 2
eu@@ 2
manus@@ 2
vo@@ 2
ket 2
popul@@ 2
one@@ 2
28 2
mnesty 2
ebook 2
Google 2
collection 2
user 2
acc@@ 2
indication 2
mour@@ 2
elson 2
andela 2
frustr@@ 2
tun@@ 2
Joh@@ 2
nson 2
safe@@ 2
tyran@@ 2
pisto@@ 2
paro@@ 2
impsons 2
lton 2
chael 2
imparti@@ 2
parti@@ 2
adil 2
mming 2
sympath@@ 2
ldman 2
Sach@@ 2
conclu@@ 2
Russi@@ 2
rony@@ 2
C 2
confir@@ 2
suspici@@ 2
repai@@ 2
vac@@ 2
ranus 2
pic 2
dictatorial 2
ache 2
you@@ 2
plorable 2
div@@ 2
pollo 2
poser 2
influences 2
eutschland 2
skir@@ 2
golf 2
urin@@ 2
eschato@@ 2
vile@@ 2
passage 2
accor@@ 2
histori@@ 2
cond@@ 2
oms 2
priv@@ 2
embarra@@ 2
enny 2
guil@@ 2
sser 2
abu@@ 2
dent@@ 2
interrup@@ 2
schedu@@ 2
otre 2
comp@@ 2
offense 2
vitam@@ 2
A 2
x@@ 2
lev@@ 2
ickDisplay 2
fun@@ 2
frame 2
animation 2
alien 2
techno@@ 2
challen@@ 2
ocre 2
orologi@@ 2
ophysi@@ 2
thermodynami@@ 2
climat@@ 2
lded 2
mau@@ 2
land@@ 2
wit@@ 2
fred 2
monot@@ 2
onous 2
sulfu@@ 2
fore@@ 2
phosp@@ 2
colo@@ 2
ome 2
photograp@@ 2
ll@@ 2
bling 2
geyser 2
mn 2
magnitude 2
stand@@ 2
ki@@ 2
inst@@ 2
chan@@ 2
derni@@ 2
ocÃ­o 2
ben@@ 2
insolent 2
jban 2
rival 2
bb@@ 2
viol@@ 2
ways 2
gence 2
admi@@ 2
adap@@ 2
ceremon@@ 2
nation@@ 2
commerce 2
vio@@ 2
translu@@ 2
logi@@ 2
rying 2
pet 2
won@@ 2
spea@@ 2
cit@@ 2
oted 2
bis@@ 2
hop 2
fabri@@ 2
arly 2
ger@@ 2
mean@@ 2
lection 2
popular@@ 2
twi@@ 2
expla@@ 2
paper@@ 2
menu 2
capa@@ 2
gor@@ 2
location 2
exor@@ 2
survi@@ 2
concer@@ 2
ard@@ 2
var@@ 2
ire 2
parano@@ 2
aro 2
awa 2
on@@ 2
perception 2
clean@@ 2
porter 2
thin@@ 2
sentiment 2
201@@ 2
6 2
cour@@ 2
gl@@ 2
tropical 2
exo@@ 2
forms 2
singu@@ 2
contr@@ 2
holl@@ 2
conscience 2
stor@@ 2
allergi@@ 2
designers 2
ath@@ 2
chee@@ 2
nation 2
bec 2
stration 2
spi@@ 2
gni@@ 2
lik@@ 2
corre@@ 2
correspond 2
tled 2
erlin 2
candinav@@ 2
ditation 2
rant 2
differ@@ 2
fav@@ 2
il@@ 2
inable 2
dinosau@@ 2
rs 2
fur@@ 2
sage 2
0@@ 2
vince 2
photocopi@@ 2
tains 2
dif@@ 2
applau@@ 2
dimension 2
client 2
question@@ 2
attend@@ 2
fall@@ 2
Per@@ 2
sier 2
impati@@ 2
trol 2
injustice 2
O 2
dissu@@ 2
gru@@ 2
int@@ 2
libr@@ 2
ernard 2
tres 2
vir@@ 2
tue 2
distin@@ 2
galax@@ 2
stairs 2
depar@@ 2
centre 2
kilos 2
ris 2
ng@@ 2
lasses 2
intu@@ 2
wra@@ 2
ei@@ 2
oul 2
astro@@ 2
multi@@ 2
ror 2
points 2
quant@@ 2
gri@@ 2
na 2
reli@@ 2
rapi@@ 2
mans 2
grees 2
comm@@ 2
sk 2
enti@@ 2
examine 2
intimi@@ 2
mashed 2
popu@@ 2
dispersion 2
ang 2
Sm@@ 2
all@@ 2
pachinko 2
.. 2
isi@@ 2
vide@@ 2
os 2
vanta@@ 2
doct@@ 2
quo 2
any@@ 2
ises 2
Jean@@ 2
ette 2
icy 2
bab@@ 2
respon@@ 2
ctions 2
tour@@ 2
umbrel@@ 2
las 2
suyama 2
volun@@ 2
tar@@ 2
ven@@ 2
nsbruck 2
aring 2
wal@@ 2
identi@@ 2
nt 2
Re@@ 2
onaire 2
hou@@ 2
anthropo@@ 2
pie@@ 2
tur@@ 2
outons 2
persuad@@ 2
suggestions 2
vacu@@ 2
qui@@ 2
condition@@ 2
vend@@ 2
penc@@ 2
confusion 2
description 2
seller 2
fascin@@ 2
protection 2
dog@@ 2
Mac@@ 2
hilip 2
drew 2
thesda 2
ances 2
nicotine 2
articles 2
icasso 2
seum 2
citiz@@ 2
redu@@ 2
talisman 2
inse@@ 2
Son@@ 2
nette 2
iter 2
myst@@ 2
