. 16719
the 6737
to 4728
a 4594
of 3466
? 2875
, 2524
I 2484
you 2416
de 2410
je 2239
@-@ 1949
est 1812
is 1648
Tom 1569
pas 1551
il 1499
t 1485
la 1463
in 1461
le 1428
que 1380
Ã 1350
have 1304
me 1252
vous 1252
do 1219
s 1200
ne 1179
I&apos; 1090
he 1067
l&apos; 1033
be 1000
un 977
that 941
tu 935
was 920
get 890
n&apos; 864
ce 854
j&apos; 852
les 773
! 754
it 745
this 745
en 733
don&apos; 717
ai 704
une 692
m 689
nous 655
d&apos; 651
are 632
my 624
not 620
re 565
for 558
know 549
what 547
elle 544
your 541
time 540
and 540
&quot; 540
it&apos; 536
as 497
all 486
you&apos; 485
his 485
on 469
qu&apos; 464
she 462
go 456
we 443
pour 442
c&apos; 436
ll 435
out 435
going 429
want 424
suis 423
him 417
like 415
with 414
des 407
et 403
dans 383
lot 376
way 359
good 339
there 333
y 331
can 330
has 327
qui 325
du 320
Ã§a 317
plus 313
more 309
s&apos; 301
think 298
very 294
au 290
tell 290
faire 288
moi 286
at 285
se 284
m&apos; 281
Ã©tait 277
how 276
little 275
we&apos; 273
te 272
just 266
tout 264
avec 264
did 263
her 263
they 261
no 258
had 258
Mary 257
son 254
fait 252
will 249
one 248
been 246
mon 243
ve 242
right 233
who 233
Ãªtre 231
were 228
if 227
sont 226
si 226
can&apos; 226
see 221
but 221
other 221
so 214
people 213
world 210
help 210
us 209
up 208
car 206
ils 205
only 202
sur 201
veux 200
here 198
es 189
when 188
old 186
lui 184
than 183
trÃ¨s 180
temps 178
really 178
much 176
please 176
cette 175
about 173
where 173
Ãªtes 169
need 168
why 166
ont 166
sa 165
Ã©tÃ© 163
never 163
d 161
ma 160
avez 159
votre 158
take 158
could 154
two 153
too 152
par 151
great 150
man 150
dÃ©@@ 150
our 149
didn&apos; 149
come 148
oÃ¹ 147
day 145
place 145
dit 142
@ 142
pourquoi 140
meeting 140
- 140
should 139
peux 136
teacher 136
ici 136
mais 136
must 134
jamais 134
company 133
bien 133
any 132
new 132
now 132
t&apos; 130
sure 130
toi 129
from 129
comment 129
cold 129
pense 128
by 128
chose 127
United 126
Earth 126
train 125
money 125
love 124
sais 124
doesn&apos; 124
find 123
would 120
tous 120
cela 118
comme 117
talk 116
or 115
peut 114
work 114
well 114
avons 113
something 113
ses 112
beaucoup 111
done 111
thing 111
first 111
vraiment 110
said 110
dire 109
ton 109
mind 108
Ã© 107
Sami 107
speak 106
re@@ 106
back 106
what&apos; 105
aime 105
avait 104
night 104
mes 103
same 103
better 102
trop 102
voir 101
he&apos; 101
anything 101
without 100
school 99
mÃªme 99
quelque 99
elles 99
job 99
three 98
let&apos; 98
States 97
put 97
many 97
rien 97
last 97
before 96
went 96
va 96
avoir 96
life 96
buy 96
Ã©@@ 96
quand 95
always 95
dog 95
most 93
seen 92
future 92
that&apos; 92
monde 91
deux 91
house 91
Ã©e 90
long 90
encore 90
besoin 89
hard 89
home 89
aux 89
parler 89
afraid 89
room 89
tes 88
told 88
married 88
girls 87
best 87
say 86
lÃ 86
student 86
aller 85
sommes 85
personne 85
friend 85
Ã©tais 84
late 83
homme 83
everything 82
water 82
happy 82
ta 82
beautiful 82
peu 81
got 81
toujours 81
name 81
looking 81
tired 81
person 81
question 80
took 79
things 79
still 79
sorry 78
children 78
read 78
try 78
own 78
language 78
matter 77
dois 77
argent 77
chez 77
remember 76
door 76
their 76
already 76
doctor 76
thought 75
aussi 75
er 75
nothing 75
some 75
parents 74
maison 74
eat 74
English 74
believe 74
leave 74
bon 73
look 73
book 73
soit 72
let 72
Marie 72
ons 72
fois 72
small 71
avais 71
vu 71
quel 71
books 71
year 70
keep 70
avant 70
today 70
next 70
voiture 70
questions 69
wanted 69
quoi 69
notre 69
in@@ 69
travail 69
give 68
vie 68
these 68
eu 68
autre 68
morning 67
vais 67
few 67
rÃ©@@ 66
maintenant 66
arrive 66
made 66
live 66
favorite 66
kind 66
almost 66
ent 65
idea 65
sans 65
word 65
isn&apos; 64
bit 64
French 64
ant 64
dÃ©jÃ 64
she&apos; 64
phone 64
father 64
able 63
busy 63
week 63
learn 63
make 63
pÃ¨re 63
family 63
enough 63
bad 62
aujourd&apos; 62
hui 62
accident 62
them 62
faut 61
past 61
easy 60
play 60
air 60
hours 60
quelle 59
porte 59
ten 59
ou 59
problem 59
combien 59
mother 59
ces 58
truth 58
stop 58
plaÃ®t 58
alone 58
girl 58
asked 57
call 57
heures 57
eyes 57
sun 56
toutes 56
grand 56
understand 56
important 56
often 55
enfants 55
hear 55
country 55
Boston 55
they&apos; 55
Ã©cole 54
years 54
jour 54
Ã©es 54
aide 54
true 54
use 54
saw 53
hand 53
livre 53
weather 53
aimerais 53
drink 53
seul 53
another 53
toute 52
station 52
ready 52
left 52
glad 51
aprÃ¨s 51
hier 51
venir 51
office 51
boy 51
bonne 51
opinion 51
big 51
ask 51
demain 51
cet 50
even 50
story 50
number 50
passÃ© 50
floor 50
because 50
juste 49
anglais 49
someone 49
petit 49
chien 49
tomorrow 49
par@@ 48
after 48
end 48
franÃ§ais 48
plan 48
fut 48
meet 48
bus 47
mieux 47
mal 47
sait 47
Ã©s 46
trois 46
an 46
v@@ 46
does 46
moment 46
leur 46
far 46
pouvez 46
aider 46
nuit 46
police 46
key 46
cat 46
prendre 45
parle 45
assez 45
dÃ» 44
gens 44
ans 44
child 44
seule 44
e 44
wants 44
puis 43
doing 43
food 43
peur 43
femme 43
woman 43
moins 43
trip 43
fille 43
found 43
nice 42
yesterday 42
eau 42
g@@ 42
dis 42
f@@ 42
non 42
bed 42
di@@ 42
party 42
careful 42
mine 42
choses 42
young 42
nouveau 41
fais 41
quelqu&apos; 41
soir 41
depuis 41
lives 41
letter 41
lost 41
being 41
itÃ© 41
called 41
mÃ¨re 41
minutes 41
veut 41
off 41
s@@ 41
complete 41
doit 40
savoir 40
ceci 40
voulais 40
game 40
lire 40
idÃ©e 40
heure 40
friends 40
quelques 40
chance 40
voulez 40
&apos; 40
surprised 40
pensais 40
trying 40
vos 40
ait 39
a@@ 39
part 39
eux 39
situation 39
partir 39
ter 39
manger 39
theory 39
show 39
hair 39
feel 38
again 38
answer 38
down 38
trouve 38
c@@ 38
heureux 38
pendant 38
prÃ©@@ 38
likes 37
simplement 37
aurais 37
demandÃ© 37
times 37
sleeping 37
secret 37
nom 37
en@@ 37
coffee 37
Dan 37
crois 37
class 37
possible 36
semaine 36
everybody 36
piano 36
TV 36
the&apos; 36
autres 36
government 36
yet 36
devrais 36
pris 36
souvent 35
faites 35
ine 35
seems 35
everyone 35
allÃ© 35
li@@ 35
knew 35
wrong 35
acheter 35
res 35
difficult 35
dinner 35
France 35
knows 35
aire 34
bought 34
heart 34
swim 34
met 34
girlfriend 34
vrai 34
entre 34
problÃ¨me 34
ti@@ 34
store 34
pu 34
large 33
ch@@ 33
news 33
con@@ 33
red 33
jusqu&apos; 33
pays 33
savais 33
natural 33
brother 33
on@@ 33
sens 33
derniÃ¨re 33
p@@ 33
won&apos; 33
table 33
aren 33
retard 32
write 32
stay 32
hope 32
chambre 32
devons 32
high 32
lettre 32
mort 32
sick 32
Ã©taient 32
nÃ© 32
tÃ© 32
wife 32
rain 32
box 32
petite 31
facile 31
ez 31
semble 31
C@@ 31
days 31
dollars 31
every 31
lit 31
perdu 31
between 31
sister 31
early 31
sortir 31
famille 31
photo 31
Mr 31
walk 30
nos 30
there&apos; 30
jours 30
Layla 30
n@@ 30
a&apos; 30
Japan 30
am 30
watch 30
waiting 30
attention 30
ville 30
city 30
aient 30
tÃ´t 30
trouvÃ© 30
ie 29
age 29
trouver 29
it@@ 29
aucun 29
r@@ 29
i 29
German 29
dark 29
donne 29
ami 29
advice 29
restaurant 29
came 29
milk 29
vÃ©ritÃ© 29
raison 29
others 29
im@@ 29
didn 29
tard 29
Tom&apos; 28
happened 28
myself 28
ca@@ 28
an@@ 28
Tatoeba 28
m@@ 28
talking 28
rez 28
la@@ 28
forward 28
mis 28
apprendre 28
anymore 28
bicycle 28
problems 28
allez 28
fast 28
sera 28
ins 28
A@@ 28
ment 27
arrivÃ© 27
penses 27
ci@@ 27
point 27
vue 27
lorsque 27
ever 27
since 27
vivre 27
ante 27
ai@@ 27
sur@@ 27
wine 27
sou@@ 27
dead 27
yeux 27
cats 27
sous 27
window 27
passe 27
Ã¨re 27
difficile 27
month 27
pourrais 27
rich 27
ler 27
ticket 27
loin 27
six 27
head 27
wait 27
seulement 27
or@@ 27
death 27
jeune 27
histoire 27
hurry 26
ra@@ 26
movie 26
pourrait 26
laisse 26
aucune 26
piÃ¨ce 26
born 26
livres 26
journÃ©e 26
music 26
looks 26
sois 26
garÃ§on 26
hate 26
ra 26
dont 26
croire 26
ball 26
computer 26
tennis 26
i@@ 26
Ã¨rent 26
words 26
tant 26
five 26
langue 26
mistake 26
donnÃ© 26
filles 25
achetÃ© 25
ac@@ 25
connais 25
voyage 25
no@@ 25
erai 25
sleep 25
celui 25
tÃªte 25
fÃªte 25
mot 25
ques 25
u 25
is@@ 25
parce 25
froid 25
angry 25
travaille 25
arrÃªter 25
autant 25
mer 25
mar@@ 25
smoking 25
cours 24
vient 24
dÃ©solÃ© 24
r 24
matin 24
couldn&apos; 24
nouvelle 24
vas 24
em@@ 24
chaque 24
qu@@ 24
gu@@ 24
ar@@ 24
may 24
adore 24
sÃ»r 24
ou@@ 24
choice 24
vite 24
prÃ¨s 24
which 24
art 24
thank 24
per@@ 24
enfant 24
demande 24
: 24
yes 24
guess 24
lait 24
main 24
interested 24
tried 24
beer 24
comprendre 24
gave 24
t@@ 23
vers 23
voulait 23
post 23
fini 23
entendu 23
ensemble 23
dix 23
longtemps 23
eur 23
dÃ©jeuner 23
tÃ©lÃ©phone 23
reading 23
heard 23
d@@ 23
premier 23
soyez 23
Ã©crit 23
y@@ 23
afternoon 23
viens 23
prie 23
finished 23
team 23
nourriture 23
Paris 23
ren@@ 23
devrait 23
price 23
mÃ©@@ 23
frÃ¨re 23
po@@ 23
l 23
ab@@ 23
dites 23
lorsqu&apos; 23
ais 23
peine 23
beau 23
fort 23
chat 23
sea 23
com@@ 23
husband 23
course 23
mÃ©decin 23
marry 22
leurs 22
together 22
accord 22
savez 22
fire 22
travailler 22
sa@@ 22
joue 22
tonight 22
decided 22
dÃ©teste 22
students 22
light 22
grande 22
habitude 22
Ã©t@@ 22
bag 22
al@@ 22
father&apos; 22
ge 22
boys 22
for@@ 22
colÃ¨re 22
wonder 22
premiÃ¨re 22
presque 22
behind 22
sÃ© 22
pouvons 22
shirt 22
S@@ 22
black 22
che 22
essayer 22
face 22
lucky 22
mo@@ 21
crazy 21
fish 21
lo@@ 21
bureau 21
mettre 21
suit 21
ire 21
B@@ 21
hospital 21
written 21
watching 21
era 21
Japon 21
hot 21
er@@ 21
cheveux 21
sugar 21
plutÃ´t 21
meilleur 21
Oh 21
sÅ“ur 21
si@@ 21
allons 21
mois 21
ens 21
ag@@ 21
cafÃ© 21
dÃ®ner 21
venu 21
efforts 21
mountain 21
sujet 21
jouer 21
nager 20
pensÃ© 20
occupÃ© 20
espÃ¨re 20
hands 20
safe 20
rouge 20
promise 20
rÃ© 20
pro@@ 20
contre 20
amie 20
ri@@ 20
ap@@ 20
forgot 20
dÃ© 20
fun 20
don 20
belle 20
ver@@ 20
laisser 20
prÃªt 20
b@@ 20
radio 20
ju@@ 20
experience 20
daughter 20
health 20
information 20
village 20
hotel 20
fell 19
chemin 19
partie 19
fils 19
ta@@ 19
cÅ“ur 19
ni 19
pou@@ 19
appelle 19
hungry 19
Ã©crire 19
sentence 19
rend 19
makes 19
dehors 19
kitchen 19
malade 19
ss@@ 19
rais 19
regarde 19
pay 19
lieu 19
oui 19
ts 19
pa@@ 19
noir 19
compte 19
fin 19
oubliÃ© 19
illes 19
wasn&apos; 19
fon@@ 19
serait 19
vit 19
pi@@ 19
pouvoir 19
regarder 19
tellement 19
picture 19
R@@ 19
ants 19
santÃ© 19
fumer 19
break 19
dur 18
bou@@ 18
coat 18
sky 18
sÃ©e 18
park 18
annÃ©e 18
fu@@ 18
vi@@ 18
rester 18
entreprise 18
laquelle 18
yours 18
l@@ 18
ci 18
puisse 18
ite 18
vin 18
cher 18
four 18
prix 18
vieux 18
vÃ©lo 18
mal@@ 18
amour 18
au@@ 18
fi@@ 18
se@@ 18
laissÃ© 18
quickly 18
problÃ¨mes 18
T@@ 18
happen 18
maniÃ¨re 18
langues 18
its 18
davantage 18
veuillez 18
importe 18
rs 18
jou@@ 18
completely 18
alors 18
rendre 18
ainsi 18
away 18
dormir 18
habite 18
appris 18
until 18
devez 18
baby 18
es@@ 18
miss 18
free 18
font 17
Ã‰@@ 17
serais 17
marche 17
ten@@ 17
men@@ 17
Mary&apos; 17
into 17
supposed 17
feu 17
cook 17
u@@ 17
heureuse 17
care 17
donc 17
vois 17
payer 17
fit 17
sent 17
parlez 17
Christmas 17
quatre 17
envie 17
clothes 17
pourriez 17
started 17
tu@@ 17
derriÃ¨re 17
rencontrer 17
nouvelles 17
riche 17
peuvent 17
pensez 17
lu 17
mots 17
telle 17
amis 17
aimes 17
necessary 17
those 17
attendre 17
L@@ 17
cinq 17
rait 17
mangÃ© 17
eaten 17
poor 17
entendre 17
devriez 17
library 16
eurs 16
ser 16
ent@@ 16
fer@@ 16
ers 16
prochain 16
immÃ©diatement 16
faim 16
pouvait 16
musique 16
sse 16
tour@@ 16
fatiguÃ© 16
midi 16
faÃ§on 16
f 16
mu@@ 16
ni@@ 16
ation 16
glass 16
du@@ 16
exactement 16
voudrais 16
pla@@ 16
lu@@ 16
cost 16
ignore 16
magasin 16
apprÃ©cie 16
mange 16
ner 16
M@@ 16
crÃ©@@ 16
propos 16
women 16
chaud 16
professeur 16
gÃ© 16
boulot 16
o@@ 16
works 16
keys 16
bas 16
Ã¨@@ 16
mets 16
ex@@ 16
stes 16
fenÃªtre 16
Ah 16
P@@ 16
men 16
forget 16
laissez 16
sÃ©@@ 16
river 16
least 16
later 16
knife 16
coup 16
biÃ¨re 16
danger 16
amoureux 15
dernier 15
birthday 15
summer 15
film 15
conduire 15
dÃ©solÃ©e 15
mauvais 15
Ã©g@@ 15
devrions 15
su@@ 15
Ã¨res 15
gi@@ 15
Ã¢ge 15
caught 15
ille 15
mains 15
thinks 15
parlÃ© 15
worry 15
nÃ©e 15
evening 15
serai 15
change 15
montre 15
tÃ©lÃ©vision 15
certains 15
ill@@ 15
verre 15
tenir 15
ferai 15
less 15
ceux 15
smart 15
ir 15
rent 15
av@@ 15
donnez 15
ma@@ 15
merci 15
endroit 15
cake 15
sense 15
anyone 15
Ã©tiez 15
lose 15
shoes 15
learned 15
Ã©ri@@ 15
de@@ 15
commencÃ© 15
cou@@ 15
pain 15
nÃ©cessaire 15
c 15
lunch 15
apple 15
sÃ»re 15
invited 15
erreur 15
vacances 15
world&apos; 15
Maybe 15
open 15
so@@ 14
ciel 14
fa@@ 14
minute 14
capable 14
intention 14
rÃ©union 14
venus 14
Dieu 14
paper 14
compris 14
cra@@ 14
rest@@ 14
sÃ©curitÃ© 14
ites 14
dress 14
essaie 14
cuisine 14
hour 14
classe 14
impossible 14
cry 14
instant 14
aires 14
pouvais 14
chats 14
ste 14
porter 14
sucre 14
cu@@ 14
flowers 14
voici 14
lie 14
choix 14
; 14
ru@@ 14
suppose 14
ches 14
gar@@ 14
marchÃ© 14
lÃ© 14
personnes 14
terre 14
devant 14
te@@ 14
utiliser 14
ds 14
aise 14
route 14
ter@@ 14
connaÃ®t 14
ro@@ 14
enne 14
boire 14
expÃ©rience 14
tour 14
por@@ 14
chemise 14
voulons 14
essayÃ© 14
hommes 14
nes 14
Terre 14
pos@@ 14
arriver 14
wearing 14
bÃ©bÃ© 14
hat 14
disappointed 14
libre 14
prends 14
idiot 14
speech 14
nez 14
irai 13
Ã¢@@ 13
rencontrÃ© 13
pour@@ 13
lou@@ 13
confiance 13
feelings 13
G@@ 13
mi@@ 13
felt 13
longer 13
e@@ 13
song 13
mit 13
souviens 13
himself 13
pe 13
voy@@ 13
rendu 13
Ã©tranger 13
pass@@ 13
advised 13
chi@@ 13
allemand 13
serez 13
sorte 13
savait 13
at@@ 13
probably 13
ale 13
passer 13
inte 13
ad@@ 13
cÃ© 13
char@@ 13
parfois 13
pÃ©@@ 13
numÃ©ro 13
quÃ© 13
courant 13
droit 13
garÃ§ons 13
penser 13
dou@@ 13
God 13
chan@@ 13
mor@@ 13
N@@ 13
fact 13
tÃ©lÃ© 13
le@@ 13
Ã§@@ 13
min@@ 13
terminÃ© 13
tient 13
bientÃ´t 13
speaks 13
boÃ®te 13
sau@@ 13
celle 13
aurait 13
considÃ©@@ 13
tri@@ 13
pri@@ 13
Ã¢mes 13
perdre 13
contract 13
road 13
building 13
Ã©quipe 13
propre 13
bri@@ 13
ressemble 13
hÃ´tel 13
ger 13
dÃ©cidÃ© 13
cause 13
living 13
hab@@ 13
mon@@ 13
nobody 13
euse 13
clock 13
co@@ 13
poser 13
yons 12
poste 12
dangerous 12
poisson 12
furent 12
tent 12
allait 12
Ã¯@@ 12
hÃ´pital 12
faisons 12
address 12
mistakes 12
D@@ 12
prÃªte 12
probablement 12
stupid 12
dance 12
facilement 12
tomber 12
ordinateur 12
comprends 12
apprÃ©ci@@ 12
fleurs 12
am@@ 12
once 12
bi@@ 12
reste 12
Ã©tudiants 12
ents 12
gros 12
cent 12
il@@ 12
dispose 12
parviens 12
rons 12
guy 12
travers 12
arrÃªtÃ© 12
surpris 12
emploi 12
lÃ¨@@ 12
ines 12
complÃ¨tement 12
dez 12
nombre 12
pool 12
sol 12
die 12
changÃ© 12
garde 12
gun 12
prend 12
donner 12
grosse 12
vo@@ 12
appelÃ© 12
mou@@ 12
admire 12
reason 12
suite 12
ate 12
ue 12
occupÃ©e 12
pl@@ 12
prenez 12
shouldn&apos; 12
espagnol 12
Spanish 12
esprit 12
rou@@ 12
visite 12
genre 12
h 12
F@@ 12
newspaper 12
vaut 12
eggs 12
revoir 11
manteau 11
enemy 11
soleil 11
famous 11
anniversaire 11
rentrer 11
selon 11
pu@@ 11
japonais 11
Japanese 11
marcher 11
dor@@ 11
trouv@@ 11
y&apos; 11
prefer 11
son@@ 11
veulent 11
devenu 11
breakfast 11
rer 11
John 11
gare 11
Å“il 11
neige 11
... 11
adresse 11
usual 11
sac 11
lake 11
atten@@ 11
Ã®@@ 11
plusieurs 11
decision 11
discuter 11
fasse 11
easily 11
Ã´@@ 11
attend 11
NoÃ«l 11
rend@@ 11
weekend 11
second 11
fou@@ 11
gr@@ 11
gÃ¢teau 11
winter 11
lesson 11
cha@@ 11
femmes 11
Ã©galement 11
moitiÃ© 11
cÃ´tÃ© 11
marier 11
ser@@ 11
type 11
languages 11
agit 11
DÃ©@@ 11
x 11
produit 11
ages 11
blessÃ© 11
ob@@ 11
clÃ©s 11
umbrella 11
dictionary 11
10 11
dÃ©e 11
af@@ 11
arme 11
conseils 11
content 11
savent 11
tr@@ 11
moindre 11
ne@@ 11
windows 11
iez 11
go@@ 11
riez 11
solve 11
nombreux 11
tra@@ 11
glasses 11
chapeau 11
x@@ 11
tre 11
iti@@ 11
changer 11
hors 11
examen 11
pire 11
levÃ© 11
bread 11
allÃ©e 11
dort 11
fera 11
dessus 11
shy 11
animal 11
blood 11
taille 11
o&apos; 11
bibliothÃ¨que 10
manque 10
pre@@ 10
fou 10
cour@@ 10
dangereux 10
ette 10
rÃ©pondre 10
mÃ©e 10
closed 10
jeu 10
Ã©tudier 10
tif 10
sez 10
sser 10
enseignant 10
int 10
sentiments 10
prÃ©fÃ¨re 10
rai 10
igno@@ 10
vis 10
dev@@ 10
should&apos; 10
itÃ©s 10
phrase 10
costume 10
eye 10
revenir 10
lis 10
touch 10
bo@@ 10
seem 10
venue 10
vouloir 10
plupart 10
promises 10
against 10
der 10
mauvaise 10
nor@@ 10
pleurer 10
parti 10
rapidement 10
stupide 10
rem@@ 10
car@@ 10
pied 10
lumiÃ¨re 10
appeler 10
carte 10
sons 10
devoir 10
pluie 10
bill 10
clÃ© 10
commencer 10
Ãª@@ 10
sti@@ 10
do@@ 10
thÃ©orie 10
el 10
portait 10
chaussures 10
pieds 10
ig@@ 10
ferais 10
chÃ© 10
ayez 10
prÃ©fÃ©rÃ©e 10
chante 10
bons 10
garden 10
ner@@ 10
gra@@ 10
dormi 10
jambes 10
faisait 10
cro@@ 10
instituteur 10
voitures 10
Ã‰tats 10
Unis 10
used 10
commence 10
plan@@ 10
dispos@@ 10
bout 10
Australia 10
pleut 10
30 10
tÃ©e 10
agent 10
dÃ©sormais 10
lunettes 10
pretty 10
balle 10
near 10
pauvre 10
cher@@ 10
piece 10
vieil 10
riviÃ¨re 10
ellement 10
iller 10
opened 10
mari 10
refu@@ 10
thÃ©Ã¢tre 10
viendra 10
ence 10
rude 10
discours 10
tement 10
worst 10
boat 10
zoo 10
snow 10
affaire 10
bois 10
intelligent 10
getting 10
concert 10
sommeil 10
Ã©tions 10
succÃ¨s 10
Jane 10
Ã©couter 10
cÃ©@@ 10
town 10
nu@@ 9
homework 9
pen@@ 9
viendrai 9
certain 9
ashamed 9
rappeler 9
ssÃ© 9
connu 9
intÃ©rieur 9
New 9
York 9
inside 9
nage 9
taxi 9
avenir 9
agree 9
papier 9
excuse 9
fallu 9
huit 9
tÃ©es 9
lar@@ 9
talked 9
cs 9
chanson 9
affaires 9
tou@@ 9
phrases 9
intÃ©ress@@ 9
pleu@@ 9
ven@@ 9
prise 9
ente 9
ges 9
amies 9
sauf 9
plai@@ 9
prochaine 9
gue 9
universe 9
choose 9
sociÃ©tÃ© 9
autour 9
ettes 9
E@@ 9
ues 9
printemps 9
cha 9
Ã¨rement 9
projet 9
bles 9
received 9
reti@@ 9
under 9
J@@ 9
regardÃ© 9
fin@@ 9
5 9
hiver 9
ise 9
utili@@ 9
vingt 9
poids 9
accu@@ 9
guerre 9
bat@@ 9
to@@ 9
church 9
secrets 9
cadeau 9
present 9
be@@ 9
study 9
montagne 9
bu@@ 9
parapluie 9
rencontre 9
attend@@ 9
montrer 9
rendez 9
Tokyo 9
entrÃ©e 9
trom@@ 9
suffisamment 9
prit 9
quiet 9
travel 9
feet 9
vieille 9
dictionnaire 9
Internet 9
began 9
demander 9
rÃ©soudre 9
arrived 9
quelconque 9
allÃ©s 9
M 9
aille 9
afin 9
tie 9
mariÃ© 9
our@@ 9
bu 9
can@@ 9
ard 9
In@@ 9
mÃ© 9
ago 9
plein 9
bar@@ 9
enti@@ 9
avance 9
cer 9
exam 9
shower 9
rÃ©ussi 9
oncle 9
uncle 9
ance 9
met@@ 9
dimanche 9
bÃ©@@ 9
lequel 9
sai@@ 9
dents 9
vont 9
devenir 9
ies 9
sandwich 9
connaÃ®tre 9
license 9
journal 9
pen 9
success 9
half 9
meilleure 9
groupe 9
tombÃ© 8
vivent 8
isme 8
hÃ©@@ 8
parc 8
entre@@ 8
gro@@ 8
article 8
ions 8
aimait 8
ble@@ 8
sses 8
dons 8
attrapÃ© 8
movies 8
Ã©pouser 8
portÃ© 8
drive 8
chang@@ 8
ble 8
correct 8
mourir 8
travaillÃ© 8
prÃ©fÃ©rÃ© 8
dÃ©couvert 8
quer 8
jardin 8
jeunes 8
op@@ 8
Ã©trange 8
tait 8
vÃ©cu 8
prÃ©sident 8
lac 8
fr@@ 8
intÃ©ressant 8
novel 8
restÃ© 8
vol@@ 8
croit 8
Ã©toiles 8
might 8
robe 8
coupe 8
dÃ©cision 8
baiser 8
humeur 8
danser 8
wedding 8
choisir 8
coin 8
message 8
grandmother 8
envoyÃ© 8
deman@@ 8
bag@@ 8
appro@@ 8
project 8
reÃ§u 8
condu@@ 8
thinking 8
existe 8
proposition 8
chanter 8
recherche 8
gauche 8
erreurs 8
ssa 8
tuÃ© 8
suivre 8
conseil 8
ArrÃªtez 8
leÃ§on 8
ri 8
st@@ 8
quiconque 8
comp@@ 8
annÃ©es 8
puis@@ 8
col@@ 8
vÃªtements 8
cup 8
pommes 8
ction 8
aies 8
ferme 8
awake 8
rire 8
wrote 8
aimÃ© 8
voudriez 8
fri@@ 8
o 8
oublie 8
sommet 8
top 8
animaux 8
responsible 8
raisons 8
correctement 8
piscine 8
changed 8
2 8
sometimes 8
seront 8
signe 8
voilÃ 8
gÃ©@@ 8
nue 8
sang 8
rÃ©ponse 8
mienne 8
gagner 8
Australie 8
donna 8
kiss 8
war 8
accep@@ 8
gie 8
voyager 8
ront 8
haut 8
beach 8
euses 8
vis@@ 8
finalement 8
turned 8
docteur 8
prÃ©sent 8
don@@ 8
bÃ¢timent 8
moyen 8
portes 8
actu@@ 8
Å“ufs 8
honte 8
sion 8
lundi 8
propres 8
soin 8
ir@@ 8
entend@@ 8
proche 8
avoid 8
dure 8
ron@@ 8
k@@ 8
lived 8
arrÃªte 8
tais 8
else 8
man@@ 8
pleuvoir 8
payÃ© 8
bateau 8
cute 8
manquer 8
prÃªter 8
illÃ© 8
pause 8
jeux 8
vidÃ©o 8
van@@ 8
mettez 8
ouvert 8
rappelle 8
tuer 8
parlent 8
dent 8
boss 8
dÃ©pend 8
-@@ 8
Ã©tat 8
plays 8
tions 8
attends 8
explo@@ 7
dÃ©tails 7
ennemi 7
devint 7
swimming 7
vendre 7
cla@@ 7
cru 7
larmes 7
tears 7
tenez 7
scientifique 7
reasons 7
amoureuse 7
arrivÃ©e 7
Excusez 7
allais 7
arriÃ¨re 7
veu@@ 7
sage 7
soi@@ 7
effet 7
semaines 7
H@@ 7
diffÃ©rent 7
infor@@ 7
tÃ©s 7
touche 7
mille 7
working 7
needs 7
business 7
sembles 7
contente 7
rapport 7
report 7
ina 7
embrasser 7
nique 7
strange 7
Spain 7
roman 7
corps 7
body 7
sent@@ 7
bizarre 7
marre 7
V@@ 7
inconvÃ©nient 7
occasion 7
bouteille 7
lors 7
bour@@ 7
accused 7
mariage 7
tor@@ 7
pul@@ 7
plu@@ 7
leu@@ 7
app@@ 7
doivent 7
retour@@ 7
copine 7
PrÃ©@@ 7
vent 7
difference 7
lan@@ 7
quitt@@ 7
tion 7
partout 7
lever 7
sal@@ 7
gez 7
intÃ©rÃªt 7
K@@ 7
forme 7
lai@@ 7
ennes 7
gouvernement 7
auriez 7
Ap@@ 7
salle 7
ennuis 7
gÃ©e 7
essay@@ 7
prices 7
impression@@ 7
Ã©tudiant 7
sept 7
vide 7
produire 7
rue 7
tranquille 7
venait 7
dÃ©couvrir 7
never&apos; 7
Ã©tage 7
lÃ©@@ 7
prÃ©par@@ 7
espace 7
fai@@ 7
legs 7
yer 7
fermer 7
responsable 7
expliquer 7
hasard 7
as@@ 7
cl@@ 7
tures 7
compagnie 7
auparavant 7
arbre 7
jolie 7
moral 7
Angleterre 7
perte 7
disposez 7
automne 7
avis 7
pomme 7
utile 7
cas 7
amÃ©liorer 7
vendredi 7
seras 7
mez 7
disent 7
repas 7
weight 7
tres 7
plage 7
fl@@ 7
jouÃ© 7
patient 7
quÃ©e 7
fenÃªtres 7
pren@@ 7
aimer 7
sav@@ 7
rÃ©s 7
looked 7
slept 7
punctual 7
AmÃ©rique 7
pr@@ 7
sors 7
prendrai 7
simple 7
fortune 7
gement 7
tÃ¢che 7
maman 7
iter 7
postcard 7
end@@ 7
parlait 7
cassÃ© 7
appartient 7
interesting 7
sache 7
morceau 7
Al@@ 7
ve@@ 7
nement 7
vraie 7
tez 7
patron 7
sp@@ 7
fau@@ 7
br@@ 7
aimez 7
revenu 7
rÃª@@ 7
me@@ 7
meu@@ 7
Ã©p@@ 7
man&apos; 7
gli@@ 7
turn 7
clear 7
preuve 7
croy@@ 7
1@@ 7
prÃ©senter 7
Ã©tudi@@ 7
injured 7
laver 7
bonnes 7
dÃ©part 7
viend@@ 7
ouvrir 7
retourner 7
faite 7
join 7
bet 7
ales 7
magazine 7
timide 7
ban@@ 7
aiment 7
fs 7
leg 7
rÃ©flÃ©chir 7
dÃ©but 7
service 7
dÃ©si@@ 7
erait 7
camera 7
cherche 7
football 7
the- 7
kill 7
demanda 7
sÃ©rieux 7
dÃ©li@@ 7
fruit 7
gagne 7
indi@@ 7
demi 7
esti@@ 6
details 6
nerveux 6
nervous 6
rÃ©jouis 6
absent 6
ssÃ©e 6
arbres 6
feuilles 6
trees 6
probable 6
devoirs 6
oubli@@ 6
ateurs 6
souci 6
double 6
cli@@ 6
ouv@@ 6
rhume 6
emporter 6
kindness 6
mer@@ 6
plaisir 6
va@@ 6
devient 6
Fran@@ 6
dra@@ 6
serv@@ 6
Ã©cri@@ 6
cuisiner 6
els 6
frapp@@ 6
inÃ© 6
dÃ©cida 6
couple 6
mesure 6
per 6
nombreuses 6
difficultÃ©s 6
verse 6
nent 6
worked 6
venez 6
musÃ©e 6
trem@@ 6
os 6
na@@ 6
abroad 6
Espagne 6
cti@@ 6
comman@@ 6
direction 6
tenu 6
visiter 6
chiens 6
liste 6
exactly 6
accusÃ© 6
univers 6
nettoyer 6
arriv@@ 6
Ã©lo@@ 6
courage 6
blanc 6
thÃ© 6
lent 6
tel@@ 6
portable 6
igne 6
rends 6
intÃ©ressÃ© 6
prouv@@ 6
erais 6
eng@@ 6
eut 6
ennent 6
voyez 6
Ã©cra@@ 6
nulle 6
alcool 6
bre 6
seuls 6
gÃ©rer 6
courir 6
area 6
sing 6
Con@@ 6
grandes 6
autoris@@ 6
appreciate 6
coÃ»t 6
viv@@ 6
Ã©chapp@@ 6
killed 6
papa 6
Ã©nergie 6
energy 6
petites 6
aurions 6
ado@@ 6
Ã©ta@@ 6
bal@@ 6
droite 6
absolument 6
pend@@ 6
tasse 6
trouble 6
sub@@ 6
ateur 6
ables 6
tran@@ 6
certaine 6
while 6
nÃ©s 6
patience 6
mie 6
close 6
dÃ©te@@ 6
Ã©glise 6
aie 6
na 6
rarement 6
ras 6
ition 6
bon@@ 6
ajou@@ 6
siez 6
cieux 6
sister&apos; 6
cache 6
accepter 6
dess@@ 6
compter 6
bottle 6
Ã©tudie 6
imagine 6
parles 6
kept 6
ennu@@ 6
faute 6
imaginer 6
moutons 6
population 6
asseoir 6
Ã©v@@ 6
politique 6
cars 6
innocent 6
doesn 6
soixante 6
rÃ©veillÃ© 6
inquiÃ¨te 6
semblez 6
compos@@ 6
around 6
nouvel 6
croi@@ 6
3 6
vivant 6
hor@@ 6
tree 6
passÃ©e 6
sortes 6
England 6
prÃ©parer 6
parti@@ 6
calme 6
arms 6
chu@@ 6
sour@@ 6
entends 6
site 6
contrat 6
sen@@ 6
poli 6
rÃ´le 6
maladie 6
soyons 6
rel@@ 6
devi@@ 6
parta@@ 6
souvenir 6
ement 6
refaire 6
hurt 6
tre@@ 6
ira 6
z@@ 6
rencontrÃ©e 6
nerve 6
frÃ¨res 6
fruits 6
irrÃ©@@ 6
invitÃ© 6
disait 6
rÃ¨gles 6
rules 6
date 6
espoir 6
loi 6
regar@@ 6
Ã©rer 6
cinÃ©ma 6
enseig@@ 6
tra 6
personn@@ 6
bird 6
stre 6
coucher 6
propos@@ 6
nature 6
fromage 6
entrer 6
quitter 6
occupe 6
recomman@@ 6
tar@@ 6
charge 6
correspon@@ 6
vement 6
montrez 6
ga@@ 6
Ã©rÃ© 6
ments 6
Mon@@ 6
pÃªcher 6
garder 6
tique 6
arriver@@ 6
douche 6
arrivent 6
aiss@@ 6
chanceux 6
Ã©viter 6
corriger 6
frÃ©qu@@ 6
gentil 6
2@@ 6
malheureusement 6
certaines 6
photos 6
lour@@ 6
ssez 6
trente 6
milli@@ 6
excuses 6
lev@@ 6
ration 6
empÃªcher 6
boit 6
clairement 6
honnÃªte 6
honest 6
bl@@ 6
cit@@ 6
cents 6
enfance 6
cen@@ 6
O@@ 6
poule 6
occuper 6
cousin 6
cri@@ 6
citÃ© 6
sui@@ 6
commenÃ§a 6
Allemagne 6
chau@@ 6
soi 6
universitÃ© 6
nait 6
rÃ©parer 6
ton@@ 6
bÃ¢@@ 6
ba@@ 6
Dan&apos; 6
jouets 6
toys 6
ple@@ 6
prÃªtes 6
Smith 6
court 6
seu@@ 6
etÃ© 6
cru@@ 6
4 6
droits 6
ouverte 6
appel@@ 6
appareil 6
coÃ»te 6
pierre 6
Thomas 6
chercher 6
importantes 6
gag@@ 6
wore 6
ct@@ 6
alitÃ© 6
public 6
ur@@ 6
ique 6
vues 6
cap@@ 6
admis 6
Mo@@ 6
appar@@ 6
pÃ¢le 6
Ã©chec 6
brothers 6
permis 6
durant 6
listen 6
battre 6
dra 6
soif 6
gagnÃ© 6
Jim 6
planÃ¨te 6
lawyer 6
gne 5
fonctionne 5
cÃ©lÃ¨bre 5
celles 5
dÃ©t@@ 5
vus 5
apprends 5
voulu 5
rÃ©flÃ©chi 5
Devine 5
espÃ©ranto 5
indÃ©@@ 5
one&apos; 5
vions 5
contr@@ 5
suicidÃ© 5
0 5
saying 5
cer@@ 5
cle 5
illez 5
autrefois 5
avaient 5
joli 5
savons 5
satisfait 5
plu 5
As@@ 5
organ@@ 5
bonheur 5
Salut 5
prison 5
vienne 5
fron@@ 5
ats 5
mener 5
ain 5
folle 5
spir@@ 5
ras@@ 5
inÃ©e 5
retour 5
conduis@@ 5
dÃ©cl@@ 5
quement 5
requ@@ 5
occupÃ©s 5
remÃ¨de 5
pique 5
viol@@ 5
Ã©lu 5
arrÃªt 5
nel 5
fiÃ© 5
dÃ©cider 5
futur 5
bonjour 5
ssent 5
connaisse 5
prÃ©venu 5
Di@@ 5
quittÃ© 5
populaire 5
parla 5
soirÃ©e 5
tort 5
surprise 5
cheval 5
souhaite 5
croient 5
garage 5
lettres 5
ress@@ 5
cor@@ 5
Ã¨vre 5
tea 5
dant 5
Soleil 5
fix@@ 5
traver@@ 5
rÃ©aliser 5
Italie 5
enfu@@ 5
possibilitÃ© 5
Ã¨me 5
diffÃ©rence 5
aurai 5
bien@@ 5
ouvrit 5
urgence 5
bor@@ 5
amusant 5
lines 5
Quels 5
aliments 5
frais 5
beurre 5
An@@ 5
vaches 5
rÃ©par@@ 5
Cor@@ 5
traduire 5
dirai 5
dad 5
riches 5
hur@@ 5
copain 5
bicyclette 5
humour 5
super 5
impli@@ 5
om@@ 5
totalement 5
poli@@ 5
vage 5
centre 5
forte 5
pes 5
je@@ 5
enseigner 5
Ã©veillÃ© 5
atta@@ 5
matiÃ¨re 5
subject 5
neuf 5
cure 5
sin@@ 5
xi@@ 5
cation 5
coÃ»ts 5
sion@@ 5
douleur 5
impression 5
voudrait 5
connaissait 5
portÃ©e 5
of@@ 5
crise 5
Ã©tang 5
pond 5
imag@@ 5
servi 5
hÃ©ros 5
chaude 5
culture 5
meubles 5
raient 5
fault 5
antes 5
champ 5
rÃ©e 5
importante 5
prÃªts 5
Ã©lÃ¨ves 5
ff@@ 5
sit 5
croyez 5
poster 5
objectif 5
Ã©toile 5
entr@@ 5
position 5
alliez 5
comporte 5
ster 5
ang@@ 5
saisir 5
fus 5
conduit 5
non@@ 5
sacrÃ© 5
bat 5
exam@@ 5
senti 5
crime 5
terais 5
exi@@ 5
ager 5
enfin 5
tunnel 5
diri@@ 5
chacun 5
Ã¨s 5
rains 5
bras 5
silencieux 5
froide 5
termin@@ 5
U@@ 5
acide 5
dais 5
hÃ¢te 5
embra@@ 5
att@@ 5
petits 5
rom@@ 5
poche 5
ture 5
pleuv@@ 5
unique 5
admi@@ 5
Ã¨te 5
tombÃ©e 5
fro@@ 5
yourself 5
appelez 5
envoyer 5
racon@@ 5
yez 5
manager 5
faits 5
Europe 5
rerais 5
mathÃ©matiques 5
eus 5
sortie 5
cherches 5
cal@@ 5
permission 5
Ã©cris 5
vali@@ 5
salaire 5
Mar@@ 5
Ã©gal 5
amuser 5
law 5
respecter 5
populaires 5
foi 5
lier 5
tiques 5
restÃ©e 5
rÃ©pondu 5
dait 5
prom@@ 5
outside 5
ass@@ 5
itez 5
sel 5
feriez 5
rÃ©ellement 5
comm@@ 5
tion@@ 5
emplo@@ 5
oiseau 5
grands 5
sentez 5
wash 5
coupÃ© 5
attendu 5
theater 5
sort 5
signifie 5
visage 5
colle@@ 5
fer 5
allowed 5
mensonge 5
conscience 5
Ã»@@ 5
dÃ©Ã§u 5
inv@@ 5
compl@@ 5
mÃ©dica@@ 5
onnÃ© 5
pare@@ 5
cte 5
illard 5
voisins 5
niveau 5
sport 5
rant 5
fÃ©li@@ 5
produ@@ 5
rÃ©sultats 5
cteur 5
viennent 5
crying 5
proposal 5
da@@ 5
endor@@ 5
dÃ©truit 5
soldats 5
dispu@@ 5
promesse 5
mien 5
incon@@ 5
Su@@ 5
Monday 5
bandes 5
couteau 5
donner@@ 5
ver 5
ll@@ 5
promettre 5
ves 5
ations 5
eu@@ 5
ess@@ 5
rement 5
chocolat 5
toucher 5
der@@ 5
indiquer 5
h@@ 5
remercier 5
Ã©cureuils 5
sÃ©par@@ 5
connaissez 5
dos 5
nelle 5
tel 5
sentir 5
rejoindre 5
achet@@ 5
parie 5
sement 5
sant 5
exc@@ 5
Ã©cou@@ 5
cartes 5
gars 5
who&apos; 5
pronon@@ 5
mour@@ 5
jambe 5
hom@@ 5
prennent 5
certainement 5
visit@@ 5
bas@@ 5
fume 5
vendu 5
ha@@ 5
ali@@ 5
souf@@ 5
vie@@ 5
longues 5
rencontrÃ©s 5
peuple 5
foule 5
rÃ©du@@ 5
grÃ¢ce 5
cravate 5
gÃ©nÃ©ration 5
quelles 5
interdit 5
existence 5
traitÃ© 5
promesses 5
dÃ©range 5
attrape 5
plait 5
conseillÃ© 5
trouver@@ 5
owe 5
suivi 5
cr@@ 5
all@@ 5
page 5
nant 5
tiens 5
video 5
bleu 5
stylo 5
pan@@ 5
ouvrez 5
lÃ¨ve 5
mariÃ©s 5
corde 5
and@@ 5
campagne 5
embarra@@ 5
passez 5
cochon 5
/ 5
pai@@ 5
avocat 5
Ã©norme 5
mignonne 5
dus 5
ises 5
j@@ 5
trans@@ 5
gratu@@ 5
parfait 5
perfect 5
soutien 5
terie 5
capit@@ 5
clair 5
logi@@ 5
aper@@ 5
view 5
base 5
us@@ 5
ordinaire 5
suffit 5
marteau 5
hammer 5
oubliez 5
rumeur 5
environ 5
arri@@ 5
voit 5
ge@@ 5
fermÃ© 5
volontÃ© 5
won 5
dirait 5
laughed 5
offen@@ 5
ph@@ 5
ressources 5
regardez 5
teur 5
rumor 5
tableau 5
sible 5
chant 5
sienne 5
anci@@ 4
systÃ¨me 4
quel@@ 4
dit@@ 4
traiter 4
critique 4
became 4
devraient 4
sÃ©rieusement 4
destination 4
abord 4
devin@@ 4
gÃ©nÃ©ral 4
oc@@ 4
franchement 4
frankly 4
tives 4
rage 4
scientifiques 4
blesser 4
parmi 4
gentillesse 4
avions 4
USA 4
soli@@ 4
dÃ©mÃ©@@ 4
toi@@ 4
understood 4
moder@@ 4
futon 4
films 4
horreur 4
douÃ© 4
sexu@@ 4
weeks 4
finir 4
matique 4
rÃ©alitÃ© 4
dommage 4
correcte 4
Vo@@ 4
horrible 4
alent@@ 4
folie 4
protÃ©ger 4
sauver 4
museum 4
seriez 4
consom@@ 4
Ã©r@@ 4
Promettez 4
pÃ© 4
gÃ©nie 4
stique 4
regard 4
loves 4
bruit 4
rece@@ 4
sive 4
Ã®mes 4
prÃ©vu 4
endre 4
pale 4
stars 4
nul 4
Chine 4
warned 4
exercice 4
sauv@@ 4
aimÃ©e 4
veuilles 4
fleur 4
four@@ 4
prÃ©fÃ©rerais 4
gout@@ 4
ssant 4
dan@@ 4
agir 4
gÃ¢@@ 4
famili@@ 4
faisais 4
realize 4
interrom@@ 4
pre 4
queue 4
diable 4
utilisez 4
rÃ©es 4
auteur 4
contrÃ´le 4
conten@@ 4
coup@@ 4
capitaine 4
russe 4
cÃ©e 4
vier 4
toit 4
Bob 4
Par@@ 4
spÃ©ci@@ 4
couverture 4
Ch@@ 4
exac@@ 4
I@@ 4
dises 4
lignes 4
confection@@ 4
dre 4
Inde 4
rac@@ 4
compag@@ 4
sup@@ 4
trait@@ 4
absur@@ 4
beautÃ© 4
les@@ 4
perdue 4
ul@@ 4
avion 4
billet 4
achÃ¨te 4
musicien 4
musician 4
attendons 4
sta@@ 4
distribu@@ 4
enra@@ 4
ant@@ 4
couver@@ 4
assurance 4
parl@@ 4
prendra 4
seconde 4
propri@@ 4
cau@@ 4
commande 4
terminer 4
Linda 4
mÃ©rite 4
fantÃ´mes 4
list 4
voie 4
BrÃ©sil 4
tombe 4
parlons 4
supporter 4
prudente 4
comple@@ 4
xe 4
cial 4
rideau 4
contrari@@ 4
appÃ©tit 4
dise 4
rai@@ 4
chanteuse 4
permettre 4
veniez 4
al 4
tenait 4
rappelez 4
ences 4
augmentÃ© 4
prof 4
puni 4
utilisÃ© 4
entÃ© 4
sol@@ 4
brillante 4
sque 4
peinture 4
dira 4
reuse 4
rÃ©pon@@ 4
brÃ»@@ 4
est@@ 4
z 4
enf@@ 4
riz 4
entrÃ© 4
Ã©clata 4
intelligente 4
entres 4
ordres 4
sert 4
philosophie 4
promets 4
iner 4
dis@@ 4
suggÃ¨re 4
impliquÃ© 4
pein@@ 4
diffÃ©rences 4
gran@@ 4
gea 4
atteint 4
mang@@ 4
conna@@ 4
trouveras 4
couramment 4
tire 4
gÃ©nÃ©ralement 4
acqu@@ 4
sir 4
ordre 4
chansons 4
jette 4
envo@@ 4
jouent 4
physique 4
couper 4
dipl@@ 4
Ã´me 4
volÃ© 4
cherch@@ 4
tentÃ© 4
mÃ¨@@ 4
forÃªt 4
traductions 4
donnÃ©e 4
appell@@ 4
connaissais 4
sions 4
humaine 4
sensÃ© 4
determination 4
res@@ 4
policeman 4
lentement 4
maj@@ 4
ath@@ 4
mauvaises 4
habituÃ© 4
prÃ©f@@ 4
Ã©rence 4
assu@@ 4
publique 4
truc 4
bouton 4
lycÃ©e 4
travailles 4
devait 4
tente 4
directeur 4
prÃ©vois 4
somewhere 4
cez 4
ponctu@@ 4
trouvait 4
abandonner 4
doute 4
comportement 4
invitÃ©es 4
espÃ¨ce 4
prÃ©c@@ 4
endur@@ 4
lez 4
pay@@ 4
mentir 4
gÃ©ni@@ 4
genoux 4
coÃ»@@ 4
aboie 4
constituent 4
pensent 4
plaisante 4
utilise 4
Japonais 4
donnÃ©es 4
gasp@@ 4
chons 4
vouliez 4
traverser 4
postale 4
lle 4
censÃ© 4
lÃ©g@@ 4
vase 4
nements 4
Ã©car@@ 4
salade 4
verrou@@ 4
aisÃ© 4
baleine 4
carriÃ¨re 4
sÃ©rie 4
debout 4
Ã©te@@ 4
triste 4
hi 4
bre@@ 4
cesse 4
aider@@ 4
hi@@ 4
mis@@ 4
laiss@@ 4
faux 4
ocÃ©an 4
encoura@@ 4
risque 4
contributeur 4
amical 4
rejo@@ 4
piÃ¨ces 4
spor@@ 4
produits 4
oiseaux 4
teaux 4
quinze 4
donnent 4
tis@@ 4
concentr@@ 4
mani@@ 4
puissiez 4
activ@@ 4
parfaitement 4
restez 4
sures 4
bÅ“uf 4
sieur 4
rÃ©ponds 4
expri@@ 4
lÃ¢che 4
Ã©chou@@ 4
risques 4
brou@@ 4
congÃ© 4
insul@@ 4
yait 4
terriblement 4
diffÃ©rents 4
profonde 4
ong@@ 4
forcer 4
sac@@ 4
traduction 4
manqu@@ 4
vÃª@@ 4
qui@@ 4
Ã©tude 4
boyfriend 4
coÃ»tÃ© 4
00 4
pose 4
Unfortunately 4
hon@@ 4
prononcer 4
couleur 4
force 4
trouvent 4
prises 4
different 4
rable 4
commun@@ 4
autÃ© 4
apprentissage 4
apporte 4
mignons 4
el@@ 4
passeport 4
suivant 4
Ã©pou@@ 4
tien 4
Ãªtres 4
noyÃ© 4
ards 4
bla@@ 4
moyenne 4
sombre 4
circulation 4
inter@@ 4
venues 4
No@@ 4
pat@@ 4
essa@@ 4
brÃ»lÃ© 4
cter 4
dessinÃ©es 4
blessÃ©e 4
joie 4
restes 4
iser 4
couteaux 4
banque 4
venons 4
lettes 4
Col@@ 4
voix 4
soon 4
habitu@@ 4
childhood 4
prof@@ 4
compli@@ 4
Ã©conomie 4
lesquelles 4
menti 4
apprend 4
chaleur 4
endormi 4
ingÃ©nieurs 4
nier 4
gÃ©r@@ 4
vÃ©ritable 4
pression 4
coupable 4
Londres 4
fe@@ 4
tera 4
prÃ©sent@@ 4
gent 4
mÃªmes 4
tent@@ 4
empÃªchÃ© 4
Ã©conom@@ 4
expliqu@@ 4
objets 4
marron 4
hau@@ 4
fix 4
clo@@ 4
eras 4
chinois 4
taire 4
satis@@ 4
bai@@ 4
princip@@ 4
bles@@ 4
cancer 4
se&apos; 4
complet 4
monte 4
fight 4
poÃ¨me 4
rapide 4
Per@@ 4
amu@@ 4
para@@ 4
Ã¢me 4
deuxiÃ¨me 4
nage@@ 4
dÃ©goÃ»@@ 4
bordel 4
orange 4
cit 4
mise 4
fie 4
enten@@ 4
dement 4
sÃ»rement 4
faible 4
here&apos; 4
sÃ©chÃ© 4
casser 4
are- 4
AmÃ©ricains 4
gri@@ 4
sortez 4
assis 4
ayant 4
puissance 4
touchÃ© 4
mÃ©moire 4
canapÃ© 4
Ã©li@@ 4
aimerait 4
fautes 4
Ã©tant 4
bres 4
Contin@@ 4
remar@@ 4
len@@ 4
fidÃ¨le 4
image 4
slow 4
mÃ©tro 4
tante 4
note 4
rÃ©gi@@ 4
peint 4
whole 4
pleure 4
ux 4
piÃ¨@@ 4
prudent 4
som@@ 4
ze 4
ce@@ 4
matins 4
rÃ©solu 4
sourire 4
lien 4
server 4
causÃ© 4
asleep 4
bar 4
eaux 4
lÃ©gumes 4
Kate 4
naturel 4
dÃ©termin@@ 4
bil@@ 4
caractÃ¨re 4
merveilleux 4
solution 4
gorge 4
Ã©tudiante 4
sÃ©s 4
raconter 4
peau 4
malgrÃ© 4
atteindre 4
cut 4
tendance 4
heureuses 4
origin@@ 4
chanteur 4
embarrassed 4
vÃ© 4
conversation 4
princesse 4
princess 4
soula@@ 4
respe@@ 4
concentrer 4
attendais 4
Jouons 4
comes 4
billets 4
condition 4
naissance 4
bel 4
abe@@ 4
volant 4
neu@@ 4
fous 4
devenus 4
jean 4
admitted 4
forts 4
derni@@ 4
jo@@ 4
possÃ¨de 4
tur@@ 4
entier 4
ef@@ 4
reux 4
esse 4
contact 4
semblait 4
quitte 4
cier 4
confÃ©rence 4
cÃ©libataire 4
phÃ©nomÃ¨ne 4
souri@@ 4
pon@@ 4
full 4
impatience 4
troisiÃ¨me 4
commen@@ 4
reconnaissante 4
veille 4
gues 4
guitare 4
Mi@@ 4
forcÃ© 4
mecs 4
remettre 4
traite 4
chÃ©e 4
commun 4
appelÃ©e 4
distance 4
invitÃ©s 4
iles 4
fallait 4
voleur 4
rencontr@@ 4
fier 4
privÃ© 4
environnement 4
parole 4
semblant 4
nÃ´tre 4
thirsty 4
aÃ©roport 4
airport 4
sain 4
intÃ©@@ 4
Ã©poque 4
longs 4
chanceuse 4
tation 4
th@@ 4
connaissance 4
agressi@@ 4
pars 4
wears 4
emprunter 4
Ã®ne 4
pe@@ 4
Ha 4
ponctuel 4
atti@@ 4
caf@@ 3
gueule 3
cont@@ 3
har@@ 3
leaves 3
sc@@ 3
aveu@@ 3
gla@@ 3
quasiment 3
irez 3
dÃ©passer 3
ends 3
ligne 3
rier 3
fasses 3
sauter 3
monter 3
fallut 3
dent@@ 3
mangent 3
Ã´ne 3
discutÃ© 3
Ã©du@@ 3
vain@@ 3
dÃ©barra@@ 3
rid 3
dÃ©couverte 3
rions 3
Pro@@ 3
niques 3
arrogants 3
cro 3
appartement 3
197@@ 3
tiendra 3
cre@@ 3
di 3
aidera 3
vivait 3
trava@@ 3
loved 3
Ã©prouve 3
inven@@ 3
tomba 3
promener 3
Ã©n@@ 3
travaill@@ 3
tonne 3
concerne 3
netto@@ 3
Ã©checs 3
cis 3
198@@ 3
ates 3
seau 3
convient 3
blan@@ 3
mons 3
seat 3
Ã©coute 3
poignÃ©e 3
cacahuÃ¨tes 3
known 3
iste 3
contient 3
poison 3
mÃ©rit@@ 3
apparu 3
pouvaient 3
extrÃªmement 3
ravi 3
pure 3
habitait 3
dest@@ 3
essez 3
ori@@ 3
Ãªte 3
rÃ©veille 3
deviner 3
arch@@ 3
mation 3
attraper 3
arti@@ 3
Ã©ra 3
pratiquement 3
adop@@ 3
Ã©gard 3
dÃ©pourvu 3
promenade 3
ber@@ 3
instru@@ 3
incen@@ 3
bÃ©nÃ©@@ 3
Ju@@ 3
Nancy 3
prÃ©fÃ¨res 3
numÃ©ri@@ 3
emprunte 3
veloppÃ© 3
verres 3
bril@@ 3
hypothÃ¨se 3
exercise 3
auprÃ¨s 3
popular 3
signification 3
people@@ 3
mÃ©tho@@ 3
illage 3
autor@@ 3
cordes 3
excuser 3
termine 3
Ã©gage 3
rob@@ 3
dro@@ 3
my@@ 3
rÃªves 3
rÃ©alis@@ 3
eront 3
bagages 3
riel 3
gÃ©n@@ 3
itif 3
excÃ¨s 3
conseilla 3
prÃ©hen@@ 3
joueurs 3
humili@@ 3
dette 3
destin 3
pleurait 3
situe 3
ger@@ 3
cuisinier 3
essayez 3
jetez 3
isn 3
frontiÃ¨re 3
vÃ©ri@@ 3
coffre 3
ciseaux 3
premiers 3
ctement 3
isez 3
sÃ»res 3
avril 3
nov@@ 3
souffle 3
tÃ©moin 3
run 3
domaine 3
alisation 3
remise 3
digne 3
reprÃ©sent@@ 3
science 3
illa 3
Ã©teindre 3
endu 3
vit@@ 3
trouverez 3
guer@@ 3
denti@@ 3
grandmother&apos; 3
habituellement 3
prÃ©occupa@@ 3
sieste 3
matinÃ©e 3
walked 3
refusÃ© 3
atomique 3
pacifi@@ 3
bouteilles 3
rÃ©cemment 3
manife@@ 3
stations 3
publiÃ© 3
communi@@ 3
presse 3
dÃ©clar@@ 3
utiles 3
Ã©tudient 3
cho@@ 3
dÃ©s 3
cassÃ©e 3
involved 3
efficace 3
essenti@@ 3
ridicu@@ 3
portez 3
expÃ©ri@@ 3
cerveau 3
jure 3
univers@@ 3
statue 3
rÃ©sistance 3
facture 3
mondiale 3
Anne 3
lon@@ 3
trou@@ 3
Ã©levÃ©s 3
aurez 3
loyer 3
secours 3
assure 3
stÃ© 3
projets 3
tempÃªte 3
pÃªche 3
pÃ©trole 3
jeta 3
street 3
happening 3
Ã©coutez 3
senti@@ 3
paresseu@@ 3
ghosts 3
tai 3
dÃ©conne 3
ondance 3
abandon@@ 3
retrouvÃ© 3
cinÃ©@@ 3
mat@@ 3
volontaire 3
drÃ´le 3
ennuyeux 3
something&apos; 3
ous 3
bande 3
moteur 3
explication 3
illÃ©e 3
become 3
titre 3
continuÃ© 3
moquer 3
Ã¨ne 3
disparu 3
tremblement 3
market 3
life&apos; 3
envis@@ 3
bouil@@ 3
construction 3
minu@@ 3
accent 3
sud 3
idÃ©@@ 3
parliez 3
disponi@@ 3
passage 3
convaincu 3
En@@ 3
rich@@ 3
vague 3
pizza 3
rÃ©di@@ 3
identi@@ 3
addition 3
oul 3
entretenir 3
impatient 3
rablement 3
siÃ¨ge 3
poup@@ 3
bouche 3
merveilleu@@ 3
invention 3
fonctionnÃ© 3
choisi 3
ut 3
her@@ 3
commentaire 3
gentleman 3
trice 3
dÃ©nu@@ 3
idiote 3
rÃªve 3
mangez 3
imagination 3
assi@@ 3
start 3
sÃ©jour@@ 3
pauvres 3
garderai 3
expensive 3
then 3
val@@ 3
comprennent 3
gel@@ 3
poÃ¨te 3
aimaient 3
devenue 3
suggest 3
rigo@@ 3
const@@ 3
fausse 3
lune 3
miel 3
remonter 3
dÃ©cor@@ 3
ja@@ 3
ponaises 3
prÃª@@ 3
dÃ©pÃªcher 3
pensÃ©es 3
fo@@ 3
dÃ©c@@ 3
autoritÃ© 3
bes 3
nerveu@@ 3
maths 3
virus 3
cherchait 3
sÃ»rs 3
gle 3
loge 3
enverrai 3
playing 3
cement 3
chirur@@ 3
apparence 3
grandi 3
str@@ 3
alien 3
plom@@ 3
dirent 3
quez 3
itu@@ 3
Hon@@ 3
mourut 3
grandfather 3
compor@@ 3
daire 3
accor@@ 3
Ã©lectri@@ 3
bli 3
Susan 3
dÃ©termination 3
symbole 3
voulaient 3
maisons 3
cuisiniÃ¨re 3
chÃ©s 3
intelligents 3
montrent 3
serrÃ© 3
saches 3
tatou@@ 3
regrette 3
secr@@ 3
lig@@ 3
tempÃ©rature 3
hÃ©roÃ¯ne 3
arrose 3
pigeons 3
Ã©coutes 3
SMS 3
malheu@@ 3
amÃ©liorÃ© 3
unes 3
haute 3
buste 3
rempli 3
apporter 3
fla@@ 3
aine 3
rempla@@ 3
plaintes 3
fil@@ 3
Ã©ment 3
fiche 3
nons 3
recu@@ 3
sÅ“urs 3
guerrier 3
persÃ©vÃ©rance 3
tourner 3
fian@@ 3
architecte 3
guer 3
tarte 3
diez 3
Ã©ner@@ 3
contraire 3
fournir 3
pot 3
eriez 3
prudents 3
monnaie 3
rentrÃ©e 3
sortons 3
fÃª@@ 3
vies 3
far@@ 3
feuille 3
persuader 3
aliste 3
mammifÃ¨re 3
sitÃ© 3
solaire 3
survivants 3
sonnÃ© 3
amÃ©rica@@ 3
spÃ©@@ 3
obligÃ©e 3
dieu 3
rapporte 3
chambres 3
ires 3
allumer 3
chem@@ 3
Ã©ping@@ 3
incalculable 3
Ã¨que 3
dÃ©clarÃ© 3
crois@@ 3
enva@@ 3
posÃ© 3
difficultÃ© 3
poussÃ© 3
yÃ© 3
haven&apos; 3
construit 3
renom@@ 3
mÃ©s 3
promis 3
voler 3
dÃ©sa@@ 3
uns 3
conserv@@ 3
artifi@@ 3
rangÃ© 3
Ã©tudiÃ© 3
con 3
rÃ©cla@@ 3
avancÃ© 3
friendly 3
Å“uvre 3
changements 3
Ã§ais 3
tier 3
assurer 3
cannot 3
manquÃ© 3
Nations 3
Uni@@ 3
Ã©rÃ©e 3
approche 3
sorti 3
Ã©lÃ©@@ 3
myst@@ 3
refuse 3
tables 3
intime 3
histoires 3
annulÃ©e 3
Italy 3
prÃ©cieux 3
dÃ©couv@@ 3
manu@@ 3
second@@ 3
Ã©ter 3
crit 3
vois@@ 3
envisage 3
ore 3
perd 3
guÃ¨re 3
voulut 3
thÃ©@@ 3
divor@@ 3
frappÃ© 3
difficiles 3
excu@@ 3
prouver 3
fournit 3
Canada 3
manquez 3
prati@@ 3
occupÃ©es 3
victoire 3
passa 3
amitiÃ© 3
cations 3
travaillons 3
indique 3
crayon 3
viande 3
franÃ§@@ 3
rÃ©con@@ 3
touristes 3
cales 3
disputer 3
honneur 3
tal@@ 3
idÃ©es 3
publicitÃ© 3
options 3
chait 3
natu@@ 3
relle 3
pÃ©ril 3
6 3
attirer 3
hÃ©r@@ 3
citoyens 3
pratique 3
sence 3
exigÃ© 3
prÃ©sentÃ© 3
mange@@ 3
prÃ©voyez 3
objet 3
gÃ©ante 3
boivent 3
litres 3
ignit 3
cible 3
habituer 3
chÃ¢@@ 3
teau 3
fatiguÃ©e 3
bli@@ 3
scÃ¨ne 3
commenÃ§@@ 3
conta@@ 3
Ã©tagÃ¨re 3
nuages 3
issent 3
compatis 3
lÃ©ger 3
omb 3
coupa 3
gardÃ© 3
autorisÃ© 3
pÃ©nÃ©trer 3
pÃ©riode 3
adorent 3
dÃ©pÃªchÃ© 3
thing&apos; 3
file 3
longue 3
avou@@ 3
ence@@ 3
enregi@@ 3
chouette 3
irs 3
Ã©goÃ¯ste 3
cul@@ 3
professionnel 3
peindre 3
goÃ»t 3
oppos@@ 3
valeur 3
star 3
arrivÃ©s 3
ye 3
nouveaux 3
points 3
La 3
consÃ©quences 3
mai@@ 3
sance 3
zone 3
quotidi@@ 3
tern@@ 3
crÃ©Ã© 3
sig@@ 3
vivez 3
Å“uf 3
Ã©pousÃ© 3
employer 3
couvert 3
fert 3
courageux 3
tru@@ 3
reÃ§@@ 3
commentaires 3
dÃ©jeunÃ© 3
sortis 3
ader 3
dedans 3
pÃ©n@@ 3
diam@@ 3
entra 3
pantalon 3
arrÃª@@ 3
salon 3
minimum 3
issons 3
quartier 3
apprÃ©cient 3
mondial 3
lapins 3
courte 3
diplom@@ 3
confis@@ 3
personnel 3
brown 3
sentences 3
issait 3
soutenu 3
serons 3
sents 3
ffe 3
sante 3
ami@@ 3
mouvement 3
gale 3
dÃ©es 3
airement 3
maladies 3
vol 3
rÃ©pan@@ 3
compen@@ 3
sidentielle 3
intÃ©ressÃ©s 3
prÃ©sente 3
ti 3
mme 3
Ã®t 3
regarda 3
lib@@ 3
pÃª@@ 3
ule 3
prÃ©venue 3
Ã©coutÃ© 3
reconna@@ 3
Ã©vÃ¨@@ 3
camion 3
ouvertes 3
int@@ 3
consacr@@ 3
disposais 3
donn@@ 3
rÃ©guliÃ¨rement 3
vez 3
glace 3
Ã©clai@@ 3
tas 3
prendrais 3
Ã©lÃ¨ve 3
su 3
jau@@ 3
opportunitÃ© 3
visit 3
rÃ©colte 3
valis@@ 3
ore@@ 3
ps 3
pin 3
matÃ©ri@@ 3
mp@@ 3
b 3
partira 3
essaya 3
pez 3
fonction@@ 3
naire 3
cle@@ 3
neig@@ 3
coups 3
conscient 3
nations 3
prÃ©ci@@ 3
langage 3
eÃ»t 3
ole 3
chaussettes 3
crowd 3
morte 3
fÃ¢chÃ© 3
geons 3
entraÃ®ner 3
soudainement 3
dÃ©pensÃ© 3
thanks 3
clean 3
aura 3
Ã©le@@ 3
chinoise 3
dÃ©fil@@ 3
mÃ©daille 3
rir 3
cou 3
endommag@@ 3
cieusement 3
trez 3
depends 3
dÃ©cÃ©dÃ© 3
manuel 3
amen@@ 3
qu 3
allÃ©es 3
descend@@ 3
fÃ»mes 3
essai@@ 3
texte 3
Com@@ 3
bÃ»@@ 3
hari@@ 3
britan@@ 3
vou@@ 3
ramassÃ© 3
derniÃ¨res 3
disposes 3
soucie 3
choc 3
2013 3
siÃ¨cle 3
ctÃ© 3
Ã©rieur 3
anges 3
pneu 3
silencieuse 3
travail@@ 3
frappa 3
vÃ©cut 3
pÃ¨se 3
frappe 3
assist@@ 3
smoke 3
menti@@ 3
jaloux 3
dingue 3
dessert 3
disposent 3
doutes 3
araignÃ©e 3
dogs 3
ara@@ 3
connus 3
lave 3
travaillais 3
inqui@@ 3
conseille 3
sentait 3
trou 3
noire 3
lim@@ 3
diffÃ©rente 3
ari@@ 3
prÃ©visions 3
terme 3
enlÃ¨ve 3
sale 3
tentation 3
gÃª@@ 3
isÃ© 3
arrÃªtÃ©e 3
diffÃ¨re 3
rÃ©g@@ 3
tÃ¨rent 3
supermarchÃ© 3
dÃ©sire 3
intÃ©resse 3
dentiste 3
ivre 3
drunk 3
tribunal 3
reprendre 3
mb@@ 3
aimerions 3
humains 3
rencontrons 3
doigt 3
latin 3
roi 3
Ã®tr@@ 3
dr@@ 3
effra@@ 3
sentiment 3
heurtÃ© 3
aban@@ 3
mec 3
connaissent 3
Paul 3
constru@@ 3
pyrami@@ 3
semblent 3
rang 3
Mat@@ 3
trÃ©@@ 3
misÃ©ri@@ 3
discu@@ 3
vitÃ© 3
soup@@ 3
juge 3
effrayÃ© 3
Ã©chouÃ© 3
soucier 3
Ã©lectronique 3
recherch@@ 3
tend@@ 3
envers 3
emmÃ¨ne 3
aimais 3
cacher 3
jupe 3
maÃ®tre 3
putain 3
internationale 3
ferions 3
ion 3
tho@@ 3
remment 3
dors 3
entation 3
amusante 3
peu@@ 3
arrivait 3
biscuits 3
jet@@ 3
instructions 3
membre 3
souhaiter 3
yen 3
barra@@ 3
aides 3
vÃ©@@ 3
lement 3
siÃ¨cles 3
alentours 3
espÃ©r@@ 3
maÃ®tri@@ 3
rÃ©uss@@ 3
sÃ©rieuse 3
rÃ©pu@@ 3
yens 3
mÃ©r@@ 3
tÃ©lÃ©phones 3
devais 3
financi@@ 3
Ã¨tre 3
cir@@ 3
aimons 3
preuves 3
constamment 3
trompet@@ 3
affir@@ 3
8@@ 3
bizarrement 3
dÃ¨s 3
appelons 3
dÃ©ci@@ 3
pare 3
assise 3
ssÃ©s 3
vive 3
tat 3
rap@@ 3
match 3
repro@@ 3
gÃ©nies 3
convain@@ 3
regardes 3
part@@ 3
Sa@@ 3
copies 3
vitesse 3
boutique 3
prÃ©cip@@ 3
pauvretÃ© 3
plaire 3
nÃ©@@ 3
pleine 3
joindre 3
supplÃ©mentaire 3
animals 3
ffer 3
ouvre 3
miracle 3
driver&apos; 3
attaquÃ©s 3
cÃ©rÃ©monie 3
aspe@@ 3
Re@@ 3
angle 3
ier 3
apologize 3
repasser 3
rock 3
plon@@ 3
pareil 3
mess 3
fiable 3
ressez 3
Ã©ton@@ 3
enseignÃ© 3
entiÃ¨re 3
compliquÃ© 3
sil@@ 3
opÃ©@@ 3
omi 3
annu@@ 3
stupides 3
magnifi@@ 3
bank 3
rappelles 3
adorable 3
mÃª@@ 3
tromper 3
curi@@ 3
arriverait 3
invitÃ©e 3
tÃ©lÃ©@@ 3
but@@ 3
crÃ©dit 3
da 3
mirent 3
anta@@ 3
reviendra 3
continuer 3
mati@@ 3
prend@@ 3
tÃ©nu@@ 3
virÃ© 3
escali@@ 3
gÃ©s 3
mÃ©di@@ 3
quotidien 3
mariÃ©e 3
ain@@ 3
effectu@@ 3
Ã§ons 3
manquent 3
ambition 3
viez 3
dÃ©licieux 3
exemple 3
circonstances 3
craig@@ 3
Ã©pais 3
erons 3
ennuy@@ 3
failure 3
pondu 3
aren&apos; 3
kilom@@ 3
stable 3
Ã©ru@@ 3
parte 3
immÃ©di@@ 3
servi@@ 3
pendante 3
Kyoto 3
sto@@ 3
talent 3
coule 3
exem@@ 3
sold 3
blue 3
informations 3
enc@@ 3
regardant 3
size 3
zÃ©ro 3
suspecte 3
indre 3
gÃ©rie 3
itÃ©es 3
pousse 3
stu@@ 3
tin 3
bord 3
20@@ 3
fran@@ 3
Ã©tudes 3
gentille 3
gau@@ 3
fiÃ¨re 3
bÃª@@ 3
television 3
prÃ©sen@@ 3
minuit 3
singer 3
particuliÃ¨rement 3
task 3
vir@@ 3
bronz@@ 3
sagesse 3
princi@@ 3
Ã©trang@@ 3
rÃ©vÃ©@@ 3
chon 3
critiques 3
paro@@ 3
spire 3
hit 3
rÃ©pÃ©tition 3
strong 3
mÃ©tÃ©orologiques 3
dÃ©coura@@ 3
quarante 3
milliers 3
rentrÃ© 3
test 3
tandis 3
chaise 3
manquait 3
partis 3
Ã©volution 3
supposÃ©s 3
blo@@ 3
tapis 3
souhaitez 3
rues 3
toilet 3
pousser 3
cale 3
uni@@ 3
manques 3
pensait 3
appli@@ 3
sie 3
dÃ©fi 3
lav@@ 3
colline 3
rÃ©fu@@ 3
responsabilitÃ© 3
ssiÃ¨re 3
ottes 3
ridiculi@@ 3
borrow 3
europÃ©enne 3
Ã©tr@@ 3
den@@ 3
oi@@ 3
sensible 3
tut 3
liez 3
primÃ© 3
oublier 3
merde 3
entra@@ 3
couchÃ© 3
quotidienne 3
lise 3
stres 3
Ã©galitÃ© 3
conclu 3
crÃ¨me 3
libertÃ© 3
plafond 3
ach@@ 3
rÃ©ussi@@ 3
dÃ©f@@ 3
alisme 3
dispar@@ 3
porterai 3
Ã©trangers 3
volont@@ 3
logique 3
ment@@ 3
rique 3
justice 3
ol@@ 3
adap@@ 3
ard@@ 3
dorment 3
Ã©puisÃ© 3
satisfied 2
tons 2
des@@ 2
aim@@ 2
ic@@ 2
studying 2
Po@@ 2
sil 2
cess@@ 2
ssi@@ 2
Yu@@ 2
reconnaiss@@ 2
Ã©cureu@@ 2
Ã¨le 2
move 2
ambulance 2
cruel 2
lette 2
lion 2
progre@@ 2
mÃ©dec@@ 2
este 2
obs@@ 2
cur@@ 2
hÃ¢@@ 2
athy 2
pir@@ 2
matiques 2
introdu@@ 2
aima@@ 2
terrible 2
vil@@ 2
semb@@ 2
contribu@@ 2
lin@@ 2
pian@@ 2
tradu@@ 2
wasn 2
ingÃ©ni@@ 2
ade 2
inspiration 2
sign@@ 2
attitude 2
pati@@ 2
Mike 2
simp@@ 2
assa@@ 2
laient 2
Jackson 2
spoke 2
card 2
ements 2
han@@ 2
gal@@ 2
active 2
publi@@ 2
horse 2
biologi@@ 2
prior@@ 2
tue 2
Ken 2
gen@@ 2
expli@@ 2
microscope 2
ris 2
provi@@ 2
male 2
dire@@ 2
J 2
zi@@ 2
priv@@ 2
ms 2
ome 2
accompli@@ 2
diagno@@ 2
monie 2
anta 2
quÃ©s 2
kilos 2
mentation 2
Green 2
batt@@ 2
ani@@ 2
laughing 2
habit@@ 2
Å“ur 2
sings 2
dom@@ 2
cin@@ 2
pun@@ 2
some@@ 2
oux 2
vidence 2
mili@@ 2
industri@@ 2
ty@@ 2
Ã´tre 2
goÃ»@@ 2
tro@@ 2
Ã©l@@ 2
amÃ©lior@@ 2
alis@@ 2
cous@@ 2
professeu@@ 2
Jo@@ 2
intimi@@ 2
fication 2
social 2
Osaka 2
avo@@ 2
ay@@ 2
secon@@ 2
oma@@ 2
worried 2
191@@ 2
Eiffel 2
institu@@ 2
lots 2
ouvr@@ 2
Sal@@ 2
bin@@ 2
tin@@ 2
obli@@ 2
pli@@ 2
ciles 2
Se@@ 2
Ã©rie 2
banan@@ 2
S 2
Helen 2
arrogance 2
suppor@@ 2
Friday 2
vac@@ 2
race 2
choir 2
respect 2
figure 2
Pyth@@ 2
Mag@@ 2
nomb@@ 2
Celsius 2
tte 2
fas@@ 2
Ã©ni@@ 2
physi@@ 2
tiv@@ 2
50 2
patients 2
lais 2
App@@ 2
Sou@@ 2
vers@@ 2
diffÃ©ren@@ 2
prison@@ 2
White 2
formul@@ 2
read@@ 2
rather 2
pap@@ 2
diploma@@ 2
rÃ©p@@ 2
parati@@ 2
nÃ©es 2
navi@@ 2
autumn 2
pruden@@ 2
curio@@ 2
favourite 2
fabri@@ 2
robot 2
god 2
client 2
ettre 2
cal 2
cool 2
confir@@ 2
version 2
acceptable 2
bran@@ 2
esses 2
statu@@ 2
consi@@ 2
procha@@ 2
montr@@ 2
ction@@ 2
hobby 2
Har@@ 2
regret@@ 2
1 2
club 2
My@@ 2
parties 2
dange@@ 2
Es@@ 2
wish 2
reu@@ 2
sm@@ 2
Tur@@ 2
ours 2
Chil@@ 2
conditi@@ 2
headache 2
endro@@ 2
diale@@ 2
souha@@ 2
commerce 2
alibi 2
favorable 2
bug 2
voi@@ 2
nation 2
pus 2
lun@@ 2
human@@ 2
ances 2
bru@@ 2
200@@ 2
meilleu@@ 2
ie@@ 2
Euro@@ 2
itage 2
past@@ 2
150 2
,@@ 2
spectat@@ 2
affai@@ 2
tive 2
coo@@ 2
spend 2
vacation 2
cultures 2
dÃ©p@@ 2
( 2
) 2
feeling 2
Christop@@ 2
barbecue 2
oranges 2
suc@@ 2
re&apos; 2
exist@@ 2
waste 2
climat@@ 2
Ala@@ 2
Bar@@ 2
ack 2
gold 2
over 2
dÃ©cÃ©@@ 2
avantage 2
mment 2
capa@@ 2
sidenti@@ 2
Ã´t 2
clim@@ 2
fli@@ 2
Peter 2
add@@ 2
40 2
11 2
lumi@@ 2
Ã©puis@@ 2
ving@@ 2
mater@@ 2
both 2
supplÃ©ment@@ 2
Ã©to@@ 2
gl@@ 2
pharma@@ 2
lations 2
allu@@ 2
super@@ 2
acci@@ 2
autom@@ 2
obiles 2
mosqu@@ 2
dans@@ 2
favor@@ 2
dorm@@ 2
Mayuko 2
Ã´mes 2
quant@@ 2
pil@@ 2
tomb@@ 2
ints 2
paper@@ 2
vote 2
vable 2
impati@@ 2
Charles 2
Isra@@ 2
Ã«l 2
gation 2
hu@@ 2
lang@@ 2
engag@@ 2
rice 2
jeu@@ 2
painting 2
nav@@ 2
obligations 2
vain 2
tax@@ 2
Ã¢tre 2
manche 2
tex@@ 2
Ã©cr@@ 2
villes 2
serviettes 2
scr@@ 2
land@@ 2
honn@@ 2
Ro@@ 2
Un@@ 2
nour@@ 2
AmÃ©rica@@ 2
pic@@ 2
anxi@@ 2
consci@@ 2
aby@@ 2
emprun@@ 2
Mennad 2
Ã”@@ 2
rare 2
Afri@@ 2
forces 2
painted 2
dre@@ 2
Hit@@ 2
nationale 2
Mosco@@ 2
Ã©clat@@ 2
horri@@ 2
D 2
Jones 2
programme 2
Ne@@ 2
exig@@ 2
maux 2
morc@@ 2
raisins 2
gui@@ 2
mau@@ 2
n 2
magazines 2
sements 2
mations 2
concer@@ 2
aug@@ 2
world@@ 2
regret 2
corri@@ 2
YouTube 2
tÃ©@@ 2
jam@@ 2
pis@@ 2
every@@ 2
guide 2
offi@@ 2
ot@@ 2
dÃ©sor@@ 2
aspir@@ 2
Ã»t 2
desc@@ 2
observe 2
sacrifices 2
pp@@ 2
tale 2
ries 2
pea@@ 2
issue 2
8 2
pois@@ 2
sÃ©es 2
Lu@@ 2
fen@@ 2
empÃª@@ 2
insist@@ 2
cÃ´@@ 2
ail 2
trav@@ 2
pollution 2
mage 2
USB 2
effe@@ 2
smile 2
morgue 2
services 2
ctu@@ 2
arrives 2
blon@@ 2
internet 2
Yokohama 2
he@@ 2
countries 2
brill@@ 2
oblig@@ 2
k 2
distingu@@ 2
notes 2
ther@@ 2
Jeanne 2
sort@@ 2
proje@@ 2
7 2
traditi@@ 2
mbre 2
shop 2
Qu@@ 2
que@@ 2
souci@@ 2
bal 2
monta@@ 2
respect@@ 2
confi@@ 2
vic@@ 2
Jav@@ 2
RI@@ 2
prouve 2
particip@@ 2
murmu@@ 2
show@@ 2
Ste@@ 2
enter 2
conse@@ 2
licen@@ 2
eight 2
suspect 2
single 2
deny 2
techno@@ 2
side 2
volution 2
Ã§u 2
net 2
Bu@@ 2
labor@@ 2
ato@@ 2
chap@@ 2
ski@@ 2
bite 2
rÃ©sul@@ 2
ciation 2
Ã¨de 2
grou@@ 2
Ou@@ 2
san@@ 2
suppos@@ 2
sier 2
pos 2
galax@@ 2
isi@@ 2
sus 2
front 2
Maria 2
ct 2
mÃ©ri@@ 2
pres@@ 2
ball@@ 2
fra@@ 2
rose 2
machine 2
chaus@@ 2
esp@@ 2
rentr@@ 2
bom@@ 2
nit 2
X@@ 2
pau@@ 2
seri@@ 2
&apos;ll 2
we@@ 2
studied 2
Sh@@ 2
Jim@@ 2
bel@@ 2
Australi@@ 2
Mal@@ 2
action 2
lin 2
ara 2
Chopin 2
connaiss@@ 2
whis@@ 2
ky 2
expressions 2
intelligence 2
form@@ 2
effort 2
fle@@ 2
ail@@ 2
rÃ©sou@@ 2
erre 2
profon@@ 2
bro@@ 2
import@@ 2
inclu@@ 2
Ã©nor@@ 2
gon@@ 2
sandwi@@ 2
alternative 2
sold@@ 2
fre@@ 2
drank 2
sci@@ 2
neighbors 2
singu@@ 2
ize 2
Alle@@ 2
tom@@ 2
lÃ©gu@@ 2
died 2
p 2
vengeance 2
Sunday 2
profit 2
inst@@ 2
explosion 2
Hi@@ 2
ls 2
meil@@ 2
medicine 2
pictures 2
cy@@ 2
ret@@ 2
ran@@ 2
WhatsApp 2
poss@@ 2
alement 2
magas@@ 2
journ@@ 2
onique 2
wa@@ 2
excellent 2
verrai 2
absor@@ 2
18@@ 2
60 2
sident 2
cue 2
Ito 2
sation 2
Ã©qui@@ 2
vend@@ 2
spatial 2
stayed 2
Sach@@ 2
cile 2
permit 2
out@@ 2
sciences 2
tail 2
objection 2
immor@@ 2
pol@@ 2
convainc@@ 2
soccer 2
Ã©cu@@ 2
dÃ©tru@@ 2
occup@@ 2
Canadi@@ 2
awa 2
las 2
religion 2
flower 2
Ex@@ 2
ry 2
employ@@ 2
Tanaka 2
rempl@@ 2
invincible 2
Ã©ti@@ 2
stri@@ 2
off@@ 2
vÃ©l@@ 2
28 2
4000 2
nÃ©cess@@ 2
Car@@ 2
solu 2
guests 2
suiv@@ 2
un@@ 2
glo@@ 2
angles 2
retar@@ 2
leaving 2
Hen@@ 2
15 2
supp@@ 2
reuses 2
dea@@ 2
blonde 2
probabil@@ 2
exclu@@ 2
extr@@ 2
nie 2
milit@@ 2
Ank@@ 2
intÃ©r@@ 2
Ã¨tes 2
cots 2
san 2
C 2
conclusions 2
ince 2
particu@@ 2
pouv@@ 2
ignorance 2
yo@@ 2
et@@ 2
Mars 2
mignon@@ 2
songe 2
nag@@ 2
ones 2
taxes 2
6@@ 2
nette 2
velopp@@ 2
treated 2
colo@@ 2
Chinese 2
ois 2
mari@@ 2
diff@@ 2
alphabet 2
Google 2
Mac@@ 2
pru@@ 2
che@@ 2
teeth 2
ceiling 2
augment@@ 2
broken 2
pisto@@ 2
Son@@ 2
orig@@ 2
Akag@@ 2
var@@ 2
surface 2
crimin@@ 2
vidÃ©@@ 2
vio@@ 2
chanc@@ 2
ea@@ 2
â€‹ 2
having 2
neur 2
Tony 2
telling 2
bra@@ 2
ane 2
itiÃ© 2
rav@@ 2
articles 2
memory 2
Union 2
rat@@ 2
effor@@ 2
cel@@ 1
rÃ©col@@ 1
ordin@@ 1
Invite 1
messages 1
Brit@@ 1
Esperanto 1
kio 1
Mis@@ 1
hima 1
chers 1
andrange 1
Ã§ois 1
rappel@@ 1
gons 1
stupi@@ 1
Kobe 1
pirate 1
alloween 1
ilÃ 1
300 1
yuan 1
pet 1
ooker 1
pick 1
allas 1
cat@@ 1
guides 1
source 1
limousines 1
Hu@@ 1
mmer 1
vident 1
couples 1
agres@@ 1
condition@@ 1
exemp@@ 1
ba 1
analo@@ 1
dÃ©con@@ 1
remerci@@ 1
boute@@ 1
deni@@ 1
nel@@ 1
distan@@ 1
imp@@ 1
civili@@ 1
sinfectants 1
milia 1
marketing 1
lor@@ 1
corpus 1
influence 1
Russian 1
ex 1
atri@@ 1
cem@@ 1
sel@@ 1
sugg@@ 1
politi@@ 1
ar 1
Du@@ 1
blin 1
hop 1
occu@@ 1
ticip@@ 1
evin 1
ash 1
local 1
pneu@@ 1
rise 1
copi@@ 1
rapp@@ 1
mÃ©tr@@ 1
lat@@ 1
Ã©ralement 1
ettez 1
mug 1
campus 1
vot@@ 1
semi 1
sag@@ 1
occa@@ 1
mag@@ 1
timid 1
ancho@@ 1
sec 1
rÃ©flÃ©ch@@ 1
phi@@ 1
commer@@ 1
divers@@ 1
snob 1
goo@@ 1
voudri@@ 1
industrialis@@ 1
oxyg@@ 1
fect@@ 1
nourr@@ 1
Ã®tre 1
continu@@ 1
Z@@ 1
ande 1
Ar@@ 1
gent@@ 1
mm 1
ing@@ 1
opkins 1
eichelt 1
parachute 1
timi@@ 1
races 1
verti@@ 1
tations 1
phon 1
walks 1
simu@@ 1
poet 1
andra 1
tan@@ 1
righ@@ 1
documents 1
believed 1
possibil@@ 1
older 1
bac@@ 1
patio 1
thou@@ 1
sia@@ 1
holl@@ 1
woo@@ 1
fall 1
appr@@ 1
eller 1
monade 1
poses 1
lo 1
Portu@@ 1
gal 1
selfie 1
rumin@@ 1
colonies 1
H 1
hydrog@@ 1
anti@@ 1
was@@ 1
speaking 1
kawa 1
Q 1
fici@@ 1
affli@@ 1
100 1
cate 1
button 1
ally 1
souv@@ 1
heur@@ 1
trer 1
foo 1
pain@@ 1
conju@@ 1
Ã©a 1
din@@ 1
mement 1
served 1
itude 1
America 1
erra@@ 1
civi@@ 1
Ã©c@@ 1
haramp 1
hanksgiving 1
thermostat 1
helped 1
automobile 1
musici@@ 1
melon 1
bot@@ 1
union 1
ski 1
positive 1
hal@@ 1
interaction 1
dynami@@ 1
bin 1
eagan 1
ambassad@@ 1
apparti@@ 1
pÃ©ri@@ 1
spo@@ 1
seize 1
sak@@ 1
q@@ 1
lejandra 1
Ã¨ce 1
reusement 1
spring 1
pages 1
gres@@ 1
ative 1
passe@@ 1
ports 1
annul@@ 1
ide@@ 1
cocktail 1
amÃ©li@@ 1
venge@@ 1
poker 1
photosyn@@ 1
exception 1
miles 1
objective 1
strat@@ 1
rhu@@ 1
Pr@@ 1
incess 1
ride 1
tact 1
signifi@@ 1
ini@@ 1
aza 1
tsunami 1
til@@ 1
vision 1
reli@@ 1
dÃ©jeu@@ 1
offense 1
quo 1
Ã´ 1
demo@@ 1
scan@@ 1
fatal 1
condol@@ 1
accept 1
ouver@@ 1
fear 1
prÃ©fÃ©@@ 1
ptem@@ 1
multilingu@@ 1
claustropho@@ 1
terai 1
kara@@ 1
ok@@ 1
dÃ©la@@ 1
atte@@ 1
conf@@ 1
Ã©ren@@ 1
Nor@@ 1
fronti@@ 1
religi@@ 1
sadi@@ 1
masochi@@ 1
passes 1
incorrigible 1
ater 1
any@@ 1
ydney 1
maient 1
War@@ 1
craft 1
advers@@ 1
ska 1
daughters 1
levant 1
At@@ 1
tampa 1
bama 1
perspe@@ 1
fluctu@@ 1
mondi@@ 1
fices 1
vide@@ 1
prote@@ 1
lit@@ 1
civ@@ 1
ddhi@@ 1
invitation 1
illu@@ 1
guilty 1
compar@@ 1
anque 1
anger 1
serve 1
cast@@ 1
ors 1
played 1
altru@@ 1
resse 1
collabor@@ 1
bigot 1
diagon@@ 1
luck 1
ran 1
basket 1
itive 1
tain 1
causes 1
violence 1
cirrho@@ 1
hou@@ 1
gru@@ 1
hus@@ 1
purification 1
fluores@@ 1
history 1
conven@@ 1
incorrigi@@ 1
agasaki 1
comic 1
venge 1
torture 1
Ã»mes 1
steak 1
arro@@ 1
discrimin@@ 1
conn@@ 1
vital 1
news@@ 1
confu@@ 1
high@@ 1
cigarettes 1
Ã” 1
worth 1
boy@@ 1
tter 1
olives 1
collisions 1
dies 1
franch@@ 1
tw@@ 1
great@@ 1
fat 1
sants 1
schoo@@ 1
calcul@@ 1
toile 1
hula 1
hoop 1
curry 1
yon@@ 1
former 1
tubercu@@ 1
raining 1
suspici@@ 1
professions 1
aig@@ 1
appe@@ 1
collaborative 1
mem@@ 1
ambul@@ 1
vÃ©r@@ 1
univer@@ 1
vatar 1
elfast 1
commission 1
intact 1
dÃ©laÃ¯de 1
orent 1
famil@@ 1
supplÃ©@@ 1
gre@@ 1
ron 1
regrettable 1
liv@@ 1
rance 1
acc@@ 1
cence 1
reative 1
ern@@ 1
2.@@ 1
fr 1
tendin@@ 1
seille 1
rettes 1
mum 1
champagne 1
suici@@ 1
ets 1
W@@ 1
ayne 1
crai@@ 1
gni@@ 1
adul@@ 1
Dis@@ 1
dig@@ 1
ban 1
4@@ 1
contradiction 1
ymar 1
centi@@ 1
plenty 1
chewing 1
gum 1
bars 1
aphrodisia@@ 1
mas 1
arrested 1
contex@@ 1
flat@@ 1
orp@@ 1
hel@@ 1
mission 1
clai@@ 1
abstra@@ 1
reur 1
ao@@ 1
sy@@ 1
mpa 1
kilt 1
esnais 1
avid 1
normal 1
Mil@@ 1
atmo@@ 1
spa@@ 1
mil@@ 1
flo@@ 1
user 1
transfusions 1
bloo@@ 1
upstairs 1
g&apos; 1
suicide 1
tech@@ 1
xembourg 1
tab@@ 1
oub 1
ounes 1
ly@@ 1
guys 1
hall 1
tradition 1
Y 1
conclusion 1
objecti@@ 1
adi@@ 1
Ã§on 1
excell@@ 1
endom@@ 1
quit@@ 1
ache@@ 1
scar 1
photo@@ 1
plat@@ 1
Univers@@ 1
Tu@@ 1
fts 1
impact 1
survi@@ 1
vrai@@ 1
cesco 1
indu@@ 1
nex@@ 1
grap@@ 1
magi@@ 1
arah 1
Wi@@ 1
kileaks 1
coming 1
yon 1
tem@@ 1
mÃ¨ne 1
obinson 1
huge 1
administration 1
sources 1
proposes 1
ange 1
abo@@ 1
conver@@ 1
simulation 1
cuisin@@ 1
mocr@@ 1
lies 1
strict 1
kinds 1
pron@@ 1
itement 1
urgent 1
sso 1
aca@@ 1
beau@@ 1
sculpture 1
ite@@ 1
pickpocket 1
servant 1
T 1
handle 1
musi@@ 1
bara 1
dotes 1
Ti@@ 1
festival 1
N 1
plans 1
asparov 1
challenger 1
spe@@ 1
phen 1
bert 1
10@@ 1
.@@ 1
000 1
pack 1
ennon 1
desk 1
inf@@ 1
iture 1
conditions 1
pizzeria 1
Ã©goÃ¯@@ 1
ception 1
let@@ 1
suy@@ 1
7@@ 1
9 1
j 1
tterbrot 1
clari@@ 1
mbres 1
spati@@ 1
upiter 1
gaz@@ 1
vacu@@ 1
contents 1
humi@@ 1
conne@@ 1
souda@@ 1
touri@@ 1
ax 1
atricia 1
clarification 1
phÃ©@@ 1
document 1
magne 1
xford 1
hosp@@ 1
akongo 1
sor@@ 1
finally 1
protect 1
Ã¨tement 1
heavy 1
mainten@@ 1
fant@@ 1
alphanu@@ 1
touch@@ 1
express 1
soluble 1
escor@@ 1
illusion 1
jard@@ 1
ust@@ 1
ero@@ 1
Bra@@ 1
silia 1
You@@ 1
gosla@@ 1
lable 1
premi@@ 1
cultu@@ 1
rel 1
urman@@ 1
ji 1
rapi@@ 1
ick 1
pressure 1
ck 1
Cap@@ 1
alas 1
ruse 1
ho 1
oriko 1
vanta@@ 1
distri@@ 1
19@@ 1
verdict 1
inobu 1
portion 1
prince 1
quic@@ 1
quar@@ 1
fortun@@ 1
amako 1
refuge 1
expi@@ 1
â€½ 1
style 1
idi@@ 1
pace 1
salt 1
rest 1
baseball 1
dÃ©pÃª@@ 1
thÃ©or@@ 1
hypo@@ 1
triangle 1
short 1
pago@@ 1
stanbul 1
veil@@ 1
shot 1
idioma@@ 1
radium 1
teuse 1
structure 1
ocre 1
chocolate 1
oca 1
Co@@ 1
lasses 1
fam@@ 1
ous@@ 1
inse@@ 1
victi@@ 1
buntu 1
set 1
lah 1
tat@@ 1
patrio@@ 1
expos@@ 1
nia 1
ed 1
chiko 1
kiko 1
cop@@ 1
point@@ 1
anmar 1
bir@@ 1
yachts 1
rechargea@@ 1
interro@@ 1
you@@ 1
Fr@@ 1
itz 1
seeing 1
got@@ 1
influ@@ 1
moire 1
applications 1
loyal 1
auto 1
cel 1
Ã©qu@@ 1
hÃ´p@@ 1
hockey 1
perfection@@ 1
naiss@@ 1
impressed 1
fati@@ 1
polit@@ 1
Central 1
zom@@ 1
cousins 1
ambo@@ 1
dge 1
mature 1
ident@@ 1
Eu@@ 1
expert 1
cyber@@ 1
anticip@@ 1
opin@@ 1
rati@@ 1
ing 1
sauce 1
pair 1
aka 1
circu@@ 1
did@@ 1
allergies 1
motel 1
commerci@@ 1
catalo@@ 1
laid 1
Pal@@ 1
Royal 1
enne@@ 1
euros 1
planning 1
nigh@@ 1
aut 1
jazz 1
Lin@@ 1
coln 1
cep@@ 1
traditions 1
thermom@@ 1
birth@@ 1
ties 1
boracasli 1
following 1
brioche 1
noise 1
changes 1
settes 1
opti@@ 1
Ã¢che 1
bambo@@ 1
aderborn 1
3@@ 1
pagne 1
dÃ¨le 1
fle 1
Å“u@@ 1
diffi@@ 1
cilement 1
od@@ 1
hamburger 1
fir@@ 1
combustion 1
mot@@ 1
abst@@ 1
drian 1
habits 1
aises 1
ounan 1
salons 1
pal 1
kin@@ 1
alim@@ 1
cable 1
gentil@@ 1
examine 1
sprint 1
final 1
sermon 1
pt 1
excellence 1
reprise 1
along 1
watch@@ 1
tower 1
endrix 1
fans 1
Ãƒ 1
Â© 1
tails 1
erez 1
instruments 1
questionnaire 1
akagawa 1
assistant 1
charg@@ 1
ressÃ© 1
âŠ‚ 1
inclusion 1
ardanus 1
countryside 1
finish 1
pier 1
hakespeare 1
ender 1
factures 1
incident 1
esc@@ 1
rist@@ 1
anako 1
mach@@ 1
sul@@ 1
dat@@ 1
a.@@ 1
gov 1
dures 1
lude 1
De@@ 1
bussy 1
passion@@ 1
twright 1
rit@@ 1
port 1
aples 1
litt@@ 1
aut@@ 1
py@@ 1
yazaki 1
Je@@ 1
jal@@ 1
ouse 1
recomm@@ 1
casino 1
planet 1
divorce 1
original 1
kraine 1
zart 1
bourg 1
sers 1
asc@@ 1
total 1
ffre 1
ption 1
statisti@@ 1
ordan 1
francs 1
grÃ© 1
visions 1
autre@@ 1
veillÃ© 1
pleased 1
pull 1
pture 1
stock 1
ah 1
handball 1
suffis@@ 1
Ã©lev@@ 1
barrica@@ 1
askervilles 1
surveillance 1
pends 1
bizar@@ 1
perman@@ 1
jeans 1
hammed 1
amou@@ 1
net@@ 1
natur@@ 1
ristina 1
exha@@ 1
intercep@@ 1
aniguchi 1
suspicion 1
real 1
crit@@ 1
daugh@@ 1
Ital@@ 1
Å“urs 1
code 1
ypti@@ 1
mun@@ 1
lecture 1
trombone 1
wton 1
Chri@@ 1
st 1
tensions 1
usu@@ 1
mans 1
alifor@@ 1
clipse 1
visible 1
ther 1
King 1
Germany 1
pilo@@ 1
combu@@ 1
direct@@ 1
prose 1
yth@@ 1
pom@@ 1
vre 1
maÃ®@@ 1
bet@@ 1
oro 1
camp 1
illusions 1
yoko 1
promen@@ 1
taking 1
ama@@ 1
collection 1
act@@ 1
marathon 1
stic 1
opinions 1
sist@@ 1
gig@@ 1
reconstru@@ 1
cates 1
loy@@ 1
requi@@ 1
parasol 1
assistance 1
abilitÃ© 1
rur@@ 1
blog 1
param@@ 1
glan@@ 1
mouv@@ 1
anim@@ 1
ctive 1
tÃ©mo@@ 1
outrage 1
paying 1
biscu@@ 1
im 1
sistance 1
duo 1
musical 1
cami@@ 1
distances 1
psycho@@ 1
ose 1
mayonnaise 1
mig@@ 1
azakhstan 1
jong 1
jury 1
circonst@@ 1
cles 1
infantile 1
acro@@ 1
expect 1
inspection 1
gence 1
Inter@@ 1
Atom@@ 1
voirs 1
psychi@@ 1
terrori@@ 1
girl@@ 1
contin@@ 1
gor@@ 1
virgin@@ 1
calories 1
blondes 1
ici@@ 1
eBay 1
colli@@ 1
intersection 1
passion 1
reand@@ 1
rela@@ 1
squ@@ 1
refused 1
auth@@ 1
pains 1
tempor@@ 1
blu@@ 1
arith@@ 1
bracelet 1
rt 1
mathÃ©@@ 1
Ja@@ 1
manus@@ 1
vÃ©rit@@ 1
motion@@ 1
mnesty 1
International 1
ebook 1
violent 1
indication 1
elson 1
andela 1
dations 1
frustr@@ 1
lection 1
couv@@ 1
Joh@@ 1
nson 1
tyran@@ 1
impsons 1
lton 1
chael 1
imparti@@ 1
adil 1
sympath@@ 1
driver 1
Ã¨g@@ 1
Go@@ 1
ldman 1
Russi@@ 1
rony@@ 1
prÃ©fÃ©r@@ 1
ranus 1
fol@@ 1
exact 1
suf@@ 1
caract@@ 1
dictatorial 1
avan@@ 1
jogging 1
correspond 1
plorable 1
chair 1
div@@ 1
R 1
ty 1
surveill@@ 1
rang@@ 1
pollo 1
pis 1
conspi@@ 1
influences 1
eutschland 1
sign 1
leau 1
golf 1
eschato@@ 1
constitu@@ 1
volu@@ 1
serva@@ 1
protÃ©@@ 1
types 1
sympathi@@ 1
enny 1
guil@@ 1
abu@@ 1
seig@@ 1
situ@@ 1
otre 1
Ã‚@@ 1
mi 1
good@@ 1
vitam@@ 1
A 1
lions 1
contri@@ 1
even@@ 1
arr@@ 1
ickDisplay 1
frame 1
animation 1
extra 1
liver 1
voyÃ© 1
mÃ©tÃ©@@ 1
ophysi@@ 1
thermodynami@@ 1
ologi@@ 1
Ã¢chÃ© 1
ric 1
fond 1
perspective 1
lover 1
interrup@@ 1
fred 1
monot@@ 1
sulfu@@ 1
phosp@@ 1
ho@@ 1
trag@@ 1
lic 1
photograp@@ 1
blement 1
geyser 1
colon@@ 1
magnitude 1
Ã®ner 1
BC 1
arrogant 1
ocÃ­o 1
vern@@ 1
insolent 1
jban 1
rival 1
rence 1
fortable 1
lem@@ 1
cts 1
foss@@ 1
nation@@ 1
translu@@ 1
location 1
alternatives 1
popular@@ 1
choi@@ 1
menu 1
environ@@ 1
europÃ©@@ 1
ids 1
exor@@ 1
fatigu@@ 1
rÃ¨g@@ 1
worse 1
consu@@ 1
Ã©ro@@ 1
sco@@ 1
laires 1
parano@@ 1
pag@@ 1
rum@@ 1
aro 1
sh@@ 1
perception 1
201@@ 1
sembl@@ 1
recon@@ 1
tropical 1
exo@@ 1
liÃ¨rement 1
pas@@ 1
stud@@ 1
histori@@ 1
pourvu 1
effect 1
aller@@ 1
seaux 1
soci@@ 1
designers 1
commu@@ 1
alp@@ 1
hÃ´@@ 1
smells 1
blin@@ 1
bec 1
foot 1
ings 1
bad@@ 1
erlin 1
candinav@@ 1
ditation 1
fru@@ 1
veill@@ 1
inable 1
dinosau@@ 1
mom 1
asse@@ 1
tranqu@@ 1
0@@ 1
vince 1
photocopi@@ 1
applau@@ 1
judge 1
emp@@ 1
dimension 1
yenne 1
question@@ 1
direct 1
OK 1
distant 1
friend@@ 1
Ã´le 1
adies 1
injustice 1
dissu@@ 1
Ã¢le 1
bicyc@@ 1
scul@@ 1
biblio@@ 1
ernard 1
Char@@ 1
mother&apos; 1
inc@@ 1
Christi@@ 1
Chin@@ 1
incom@@ 1
system 1
jail 1
aver@@ 1
liked 1
intu@@ 1
astro@@ 1
communication 1
mom@@ 1
soldiers 1
mises 1
inent 1
X 1
pur@@ 1
rio@@ 1
del@@ 1
dispersion 1
assume 1
inement 1
vari@@ 1
alty 1
pachinko 1
Ã€ 1
pÃ©nÃ©@@ 1
upset 1
Jean@@ 1
set@@ 1
ctions 1
suyama 1
reg@@ 1
aven@@ 1
nsbruck 1
resti@@ 1
quali@@ 1
anthropo@@ 1
quit 1
persuad@@ 1
suggestions 1
ambiti@@ 1
confusion 1
description 1
seller 1
silenci@@ 1
fascin@@ 1
protection 1
dog@@ 1
ook 1
hilip 1
drew 1
Be@@ 1
thesda 1
nicotine 1
icasso 1
mid@@ 1
cito@@ 1
talisman 1
dence 1
ure 1
rec@@ 1
ia 1
transpor@@ 1
nais 1
vile@@ 1
hen@@ 1
