. 16686
de 11646
la 6018
je 5252
est 4577
l&apos; 4515
pas 4241
@-@ 4071
vous 3902
que 3708
le 3449
il 3425
a 3282
Ã 3134
, 3025
? 2920
ne 2869
en 2636
ce 2203
un 2154
n&apos; 2118
les 2006
tu 1954
ai 1924
j&apos; 1902
une 1828
Tom 1717
nous 1545
train 1361
faire 1313
suis 1248
elle 1225
plus 1208
des 1164
d&apos; 1099
me 1092
fait 1074
qu&apos; 1025
et 1008
pour 995
c&apos; 974
dans 907
qui 867
Ã§a 861
mon 844
Ã©tÃ© 837
Ãªtre 827
! 819
air 793
m&apos; 780
&quot; 777
si 770
Ã©tait 768
sont 729
temps 703
s&apos; 693
vie 660
moi 654
y 651
tout 630
votre 616
ont 608
avec 608
son 605
Ãªtes 568
as 561
avez 559
ils 548
te 545
chose 545
cette 517
se 501
aide 499
au 495
du 493
trÃ¨s 488
dit 481
veux 478
grand 465
peux 434
sur 429
avons 404
maison 398
lui 397
oÃ¹ 384
sa 382
monde 378
mais 376
homme 364
gens 358
dire 358
autre 356
pourquoi 355
petite 346
pense 331
ici 330
jamais 322
Ã©cole 319
es 319
sais 319
par 319
comme 317
comment 317
voir 314
ma 313
tous 312
plaÃ®t 310
parler 306
avoir 303
mÃªme 300
deux 297
beaucoup 296
sommes 288
t 287
vraiment 283
trop 279
besoin 273
langue 270
Ã©tais 270
bien 262
aller 262
argent 255
avait 252
peu 251
quelque 250
voiture 248
bonne 247
quand 246
peut 244
encore 240
bon 239
aime 235
eau 233
toi 229
personne 228
eu 222
fois 220
enfants 217
main 217
autres 211
va 209
travail 209
notre 208
Marie 205
ses 204
vu 202
vais 202
pÃ¨re 202
simplement 200
heure 199
dois 198
yeux 195
nuit 194
t&apos; 194
toujours 191
maintenant 191
femme 191
aussi 187
venir 182
rien 182
mort 181
pouvez 181
voulez 179
lÃ 178
dÃ©jÃ 175
heures 175
mÃ¨re 174
petit 173
on 173
Terre 171
anglais 171
quel 169
avais 167
sans 165
journÃ©e 165
ton 164
ou 163
Ã© 163
seul 159
avant 156
prendre 156
Mary 155
maniÃ¨re 154
ces 153
fille 153
sortir 152
aider 152
combien 151
assez 151
jour 150
mes 149
soit 148
quoi 148
porte 146
franÃ§ais 146
chien 143
cela 142
hui 140
question 139
trois 138
aujourd&apos; 138
aimerais 137
idÃ©e 136
choses 136
trouve 135
ta 135
livre 134
allÃ© 132
derniÃ¨re 130
er 130
dÃ» 127
Ã©e 126
lire 124
tes 124
mieux 123
dÃ©@@ 123
ans 122
aprÃ¨s 122
passÃ© 121
musique 121
nom 120
semaine 120
demain 119
nourriture 118
arrÃªter 118
heureux 118
trouvÃ© 117
tÃªte 116
mis 115
retard 115
peur 115
sens 115
leur 113
manger 113
mal 112
pris 112
Sami 112
chez 112
arrive 110
seule 110
juste 109
entreprise 109
partir 109
livres 109
prix 108
dis 108
sait 107
souvent 106
pu 106
savoir 105
demandÃ© 105
histoire 105
elles 105
hier 104
problÃ¨me 103
regarder 101
voulais 101
questions 101
ville 100
chambre 100
nouveau 100
chemin 98
filles 97
quelle 96
lettre 96
acheter 96
parle 95
ons 95
puis 94
piÃ¨ce 94
sol 94
Ã©taient 94
parents 93
professeur 93
famille 93
dormir 93
jeune 93
amie 93
ez 92
trouver 91
allons 91
jours 90
pensais 90
penses 89
aux 89
veut 88
toutes 87
devriez 87
problÃ¨mes 86
part 86
raison 86
croire 86
entre 86
doit 85
expÃ©rience 85
ami 85
sera 85
nouvelle 84
pays 83
facile 82
vrai 82
soir 82
dÃ©solÃ© 82
quelqu&apos; 82
vÃ©ritÃ© 82
premiÃ¨re 81
arrivÃ© 81
moins 80
fais 79
aurais 79
occupÃ© 79
photo 79
savais 79
cuisine 78
faut 78
re@@ 78
habitude 76
tÃ´t 76
travailler 76
toute 76
fÃªte 76
perdu 76
colÃ¨re 76
parce 76
mÃ©decin 76
mari 75
garÃ§on 75
sÃ»r 75
Ã©@@ 75
entendu 74
dur 73
ferai 73
donnÃ© 73
faites 73
enfant 73
tard 72
vite 72
ait 72
pourrais 71
depuis 71
soyez 71
langues 71
premier 70
accident 70
meilleur 70
in@@ 70
prÃªt 69
tÃ©lÃ©phone 69
eux 69
ent 69
ant 69
frÃ¨re 68
devons 68
difficile 68
Ã©tranger 68
vos 68
achetÃ© 67
chance 67
magasin 67
hommes 67
fut 67
annÃ©e 66
loin 66
cours 66
rester 66
accord 66
savez 66
allez 65
chat 65
place 65
cÅ“ur 64
laissÃ© 64
semble 64
sÅ“ur 64
lit 64
devrais 64
Unis 64
connais 64
oubliÃ© 63
grande 63
fin 63
vieux 63
mot 63
dÃ©jeuner 62
vas 62
apprendre 62
comprendre 62
Ã©s 62
matin 61
pouvons 61
vivre 61
froid 61
boulot 61
riche 61
peine 61
sois 60
fils 60
vÃ©lo 60
demande 60
situation 60
presque 60
crois 60
voyage 59
biÃ¨re 59
commencÃ© 59
serez 58
instant 58
jouer 58
cafÃ© 58
Dan 58
cheveux 58
envie 57
point 57
vin 57
intention 57
ci 57
quelques 57
non 56
malade 56
cet 56
essayer 56
laisse 55
moment 55
route 55
Japon 55
vue 55
lait 55
vieille 55
en@@ 55
nos 54
fatiguÃ© 54
vit 54
femmes 54
adore 54
classe 53
bureau 53
Boston 53
chats 53
boÃ®te 53
seulement 53
serait 53
levÃ© 53
travaille 53
devrait 53
belle 53
pourrait 52
nÃ© 52
voulait 51
intÃ©rieur 51
amis 51
longtemps 51
mettre 51
mer 51
fumer 51
rÃ©@@ 51
payer 50
rouge 50
Ã©crit 50
grosse 50
Ã©es 50
mots 49
lu 49
veuillez 49
amour 49
midi 49
donne 49
laisser 49
essayÃ© 49
tÃ© 49
nager 48
pensÃ© 48
moindre 48
marier 48
devrions 48
ensemble 48
tÃ©lÃ© 48
pourriez 48
aise 48
dÃ©teste 48
jeux 48
par@@ 48
dites 47
gare 47
rendre 47
fenÃªtre 47
entendre 47
ceci 47
erreur 47
mauvais 46
montre 46
viens 46
prie 46
sous 46
bas 46
santÃ© 46
venu 46
lunettes 45
espÃ¨re 45
Ã‰tats 45
di@@ 45
poisson 44
verre 44
autant 44
mangÃ© 44
bus 44
cinq 44
pouvait 44
possible 44
c@@ 44
g@@ 44
surpris 43
Ã©crire 43
jusqu&apos; 43
espagnol 43
dÃ®ner 43
aimes 43
pendant 43
peuvent 43
Ã©quipe 43
vacances 43
v@@ 43
ter 43
mains 42
laissez 42
end 42
pause 42
fort 42
sujet 42
ch@@ 42
hÃ´pital 41
oui 41
pauvre 41
e 41
vient 40
sac 40
dix 40
hÃ´tel 40
restaurant 40
amoureux 39
plan 39
appelÃ© 39
plupart 39
opinion 39
mienne 39
rÃ©union 38
feu 38
joue 38
sÃ»re 38
noir 38
parlez 38
nÃ©cessaire 38
France 38
derriÃ¨re 38
tÃ©lÃ©vision 38
appris 38
dÃ©cidÃ© 38
Ã©tiez 38
ais 38
p@@ 38
bÃ©bÃ© 37
faim 37
fini 37
pouvais 37
chaque 37
chaud 37
propre 37
ie 37
important 36
parlÃ© 36
allemand 36
dÃ©solÃ©e 36
fleurs 36
numÃ©ro 36
minutes 36
passe 36
Ã¢ge 36
utiliser 36
poser 36
prÃ¨s 36
sociÃ©tÃ© 36
ti@@ 36
Tatoeba 35
mois 35
film 35
police 35
comprends 35
rendu 35
merci 35
tant 35
appeler 34
voudrais 34
prÃ©fÃ©rÃ©e 34
Ã©pouser 34
endroit 34
souviens 34
piscine 34
montagne 34
rencontrer 34
puisse 34
chemise 34
m@@ 34
t@@ 34
manteau 33
faÃ§on 33
propos 33
quatre 33
essaie 33
contre 33
garÃ§ons 33
clÃ© 33
instituteur 33
blessÃ© 33
pensez 33
voulons 33
l@@ 33
n@@ 33
li@@ 33
s@@ 33
secret 32
certains 32
parfois 32
choix 32
nouvelles 32
content 32
riviÃ¨re 32
alors 32
attention 32
r@@ 32
able 32
ag@@ 32
conduire 31
compris 31
celui 31
marchÃ© 31
sucre 31
ordinateur 31
lieu 31
table 31
garde 31
clÃ©s 31
aucun 31
devez 31
it 31
itÃ© 31
prÃ©@@ 31
serais 30
sentiments 30
oncle 30
terre 30
regardÃ© 30
importe 30
Ã©tudiants 30
esprit 30
moitiÃ© 30
b@@ 30
Ã©t@@ 30
aient 30
avenir 29
perdre 29
parapluie 29
thÃ©Ã¢tre 29
changÃ© 29
beau 29
sÃ©curitÃ© 29
dehors 29
tellement 29
rencontrÃ© 29
prenez 29
C@@ 29
aire 29
i@@ 29
ou@@ 29
im@@ 29
bibliothÃ¨que 28
japonais 28
appelle 28
lorsque 28
tuÃ© 28
font 28
Dieu 28
nombreux 28
efforts 28
boire 28
nombre 28
pire 28
partie 28
gÃ¢teau 28
s 28
tre 28
eur 28
ciel 27
veulent 27
phrase 27
lumiÃ¨re 27
an 27
marche 27
coup 27
conseils 27
attendre 27
pluie 27
balle 27
sur@@ 27
ante 27
f@@ 27
is 27
re 27
es@@ 27
Ã¨rent 27
A@@ 27
ement 27
rend 26
heureuse 26
savait 26
suppose 26
thÃ©orie 26
six 26
leurs 26
serai 26
aucune 26
ine 26
i 26
qu@@ 26
era 26
dont 26
ques 26
ap@@ 26
or@@ 26
tr@@ 26
che 26
hors 25
mets 25
habite 25
tour 25
libre 25
phrases 25
dessus 25
donnez 25
arme 25
voitures 25
mit 25
piano 25
neige 25
con@@ 25
ai@@ 25
ar@@ 25
ation 25
Ã¨re 25
pl@@ 25
ler 25
sou@@ 25
devenu 24
genre 24
art 24
l 24
chaussures 24
dernier 24
connaÃ®t 24
ainsi 24
mange 24
information 24
ressemble 24
plutÃ´t 24
lorsqu&apos; 24
erai 24
B@@ 24
pro@@ 24
euse 24
is@@ 24
per@@ 24
com@@ 24
soleil 23
anniversaire 23
dangereux 23
papier 23
attrapÃ© 23
adresse 23
probablement 23
Australie 23
conseil 23
intelligent 23
rÃ©ponse 23
regarde 23
mo@@ 23
res 23
on@@ 23
ins 23
ex@@ 23
fou 22
village 22
chapeau 22
costume 22
vÃªtements 22
affaire 22
tenir 22
prends 22
vers 22
P@@ 22
vi@@ 22
ue 22
gu@@ 22
ale 22
mal@@ 22
gr@@ 22
eurs 22
vieil 21
voici 21
ouvert 21
vois 21
fenÃªtres 21
rÃ©soudre 21
dormi 21
guerre 21
taille 21
prochain 21
manquer 21
age 21
cr@@ 21
u@@ 21
ire 21
em@@ 21
ts 21
ens 21
tion 21
ra 21
jeu 20
occupÃ©e 20
ennuis 20
hiver 20
allÃ©e 20
emploi 20
exactement 20
rÃ©pondre 20
rappeler 20
davantage 20
bientÃ´t 20
tennis 20
cher 20
bou@@ 20
ac@@ 20
ri@@ 20
au@@ 20
ge 20
am@@ 20
dÃ© 20
as@@ 20
ants 20
courant 19
difficultÃ©s 19
Layla 19
pieds 19
dÃ©cision 19
facilement 19
coin 19
poste 19
jambes 19
venus 19
apprÃ©cie 19
arrÃªtÃ© 19
ceux 19
discours 19
Ã©tage 19
immÃ©diatement 19
pain 19
ten@@ 19
no@@ 19
y@@ 19
o@@ 19
d@@ 19
compte 19
ci@@ 19
an@@ 19
vo@@ 19
car 19
pouvoir 19
f 19
parc 18
carte 18
Paris 18
danser 18
choisir 18
intÃ©ressÃ© 18
reÃ§u 18
leÃ§on 18
plage 18
jardin 18
radio 18
irai 18
capable 18
allÃ©s 18
prÃ©fÃ¨re 18
mariÃ© 18
honte 18
dort 18
pleurer 18
telle 18
ment 18
dÃ©t@@ 18
ette 18
pou@@ 18
laquelle 18
Ã©r@@ 18
ren@@ 18
mÃ©@@ 18
us 18
er@@ 18
Ã©ri@@ 18
jou@@ 18
L@@ 18
in 18
dÃ©tails 17
pleuvoir 17
gentil 17
ArrÃªtez 17
ayez 17
prochaine 17
&apos; 17
montrer 17
Å“ufs 17
larmes 17
dictionnaire 17
gagnÃ© 17
chanson 17
bateau 17
fera 17
Oh 17
Ã‰@@ 17
tÃ©s 17
fer@@ 17
ni 17
bl@@ 17
donc 17
rÃ© 17
fit 17
av@@ 17
si@@ 17
u 17
tri@@ 17
tez 17
tu@@ 17
ter@@ 17
tres 17
ir@@ 17
sÃ©@@ 17
arriver 16
attend 16
suite 16
aurait 16
long 16
meilleure 16
prÃªte 16
examen 16
idiot 16
chanceux 16
bÃ¢timent 16
seras 16
type 16
droit 16
ers 16
lo@@ 16
tent 16
it@@ 16
mi@@ 16
res@@ 16
e@@ 16
ettes 16
ignore 16
ab@@ 16
lÃ© 16
cro@@ 16
for@@ 16
Excusez 15
lis 15
envoyÃ© 15
conseillÃ© 15
complÃ¨tement 15
Ah 15
demander 15
baiser 15
timide 15
sorte 15
penser 15
M 15
NoÃ«l 15
donner 15
cour@@ 15
r 15
men@@ 15
Ã¨res 15
tÃ©es 15
tour@@ 15
al@@ 15
ill@@ 15
ir 15
fi@@ 15
lÃ©@@ 15
po@@ 15
ve 15
pi@@ 15
Ã©g@@ 15
enne 15
c 15
ss@@ 15
onn@@ 15
mar@@ 15
minute 14
espoir 14
enseignant 14
travaillÃ© 14
douche 14
univers 14
projet 14
vis 14
stupide 14
amies 14
semblez 14
perte 14
pomme 14
pleut 14
vÃ©cu 14
fasse 14
so@@ 14
ass@@ 14
ad@@ 14
G@@ 14
du@@ 14
ro@@ 14
porter 14
fl@@ 14
quÃ© 14
; 14
ches 14
M@@ 14
min@@ 14
personnes 14
devant 14
ages 14
por@@ 14
bri@@ 14
co@@ 14
rentrer 13
emporter 13
cadeau 13
rapport 13
roman 13
robe 13
sommet 13
mourir 13
loi 13
chanter 13
montrez 13
proposition 13
lundi 13
vidÃ©o 13
stylo 13
dollars 13
musÃ©e 13
mauvaise 13
cÃ´tÃ© 13
terminÃ© 13
Ã©couter 13
Å“il 13
week 13
tomber 13
Ã¢@@ 13
ouv@@ 13
pour@@ 13
confiance 13
teur 13
intÃ©ress@@ 13
pass@@ 13
aires 13
passer 13
lu@@ 13
se@@ 13
tement 13
st@@ 13
a@@ 13
Ã§@@ 13
ser@@ 13
tient 13
our@@ 13
celle 13
ver@@ 13
cl@@ 13
Ã¨@@ 13
: 13
Ã¢mes 13
pa@@ 13
pos@@ 13
br@@ 13
cause 13
ations 13
parti 12
commencer 12
espace 12
vivent 12
admire 12
avance 12
zoo 12
dÃ©Ã§u 12
payÃ© 12
enfance 12
journal 12
bu 12
ouverte 12
savent 12
marcher 12
huit 12
sommeil 12
Ã©galement 12
revoir 12
furent 12
pu@@ 12
gi@@ 12
allait 12
Ã¯@@ 12
faisons 12
ite 12
voy@@ 12
chi@@ 12
d 12
rem@@ 12
ca@@ 12
apprÃ©ci@@ 12
ma@@ 12
chan@@ 12
gar@@ 12
N@@ 12
reste 12
tÃ©e 12
gros 12
ni@@ 12
dispose 12
mor@@ 12
parviens 12
sent 12
travers 12
be 12
prend 12
pri@@ 12
S@@ 12
agent 12
pr@@ 12
crÃ©@@ 12
rez 12
entend@@ 12
ence 12
visite 12
h 12
vaut 12
tombÃ© 11
prÃ©fÃ©rÃ© 11
mariage 11
faute 11
gouvernement 11
feriez 11
corps 11
M. 11
raisons 11
banque 11
honnÃªte 11
invitÃ© 11
patron 11
connu 11
bois 11
pied 11
intÃ©ressant 11
dimanche 11
changer 11
jeunes 11
lac 11
Ã©tions 11
ennemi 11
viendra 11
Ã©tudier 11
poids 11
danger 11
aiment 11
dents 11
face 11
oublie 11
rapidement 11
selon 11
ess@@ 11
su@@ 11
trouv@@ 11
ain 11
nÃ©e 11
D@@ 11
der 11
at 11
nor@@ 11
plusieurs 11
discuter 11
Ã´@@ 11
ues 11
fu@@ 11
rent 11
dou@@ 11
fou@@ 11
tionn@@ 11
cu@@ 11
fai@@ 11
cent 11
el 11
agit 11
produit 11
compl@@ 11
ob@@ 11
attend@@ 11
10 11
dÃ©e 11
ents 11
stes 11
mon@@ 11
donn@@ 11
to@@ 11
ance 11
eu@@ 11
F@@ 11
inconvÃ©nient 10
feuilles 10
contrat 10
Ã©toiles 10
fermÃ© 10
vaches 10
tasse 10
devoirs 10
responsable 10
- 10
Ã©tudiant 10
arbre 10
marteau 10
jouÃ© 10
lever 10
concert 10
malheureusement 10
propres 10
aimÃ© 10
suffisamment 10
princesse 10
admis 10
allais 10
erreurs 10
permis 10
portes 10
nez 10
ri 10
fallu 10
affaires 10
manque 10
mÃ©e 10
dor@@ 10
rai 10
ignor@@ 10
dev@@ 10
H@@ 10
revenir 10
... 10
venue 10
vouloir 10
pe 10
dent 10
ven@@ 10
prise 10
rais 10
met 10
devoir 10
rend@@ 10
J@@ 10
Ãª@@ 10
do@@ 10
portait 10
essay@@ 10
ferais 10
chÃ© 10
ds 10
chante 10
bons 10
faisait 10
sau@@ 10
ier 10
commence 10
plan@@ 10
dispos@@ 10
ager 10
bout 10
ev@@ 10
ets 10
euses 10
mou@@ 10
pÃ©@@ 10
dÃ©sormais 10
rait 10
riez 10
aine 10
aille 10
illes 10
ard 10
x@@ 10
sÃ© 10
refus@@ 10
at@@ 10
rou@@ 10
tuer 10
succÃ¨s 10
Espagne 9
message 9
thÃ© 9
Italie 9
diffÃ©rence 9
rue 9
liste 9
voyager 9
disent 9
remercier 9
humeur 9
rencontrÃ©e 9
dÃ©pend 9
croit 9
excuses 9
savons 9
animaux 9
senti 9
accusÃ© 9
promesses 9
charge 9
rappelle 9
prÃªter 9
jolie 9
coÃ»t 9
moyen 9
prÃ©sident 9
ser 9
press@@ 9
viendrai 9
certain 9
ent@@ 9
cli@@ 9
lou@@ 9
ions 9
sa@@ 9
pleu@@ 9
Ã©vi@@ 9
ente 9
atten@@ 9
Ã®@@ 9
sauf 9
plai@@ 9
ements 9
tor@@ 9
car@@ 9
autour 9
printemps 9
Ã¨rement 9
reti@@ 9
gÃ© 9
cou@@ 9
ru@@ 9
bi@@ 9
5 9
ennes 9
comm@@ 9
vingt 9
col@@ 9
tation 9
ant@@ 9
DÃ©@@ 9
entr@@ 9
pen@@ 9
rencontre 9
rendez 9
fr@@ 9
entrÃ©e 9
prit 9
asse 9
quelconque 9
afin 9
iller 9
In@@ 9
plein 9
bar@@ 9
enti@@ 9
rÃ©ussi 9
fon@@ 9
go@@ 9
lequel 9
rer 9
sai@@ 9
vont 9
devenir 9
ies 9
connaÃ®tre 9
ur@@ 9
groupe 9
voulu 8
rhume 8
Promettez 8
douleur 8
coÃ»ts 8
bouteille 8
marre 8
innocent 8
AmÃ©rique 8
Ã©toile 8
@ 8
parie 8
imaginer 8
Jane 8
Ã©nergie 8
appareil 8
commenÃ§a 8
parfait 8
visage 8
prÃ©senter 8
dÃ©but 8
rumeur 8
Tokyo 8
campagne 8
football 8
John 8
courage 8
soif 8
bizarre 8
rÃ¨gles 8
hÃ©@@ 8
gro@@ 8
aimait 8
ille 8
Ã©cri@@ 8
chang@@ 8
bo@@ 8
tou@@ 8
ites 8
dÃ©couvert 8
quer 8
nique 8
Ã©trange 8
restÃ© 8
impossible 8
coupe 8
lis@@ 8
E@@ 8
bag@@ 8
erais 8
bles 8
rÃ©par@@ 8
dÃ©c@@ 8
existe 8
recherche 8
gauche 8
fin@@ 8
quit@@ 8
suivre 8
utilis@@ 8
quiconque 8
cents 8
annÃ©es 8
puis@@ 8
pommes 8
dem@@ 8
ferme 8
rons 8
rire 8
voudriez 8
off@@ 8
bu@@ 8
correctement 8
lÃ¨@@ 8
ff@@ 8
mu@@ 8
2 8
ut 8
seront 8
signe 8
voilÃ 8
sang 8
gagner 8
30 8
haut 8
finalement 8
iez 8
part@@ 8
docteur 8
prÃ©sent 8
all@@ 8
nes 8
ellement 8
soin 8
cri@@ 8
tique 8
proche 8
aiss@@ 8
dure 8
ong@@ 8
arrÃªte 8
cher@@ 8
hab@@ 8
tions 8
ju@@ 8
O@@ 8
illÃ© 8
fri@@ 8
ouvrir 8
dr@@ 8
parlent 8
Mo@@ 8
Ã©tat 8
oul@@ 8
attends 8
franchement 7
films 7
prison 7
matiÃ¨re 7
Ã©tang 7
arbres 7
rÃ´le 7
censÃ© 7
cinÃ©ma 7
Devine 7
copain 7
promesse 7
indiquer 7
Ã©cureuils 7
jouets 7
cravate 7
suicidÃ© 7
rÃ©parer 7
chocolat 7
frÃ¨res 7
ouvrez 7
Ã©chec 7
bras 7
aÃ©roport 7
avocat 7
chiens 7
animal 7
cuisiner 7
nerveux 7
bicyclette 7
planÃ¨te 7
teurs 7
explo@@ 7
tons 7
nu@@ 7
devint 7
vendre 7
cru 7
scientifique 7
tÃ©@@ 7
o 7
article 7
contr@@ 7
nage 7
amoureuse 7
taxi 7
arrivÃ©e 7
arriÃ¨re 7
effet 7
frapp@@ 7
semaines 7
portÃ© 7
diffÃ©rent 7
infor@@ 7
touche 7
sse 7
anc@@ 7
mille 7
il@@ 7
contente 7
iste 7
ade 7
sti@@ 7
embrasser 7
tait 7
tif 7
occasion 7
lors 7
log@@ 7
ress@@ 7
el@@ 7
pul@@ 7
lent 7
plu@@ 7
igne 7
prouv@@ 7
eut 7
doivent 7
ennent 7
copine 7
ra@@ 7
lai@@ 7
partout 7
dre 7
sal@@ 7
intÃ©rÃªt 7
K@@ 7
forme 7
nom@@ 7
trai@@ 7
auriez 7
Ap@@ 7
salle 7
lav@@ 7
ables 7
pes 7
impressionn@@ 7
sept 7
vide 7
bat@@ 7
produire 7
tranquille 7
dÃ©couvrir 7
prÃ©par@@ 7
ture 7
fermer 7
antes 7
expliquer 7
hasard 7
tures 7
and@@ 7
considÃ©r@@ 7
compagnie 7
onne 7
auparavant 7
moral 7
Angleterre 7
mang@@ 7
disposez 7
aies 7
donna 7
automne 7
avis 7
R@@ 7
utile 7
cas 7
amÃ©liorer 7
vendredi 7
ront 7
repas 7
site 7
vis@@ 7
quÃ©e 7
aimer 7
sav@@ 7
Ã¨te 7
Internet 7
vement 7
rs 7
sors 7
prendrai 7
simple 7
tÃ¢che 7
maman 7
parlait 7
cassÃ© 7
appartient 7
sache 7
morceau 7
h@@ 7
vraie 7
fau@@ 7
cÃ©@@ 7
k@@ 7
aimez 7
revenu 7
rÃª@@ 7
arriver@@ 7
tais 7
Ã©p@@ 7
irs 7
march@@ 7
isme 7
preuve 7
croy@@ 7
1@@ 7
lev@@ 7
Ã©tudi@@ 7
laver 7
bonnes 7
dÃ©part 7
bÃ©@@ 7
mai@@ 7
viend@@ 7
lam@@ 7
fonc@@ 7
retourner 7
faite 7
rÃ©flÃ©chir 7
Ã©c@@ 7
tromp@@ 7
service 7
dÃ©si@@ 7
cherche 7
eaux 7
demanda 7
end@@ 7
sÃ©rieux 7
dÃ©li@@ 7
us@@ 7
gagne 7
indi@@ 7
demi 7
futur 6
horreur 6
cheval 6
toit 6
-@@ 6
poche 6
postale 6
qu 6
longues 6
canapÃ© 6
intelligente 6
foule 6
cÃ©libataire 6
rideau 6
tien 6
mensonge 6
existence 6
mecs 6
invitÃ©es 6
sandwich 6
prÃªts 6
soldats 6
amusant 6
rÃ©jouis 6
probable 6
oubli@@ 6
ateurs 6
souci 6
double 6
aines 6
fus@@ 6
ain@@ 6
mer@@ 6
plaisir 6
devient 6
soli@@ 6
inven@@ 6
veu@@ 6
sage 6
els 6
inÃ© 6
dÃ©cida 6
couple 6
mesure 6
nombreuses 6
serv@@ 6
sembles 6
conduis@@ 6
ina 6
pÃ© 6
viol@@ 6
change 6
comman@@ 6
vol@@ 6
direction 6
visiter 6
aill@@ 6
bour@@ 6
our 6
nettoyer 6
pay@@ 6
arriv@@ 6
blanc 6
demand@@ 6
sin@@ 6
portable 6
dan@@ 6
rends 6
traver@@ 6
sons 6
lie 6
voyez 6
Ã©cras@@ 6
nulle 6
alcool 6
seuls 6
gÃ©rer 6
courir 6
grandes 6
viv@@ 6
T@@ 6
laiss@@ 6
papa 6
ner 6
petites 6
uni@@ 6
aurions 6
bal@@ 6
droite 6
absolument 6
sub@@ 6
sses 6
certaine 6
pai@@ 6
Ã©glise 6
aie 6
sionn@@ 6
rarement 6
ras 6
bon@@ 6
ajou@@ 6
voie 6
siez 6
venait 6
cache 6
accepter 6
dess@@ 6
compter 6
Ã©tudie 6
imagine 6
parles 6
ennu@@ 6
al 6
cha 6
moutons 6
accus@@ 6
asseoir 6
politique 6
af@@ 6
soixante 6
rÃ©veillÃ© 6
inquiÃ¨te 6
compos@@ 6
nouvel 6
3 6
vivant 6
hor@@ 6
passÃ©e 6
sortes 6
dis@@ 6
pein@@ 6
terais 6
prÃ©parer 6
parti@@ 6
va@@ 6
calme 6
iles 6
vir@@ 6
appr@@ 6
chu@@ 6
mez 6
cherch@@ 6
entends 6
dÃ©termin@@ 6
pla@@ 6
poli 6
maladie 6
poin@@ 6
soyons 6
bres 6
devi@@ 6
souvenir 6
refaire 6
int 6
ira 6
rant 6
eus 6
jet@@ 6
Ã©ment 6
fruits 6
disait 6
lle 6
or 6
can@@ 6
Ã©cl@@ 6
cam@@ 6
Al@@ 6
sion 6
ger 6
mÃ© 6
personn@@ 6
mis@@ 6
coucher 6
propos@@ 6
uc@@ 6
ique 6
nature 6
fromage 6
entrer 6
quitter 6
occupe 6
recomman@@ 6
tar@@ 6
trans@@ 6
Mon@@ 6
pÃªcher 6
garder 6
arrivent 6
Ã©viter 6
corriger 6
frÃ©qu@@ 6
ern@@ 6
consac@@ 6
2@@ 6
certaines 6
photos 6
lour@@ 6
ori@@ 6
trente 6
milli@@ 6
empÃªcher 6
boit 6
clairement 6
prof@@ 6
soul@@ 6
poule 6
occuper 6
Allemagne 6
ret@@ 6
ines 6
met@@ 6
soi 6
mise 6
universitÃ© 6
esse 6
ign@@ 6
rel@@ 6
onnÃ© 6
bÃ¢@@ 6
nag@@ 6
out@@ 6
prÃªtes 6
Smith 6
charg@@ 6
le@@ 6
station 6
court 6
4 6
droits 6
sÃ©e 6
erait 6
ze 6
coÃ»te 6
pierre 6
Thomas 6
chercher 6
importantes 6
gag@@ 6
mÃ©di@@ 6
pan@@ 6
alitÃ© 6
public 6
tra@@ 6
considÃ©@@ 6
respec@@ 6
ban@@ 6
vues 6
cap@@ 6
j@@ 6
pÃ¢le 6
gliss@@ 6
durant 6
battre 6
dra 6
ise 6
scientifiques 5
gentillesse 5
dÃ©termination 5
ticket 5
2013 5
passeport 5
ivre 5
matins 5
plafond 5
Ã©tudiante 5
garage 5
comportement 5
exercice 5
esti@@ 5
fonctionne 5
ray@@ 5
gl@@ 5
irez 5
cÃ©lÃ¨bre 5
vus 5
apprends 5
ta@@ 5
rÃ©flÃ©chi 5
espÃ©ranto 5
indÃ©@@ 5
vions 5
New 5
York 5
0 5
travaill@@ 5
Fran@@ 5
appell@@ 5
son@@ 5
autrefois 5
avaient 5
joli 5
satisfait 5
plu 5
yons 5
As@@ 5
organ@@ 5
bonheur 5
Salut 5
pir@@ 5
fron@@ 5
rev@@ 5
ats 5
dommage 5
verse 5
folle 5
ras@@ 5
nent 5
retour 5
dÃ©cl@@ 5
quement 5
occupÃ©s 5
remÃ¨de 5
os 5
pique 5
opÃ©r@@ 5
Ã©lu 5
arrÃªt 5
fiÃ© 5
dÃ©cider 5
bonjour 5
ici@@ 5
tenu 5
connaisse 5
prÃ©venu 5
Di@@ 5
quittÃ© 5
populaire 5
parla 5
soirÃ©e 5
tort 5
sauv@@ 5
surprise 5
gue 5
plain@@ 5
souhaite 5
croient 5
lettres 5
Ã¨vre 5
Ã©lo@@ 5
Soleil 5
gÃ©ni@@ 5
char@@ 5
rÃ©p@@ 5
Ã©ter 5
proch@@ 5
fix@@ 5
rÃ©aliser 5
enfu@@ 5
ris 5
possibilitÃ© 5
forc@@ 5
Ã¨me 5
vent 5
aurai 5
bien@@ 5
ouvrit 5
Con@@ 5
urgence 5
bor@@ 5
denti@@ 5
senti@@ 5
Quels 5
aliments 5
frais 5
beurre 5
An@@ 5
Cor@@ 5
Ã©chapp@@ 5
traduire 5
dirai 5
riches 5
rac@@ 5
humour 5
super 5
totalement 5
centre 5
fond@@ 5
ateur 5
forte 5
distribu@@ 5
tran@@ 5
rag@@ 5
patience 5
enseigner 5
Ã©veillÃ© 5
atta@@ 5
neuf 5
cure 5
its 5
impression 5
voudrait 5
cieux 5
connaissait 5
portÃ©e 5
crise 5
servi 5
hÃ©ros 5
chaude 5
ul@@ 5
meubles 5
mat@@ 5
ences 5
champ 5
population 5
importante 5
Ã©lÃ¨ves 5
ble 5
croyez 5
poster 5
objectif 5
position 5
ay@@ 5
alliez 5
comporte 5
trice 5
saisir 5
fus 5
conduit 5
exam@@ 5
iner 5
crime 5
enfin 5
chacun 5
Ã¨s 5
trom@@ 5
ec@@ 5
silencieux 5
qui@@ 5
froide 5
accep@@ 5
acide 5
sour@@ 5
hÃ¢te 5
mÃ¨@@ 5
petits 5
rom@@ 5
Ã©lec@@ 5
patient 5
pleuv@@ 5
unique 5
ore 5
secr@@ 5
aff@@ 5
lig@@ 5
rÃ©s 5
tombÃ©e 5
de@@ 5
fro@@ 5
appelez 5
envoyer 5
racon@@ 5
eriez 5
yez 5
inte 5
faits 5
Europe 5
mathÃ©matiques 5
z@@ 5
sortie 5
diplo@@ 5
cherches 5
Ã©cris 5
date 5
vali@@ 5
salaire 5
Mar@@ 5
Ã©gal 5
amuser 5
appro@@ 5
respecter 5
populaires 5
foi 5
restÃ©e 5
rÃ©pondu 5
regard@@ 5
sel 5
rÃ©ellement 5
et@@ 5
condu@@ 5
emplo@@ 5
oiseau 5
grands 5
dÃ©r@@ 5
sentez 5
coupÃ© 5
attendu 5
sort 5
signifie 5
conscience 5
Ã»@@ 5
tionnÃ© 5
cer 5
voisins 5
niveau 5
sport 5
rÃ©sultats 5
ron@@ 5
ram@@ 5
viennent 5
vÃª@@ 5
dÃ©truit 5
dispu@@ 5
bre 5
commun@@ 5
per 5
x 5
mien 5
No@@ 5
iti@@ 5
bandes 5
iser 5
man@@ 5
he 5
Co@@ 5
couteau 5
trembl@@ 5
Ã»t 5
promettre 5
pren@@ 5
gÃ©r@@ 5
der@@ 5
tera 5
chauff@@ 5
sÃ©par@@ 5
connaissez 5
dos 5
comp@@ 5
tel 5
sentir 5
rejoindre 5
achet@@ 5
principa@@ 5
magazine 5
van@@ 5
cartes 5
gars 5
para@@ 5
pÃª@@ 5
pronon@@ 5
mour@@ 5
jambe 5
ann@@ 5
certainement 5
visit@@ 5
fume 5
but 5
vendu 5
vie@@ 5
rencontrÃ©s 5
peuple 5
time 5
op@@ 5
venez 5
jug@@ 5
rÃ©du@@ 5
grÃ¢ce 5
gÃ©nÃ©ration 5
quelles 5
interdit 5
traitÃ© 5
mettez 5
dÃ©range 5
attrape 5
plait 5
som@@ 5
trouver@@ 5
ales 5
appel@@ 5
suivi 5
rÃ©solu 5
emment 5
page 5
tiens 5
bleu 5
lÃ¨ve 5
mariÃ©s 5
corde 5
passez 5
cochon 5
/ 5
Ã©norme 5
mignonne 5
dus 5
ux 5
soutien 5
te@@ 5
rÃ©us@@ 5
terie 5
appar@@ 5
capit@@ 5
clair 5
aper@@ 5
tenez 5
base 5
isi@@ 5
ordinaire 5
ard@@ 5
suffit 5
oubliez 5
environ 5
gÃ©@@ 5
voit 5
volontÃ© 5
dirait 5
offen@@ 5
ressources 5
regardez 5
rÃ©vÃ©@@ 5
tableau 5
sible 5
sienne 5
d&apos;@@ 4
l&apos;@@ 4
DÃ©gage 4
Ã©levÃ©s 4
gentleman 4
tunnel 4
crayon 4
AlgÃ©rie 4
gne 4
anci@@ 4
systÃ¨me 4
conten@@ 4
des@@ 4
quel@@ 4
taire 4
aim@@ 4
traiter 4
critique 4
devraient 4
celles 4
sÃ©rieusement 4
destination 4
abord 4
devin@@ 4
gÃ©nÃ©ral 4
tives 4
blesser 4
parmi 4
avions 4
let 4
cer@@ 4
cle 4
USA 4
dÃ©mÃ©@@ 4
moder@@ 4
servi@@ 4
douÃ© 4
sexu@@ 4
finir 4
vienne 4
matiques 4
matique 4
lar@@ 4
rÃ©alitÃ© 4
correcte 4
Vo@@ 4
horrible 4
mener 4
mÃ©ri@@ 4
folie 4
essez 4
protÃ©ger 4
sauver 4
requ@@ 4
seriez 4
consom@@ 4
na@@ 4
gÃ©nie 4
regard 4
bruit 4
recev@@ 4
sive 4
Ã®mes 4
ges 4
tionnel 4
prÃ©vu 4
exem@@ 4
endre 4
un@@ 4
nul 4
Chine 4
bes 4
aimÃ©e 4
rÃ©alis@@ 4
veuilles 4
fleur 4
four@@ 4
prÃ©fÃ©rerais 4
agir 4
gÃ¢@@ 4
cul@@ 4
famili@@ 4
faisais 4
interrom@@ 4
pre 4
queue 4
diable 4
utilisez 4
auteur 4
contrÃ´le 4
vÃ©ri@@ 4
retour@@ 4
capitaine 4
russe 4
Bob 4
spÃ©ci@@ 4
couverture 4
Ch@@ 4
exac@@ 4
autori@@ 4
illa 4
I@@ 4
endu 4
dises 4
lignes 4
confec@@ 4
sac@@ 4
Inde 4
hur@@ 4
compag@@ 4
eille 4
sup@@ 4
beautÃ© 4
impli@@ 4
adoles@@ 4
perdue 4
laire 4
avion 4
billet 4
achÃ¨te 4
musicien 4
attendons 4
tes@@ 4
ament 4
batt@@ 4
couver@@ 4
assurance 4
rever@@ 4
dÃ©s@@ 4
prendra 4
seconde 4
ication 4
propri@@ 4
pÃªche 4
crain@@ 4
commande 4
terminer 4
Linda 4
mÃ©rite 4
fantÃ´mes 4
BrÃ©sil 4
tombe 4
parlons 4
supporter 4
secrets 4
prudente 4
hi@@ 4
appÃ©tit 4
dise 4
sonn@@ 4
chanteuse 4
yer 4
permettre 4
veniez 4
tenait 4
rappelez 4
Ã¨ne 4
raient 4
augmentÃ© 4
prof 4
puni 4
utilisÃ© 4
alis@@ 4
brillante 4
identi@@ 4
peinture 4
dira 4
rÃ©pon@@ 4
die 4
brÃ»@@ 4
enf@@ 4
riz 4
entrÃ© 4
Ã©clata 4
ang@@ 4
ordres 4
sert 4
philosophie 4
promets 4
suggÃ¨re 4
impliquÃ© 4
diffÃ©rences 4
oblig@@ 4
dirige@@ 4
fo@@ 4
atteint 4
aÃ®@@ 4
fac@@ 4
out 4
trouveras 4
couramment 4
tire 4
gÃ©nÃ©ralement 4
termin@@ 4
sir 4
ordre 4
chansons 4
jette 4
jouent 4
physique 4
couper 4
dipl@@ 4
Ã´me 4
volÃ© 4
tentÃ© 4
forÃªt 4
traductions 4
embr@@ 4
att@@ 4
compor@@ 4
connaissais 4
sen@@ 4
sions 4
Ã©tab@@ 4
humaine 4
sensÃ© 4
lentement 4
ath@@ 4
mauvaises 4
habituÃ© 4
prÃ©f@@ 4
Ã©rence 4
admi@@ 4
sure 4
assu@@ 4
publique 4
truc 4
bouton 4
lycÃ©e 4
travailles 4
devait 4
tente 4
directeur 4
ailles 4
prÃ©vois 4
ponctu@@ 4
trouvait 4
abandonner 4
na 4
doute 4
fil@@ 4
espÃ¨ce 4
prÃ©cis@@ 4
endur@@ 4
mati@@ 4
Ã©ner@@ 4
mentir 4
genoux 4
coÃ»@@ 4
fortune 4
aboie 4
constituent 4
pensent 4
plaisante 4
utilise 4
permission 4
Japonais 4
donnÃ©es 4
gasp@@ 4
nav@@ 4
chons 4
vouliez 4
traverser 4
vase 4
lier 4
Ã©car@@ 4
ate 4
salade 4
verrou@@ 4
aisÃ© 4
baleine 4
carriÃ¨re 4
sÃ©rie 4
debout 4
Ã©te@@ 4
triste 4
ner@@ 4
hi 4
cesse 4
aider@@ 4
faux 4
ocÃ©an 4
risque 4
contributeur 4
amical 4
acÃ© 4
enseign@@ 4
acti@@ 4
rejo@@ 4
montr@@ 4
collec@@ 4
piÃ¨ces 4
spor@@ 4
produits 4
espÃ©r@@ 4
Tr@@ 4
fer 4
oiseaux 4
teaux 4
quinze 4
donnent 4
concentr@@ 4
puissiez 4
Ã©rÃ© 4
annu@@ 4
mÃ©dic@@ 4
parfaitement 4
restez 4
bÅ“uf 4
sieur 4
rÃ©ponds 4
meu@@ 4
expri@@ 4
lÃ¢che 4
lÃ©g@@ 4
Ã©chou@@ 4
risques 4
mont@@ 4
illard 4
congÃ© 4
insul@@ 4
tin@@ 4
yait 4
terriblement 4
diffÃ©rents 4
profonde 4
forcer 4
traduction 4
manqu@@ 4
Ã©tude 4
coÃ»tÃ© 4
00 4
pose 4
prononcer 4
couleur 4
force 4
trouvent 4
prises 4
autÃ© 4
apprentissage 4
pouss@@ 4
apporte 4
mignons 4
suivant 4
Ã©pou@@ 4
Ãªtres 4
terai 4
noyÃ© 4
ards 4
moyenne 4
eng@@ 4
tive 4
sombre 4
circulation 4
inter@@ 4
Su@@ 4
brÃ»lÃ© 4
dessinÃ©es 4
blessÃ©e 4
joie 4
restes 4
couteaux 4
voix 4
habitu@@ 4
Ã©conomie 4
ves 4
cen@@ 4
lesquelles 4
enn@@ 4
menti 4
apprend 4
chaleur 4
endormi 4
ingÃ©nieurs 4
nier 4
citÃ© 4
sit 4
vÃ©ritable 4
sui@@ 4
sister 4
pression 4
coupable 4
Londres 4
prÃ©sent@@ 4
mÃªmes 4
empÃªchÃ© 4
Ã©cono@@ 4
expliqu@@ 4
objets 4
marron 4
hau@@ 4
chinois 4
satis@@ 4
bles@@ 4
cancer 4
sant 4
complet 4
exc@@ 4
monte 4
poÃ¨me 4
rapide 4
amus@@ 4
Ã¢me 4
deuxiÃ¨me 4
dÃ©goÃ»@@ 4
bordel 4
prennent 4
orange 4
m 4
fie 4
sÃ»rement 4
faible 4
bas@@ 4
eras 4
Ã©li@@ 4
sÃ©chÃ© 4
casser 4
ile 4
ali@@ 4
AmÃ©ricains 4
gri@@ 4
guim@@ 4
sortez 4
assis 4
ea 4
fs 4
ayant 4
puissance 4
culture 4
touchÃ© 4
mÃ©moire 4
aimerait 4
fautes 4
Ã©tant 4
Contin@@ 4
remar@@ 4
fidÃ¨le 4
image 4
trez 4
mÃ©tro 4
descend@@ 4
tante 4
note 4
rÃ©gi@@ 4
peint 4
pleure 4
piÃ¨@@ 4
dÃ©tec@@ 4
prudent 4
travail@@ 4
sourire 4
rÃ©si@@ 4
lien 4
exig@@ 4
server 4
causÃ© 4
lÃ©gumes 4
n 4
Kate 4
naturel 4
caractÃ¨re 4
merveilleux 4
solution 4
gorge 4
raconter 4
peau 4
malgrÃ© 4
atteindre 4
tendance 4
constru@@ 4
heureuses 4
origin@@ 4
chanteur 4
embarrass@@ 4
effec@@ 4
conversation 4
Ã©taire 4
concentrer 4
attendais 4
connue 4
Jouons 4
billets 4
th@@ 4
condition 4
naissance 4
bel 4
volant 4
fous 4
devenus 4
jean 4
forts 4
derni@@ 4
tim@@ 4
vÃ©@@ 4
jo@@ 4
possÃ¨de 4
toucher 4
tur@@ 4
entier 4
partici@@ 4
contact 4
semblait 4
quitte 4
confÃ©rence 4
logie 4
phÃ©nomÃ¨ne 4
Ã©ti@@ 4
convainc@@ 4
souri@@ 4
pon@@ 4
grat@@ 4
impatience 4
troisiÃ¨me 4
rentr@@ 4
commenc@@ 4
reconnaissante 4
veille 4
guitare 4
forcÃ© 4
arri@@ 4
remettre 4
traite 4
tÃ©nu@@ 4
rec@@ 4
chÃ©e 4
rÃ©f@@ 4
commun 4
erre 4
appelÃ©e 4
invitÃ©s 4
enc@@ 4
ands 4
fallait 4
voleur 4
rencontr@@ 4
pÃ©e 4
fier 4
eff@@ 4
privÃ© 4
environnement 4
parole 4
ph@@ 4
semblant 4
nÃ´tre 4
dÃ©b@@ 4
suiv@@ 4
onnes 4
sain 4
Ã©poque 4
longs 4
chanceuse 4
connaissance 4
Jim 4
agressi@@ 4
pars 4
sie 4
emprunter 4
Ha 4
ponctuel 4
ment@@ 4
atti@@ 4
grand- 3
j 3
caf@@ 3
gueule 3
har@@ 3
absent 3
fas@@ 3
pens@@ 3
aveu@@ 3
quasiment 3
dÃ©passer 3
ends 3
ligne 3
rier 3
fasses 3
sauter 3
monter 3
fallut 3
oc@@ 3
mangent 3
ic@@ 3
Ã´ne 3
discutÃ© 3
atif 3
enez 3
rage 3
dÃ©barr@@ 3
dÃ©couverte 3
Pro@@ 3
gez 3
niques 3
arrogants 3
ssi@@ 3
appartement 3
197@@ 3
tiendra 3
di 3
aidera 3
vivait 3
Ã©prouve 3
bless@@ 3
toil@@ 3
ach@@ 3
tomba 3
promener 3
Ã©n@@ 3
tonne 3
este 3
concerne 3
netto@@ 3
futon 3
Ã©checs 3
ient 3
cis 3
198@@ 3
ates 3
sap@@ 3
rÃ©s@@ 3
convient 3
Ã©coute 3
poignÃ©e 3
cacahuÃ¨tes 3
alent@@ 3
contient 3
poison 3
souv@@ 3
apparu 3
pouvaient 3
extrÃªmement 3
ravi 3
pure 3
habitait 3
Ã©go@@ 3
Ãªte 3
rÃ©veille 3
deviner 3
arch@@ 3
mation 3
attraper 3
sign@@ 3
pratiquement 3
oir 3
adop@@ 3
Ã©gard 3
dÃ©pourvu 3
promenade 3
ber@@ 3
ffr@@ 3
condi@@ 3
incen@@ 3
bÃ©nÃ©@@ 3
Ju@@ 3
Nancy 3
sent@@ 3
inÃ©e 3
prÃ©fÃ¨res 3
numÃ©ri@@ 3
emprunte 3
veloppÃ© 3
verres 3
bril@@ 3
laient 3
Ver@@ 3
hypothÃ¨se 3
conn@@ 3
nat@@ 3
auprÃ¨s 3
signification 3
mÃ©th@@ 3
illage 3
cordes 3
excuser 3
termine 3
dro@@ 3
rÃªves 3
eront 3
bagages 3
cor@@ 3
ancÃ© 3
tue 3
gou@@ 3
tt@@ 3
riel 3
gen@@ 3
excÃ¨s 3
conseilla 3
prÃ©hen@@ 3
joueurs 3
humili@@ 3
dette 3
destin 3
pleurait 3
situe 3
ger@@ 3
cuisinier 3
essayez 3
rejet@@ 3
rÃ©es 3
provi@@ 3
frontiÃ¨re 3
coffre 3
ciseaux 3
premiers 3
direc@@ 3
sÃ»res 3
avril 3
nov@@ 3
embre 3
souffle 3
tÃ©moin 3
ill 3
Pardonnez 3
domaine 3
alisation 3
remise 3
digne 3
reprÃ©sent@@ 3
ar 3
science 3
Ã©teindre 3
cul 3
ouilles 3
trouverez 3
guer@@ 3
habituellement 3
prÃ©occupa@@ 3
sieste 3
matinÃ©e 3
accompl@@ 3
refusÃ© 3
atomique 3
pacifi@@ 3
bouteilles 3
rÃ©cemment 3
manifes@@ 3
publiÃ© 3
presse 3
absurde 3
utiles 3
Ã©tudient 3
cho@@ 3
dÃ©s 3
cassÃ©e 3
arr@@ 3
efficace 3
essenti@@ 3
ridicu@@ 3
poli@@ 3
portez 3
accu@@ 3
remet@@ 3
expÃ©ri@@ 3
cerveau 3
jure 3
univers@@ 3
statue 3
rÃ©sistance 3
facture 3
mondiale 3
Anne 3
trou@@ 3
aurez 3
anique 3
loyer 3
igner 3
secours 3
jeter 3
lÃ©es 3
assure 3
habit@@ 3
projets 3
tempÃªte 3
caus@@ 3
pÃ©trole 3
jeta 3
Ã©coutez 3
paress@@ 3
dÃ©conne 3
abondance 3
abandonn@@ 3
retrouvÃ© 3
exe 3
cinÃ©@@ 3
cial 3
dence 3
volontaire 3
drÃ´le 3
ennuyeux 3
bande 3
bes@@ 3
moteur 3
contrari@@ 3
imag@@ 3
rai@@ 3
explication 3
titre 3
vers@@ 3
coul@@ 3
continuÃ© 3
moquer 3
disparu 3
tremblement 3
ati@@ 3
envis@@ 3
rÃ©e 3
construction 3
Ã©l@@ 3
accent 3
sud 3
idÃ©@@ 3
parliez 3
disponi@@ 3
entÃ© 3
passage 3
convaincu 3
En@@ 3
rich@@ 3
issez 3
vague 3
pizza 3
Ã©di@@ 3
addition 3
oul 3
entretenir 3
impatient 3
ablement 3
siÃ¨ge 3
bouche 3
merveill@@ 3
ail@@ 3
invention 3
fonctionnÃ© 3
choisi 3
her@@ 3
commentaire 3
dÃ©nu@@ 3
idiote 3
rÃªve 3
mangez 3
imagination 3
assi@@ 3
sÃ©jour@@ 3
pauvres 3
garderai 3
sacrÃ© 3
bat 3
val@@ 3
comprennent 3
gel@@ 3
poÃ¨te 3
aimaient 3
devenue 3
rigo@@ 3
fausse 3
lune 3
miel 3
remonter 3
dÃ©cor@@ 3
ja@@ 3
ponaises 3
prÃª@@ 3
dÃ©pÃªcher 3
gran@@ 3
pensÃ©es 3
autoritÃ© 3
rempl@@ 3
nerveu@@ 3
maths 3
rus@@ 3
connait 3
virus 3
cherchait 3
sÃ»rs 3
ol@@ 3
gle 3
loge 3
enverrai 3
chir@@ 3
apparence 3
grandi 3
alien 3
plo@@ 3
dirent 3
quez 3
tueux 3
donnÃ©e 3
mourut 3
accor@@ 3
Susan 3
symbole 3
anti@@ 3
voulaient 3
maisons 3
maj@@ 3
cuisiniÃ¨re 3
intelligents 3
montrent 3
serrÃ© 3
fic@@ 3
saches 3
tatou@@ 3
regrette 3
tempÃ©rature 3
hÃ©roÃ¯ne 3
arrose 3
pigeons 3
Ã©coutes 3
SMS 3
amÃ©liorÃ© 3
unes 3
haute 3
buste 3
rempli 3
formu@@ 3
apporter 3
rerais 3
plaintes 3
affi@@ 3
sÅ“urs 3
guerrier 3
persÃ©vÃ©rance 3
tourner 3
cal@@ 3
fian@@ 3
architecte 3
tarte 3
diez 3
contraire 3
fournir 3
prudents 3
monnaie 3
actuellement 3
rentrÃ©e 3
sortons 3
fÃª@@ 3
vies 3
far@@ 3
feuille 3
persuader 3
mammifÃ¨re 3
solaire 3
survivants 3
sonnÃ© 3
amÃ©ric@@ 3
ains 3
spÃ©@@ 3
obligÃ©e 3
dieu 3
rapporte 3
chambres 3
ires 3
allumer 3
chem@@ 3
Ã©ping@@ 3
incalculable 3
Ã¨que 3
dÃ©clarÃ© 3
crois@@ 3
enva@@ 3
rencon@@ 3
posÃ© 3
difficultÃ© 3
poussÃ© 3
yÃ© 3
construit 3
renom@@ 3
mÃ©s 3
promis 3
voler 3
dÃ©sas@@ 3
conserv@@ 3
iciel 3
angÃ© 3
Ã©tudiÃ© 3
encourag@@ 3
con 3
rÃ©clam@@ 3
stat@@ 3
avancÃ© 3
consi@@ 3
Å“uvre 3
changements 3
Ã§ais 3
assurer 3
manquÃ© 3
Nations 3
Unies 3
approche 3
autoris@@ 3
sorti 3
myst@@ 3
refuse 3
tables 3
intime 3
histoires 3
tis@@ 3
annulÃ©e 3
correspond@@ 3
eusement 3
nue 3
prÃ©cieux 3
mani@@ 3
manu@@ 3
pag@@ 3
activitÃ© 3
second@@ 3
reven@@ 3
vois@@ 3
envisage 3
ures 3
perd 3
guÃ¨re 3
voulut 3
thÃ©@@ 3
divor@@ 3
frappÃ© 3
difficiles 3
excus@@ 3
fournit 3
Canada 3
manquez 3
prati@@ 3
occupÃ©es 3
victoire 3
passa 3
amitiÃ© 3
les@@ 3
travaillons 3
fÃ©licit@@ 3
indique 3
till@@ 3
produ@@ 3
viande 3
franÃ§@@ 3
rÃ©con@@ 3
touristes 3
cales 3
disputer 3
honneur 3
tal@@ 3
idÃ©es 3
publicitÃ© 3
polici@@ 3
options 3
natur@@ 3
mari@@ 3
pÃ©ril 3
6 3
attirer 3
hÃ©ri@@ 3
citoyens 3
pratique 3
illez 3
sence 3
exigÃ© 3
prÃ©sentÃ© 3
eons 3
prÃ©voyez 3
objet 3
gÃ©ante 3
boivent 3
litres 3
ignit 3
cible 3
habituer 3
chÃ¢@@ 3
teau 3
fatiguÃ©e 3
scÃ¨ne 3
conf@@ 3
mettr@@ 3
opÃ©ration 3
commenÃ§@@ 3
contac@@ 3
Ã©tagÃ¨re 3
nuages 3
actuelle 3
compatis 3
venons 3
lÃ©ger 3
lomb 3
coupa 3
gardÃ© 3
autorisÃ© 3
pÃ©nÃ©trer 3
pÃ©riode 3
vÃ© 3
adorent 3
pardonn@@ 3
dÃ©pÃªchÃ© 3
rat@@ 3
file 3
longue 3
dant 3
avou@@ 3
ence@@ 3
enreg@@ 3
chouette 3
Ã©goÃ¯ste 3
ver 3
professionnel 3
peindre 3
oppos@@ 3
valeur 3
arrivÃ©s 3
nouveaux 3
points 3
lan@@ 3
La 3
consÃ©quences 3
sance 3
zone 3
quotidi@@ 3
crÃ©Ã© 3
vivez 3
Å“uf 3
Ã©pousÃ© 3
employer 3
couvert 3
ert 3
courageux 3
commentaires 3
dÃ©jeunÃ© 3
sortis 3
habill@@ 3
escal@@ 3
dedans 3
pÃ©n@@ 3
diam@@ 3
entra 3
pantalon 3
arrÃª@@ 3
salon 3
minimum 3
issons 3
sp@@ 3
rain 3
quartier 3
rÃ©sidenti@@ 3
apprÃ©cient 3
mondial 3
mat 3
lapins 3
courte 3
mate 3
confis@@ 3
personnel 3
clo@@ 3
Ã§o@@ 3
chap@@ 3
issait 3
retourn@@ 3
soutenu 3
vend@@ 3
serons 3
sents 3
sante 3
mouvement 3
airement 3
auto@@ 3
mobiles 3
maladies 3
vol 3
placÃ© 3
Ã©cou@@ 3
intÃ©ressÃ©s 3
dorm@@ 3
Permettez 3
prÃ©sente 3
ti 3
Ã®t 3
regarda 3
prÃ©venue 3
Ã©coutÃ© 3
Ã©vÃ¨@@ 3
tifs 3
camion 3
ouvertes 3
homo@@ 3
disposais 3
rÃ©guliÃ¨rement 3
absen@@ 3
vez 3
glace 3
tas 3
dat 3
irait 3
prendrais 3
Ã©lÃ¨ve 3
su 3
jau@@ 3
opportunitÃ© 3
rÃ©colte 3
valis@@ 3
ore@@ 3
ps 3
lap@@ 3
matÃ©ri@@ 3
ond 3
poss@@ 3
b 3
partira 3
essaya 3
neig@@ 3
coups 3
conscient 3
nations 3
prÃ©ci@@ 3
langage 3
eÃ»t 3
cas@@ 3
ole 3
chaussettes 3
morte 3
fÃ¢chÃ© 3
entraÃ®ner 3
soudainement 3
dÃ©pensÃ© 3
aura 3
chinoise 3
aisser 3
dÃ©fil@@ 3
mÃ©daille 3
cou 3
acceptÃ© 3
endommag@@ 3
Ã©tend@@ 3
Ã©pic@@ 3
larg@@ 3
cieusement 3
rement 3
oli@@ 3
suppl@@ 3
dÃ©cÃ©dÃ© 3
manuel 3
amen@@ 3
allÃ©es 3
fÃ»mes 3
essai@@ 3
Ã©rez 3
texte 3
bÃ»@@ 3
rest@@ 3
hari@@ 3
britan@@ 3
voudr@@ 3
ramassÃ© 3
derniÃ¨res 3
disposes 3
soucie 3
choc 3
eill@@ 3
siÃ¨cle 3
app@@ 3
Ã©tend 3
anges 3
pneu 3
dig@@ 3
silencieuse 3
frappa 3
vÃ©cut 3
pÃ¨se 3
frappe 3
assist@@ 3
menti@@ 3
entre@@ 3
jaloux 3
dingue 3
dessert 3
bar 3
disposent 3
doutes 3
araignÃ©e 3
souff@@ 3
ide 3
cs 3
connus 3
lave 3
travaillais 3
inqui@@ 3
conseille 3
sentait 3
trou 3
noire 3
diffÃ©rente 3
prÃ©visions 3
nant 3
tab@@ 3
terme 3
enlÃ¨ve 3
sale 3
tentation 3
pis@@ 3
correspon@@ 3
gÃª@@ 3
nÃ©s 3
isÃ© 3
arrÃªtÃ©e 3
diffÃ¨re 3
rÃ©g@@ 3
cale 3
tÃ¨rent 3
supermarchÃ© 3
dÃ©sire 3
intÃ©resse 3
dentiste 3
tribunal 3
ara 3
reprendre 3
abat@@ 3
aimerions 3
humains 3
rencontrons 3
doigt 3
latin 3
roi 3
connaÃ®tr@@ 3
effray@@ 3
sentiment 3
heurtÃ© 3
dÃ©so@@ 3
aband@@ 3
mec 3
connaissent 3
Paul 3
pyram@@ 3
ides 3
semblent 3
Mat@@ 3
misÃ©ri@@ 3
insist@@ 3
vitÃ© 3
soup@@ 3
ail 3
juge 3
effrayÃ© 3
Ã©chouÃ© 3
soucier 3
Ã©lectronique 3
recherch@@ 3
envers 3
emmÃ¨ne 3
aimais 3
cacher 3
jupe 3
maÃ®tre 3
putain 3
lin 3
ll@@ 3
internationale 3
ferions 3
ion 3
dors 3
entation 3
amusante 3
arrivait 3
ris@@ 3
biscuits 3
iter 3
instructions 3
membre 3
venues 3
souhaiter 3
yen 3
barr@@ 3
aides 3
once 3
arab@@ 3
gratu@@ 3
siÃ¨cles 3
mie 3
vic@@ 3
alentours 3
Ã®tr@@ 3
aises 3
sÃ©rieuse 3
rÃ©pu@@ 3
onner 3
yens 3
fruit 3
tÃ©lÃ©phones 3
devais 3
financi@@ 3
cir@@ 3
aimons 3
preuves 3
constamment 3
affir@@ 3
8@@ 3
bizarrement 3
dÃ¨s 3
appelons 3
dÃ©ci@@ 3
rÃ©pare 3
assise 3
vive 3
tat 3
poi@@ 3
pari@@ 3
match 3
ball 3
vaiss@@ 3
gÃ©nies 3
regardes 3
copies 3
vitesse 3
boutique 3
prÃ©cipit@@ 3
pauvretÃ© 3
plaire 3
prirent 3
pleine 3
joindre 3
supplÃ©mentaire 3
entit 3
erie 3
dez 3
ouvre 3
miracle 3
attaquÃ©s 3
cÃ©rÃ©monie 3
clav@@ 3
angle 3
repasser 3
pareil 3
fiable 3
enseignÃ© 3
entiÃ¨re 3
compliquÃ© 3
V@@ 3
stupides 3
gues 3
magnifi@@ 3
rappelles 3
adorable 3
mÃª@@ 3
tromper 3
curi@@ 3
Mi@@ 3
arriverait 3
invitÃ©e 3
tÃ©lÃ©@@ 3
crÃ©dit 3
ace 3
da 3
mirent 3
reviendra 3
continuer 3
xi@@ 3
prend@@ 3
ame 3
ve@@ 3
dÃ©gr@@ 3
prÃ©sen@@ 3
quotidien 3
ondÃ©@@ 3
mariÃ©e 3
Ã§ons 3
parl@@ 3
manquent 3
ambition 3
distance 3
viez 3
dÃ©licieux 3
exemple 3
circonstances 3
craign@@ 3
cru@@ 3
Ã©pais 3
Ak@@ 3
Ã©co@@ 3
erons 3
ennuy@@ 3
pondu 3
kilomÃ¨@@ 3
irais 3
parte 3
immÃ©di@@ 3
aque 3
pendante 3
inst@@ 3
Kyoto 3
renvoy@@ 3
talent 3
coule 3
lement 3
ple@@ 3
informations 3
regardant 3
endor@@ 3
pend@@ 3
zÃ©ro 3
suspecte 3
itÃ©es 3
pousse 3
tin 3
bord 3
20@@ 3
fran@@ 3
Ã©tudes 3
gentille 3
gau@@ 3
ssent 3
fiÃ¨re 3
minuit 3
particuliÃ¨rement 3
bronz@@ 3
sagesse 3
Ã©trang@@ 3
chon 3
critiques 3
paro@@ 3
rÃ©pÃ©tition 3
mÃ©tÃ©orologiques 3
quarante 3
Ã©lev@@ 3
milliers 3
rentrÃ© 3
tandis 3
chaise 3
manquait 3
partis 3
Ã©volution 3
supposÃ©s 3
blo@@ 3
tapis 3
souhaitez 3
rues 3
course 3
pousser 3
manques 3
pensait 3
appl@@ 3
dÃ©fi 3
colline 3
rÃ©fu@@ 3
acer 3
chant 3
responsabilitÃ© 3
ssiÃ¨re 3
ottes 3
ridiculis@@ 3
europÃ©enne 3
Ã©tr@@ 3
den@@ 3
abeilles 3
sensible 3
tut 3
liez 3
primÃ© 3
prÃ©si@@ 3
oublier 3
merde 3
entraÃ®@@ 3
couchÃ© 3
tel@@ 3
quotidienne 3
lise 3
cath@@ 3
Ã©galitÃ© 3
conclu 3
crÃ¨me 3
libertÃ© 3
achÃ¨@@ 3
rÃ©ussi@@ 3
seu@@ 3
dÃ©f@@ 3
alisme 3
dÃ©ch@@ 3
porterai 3
Ã©trangers 3
volont@@ 3
logique 3
justice 3
adap@@ 3
dorment 3
Ã©puisÃ© 3
