. 15156
the 8964
you 5799
, 5122
a 4984
to 4843
of 3885
in 3660
I 3218
and 3144
for 3130
is 2878
can 2050
_ 1985
are 1757
your 1674
on 1607
? 1545
or 1482
if 1412
have 1346
&apos;s 1342
it 1306
that 1289
be 1176
@-@ 1162
&apos;t 1151
at 1091
Finland 1063
Finnish 1034
not 1013
an 953
he 930
Swedish 929
( 899
) 898
English 861
do 817
with 809
information 780
this 776
: 740
Tom 740
as 709
more 706
from 671
also 655
will 634
me 611
was 605
by 599
child 580
we 556
about 540
my 539
what 539
she 539
has 531
residence 502
education 491
don 487
health 480
there 476
care 467
they 459
when 455
all 445
work 433
services 416
must 414
school 412
need 408
who 401
&apos;m 388
want 384
his 378
family 372
other 367
time 366
permit 359
her 346
service 341
like 341
one 339
help 339
read 337
how 333
apply 327
InfoFinland 326
children 321
may 319
day 317
right 315
go 315
know 314
&apos;re 313
get 308
&quot; 304
example 303
out 300
page 293
home 291
their 290
! 283
people 282
contact 278
some 274
no 272
him 260
Helsinki 248
been 248
language 247
Office 245
application 243
find 242
take 238
up 238
did 237
than 236
which 234
very 225
but 225
housing 224
receive 218
years 218
available 218
where 217
think 212
Kela 211
country 210
make 210
website 207
so 203
social 198
before 197
many 197
had 197
am 196
allowance 195
were 195
good 193
use 192
&apos;ve 191
ed 190
please 188
&apos;ll 185
study 182
job 182
municipality 180
support 179
any 179
here 179
would 177
pay 176
should 176
only 174
ask 173
after 173
centre 169
age 165
young 164
ing 162
Russian 159
just 158
advice 156
come 156
leave 155
into 154
see 154
why 154
such 153
own 152
person 152
didn 152
parents 147
last 147
city 146
these 146
two 145
number 144
does 143
us 142
training 141
call 141
through 141
going 141
Mary 141
secondary 139
Vantaa 139
them 139
much 139
too 139
business 138
studies 138
tax 138
working 137
private 137
vocational 136
S@@ 135
EU 134
first 134
usually 133
under 133
s@@ 133
new 133
cannot 132
tell 132
in@@ 132
upper 131
online 131
dwelling 130
live 130
place 130
always 129
public 129
life 129
without 128
employment 128
tel 128
office 128
problems 127
employer 127
same 124
emergency 124
clinic 123
well 123
member 122
three 122
linkki@@ 121
give 120
Espoo 120
doctor 120
entitled 120
never 120
company 119
old 119
register 118
open 118
year 118
es 118
&apos;d 118
made 117
during 117
way 116
name 115
French 115
let 114
citizen 113
income 113
A@@ 112
local 112
student 112
now 112
its 111
free 111
our 111
activities 110
most 110
insurance 110
speak 110
could 110
o@@ 109
security 109
e@@ 109
provided 108
re@@ 108
man 108
persons 108
centres 108
another 108
provides 107
pension 106
appointment 106
marriage 106
TE 106
k@@ 106
long 105
law 104
period 103
really 103
form 101
however 101
living 101
agreement 98
car 98
related 96
often 96
look 96
basic 96
certificate 95
least 95
Centre 94
even 94
based 94
maternity 94
un@@ 94
provide 93
degree 93
unemployment 93
City 93
different 93
paid 92
months 92
counselling 92
contract 92
over 92
whether 91
part 91
mother 91
t@@ 91
matters 90
granted 89
Kokkola 89
include 89
able 89
card 89
money 89
Immigration 88
common 88
further 88
something 88
rental 87
al@@ 87
university 87
book 87
Service 87
lot 87
telephone 85
a@@ 85
plan 85
decision 85
hours 85
early 85
en@@ 85
ted 85
y 85
used 85
schools 84
T@@ 84
those 84
days 84
father 84
abroad 83
1 83
ation 83
benefit 83
applied 83
h@@ 83
love 83
got 83
b@@ 82
identity 82
divorce 82
higher 82
every 81
al 81
night 81
courses 81
applying 80
languages 80
yourself 80
married 80
together 79
talk 79
students 78
personal 78
charge 78
house 78
immigrants 78
important 78
/ 78
buy 78
2@@ 77
web 77
st@@ 77
authorities 77
C@@ 77
because 77
still 77
sports 76
spouse 76
M@@ 75
both 75
n@@ 75
an@@ 75
off 75
found 74
2 74
Local 74
Register 74
possible 74
ts 74
being 74
anything 74
l@@ 74
little 74
doesn 74
things 73
rights 73
stay 73
s 73
P@@ 73
back 73
went 73
comprehensive 72
y@@ 72
state 72
; 72
integration 72
room 72
already 72
er 72
o 71
visit 71
start 71
rehabilitation 71
ting 71
enough 71
moving 70
asylum 70
members 70
say 70
Health 69
K@@ 69
municipal 69
3 69
water 69
looking 69
point 69
H@@ 68
youth 68
move 68
benefits 68
foreign 68
countries 68
citizenship 68
Employment 68
case 68
between 68
f@@ 68
said 68
dis@@ 67
following 67
6@@ 67
municipalities 67
women 67
Economic 67
w@@ 66
pm 66
National 66
R@@ 66
sure 66
citizens 66
ti@@ 66
- 66
told 66
ar@@ 65
interpreter 65
skills 65
r@@ 65
at@@ 65
employee 65
each 65
B@@ 65
situation 65
d@@ 65
once 64
u@@ 64
8 64
is@@ 64
en 64
address 64
Arabic 64
means 64
cases 64
everyone 64
disabled 64
today 64
sFinnish 63
i@@ 63
e 63
various 63
dental 63
done 63
making 62
employees 62
Education 62
amount 62
or@@ 62
parent 62
5@@ 62
best 62
entrepreneur 61
Rovaniemi 61
complete 61
order 61
4@@ 61
feel 61
alone 61
E@@ 60
necessary 60
either 60
try 60
p@@ 60
everything 60
thought 60
guidance 59
adult 59
to@@ 59
account 59
Development 59
9 59
end 59
required 59
ers 59
ated 59
Sami 59
police 58
books 58
09 58
idea 58
disability 58
sciences 58
relationship 58
happy 58
won 58
examination 57
immigrant 57
area 57
according 57
phone 57
el@@ 57
Services 57
eat 57
5 57
again 57
away 57
better 57
ate 57
nothing 57
believe 57
remember 56
offers 56
given 56
library 56
co@@ 56
ma@@ 56
late 56
put 56
mental 55
become 55
4 55
keep 55
down 55
took 55
registration 54
salary 54
due 54
property 54
Social 54
situations 54
several 54
er@@ 54
as@@ 54
wanted 54
obtain 53
g@@ 53
est 53
3@@ 53
until 53
German 53
pre 53
covered 53
wish 53
isn 53
written 52
studying 52
addition 52
Estonian 52
universities 52
month 52
ch@@ 52
Association 51
18 51
adults 51
violence 51
advance 51
learn 51
financial 51
discrimination 51
special 51
intended 51
native 51
d 51
families 51
hard 51
V@@ 50
O@@ 50
bank 50
ac@@ 50
D@@ 50
ds 50
organise 50
religion 50
small 50
asked 50
dog 50
coming 49
while 49
nurse 49
friend 49
Spanish 49
00 49
men 49
registered 49
market 49
7@@ 49
es@@ 49
born 49
rent 49
aid 49
thing 49
p 49
tomorrow 49
four 48
search 48
check 48
si@@ 48
baby 48
teacher 48
preparatory 48
li@@ 48
t 48
kind 47
de@@ 47
week 47
Somali 47
ja 47
valid 47
getting 47
travel 47
against 47
ous 47
less 47
around 47
doing 47
ro@@ 47
party 47
left 47
treatment 46
clinics 46
station 46
assistance 46
tr@@ 46
it@@ 46
di@@ 46
crime 46
stop 46
hospital 46
matter 46
taken 46
door 46
&apos; 46
someone 46
meet 46
music 45
safety 45
starting 45
educational 45
few 45
ad@@ 45
organised 45
lo@@ 45
legal 45
completed 45
difficult 45
lived 45
questions 45
I@@ 44
ill 44
Kauniainen 44
F@@ 44
depends 44
notice 44
on@@ 44
Chinese 44
resident 44
five 44
waste 44
takes 44
im@@ 44
medical 44
labour 44
ex@@ 44
play 44
et@@ 44
lost 44
seen 44
ever 44
morning 43
subject 43
date 43
welfare 43
costs 43
birth 43
video 43
whose 43
m@@ 43
association 43
lives 43
send 43
came 43
.@@ 43
change 43
7 43
ab@@ 43
ating 43
understand 43
afraid 43
be@@ 43
great 43
sorry 43
mind 43
European 42
term 42
unemployed 42
educationFinnish 42
le@@ 42
10 42
learning 42
using 42
m 42
national 42
wants 42
maintenance 42
eligible 42
ly 42
crisis 42
8@@ 42
am@@ 42
times 42
question 42
.fi 42
busy 42
i 41
1@@ 41
needs 41
companies 41
payment 41
building 41
owned 41
summer 41
high 41
Union 41
tu@@ 41
soon 40
basis 40
code 40
culture 40
spouses 40
tenancy 40
University 40
directly 40
sometimes 40
having 40
urgent 40
le 40
next 40
food 40
em@@ 40
saw 40
permanently 39
grant 39
offer 39
pregnancy 39
process 39
institutes 39
ling 39
called 39
show 39
6 39
Finns 39
problem 39
world 39
cold 39
v@@ 38
normally 38
j@@ 38
refugee 38
n 38
bring 38
mo@@ 38
fee 38
considered 38
ties 38
permanent 38
present 38
ak@@ 38
9@@ 38
write 38
longer 38
yet 38
c 38
easy 38
since 38
bad 38
ap@@ 37
experience 37
Equality 37
non 37
joint 37
Lapland 37
reason 37
speaking 37
along 37
ve 37
accident 37
train 37
19@@ 37
red 37
pa@@ 36
L@@ 36
received 36
th@@ 36
require 36
competence 36
exercise 36
ur@@ 36
agree 36
trade 36
illness 36
Ã¤@@ 36
12 36
international 36
regarding 36
grounds 36
ded 36
ter 36
transport 36
words 36
tie 36
taking 36
letter 36
paternity 36
sing 36
0@@ 36
fire 36
full 36
far 36
bed 36
yesterday 36
com@@ 35
residents 35
EEA 35
elderly 35
th 35
treated 35
opportunities 35
workplace 35
qualification 35
servicesFinnish 35
submit 35
makes 35
av@@ 35
A 35
contains 35
us@@ 35
Act 35
conditions 35
close 35
k 35
po@@ 35
g 35
te 35
ready 35
knew 35
30 34
return 34
initial 34
employers 34
outside 34
visa 34
located 34
report 34
tion 34
N@@ 34
group 34
occupational 34
light 34
childhood 34
death 34
ca@@ 34
mis@@ 34
G@@ 34
sh@@ 34
sleep 34
Tax 33
Mon 33
held 33
In@@ 33
temporary 33
vi@@ 33
opening 33
performed 33
ag@@ 33
ai@@ 33
agreed 33
floor 33
organises 33
certain 33
decide 33
request 33
ations 33
via 33
within 33
libraries 33
friends 33
ent 33
wait 33
talking 33
truth 33
cities 32
pages 32
level 32
loan 32
sufficient 32
Information 32
su@@ 32
ke 32
interested 32
for@@ 32
later 32
issues 32
areas 32
per@@ 32
religious 32
res@@ 32
turned 32
second 32
con@@ 32
responsible 32
meeting 32
W@@ 32
helps 32
might 32
drink 32
wrong 32
Fri 31
started 31
Switzerland 31
esFinnish 31
vote 31
groups 31
anyone 31
course 31
16 31
refugees 31
expensive 31
c@@ 31
bought 31
dwellings 31
then 31
position 31
patient 31
includes 31
allowed 31
population 31
looks 31
watch 31
br@@ 31
everybody 31
true 31
hear 31
mine 31
knows 31
permission 30
Hospital 30
events 30
planning 30
sick 30
status 30
authority 30
fill 30
passport 30
general 30
rules 30
sexual 30
taxation 30
large 30
occupancy 30
fixed 30
cost 30
king 30
paper 30
met 30
bus 30
others 30
needed 30
cover 30
six 30
bo@@ 30
turn 30
word 30
aren 30
set 29
short 29
ors 29
6.@@ 29
associations 29
inter@@ 29
au@@ 29
development 29
instructions 29
happened 29
15 29
beginning 29
Con@@ 29
ance 29
Board 29
art 29
union 29
writing 29
correct 29
parental 29
Emergency 29
seeker 29
diplomatic 29
ten 29
ty 29
management 29
ets 29
happen 29
myself 29
Family 28
ms 28
per 28
choose 28
11 28
low 28
ally 28
operation 28
driving 28
forms 28
ence 28
almost 28
daily 28
wife 28
girls 28
girl 28
swimming 28
hope 28
anymore 28
nice 28
Administration 27
entrepreneurship 27
abuse 27
list 27
obligations 27
Persian 27
notification 27
ensure 27
file 27
woman 27
ta@@ 27
goods 27
il@@ 27
Welfare 27
fall 27
Support 27
Y@@ 27
forget 27
ying 27
gave 27
couldn 27
stations 26
Agency 26
Ã¶@@ 26
residing 26
post 26
participate 26
test 26
0 26
institute 26
ary 26
FinlandFinnish 26
separate 26
18@@ 26
traffic 26
lu@@ 26
upon 26
permits 26
supported 26
human 26
i.e. 26
Federation 26
weather 26
ks 26
Japanese 26
ity 26
reading 26
ings 26
linkkiFinnish 26
spring 26
gi@@ 26
nobody 26
boy 26
else 26
miss 26
opinion 26
himself 26
likes 26
tired 26
0.@@ 25
organisations 25
immediately 25
no@@ 25
consider 25
over@@ 25
20 25
decisions 25
official 25
ir@@ 25
attend 25
websites 25
cultural 25
history 25
les 25
entrepreneurs 25
ates 25
elections 25
Enter 25
pro@@ 25
5.@@ 25
x 25
et 25
l 25
themselves 25
ends 25
childbirth 25
Kurdish 25
assessment 25
me@@ 25
taxes 25
pdf 25
hand 25
prices 25
real 25
mail 25
Nordic 25
ful 25
ri@@ 25
earnings 25
fishing 25
mission 25
answer 25
big 25
coffee 25
haven 25
cat 25
additional 24
du@@ 24
lessor 24
requires 24
sickness 24
election 24
ys 24
primary 24
op@@ 24
society 24
Housing 24
equal 24
homes 24
led 24
arrived 24
helpline 24
guardian 24
jo@@ 24
whole 24
run 24
Re@@ 24
District 24
Court 24
09.@@ 24
institution 24
duration 24
ce 24
fo@@ 24
affect 24
victim 24
system 24
ches 24
gives 24
museums 24
ter@@ 24
expenses 24
so@@ 24
pi@@ 24
lose 24
future 24
waiting 24
rain 24
leaving 23
professional 23
Central 23
yFinnish 23
flats 23
clubs 23
ten@@ 23
community 23
Council 23
unit 23
Ministry 23
collective 23
Registering 23
60 23
among 23
apartment 23
min@@ 23
par@@ 23
field 23
â‚¬ 23
documents 23
join 23
partnership 23
court 23
teaching 23
man@@ 23
safe 23
der 23
tic 23
se 23
single 23
submitted 23
break 23
% 23
dance 23
impediments 23
equipment 23
document 23
Parliament 23
civil 23
Clinic 23
b 23
ki@@ 23
ked 23
hot 23
dinner 23
bit 23
heard 23
ck 23
seems 23
brother 23
fun 23
wasn 23
beautiful 23
names 22
son 22
partial 22
medicine 22
relationships 22
linkkiThe 22
notify 22
Evangelical 22
Lutheran 22
bor@@ 22
price 22
do@@ 22
ol@@ 22
ain 22
concerning 22
programmes 22
holidays 22
reside 22
suitable 22
ses 22
near 22
bl@@ 22
ev@@ 22
lawyer 22
nature 22
extension 22
f 22
hurt 22
ended 22
programme 22
sign 22
sho@@ 22
hair 22
seekers 22
class 22
thinking 22
town 22
spend 22
ma 22
decided 22
responsibility 22
fish 22
known 22
finished 22
trying 22
story 22
sion 21
accepted 21
legislation 21
customers 21
seek 21
ine 21
leisure 21
approximately 21
ho@@ 21
fields 21
112 21
31@@ 21
Day 21
processing 21
discuss 21
reasons 21
ents 21
gr@@ 21
government 21
Child 21
useful 21
Cross 21
Uusimaa 21
key 21
suspect 21
kinds 21
trip 21
Sweden 21
pl@@ 21
ans 21
owner 21
closed 21
flat 21
ies 21
pe@@ 21
Christmas 21
works 21
heart 21
became 21
quite 21
careful 21
pr@@ 21
ci@@ 21
fell 21
yes 21
clothes 21
cut 21
Boston 21
eyes 21
sister 21
rich 21
hate 21
jobs 20
fin@@ 20
supervisor 20
Church 20
ps 20
hobbies 20
recognition 20
fast 20
Metropolitan 20
ders 20
Certificate 20
Language 20
voluntary 20
Orthodox 20
material 20
Discrimination 20
buying 20
medication 20
exactly 20
event 20
fund 20
lunch 20
appointments 20
smoke 20
terms 20
couple 20
entered 20
interest 20
immigrantsFinnish 20
Portuguese 20
all@@ 20
policy 20
share 20
Red 20
subsidy 20
begin 20
sur@@ 20
shop 20
worked 20
02@@ 20
fl@@ 20
finding 20
ages 20
Ostrobothnia 20
obtained 20
meetings 20
chance 20
ationFinnish 20
01@@ 20
staff 20
ters 20
U@@ 20
independently 20
ic 20
winter 20
financing 20
ay 20
news 20
ago 20
evening 20
ered 20
pretty 20
Japan 20
tried 20
glad 20
Insurance 19
contraception 19
church 19
prescription 19
weekdays 19
School 19
Area 19
10@@ 19
maistraatti 19
cial 19
reception 19
ments 19
ali@@ 19
gender 19
practical 19
location 19
System 19
parties 19
afternoon 19
partner 19
divided 19
Al@@ 19
meant 19
VALMA 19
environment 19
bill 19
weekends 19
affairs 19
region 19
spoken 19
ia 19
enti@@ 19
nearest 19
Crisis 19
protection 19
ist 19
ear@@ 19
workers 19
ec@@ 19
comes 19
offices 19
te@@ 19
choice 19
z@@ 19
offered 19
begins 19
Refugee 19
ver@@ 19
sauna 19
promise 19
third 19
computer 19
h 19
store 19
face 19
war@@ 19
cr@@ 19
died 19
TV 19
felt 19
France 19
milk 19
Card 18
Children 18
ry 18
grade 18
continue 18
ment 18
ise 18
50 18
opportunity 18
arts 18
carefully 18
Offices 18
plenty 18
mortgage 18
debt 18
proficiency 18
levels 18
customer 18
Ombudsman 18
Vocational 18
College 18
guide 18
cause 18
ves 18
Population 18
Museum 18
facilities 18
Region 18
side 18
previous 18
ess 18
continuous 18
Youth 18
ced 18
shelter 18
requirement 18
vary 18
arrive 18
kin@@ 18
hearing 18
ability 18
pays 18
prove 18
moved 18
quickly 18
ty@@ 18
Affairs 18
arranged 18
ph@@ 18
electronic 18
Italian 18
sex 18
als 18
ons 18
Adult 18
section 18
Aid 18
task 18
looked 18
car@@ 18
ceremony 18
organisation 18
specific 18
occupied 18
circumcision 18
power 18
ice 18
val@@ 18
Com@@ 18
handle 18
worker 18
weeks 18
husband 18
har@@ 18
deal 18
300 18
S 18
act 18
Internet 18
invited 18
ass@@ 18
land 18
head 18
marry 18
w 18
listen 18
hand@@ 18
wine 18
walk 18
black 18
angry 18
Dan 18
behind 18
grades 17
ingFinnish 17
quota 17
provider 17
note 17
theatre 17
x@@ 17
damage 17
changed 17
arrange 17
se@@ 17
housingFinnish 17
CV 17
MoniNet 17
individual 17
Shelter 17
began 17
pass 17
window 17
katu 17
lis@@ 17
majority 17
hold 17
pre@@ 17
040.@@ 17
clear 17
improve 17
ding 17
popular 17
rented 17
ni@@ 17
gen@@ 17
,000 17
inside 17
J@@ 17
ants 17
cooking 17
ant 17
television 17
older 17
ticket 17
info 17
easily 17
end@@ 17
condition 17
autumn 17
ning 17
om@@ 17
half 17
cri@@ 17
ming 17
pregnant 17
2.@@ 17
boys 17
ite 17
dress 17
completely 17
he@@ 17
past 17
prepared 17
sp@@ 17
ely 17
smoking 17
anybody 17
worry 17
game 17
guess 17
killed 17
tonight 17
surprised 17
wonder 17
wouldn 17
line 16
operations 16
obliged 16
belong 16
pain 16
tes 16
Ã¤ 16
add 16
zed 16
Turkish 16
subjects 16
everyday 16
Authority 16
holiday 16
cal 16
sense 16
17 16
tur@@ 16
u 16
self 16
Student 16
exchange 16
livelihood 16
shared 16
st 16
tyÃ¶@@ 16
fi@@ 16
appeal 16
especially 16
sleeping 16
alcohol 16
established 16
sell 16
victims 16
trafficking 16
danger 16
issue 16
paying 16
shall 16
816.@@ 16
out@@ 16
sk@@ 16
examinations 16
col@@ 16
nationality 16
ea@@ 16
size 16
restaurant 16
elected 16
strong 16
minimum 16
carry 16
ownership 16
Library 16
payments 16
att@@ 16
ens 16
enter 16
ites 16
box 16
Enterprise 16
bur@@ 16
el 16
pres@@ 16
ented 16
Advice 16
senior 16
referral 16
ko@@ 16
ch 16
wear 16
gh@@ 16
ving 16
park 16
dark 16
ish 16
expected 16
ru@@ 16
id@@ 16
str@@ 16
Ho@@ 16
bicycle 16
hotel 16
thank 16
ward 16
swim 16
playing 16
fine 16
poor 16
probably 16
hurry 16
yours 16
hands 16
daughter 16
Mr 16
watching 16
purpose 15
careFinnish 15
13 15
voting 15
matriculation 15
features 15
diseases 15
ge 15
32@@ 15
mer@@ 15
Non 15
crimes 15
estate 15
cinema 15
interview 15
kk@@ 15
tions 15
aw@@ 15
Ã¢ 15
arrangements 15
regional 15
Suomen 15
custody 15
029.5@@ 15
profession 15
herself 15
des@@ 15
mon@@ 15
tionFinnish 15
dec@@ 15
equally 15
ously 15
sun 15
evenings 15
ones 15
borrow 15
origin 15
Po@@ 15
Parish 15
ard 15
January 15
Polish 15
relatives 15
original 15
physical 15
ction 15
tion@@ 15
meal 15
sent 15
employed 15
Legal 15
domestic 15
involved 15
Su@@ 15
compl@@ 15
teach 15
cook 15
pharmacy 15
shoes 15
drive 15
medi@@ 15
3.@@ 15
ering 15
bu@@ 15
flowers 15
tro@@ 15
tru@@ 15
ou@@ 15
ce@@ 15
electricity 15
accept 15
marital 15
serious 15
above 15
kept 15
de 15
hour 15
glass 15
running 15
appreciate 15
re 15
ball 15
movie 15
crazy 15
Tatoeba 15
girlfriend 15
lucky 15
telling 15
shot 15
beer 15
maybe 15
double 14
changes 14
Ex@@ 14
016.322.@@ 14
ences 14
agreements 14
variety 14
applications 14
Russia 14
83@@ 14
teachers 14
limited 14
average 14
Foundation 14
parenthood 14
workplaces 14
connection 14
certificates 14
ti 14
sentences 14
bag 14
ul@@ 14
interesting 14
9.@@ 14
terveysasema 14
receiving 14
current 14
tor 14
visiting 14
hun@@ 14
breakfast 14
determine 14
licence 14
sti@@ 14
seven 14
separately 14
foreigners 14
gambling 14
358 14
loved 14
compulsory 14
,@@ 14
parts 14
nurses 14
political 14
eFinnish 14
unable 14
ned 14
recycling 14
capital 14
sold 14
The 14
determined 14
feeling 14
normal 14
+ 14
cu@@ 14
preschool 14
keys 14
ects 14
instead 14
practice 14
demand 14
dead 14
um 14
State 14
natural 14
intoxicant 14
sea 14
qu@@ 14
reach 14
dangerous 14
calling 14
guarantee 14
birthday 14
minutes 14
Friday 14
sound 14
wash 14
prefer 14
learned 14
trouble 14
lie 14
team 14
forgot 14
rather 14
caught 14
hungry 14
thinks 14
favorite 14
cats 14
cake 14
saying 14
shirt 14
testimonial 13
var@@ 13
completing 13
though 13
war 13
kÃ¤@@ 13
booking 13
manager 13
operate 13
therefore 13
kiel@@ 13
ent@@ 13
06 13
rem@@ 13
couples 13
websiteFinnish 13
C 13
touch 13
newspapers 13
euros 13
turns 13
Business 13
hu@@ 13
maintained 13
ars 13
collection 13
ain@@ 13
specialised 13
ku@@ 13
background 13
adv@@ 13
Schengen 13
ati@@ 13
lea@@ 13
photo 13
requirements 13
newspaper 13
sed 13
copy 13
removal 13
examples 13
June 13
cli@@ 13
uses 13
century 13
ankatu 13
entrance 13
ast 13
larger 13
goes 13
koulu@@ 13
ler 13
ba@@ 13
cs 13
aids 13
calculated 13
fu@@ 13
enrol 13
den 13
resources 13
games 13
attention 13
ik@@ 13
weekend 13
ture 13
multicultural 13
ar 13
stand 13
master 13
copies 13
regulations 13
front 13
produ@@ 13
linkkiMinistry 13
ther@@ 13
cur@@ 13
sions 13
sa@@ 13
top 13
vo@@ 13
earned 13
eye 13
ner 13
hit 13
ator 13
pu@@ 13
hiking 13
cated 13
informal 13
President 13
gu@@ 13
spa@@ 13
fees 13
clari@@ 13
remuneration 13
hobby 13
passed 13
sub@@ 13
Lu@@ 13
project 13
her@@ 13
Administrative 13
Romanian 13
comm@@ 13
ls 13
eating 13
Pro@@ 13
degrees 13
hi@@ 13
twice 13
table 13
der@@ 13
rel@@ 13
bar@@ 13
prepare 13
ck@@ 13
ths 13
the@@ 13
filled 13
20@@ 13
Monday 13
enjoy 13
broke 13
gl@@ 13
snow 13
fri@@ 13
glasses 13
pped 13
gone 13
bri@@ 13
secret 13
coat 13
sugar 13
God 13
opened 13
hasn 13
mistake 13
stayed 13
played 12
aged 12
substance 12
staying 12
temporarily 12
24 12
parishes 12
banking 12
Counselling 12
wedding 12
hospitals 12
sexually 12
transmitted 12
40 12
Offi@@ 12
Proficiency 12
expecting 12
K 12
Oy 12
entire 12
largest 12
dFinnish 12
B 12
aFinnish 12
routes 12
Ã¤Ã¤@@ 12
independent 12
funds 12
Thai 12
served 12
Applied 12
ceFinnish 12
disabilities 12
int@@ 12
places 12
fac@@ 12
recreation 12
71@@ 12
positions 12
Gu@@ 12
wing 12
round 12
suddenly 12
ill@@ 12
ack 12
ve@@ 12
Li@@ 12
supplement 12
products 12
sive 12
qualifications 12
data 12
Liechtenstein 12
ect 12
ist@@ 12
appendices 12
distance 12
regular 12
volunteer 12
household 12
Sunday 12
ari@@ 12
administration 12
22 12
cre@@ 12
ship 12
dr@@ 12
ainen 12
guided 12
legalised 12
fied 12
village 12
speech 12
expect 12
committed 12
lin@@ 12
ring 12
ste@@ 12
ef 12
hel@@ 12
hat 12
rate 12
otherwise 12
Ar@@ 12
air 12
museum 12
An@@ 12
aining 12
kitchen 12
bike 12
viol@@ 12
hunting 12
25 12
ending 12
transfer 12
L 12
Ki@@ 12
sto@@ 12
road 12
addi@@ 12
body 12
la@@ 12
sel@@ 12
dentist 12
space 12
clo@@ 12
solve 12
accommodation 12
ker 12
heavy 12
gets 12
quiet 12
err@@ 12
ut@@ 12
film 12
ved 12
mean 12
fact 12
forward 12
seem 12
whatever 12
clean 12
sentence 12
wrote 12
stupid 12
liked 12
legs 12
Earth 12
shouldn 12
piano 12
picture 12
cted 11
Interpret@@ 11
knowledge 11
tor@@ 11
influence 11
engine 11
Elderly 11
tel@@ 11
premises 11
minor 11
Par@@ 11
options 11
covers 11
officer 11
inen 11
apprenticeship 11
Ch@@ 11
Municipality 11
trans@@ 11
advisable 11
cards 11
difficulties 11
ok@@ 11
celebrated 11
dy 11
growth 11
internet 11
sy@@ 11
Mon@@ 11
che@@ 11
playgrounds 11
competition 11
active 11
plastic 11
credentials 11
plays 11
duty 11
vacancies 11
050.@@ 11
professions 11
04@@ 11
value 11
added 11
seller 11
International 11
skill 11
noon 11
ki 11
central 11
content 11
wo@@ 11
depending 11
den@@ 11
ethnic 11
eli@@ 11
nu@@ 11
Foreign 11
Diplomatic 11
familiar 11
freely 11
affordable 11
worth 11
landlord 11
pt 11
ersFinnish 11
usual 11
eu@@ 11
detailed 11
folk 11
credit 11
guardianship 11
missions 11
serves 11
carried 11
ic@@ 11
sort 11
ected 11
middle 11
gre@@ 11
def@@ 11
exam 11
ys@@ 11
ping 11
wed 11
length 11
ised 11
survey 11
cesFinnish 11
connected 11
ited 11
main 11
caused 11
classes 11
force 11
founded 11
ran 11
forced 11
la 11
trust 11
consent 11
grants 11
mobile 11
permitFinnish 11
ative 11
easier 11
loans 11
ne@@ 11
suit 11
tri@@ 11
cent 11
fear 11
admitted 11
ll@@ 11
500 11
construction 11
activity 11
district 11
Tr@@ 11
na@@ 11
discussion 11
brought 11
independence 11
tasks 11
deposit 11
and@@ 11
tin@@ 11
Ap@@ 11
moment 11
mer 11
Wh@@ 11
rule 11
allowanceFinnish 11
becoming 11
boo@@ 11
interests 11
ride 11
mu@@ 11
details 11
lat@@ 11
follow 11
broken 11
celebr@@ 11
seeing 11
tree 11
cars 11
sm@@ 11
fruit 11
famous 11
sit 11
ality 11
sting 11
exist 11
kids 11
win 11
feelings 11
talked 11
Paris 11
spoke 11
catch 11
tennis 11
walked 11
cked 11
wearing 11
slept 11
eaten 11
river 11
supposed 11
kill 11
cute 11
weren 11
cks 11
ger 11
becomes 10
opens 10
men@@ 10
fallen 10
bringing 10
aimed 10
Mar@@ 10
visual 10
gain 10
necessarily 10
int 10
units 10
engage 10
flexible 10
purchase 10
tongue 10
af@@ 10
calcul@@ 10
cer@@ 10
tsFinnish 10
periods 10
HelsinkiFinnish 10
Sciences 10
ster@@ 10
â„¢ 10
Maahanmuuttovirasto 10
possibility 10
Mental 10
mar@@ 10
practi@@ 10
Norwegian 10
secur@@ 10
els 10
maximum 10
drug 10
Espoon 10
street 10
discriminated 10
presidential 10
regulated 10
sector 10
experienced 10
link 10
r 10
Vi@@ 10
refuse 10
signed 10
desk 10
lead 10
tFinnish 10
27@@ 10
statement 10
offence 10
ported 10
fa@@ 10
Travel 10
port@@ 10
magazines 10
vaccinations 10
inform 10
ctions 10
Moving 10
pic@@ 10
ement 10
Turku 10
steward 10
crafts 10
appropriate 10
numerous 10
observe 10
particular 10
appe@@ 10
stopping 10
violent 10
brochure 10
ains 10
tenant 10
nine 10
off@@ 10
advised 10
offering 10
fy 10
customs 10
retirement 10
Center 10
cash 10
doctors 10
relating 10
technology 10
toimisto 10
Department 10
sign@@ 10
sooner 10
Infopankki 10
Soviet 10
tre@@ 10
ava 10
dealing 10
whom 10
Mo@@ 10
included 10
va@@ 10
grow 10
monitor 10
Jorvi 10
workFinnish 10
difference 10
institutions 10
oper@@ 10
actually 10
seeking 10
pos@@ 10
Tu@@ 10
warm 10
koulu 10
ra@@ 10
tickets 10
id 10
Studyinfo.fi 10
division 10
clock 10
smaller 10
providers 10
Dutch 10
por@@ 10
numbers 10
0295.020.@@ 10
Hungarian 10
July 10
respect 10
MB 10
throughout 10
issued 10
keskus 10
compensation 10
homeless 10
Global 10
injured 10
confirmed 10
T 10
lan@@ 10
giving 10
suppl@@ 10
allows 10
United 10
visited 10
department 10
ed@@ 10
funeral 10
dictionary 10
pen@@ 10
fr@@ 10
bright 10
access 10
latest 10
devices 10
ob@@ 10
oned 10
dro@@ 10
energy 10
shorter 10
go@@ 10
thanks 10
sight 10
uncle 10
umbrella 10
somewhere 10
ath@@ 10
&apos;clock 10
tears 10
finish 10
... 10
Layla 10
die 10
strange 10
stars 10
smart 10
Oh 10
realize 10
il 10
theory 10
speaks 10
mountain 10
drunk 10
pen 10
crying 10
guys 10
commission 9
feedback 9
R 9
refers 9
ilities 9
310.@@ 9
tutkinto 9
tuition 9
activitiesFinnish 9
tional 9
ior 9
automatically 9
protect 9
varies 9
cancer 9
hoit@@ 9
ped 9
Institution 9
acquire 9
stu@@ 9
vÃ¤@@ 9
unless 9
abortion 9
Settlement 9
kaupun@@ 9
2nd 9
Master 9
tt@@ 9
applicant 9
regardless 9
Gre@@ 9
Mu@@ 9
opisto 9
ath 9
officials 9
ption 9
practise 9
growing 9
effect 9
communication 9
noise 9
accepts 9
recreational 9
board 9
memory 9
reimbursement 9
mentFinnish 9
contracts 9
houses 9
ease 9
Residence 9
regularly 9
ber@@ 9
coll@@ 9
Info@@ 9
develop 9
lit@@ 9
treat 9
nearly 9
eight 9
Mission 9
Victim 9
Medi@@ 9
cation 9
describe 9
mention 9
source 9
cor@@ 9
vol@@ 9
09.83@@ 9
000 9
star@@ 9
choo@@ 9
factors 9
letters 9
Ca@@ 9
ound@@ 9
proof 9
Municipal 9
air@@ 9
aar@@ 9
Bo@@ 9
guardians 9
lasts 9
05@@ 9
Ju@@ 9
Vantaan 9
welcome 9
LÃ¤nsi 9
defects 9
NewCo 9
control 9
interpretation 9
mediation 9
voice 9
satisfied 9
types 9
Rovala 9
type 9
Unemployment 9
cancel 9
grand@@ 9
estimate 9
cam@@ 9
15@@ 9
ory 9
selected 9
translation 9
tionsFinnish 9
towards 9
informationFinnish 9
approved 9
Open 9
placed 9
taught 9
ces 9
Dis@@ 9
states 9
ines 9
ists 9
daytime 9
afterwards 9
healthy 9
UNHCR 9
ection 9
applies 9
therapy 9
communities 9
ness 9
tly 9
cancelled 9
Unit 9
bul@@ 9
falls 9
criminal 9
ef@@ 9
up@@ 9
aun@@ 9
ris@@ 9
tuki 9
December 9
65 9
accordance 9
urgently 9
links 9
pensions 9
Lin@@ 9
chi@@ 9
processed 9
psychologist 9
Tribunal 9
inst@@ 9
Gr@@ 9
ze 9
silent 9
wide 9
New 9
wages 9
States 9
primarily 9
under@@ 9
belongs 9
total 9
cheaper 9
san@@ 9
ov@@ 9
pupils 9
our@@ 9
Ohjaamo 9
pool 9
sol@@ 9
ani@@ 9
network 9
ori 9
Registry 9
En@@ 9
War 9
perform 9
border 9
ners 9
ear 9
ins 9
animals 9
ke@@ 9
tent 9
OK 9
mate 9
windows 9
toys 9
finally 9
hy@@ 9
missed 9
kes 9
Australia 9
rest 9
absent 9
fai@@ 9
bread 9
seat 9
vacation 9
nervous 9
excuse 9
hon@@ 9
fuck 9
understood 9
pret@@ 9
John 9
dollars 9
pleased 9
owe 9
none 9
gh 9
cup 9
figured 9
gun 9
blood 9
kiss 9
apple 9
swe@@ 9
fat 9
earth 9
unfortunately 8
channels 8
Thu 8
23 8
Libr@@ 8
sli@@ 8
lec@@ 8
playground 8
fix 8
whenever 8
Pr@@ 8
counsellingFinnish 8
anti@@ 8
bio@@ 8
sin@@ 8
laws 8
SE@@ 8
seudun 8
establishment 8
nor 8
affected 8
consu@@ 8
plans 8
curriculum 8
intend 8
final 8
items 8
lessons 8
deductions 8
ety 8
020.@@ 8
impaired 8
exams 8
locations 8
sil@@ 8
bilingual 8
recommended 8
Universities 8
sen@@ 8
eng@@ 8
advis@@ 8
specialist 8
instru@@ 8
ct 8
EL@@ 8
ures 8
Nu@@ 8
interpreting 8
orientation 8
ek 8
92.@@ 8
39@@ 8
enc@@ 8
lights 8
journey 8
mid@@ 8
visits 8
films 8
16@@ 8
yh@@ 8
Ko@@ 8
surgery 8
elsewhere 8
materials 8
43@@ 8
investig@@ 8
wishes 8
unmarried 8
belonging 8
meals 8
set@@ 8
fun@@ 8
ecting 8
reunification 8
enrolment 8
maintain 8
adverti@@ 8
ge@@ 8
194@@ 8
former 8
requested 8
repair 8
thern 8
deceased 8
hire 8
freedom 8
inheritance 8
ado@@ 8
queue 8
ner@@ 8
boasts 8
racist 8
anywhere 8
Joint 8
Soite 8
losing 8
continuing 8
tw@@ 8
essential 8
reconsideration 8
clients 8
cally 8
breaks 8
record 8
holds 8
adequate 8
Helsingin 8
tiesFinnish 8
Em@@ 8
ns 8
equality 8
Contrac@@ 8
banks 8
ment@@ 8
increase 8
sun@@ 8
win@@ 8
allow 8
multiple 8
traditional 8
route 8
psy@@ 8
cycling 8
map 8
listening 8
risk 8
scientific 8
65@@ 8
040.80@@ 8
partially 8
lation 8
circumstances 8
engagement 8
alism 8
centreFinnish 8
anta 8
policies 8
drugs 8
sup@@ 8
porting 8
promo@@ 8
are@@ 8
advertisements 8
perheneuvola 8
cross 8
loves 8
mes 8
rou@@ 8
stopped 8
0s 8
far@@ 8
ver 8
outdoor 8
keeps 8
selection 8
difficulty 8
polite 8
form@@ 8
dge 8
plant 8
toilet 8
trac@@ 8
cho@@ 8
Pensions 8
ber 8
assess@@ 8
wr@@ 8
consideration 8
courage 8
discretionary 8
progres@@ 8
promises 8
site 8
figure 8
cultures 8
cap@@ 8
Miehen 8
ities 8
Transport 8
shi@@ 8
damaged 8
Norway 8
shower 8
work@@ 8
Du@@ 8
finances 8
theatres 8
avoid 8
loud 8
mb@@ 8
sudden 8
ban@@ 8
trees 8
est@@ 8
Disabled 8
ards 8
anger 8
ills 8
down@@ 8
clinicsFinnish 8
extended 8
wise 8
ently 8
ei@@ 8
Un@@ 8
drinks 8
47@@ 8
entering 8
manage 8
serviceFinnish 8
ctive 8
coun@@ 8
rents 8
worried 8
ven@@ 8
containers 8
prof@@ 8
Oc@@ 8
itself 8
risks 8
fe@@ 8
wa@@ 8
logy 8
199@@ 8
beforehand 8
worst 8
tan@@ 8
radio 8
shops 8
pes 8
stove 8
avoin 8
hood 8
clu@@ 8
August 8
fication 8
thousands 8
hazardous 8
boat 8
Mi@@ 8
ush 8
ori@@ 8
gar@@ 8
speci@@ 8
ad 8
taxi 8
fly 8
yhtiÃ¶ 8
loss 8
ey@@ 8
white 8
pir@@ 8
del@@ 8
rude 8
succeeded 8
likely 8
ching 8
seriously 8
iling 8
view 8
ained 8
terrible 8
song 8
slow 8
geni@@ 8
apped 8
cry 8
dogs 8
accused 8
acked 8
lesson 8
sw@@ 8
hardly 8
thirty 8
mistakes 8
Tokyo 8
comfortable 8
America 8
piece 8
across 8
lies 8
eggs 8
bet 8
ashamed 8
dream@@ 8
disappointed 8
worse 8
rock 8
asleep 8
luck 8
guy 8
formed 7
apartments 7
tenth 7
expertise 7
sales 7
klinikka 7
providing 7
deductible 7
experiences 7
neuvola 7
prev@@ 7
Opetushallitus 7
contraceptives 7
25@@ 7
Art 7
threatens 7
block 7
tified 7
citizensFinnish 7
disease 7
schoolsFinnish 7
compare 7
lam@@ 7
tics 7
identification 7
bigg@@ 7
relative 7
career 7
piste 7
divorced 7
ta 7
unions 7
od 7
appli@@ 7
impro@@ 7
visually 7
March 7
April 7
sale 7
100 7
Where 7
HOAS 7
user 7
promote 7
det@@ 7
ail 7
020.634.@@ 7
01 7
kotikunta 7
pa 7
videos 7
La@@ 7
considering 7
sum@@ 7
Tur@@ 7
my@@ 7
sciencesFinnish 7
packed 7
fol@@ 7
specified 7
subscription 7
visitation 7
Cu@@ 7
research 7
ign 7
acts 7
pay@@ 7
Institute 7
kki@@ 7
Airport 7
throw 7
text 7
73 7
liitto 7
psycho@@ 7
bel@@ 7
701 7
buyer 7
tive 7
dly 7
emergencies 7
pensioners 7
planned 7
siblings 7
inf@@ 7
ways 7
skin 7
Station 7
stri@@ 7
Op@@ 7
prevent 7
Albanian 7
resided 7
fully 7
Kor@@ 7
Myyr@@ 7
mÃ¤ki 7
attach 7
ics 7
28 7
tus 7
ff@@ 7
display 7
contents 7
In 7
ing@@ 7
amp 7
wit@@ 7
28@@ 7
Y 7
inti@@ 7
debts 7
built 7
exception 7
V 7
Nor@@ 7
temperature 7
ct@@ 7
plan@@ 7
tour@@ 7
aching 7
counsel@@ 7
calls 7
oral 7
result 7
discussed 7
movies 7
Trade 7
House 7
rec@@ 7
marriages 7
holi@@ 7
conducted 7
expires 7
dea@@ 7
conclu@@ 7
ka 7
membership 7
goal 7
kt 7
Pu@@ 7
asi@@ 7
chat 7
ca 7
E 7
Yrit@@ 7
64 7
integr@@ 7
discount 7
hen@@ 7
correctly 7
acted 7
Registration 7
club 7
ActFinnish 7
oikeu@@ 7
90 7
moves 7
Co@@ 7
promised 7
including 7
medicines 7
filed 7
oriso@@ 7
identi@@ 7
behave 7
supportFinnish 7
pol@@ 7
charac@@ 7
drop 7
cancel@@ 7
77.@@ 7
entry 7
seasonal 7
ators 7
fairly 7
Wed 7
acceptable 7
equ@@ 7
ityFinnish 7
9.497.@@ 7
eless 7
loo@@ 7
pharmacies 7
sai@@ 7
pÃ¤ivystys 7
Vietnamese 7
animal 7
TyÃ¶@@ 7
Wor@@ 7
tests 7
blo@@ 7
mit 7
neighbour 7
increased 7
ep@@ 7
ney 7
pictures 7
Upper 7
individuals 7
Ver@@ 7
starts 7
recycled 7
parish 7
logical 7
enjo@@ 7
partners 7
defect 7
concentr@@ 7
preparing 7
charges 7
ye 7
hab@@ 7
results 7
0295.025.@@ 7
41@@ 7
vely 7
taxable 7
aim 7
aus@@ 7
ski 7
ave 7
Pat@@ 7
washing 7
searching 7
contain 7
han@@ 7
main@@ 7
Adults 7
supports 7
scre@@ 7
Iceland 7
immediate 7
Ro@@ 7
ational 7
lock 7
sor@@ 7
ang@@ 7
Community 7
arm 7
High 7
ily 7
dg@@ 7
exceed 7
birds 7
motor 7
manner 7
itto 7
nor@@ 7
ably 7
ay@@ 7
influ@@ 7
peopleFinnish 7
watched 7
It@@ 7
translated 7
med 7
inkatu 7
investigation 7
copyrights 7
Western 7
perus@@ 7
pension@@ 7
ery 7
batter@@ 7
don@@ 7
published 7
hundred 7
faster 7
afford 7
8.@@ 7
calendar 7
conduct 7
lines 7
pri@@ 7
sufficiently 7
punishment 7
0800.@@ 7
tas@@ 7
electric 7
ack@@ 7
commer@@ 7
personally 7
charged 7
mul@@ 7
ot@@ 7
operating 7
Res@@ 7
Smith 7
plu@@ 7
ishFinnish 7
cate 7
heav@@ 7
Ã¶ 7
ket 7
ays 7
initi@@ 7
ize 7
reached 7
selling 7
electrical 7
proposed 7
direct 7
closest 7
childrenFinnish 7
deliver 7
reasonable 7
cool 7
avu@@ 7
ger@@ 7
evidence 7
pping 7
ey 7
understanding 7
kil@@ 7
airport 7
dom 7
wat@@ 7
England 7
countryside 7
bi@@ 7
recently 7
bas@@ 7
bit@@ 7
flu@@ 7
perfect 7
honest 7
foods 7
driver 7
bear 7
lend 7
Germany 7
oun@@ 7
clou@@ 7
sky 7
ism 7
enemy 7
sc@@ 7
kno@@ 7
hurried 7
wore 7
dressed 7
greatest 7
novel 7
warned 7
bottle 7
tea 7
suppose 7
dad 7
teeth 7
helped 7
boyfriend 7
weight 7
awake 7
laughing 7
efforts 7
garden 7
funny 7
explain 7
thirsty 7
painting 7
sounds 7
ass 7
pain@@ 7
raining 7
feet 7
beach 7
Ah 7
ours 7
shar@@ 7
teen 7
shut 7
spent 7
brown 7
forgive 7
tall 7
ought 7
ash@@ 7
shy 7
success 7
painted 7
Jane 7
intelligent 7
blue 7
upstairs 7
scared 7
quit 7
points 6
bin@@ 6
paint 6
establish 6
ply 6
vel@@ 6
child@@ 6
West 6
restrictions 6
astu@@ 6
less@@ 6
enting 6
Multilingual 6
iz@@ 6
17@@ 6
D 6
cies 6
refer@@ 6
range 6
stipulates 6
enceFinnish 6
manual 6
itu@@ 6
saved 6
halls 6
kko 6
suggest 6
centr@@ 6
8287.@@ 6
uk@@ 6
encing 6
capacity 6
ity@@ 6
evalu@@ 6
decides 6
Ol@@ 6
ure 6
corresponds 6
talo 6
Environmental 6
foundations 6
clai@@ 6
1917 6
KÃ¤lviÃ¤ 6
exact 6
Wilma 6
behalf 6
screenings 6
expl@@ 6
cooperation 6
Ã¤jÃ¤@@ 6
FinlandEnglish 6
chall@@ 6
400 6
tors 6
divide 6
49@@ 6
trips 6
dedu@@ 6
Mielen@@ 6
denied 6
cafÃ©s 6
sport 6
Hakunila 6
vakoti 6
psychotherapy 6
detector 6
brea@@ 6
Di@@ 6
refer 6
ben@@ 6
Kivenkolo 6
yl@@ 6
Bar 6
filing 6
Fin@@ 6
teen@@ 6
saf@@ 6
liable 6
insul@@ 6
rubbish 6
avo@@ 6
pai@@ 6
legally 6
threats 6
cking 6
ow 6
remain 6
No@@ 6
linen 6
iv@@ 6
45@@ 6
Finn@@ 6
cinemas 6
aidFinnish 6
ombudsman 6
examin@@ 6
discounts 6
placement 6
struct@@ 6
greatly 6
dies 6
cons@@ 6
racism 6
role 6
applicants 6
ras@@ 6
sts 6
changing 6
bro@@ 6
tun@@ 6
linkkiNational 6
witnesses 6
except 6
archit@@ 6
matic 6
extremely 6
asking 6
secure 6
essed 6
7.@@ 6
04 6
linkkiCity 6
chem@@ 6
industry 6
particularly 6
behaviour 6
mandatory 6
carer 6
economic 6
ase 6
privately 6
9.5@@ 6
Ad@@ 6
pack 6
yttÃ¶@@ 6
-@@ 6
Justice 6
interpreters 6
Shel@@ 6
ra 6
vers 6
timetables 6
railway 6
quality 6
aints 6
November 6
indicate 6
neither 6
ide 6
subsi@@ 6
quali@@ 6
ature 6
exhibitions 6
undocumented 6
om 6
Pasila 6
slightly 6
raised 6
articles 6
printed 6
Ta@@ 6
punished 6
World 6
Her@@ 6
itage 6
gg@@ 6
asunto@@ 6
ships 6
created 6
aint 6
instructed 6
reliably 6
www.@@ 6
lah@@ 6
Hel@@ 6
202 6
establishments 6
select 6
threatening 6
pul@@ 6
tend 6
Theatre 6
arrival 6
familiar@@ 6
methods 6
assess 6
shows 6
can@@ 6
ka@@ 6
gover@@ 6
vis@@ 6
6.6@@ 6
alternatives 6
Christi@@ 6
author@@ 6
qualifying 6
detached 6
ordinary 6
foreigner 6
Nuor@@ 6
0295.@@ 6
MuseumFinnish 6
centresFinnish 6
distribu@@ 6
serve 6
vement 6
kers 6
ut 6
nation@@ 6
southern 6
play@@ 6
develop@@ 6
parking 6
Tue 6
indica@@ 6
vero 6
filling 6
sta@@ 6
ever@@ 6
solved 6
singing 6
offi@@ 6
HU@@ 6
AK 6
illnesses 6
ues 6
itFinnish 6
cti@@ 6
recognised 6
tu 6
gained 6
Finnvera 6
draw 6
reserve 6
09.839.@@ 6
bookkeeping 6
parenting 6
foot 6
Marriage 6
mon 6
lukio 6
Secondary 6
communications 6
negative 6
invol@@ 6
partly 6
Integration 6
differently 6
answ@@ 6
osa@@ 6
asun@@ 6
entr@@ 6
reques@@ 6
82@@ 6
school@@ 6
assist 6
major 6
elec@@ 6
des 6
044.@@ 6
atur@@ 6
schedule 6
A1 6
onFinnish 6
connections 6
nam@@ 6
tains 6
ft 6
sub 6
expert 6
entsFinnish 6
ances 6
coverage 6
prot@@ 6
signifi@@ 6
religions 6
Vir@@ 6
bound 6
repairs 6
academic 6
alteration 6
Read 6
Together 6
therapist 6
For@@ 6
wood 6
pi 6
pis@@ 6
ests 6
pat@@ 6
ari 6
skiing 6
clearly 6
ationsFinnish 6
hammasho@@ 6
elÃ¤@@ 6
2016 6
Single 6
negoti@@ 6
excep@@ 6
tal@@ 6
load 6
informed 6
ury 6
row 6
hur@@ 6
views 6
sor 6
Nuppi 6
resides 6
generally 6
walking 6
childcare 6
indoor 6
pools 6
mean@@ 6
portFinnish 6
faith 6
gs 6
ess@@ 6
200 6
conflicts 6
withheld 6
pers@@ 6
lum@@ 6
VÃ¤estÃ¶liitto 6
ilmoitus 6
eting 6
jel@@ 6
un 6
correc@@ 6
My@@ 6
Vaasa 6
express 6
Ã¤itiys@@ 6
Mother 6
sum 6
prohi@@ 6
oil 6
subs@@ 6
buses 6
ym@@ 6
Uni@@ 6
highly 6
Chi@@ 6
14 6
tem@@ 6
Ull@@ 6
cy 6
residential 6
pe 6
ih@@ 6
annu@@ 6
Bulgarian 6
lied 6
cooperative 6
ow@@ 6
dev@@ 6
purchased 6
cing 6
Enterprises 6
communi@@ 6
respon@@ 6
sumers 6
eter@@ 6
jÃ¤@@ 6
pressure 6
advanced 6
rise 6
metal 6
70 6
firm 6
machine 6
read@@ 6
sessions 6
ough 6
severe 6
bs 6
privacy 6
systems 6
handled 6
translations 6
nursing 6
linkkiS@@ 6
sen 6
furniture 6
decor@@ 6
walks 6
Cemetery 6
uni@@ 6
wars 6
tracks 6
ails 6
confirm 6
desire 6
suff@@ 6
Famil@@ 6
regarded 6
oc@@ 6
olds 6
wel@@ 6
back@@ 6
simple 6
desp@@ 6
concert 6
mel@@ 6
create 6
sat 6
aring 6
cue 6
ized 6
Bu@@ 6
Sh@@ 6
relevant 6
somebody 6
whi@@ 6
mathematics 6
ager 6
followed 6
mb 6
Europe 6
we@@ 6
arti@@ 6
bre@@ 6
willing 6
doors 6
standing 6
solution 6
ot 6
ff 6
falling 6
spe@@ 6
dry 6
fit 6
ched 6
exhausted 6
ig@@ 6
reci@@ 6
president 6
pas@@ 6
volunte@@ 6
wan@@ 6
gold 6
leaves 6
homework 6
minute 6
York 6
leg 6
chicken 6
moon 6
wake 6
spi@@ 6
aggres@@ 6
Spain 6
lake 6
believ@@ 6
impossible 6
universe 6
dream 6
message 6
iled 6
perhaps 6
happening 6
grandmother 6
cows 6
translate 6
refused 6
lazy 6
fight 6
sted 6
impressed 6
sings 6
threw 6
shou@@ 6
upset 6
sheep 6
drinking 6
wonderful 6
burst 6
alive 6
knife 6
ade 6
says 6
kissed 6
grandfather 6
admire 6
lots 6
idiot 6
od@@ 6
punctual 6
but@@ 6
fortune 6
mom 6
ap 6
lar 6
Americans 6
theater 6
failed 6
congratul@@ 6
laughed 6
apologize 6
touched 6
soul 6
ama@@ 6
drank 6
ju@@ 6
license 6
runs 6
embarrassed 6
taller 6
singer 6
hide 6
pale 6
scene 6
bother 6
talks 6
planet 6
vehicle 5
P 5
outh 5
Haart@@ 5
De@@ 5
biowaste 5
LaplandFinnish 5
tkinto 5
eh@@ 5
fourth 5
35@@ 5
accounting 5
smo@@ 5
camps 5
candi@@ 5
fici@@ 5
discovered 5
km2 5
ordered 5
differ@@ 5
colleges 5
disabledFinnish 5
ant@@ 5
collateral 5
assis@@ 5
lower 5
stud@@ 5
e.g. 5
media 5
KO@@ 5
Kehit@@ 5
cy@@ 5
O 5
00@@ 5
Trans@@ 5
esti@@ 5
ammatillinen 5
recor@@ 5
ili@@ 5
sosiaali- 5
edi@@ 5
Om@@ 5
demonstrate 5
Inter@@ 5
unsure 5
negotiate 5
kkari 5
ased 5
employ 5
yhteishaku 5
causes 5
Starting 5
vak@@ 5
functional 5
publicly 5
percentage 5
Easter 5
ID 5
breast 5
Finnish@@ 5
assists 5
Kauni@@ 5
Servi@@ 5
Ma@@ 5
binding 5
dismissal 5
Festiv@@ 5
IM@@ 5
gram@@ 5
ann@@ 5
gin 5
save 5
kissing 5
invite 5
Bachelor 5
specifically 5
model 5
proprietorship 5
obtaining 5
stric@@ 5
limit 5
Right 5
science 5
dresses 5
comprises 5
sion@@ 5
pill 5
resolved 5
supplies 5
concern 5
bac@@ 5
Midsummer 5
suo@@ 5
elu@@ 5
laki 5
tings 5
remin@@ 5
port 5
cru@@ 5
illegal 5
with@@ 5
behav@@ 5
violently 5
attending 5
threatened 5
syllabus 5
bid 5
Organisation 5
kans@@ 5
distric@@ 5
sou@@ 5
managing 5
director 5
hea@@ 5
dem@@ 5
cations 5
CentreFinnish 5
dwellingsFinnish 5
Culture 5
seasons 5
045.@@ 5
63@@ 5
cal@@ 5
76@@ 5
replace 5
representative 5
kriisipÃ¤ivystys 5
Tel 5
50@@ 5
blocks 5
buildings 5
preparation 5
mi 5
asunnot 5
properly 5
eding 5
Tikkurila 5
BC 5
consists 5
dependent 5
refund 5
veron@@ 5
pal@@ 5
build 5
trau@@ 5
honour 5
const@@ 5
antly 5
yr@@ 5
road@@ 5
grew 5
nit@@ 5
ical 5
Finland@@ 5
recorded 5
kansalai@@ 5
sop@@ 5
tyÃ¶vÃ¤enopisto 5
Incomes 5
Hall 5
burial 5
4th 5
linkkiEspoo 5
intoxicants 5
shares 5
Hon@@ 5
castles 5
lor 5
honesty 5
Civil 5
27 5
81 5
onlineFinnish 5
depend 5
stru@@ 5
bon@@ 5
ementFinnish 5
prepares 5
Preparatory 5
demonstr@@ 5
ss 5
esus 5
Anonymous 5
sof@@ 5
instance 5
LUVA 5
agent 5
Moni@@ 5
Ã¤t@@ 5
arian 5
bli@@ 5
tary 5
announ@@ 5
Mannerheim 5
League 5
accumulated 5
Anti@@ 5
Immigr@@ 5
digital 5
sÃ¤Ã¤tiÃ¶ 5
inspection 5
Asunnot 5
bleeding 5
represent 5
Problems 5
info@@ 5
land@@ 5
Ã¶n@@ 5
KokkolaFinnish 5
specify 5
92.4@@ 5
continues 5
compensate 5
asu@@ 5
jus@@ 5
dit@@ 5
orial 5
tern@@ 5
grown 5
lastenneuvola 5
esses 5
.A@@ 5
ports 5
eing 5
female 5
Val@@ 5
vira 5
translator 5
plo@@ 5
When 5
pack@@ 5
ageFinnish 5
agency 5
funding 5
Omatila 5
constitu@@ 5
agesFinnish 5
regard 5
allowances 5
rejected 5
80 5
prior 5
collect 5
aikuis@@ 5
stuki 5
Croatian 5
ani 5
checklist 5
vammai@@ 5
116.117 5
shed 5
coast 5
obe@@ 5
HelMet 5
increasing 5
uri@@ 5
collected 5
terminate 5
Guid@@ 5
networks 5
possibilities 5
gri@@ 5
palvelu 5
aist@@ 5
ski@@ 5
vero@@ 5
jum@@ 5
scar@@ 5
ammattikorkea@@ 5
cope 5
ol 5
weak@@ 5
plane 5
locality 5
benef@@ 5
continuously 5
opetus 5
mus 5
college 5
enforcement 5
arriving 5
cemeter@@ 5
Sun 5
dle 5
ges 5
omi@@ 5
raising 5
ceremonies 5
similar 5
parks 5
Planner 5
ycling 5
gaining 5
returning 5
auto@@ 5
nuclear 5
vir@@ 5
oppos@@ 5
cian 5
compens@@ 5
custom@@ 5
Nupoli 5
ja@@ 5
app@@ 5
Regional 5
Agencies 5
younger 5
target 5
repaired 5
action 5
erityis@@ 5
510 5
koti@@ 5
entie 5
forcing 5
201@@ 5
adminis@@ 5
dial@@ 5
calculate 5
psychiatric 5
appointed 5
linja 5
assume 5
Sports 5
terminated 5
ell 5
meets 5
Environment 5
liik@@ 5
overtime 5
extra 5
secon@@ 5
Divorce 5
recovery 5
earlier 5
prohibits 5
desired 5
Renlund 5
businesses 5
evaluate 5
minor@@ 5
denomin@@ 5
tin 5
toimin@@ 5
insur@@ 5
ior@@ 5
spon@@ 5
Caf@@ 5
feels 5
lai@@ 5
compar@@ 5
pan 5
1,@@ 5
humanities 5
rekister@@ 5
ond 5
citizenFinnish 5
Suomenlinna 5
cel@@ 5
.. 5
suus@@ 5
ans@@ 5
ank 5
everyman 5
veget@@ 5
multi@@ 5
whereas 5
monitored 5
Is@@ 5
restraining 5
monthly 5
acquired 5
neighbouring 5
Kau@@ 5
experts 5
mainly 5
product 5
oikeusaputoimisto 5
webpage 5
surr@@ 5
lawyers 5
vit@@ 5
Tampere 5
kan@@ 5
delivery 5
io@@ 5
gin@@ 5
sal@@ 5
26 5
alise 5
ne 5
kkaus 5
sesFinnish 5
diplo@@ 5
studied 5
inv@@ 5
validity 5
probationary 5
mor@@ 5
commit@@ 5
participa@@ 5
inspe@@ 5
pass@@ 5
adop@@ 5
tk@@ 5
si 5
Financial 5
separ@@ 5
ola 5
towns 5
localities 5
founding 5
cl@@ 5
item 5
competent 5
occur 5
99 5
answers 5
Let 5
Response 5
supervised 5
users 5
tle 5
dissolved 5
71.@@ 5
facilitate 5
Homelessness 5
Citiz@@ 5
kingFinnish 5
2017 5
besides 5
forestry 5
copyright 5
Advis@@ 5
48@@ 5
Work 5
Fun@@ 5
Cre@@ 5
heating 5
tips 5
pÃ¤@@ 5
currency 5
mation 5
gradu@@ 5
reduce 5
duties 5
4.@@ 5
doct@@ 5
sis@@ 5
streng@@ 5
sosiaalitoimisto 5
recommend 5
tinkatu 5
ach 5
eter 5
widow 5
19 5
contacting 5
extensive 5
30@@ 5
deciding 5
February 5
defe@@ 5
lo 5
Sho@@ 5
fought 5
koulutus 5
entit@@ 5
currently 5
federation 5
linkkiHelsinki 5
tenants 5
photo@@ 5
671@@ 5
advisory 5
fying 5
ach@@ 5
slip 5
style 5
stand@@ 5
implementation 5
ruined 5
arr@@ 5
leg@@ 5
jobseeker 5
Sport 5
pleasant 5
marri@@ 5
cour@@ 5
steps 5
hom@@ 5
aatt@@ 5
withholding 5
enn@@ 5
happiness 5
wealth 5
repres@@ 5
observed 5
spending 5
monitors 5
economy 5
yliopisto 5
295.@@ 5
char@@ 5
kar@@ 5
survivors 5
Sen@@ 5
aikuislukio 5
involves 5
pan@@ 5
assistant 5
showed 5
hall 5
elinkeinotoimisto 5
imi 5
electronically 5
festivals 5
adap@@ 5
1.@@ 5
comp@@ 5
sa 5
gol@@ 5
permit@@ 5
judge 5
alternative 5
quar@@ 5
marked 5
obj@@ 5
tooth@@ 5
Kam@@ 5
wil@@ 5
enables 5
chosen 5
clean@@ 5
jan@@ 5
iron 5
health@@ 5
ject 5
fre@@ 5
emb@@ 5
anxi@@ 5
host 5
winning 5
universitiesFinnish 5
tering 5
beauty 5
ortti 5
Matkahuolto 5
spread 5
begin@@ 5
job@@ 5
edit@@ 5
philosophy 5
thousand 5
minis@@ 5
removed 5
India 5
bal@@ 5
impact 5
kunta 5
bes@@ 5
ils 5
chair@@ 5
hang 5
class@@ 5
eness 5
repeat 5
council 5
sons 5
postgraduate 5
hal@@ 5
belief 5
vat@@ 5
gathered 5
symbol 5
musician 5
ton 5
yed 5
pier 5
dating 5
path 5
beg@@ 5
aise 5
destination 5
actu@@ 5
salad 5
aff@@ 5
blanket 5
compli@@ 5
organ@@ 5
bottles 5
borro@@ 5
cont@@ 5
concerned 5
aped 5
objective 5
appearance 5
American 5
blind 5
guests 5
heat 5
pron@@ 5
some@@ 5
puzz@@ 5
temp@@ 5
rid 5
British 5
arrogant 5
Esperanto 5
article 5
kindness 5
escape 5
harder 5
button 5
Hi 5
returned 5
beat 5
deserve 5
truck 5
wee@@ 5
everywhere 5
guard 5
push 5
mood 5
flower 5
players 5
ick@@ 5
Italy 5
proud 5
proposal 5
butter 5
rab@@ 5
patience 5
favourite 5
bite 5
candy 5
owes 5
Braz@@ 5
secrets 5
hiding 5
pond 5
bad@@ 5
fault 5
earthquake 5
nonsense 5
convinced 5
innocent 5
star 5
parked 5
eats 5
believed 5
happens 5
calm 5
math 5
excited 5
rains 5
disgu@@ 5
danced 5
mad 5
policeman 5
rarely 5
smile 5
tells 5
hole 5
bedroom 5
huge 5
pushed 5
bird 5
friendly 5
smells 5
gotten 5
cheese 5
stories 5
beef 5
ahead 5
soldiers 5
color 5
contr@@ 5
forever 5
bar 5
traveling 5
blame 5
chocolate 5
squirrels 5
zoo 5
ignor@@ 5
a.@@ 5
eigh@@ 5
salt 5
argu@@ 5
listened 5
zing 5
fool 5
mi@@ 5
generation 5
boss 5
succeed 5
wai@@ 5
sleepy 5
camera 5
magazine 5
arrested 5
recognize 5
Alger@@ 5
piggy 5
clever 5
ounce 5
absolutely 5
fired 5
lonely 5
wears 5
deny 5
brothers 5
delicious 5
hammer 5
soccer 5
terribly 5
waited 5
Pen@@ 4
Sa@@ 4
Pal@@ 4
recruit@@ 4
yli@@ 4
thea@@ 4
underage 4
retain 4
Organ@@ 4
ute 4
educa@@ 4
fir@@ 4
terraced 4
demonstrations 4
tual 4
Disab@@ 4
ishes 4
counted 4
Ãƒ 4
ytt@@ 4
kir@@ 4
treats 4
Kokk@@ 4
contac@@ 4
diverse 4
experi@@ 4
oppilaitos 4
eligibility 4
home@@ 4
lÃ¤h@@ 4
toim@@ 4
measures 4
pupil 4
manFinnish 4
feat@@ 4
Star@@ 4
tti@@ 4
consider@@ 4
cable 4
thesis 4
listed 4
option 4
courses.fi 4
bility 4
lap@@ 4
ights 4
panel 4
poin@@ 4
termination 4
detec@@ 4
worthwhile 4
progr@@ 4
linkkiLapland 4
raffi@@ 4
immigr@@ 4
ordinat@@ 4
oleskelu@@ 4
descri@@ 4
linkkiRovala 4
entrepreneur@@ 4
kuja 4
reimbur@@ 4
cheap@@ 4
granting 4
activ@@ 4
separated 4
low@@ 4
greater 4
cess 4
exercises 4
tourism 4
Euro@@ 4
ility 4
tled 4
establishing 4
mostly 4
diabet@@ 4
diet 4
highest 4
may@@ 4
deputy 4
occa@@ 4
ghts 4
positive 4
finance 4
exem@@ 4
co 4
nia 4
74 4
week@@ 4
lasten@@ 4
stores 4
ante@@ 4
olence 4
Mari@@ 4
clinic@@ 4
dist@@ 4
ylÃ¤ 4
sairausvakuutus 4
execu@@ 4
corpor@@ 4
poli@@ 4
rehabilitationFinnish 4
linkkiCentral 4
matk@@ 4
discussions 4
direc@@ 4
leasing 4
dre@@ 4
pÃ¤ivÃ¤@@ 4
koti 4
vitae 4
format 4
prevention 4
fer@@ 4
uro@@ 4
jen 4
isk@@ 4
foreca@@ 4
jacket 4
cookies 4
increas@@ 4
success@@ 4
furnished 4
ther 4
knowledg@@ 4
instruction 4
trial 4
persecu@@ 4
fires 4
sent@@ 4
enced 4
circu@@ 4
dri@@ 4
vacant 4
poison 4
eskus 4
Hou@@ 4
proce@@ 4
At@@ 4
ou 4
aur@@ 4
oras 4
isto 4
inventory 4
ard@@ 4
returne@@ 4
gynaecologist 4
organising 4
nÃ¤@@ 4
Â° 4
joki 4
tered 4
terveysseu@@ 4
discriminate 4
mess@@ 4
stle 4
trained 4
appreci@@ 4
Cer@@ 4
occupants 4
cin@@ 4
defines 4
unta 4
adver@@ 4
confusion 4
strongly 4
postpone 4
migr@@ 4
train@@ 4
til@@ 4
deb@@ 4
prescriptions 4
xation 4
life@@ 4
frequ@@ 4
funded 4
indicates 4
presenting 4
quities 4
ventions 4
encounter 4
suit@@ 4
cir@@ 4
disabilitiesFinnish 4
parliamentary 4
registrations 4
omi 4
ession 4
ammatti@@ 4
etc 4
atti@@ 4
Ã¶Ã¶l@@ 4
high@@ 4
harm 4
landlords 4
cement 4
eam 4
ssistance 4
Employ@@ 4
ee 4
liability 4
eur 4
delayed 4
consequences 4
hoitoraha 4
verify 4
travel@@ 4
tours 4
false 4
genital 4
mutilation 4
upbringing 4
confidenti@@ 4
into@@ 4
xi@@ 4
pedago@@ 4
gy 4
conversation 4
straight 4
exercis@@ 4
Rovani@@ 4
verified 4
reimbursements 4
turvatalo 4
kau@@ 4
guaranteed 4
eptive 4
eur@@ 4
engineer 4
perfectly 4
surface 4
ocracy 4
desig@@ 4
payslip 4
modern 4
citizen@@ 4
shipFinnish 4
ising 4
enterprise 4
prosecu@@ 4
reserved 4
practices 4
milli@@ 4
linkkiAssociation 4
ordin@@ 4
western 4
retired 4
ulf 4
accep@@ 4
relief 4
transfer@@ 4
profit 4
mat@@ 4
sten 4
ots 4
Ger@@ 4
stitution 4
countriesFinnish 4
travelling 4
kuntoutus@@ 4
pÃ¤ivÃ¤raha 4
finan@@ 4
cially 4
katemia 4
monitoring 4
protectionFinnish 4
scholar@@ 4
cul@@ 4
satisfactory 4
ghly 4
raal@@ 4
terveydenhoitaja 4
industrialisation 4
yard 4
describes 4
qualifies 4
eventsFinnish 4
peer 4
recovering 4
vehic@@ 4
Hi@@ 4
verokortti 4
Jour@@ 4
shor@@ 4
hallin@@ 4
sorting 4
linkkiA@@ 4
renew 4
escor@@ 4
distus 4
mar 4
compu@@ 4
stav 4
physi@@ 4
guid@@ 4
handling 4
description 4
pFinnish 4
tap 4
email 4
isto@@ 4
urban 4
infertility 4
hoping 4
emo@@ 4
represents 4
performing 4
hoidon 4
stat@@ 4
taxed 4
signing 4
estimated 4
150 4
ordering 4
obligation 4
Van@@ 4
sources 4
eb@@ 4
sites 4
vers@@ 4
tille 4
linkkiR@@ 4
anc@@ 4
tlement 4
ympÃ¤@@ 4
pical 4
fair 4
pression 4
determines 4
dure 4
vocation 4
tea@@ 4
thi@@ 4
linkkiRegional 4
acqu@@ 4
excellent 4
rea 4
consumer 4
adul@@ 4
dates 4
constituency 4
distingu@@ 4
strives 4
guarante@@ 4
Espo@@ 4
confidence 4
secrecy 4
omen 4
wellness 4
reimburse 4
safely 4
ld 4
testimon@@ 4
imus 4
threat 4
disturb 4
ple 4
procedures 4
historical 4
oikeus 4
differs 4
warm@@ 4
linkkiTE 4
tÃ¤jÃ¤@@ 4
incapacity 4
stock 4
shel@@ 4
terFinnish 4
phases 4
mid 4
uutus 4
kki 4
resour@@ 4
ounding 4
emented 4
neuvonta 4
passports 4
easi@@ 4
iden 4
promin@@ 4
ency 4
nar@@ 4
fts 4
ednes@@ 4
rainbow 4
familiesFinnish 4
drawn 4
angle 4
fications 4
Mis@@ 4
ril@@ 4
peace 4
poliklinikka 4
emi@@ 4
ght 4
alco@@ 4
graduate 4
Sci@@ 4
demanding 4
spen@@ 4
dealt 4
80@@ 4
aka 4
olk 4
accidents 4
tholic 4
opinto@@ 4
ient 4
16.@@ 4
kiosks 4
denti@@ 4
dried 4
Per@@ 4
seu@@ 4
exclu@@ 4
laundry 4
grocery 4
occur@@ 4
Ale@@ 4
vi 4
ky 4
ids 4
cher 4
cupational 4
mutual 4
cen@@ 4
reliable 4
aus 4
submitting 4
declar@@ 4
shaking 4
oni@@ 4
suspected 4
incid@@ 4
vaccin@@ 4
ummi 4
zes 4
pers 4
dwel@@ 4
valu@@ 4
function 4
follows 4
wer 4
managed 4
session 4
politi@@ 4
thus 4
revo@@ 4
square 4
tres 4
problemsFinnish 4
alo@@ 4
Maria 4
tax@@ 4
punctuality 4
trains 4
expired 4
salaries 4
11@@ 4
method 4
mentioned 4
atta@@ 4
faced 4
enefits 4
snow@@ 4
tober 4
refugeesFinnish 4
heater 4
pois@@ 4
nights 4
declare 4
supervisors 4
auth@@ 4
hid@@ 4
Christian 4
conflict 4
ces@@ 4
taxationFinnish 4
inqu@@ 4
unpaid 4
phones 4
physically 4
ser@@ 4
grap@@ 4
Be@@ 4
trepren@@ 4
dish@@ 4
was@@ 4
pinÃ¤ 4
yhdenvertaisuus@@ 4
wage 4
omen@@ 4
symptoms 4
ineuvonta 4
lastenvalvoja 4
prin@@ 4
torture 4
human@@ 4
nel 4
logis@@ 4
facilitiesFinnish 4
wn 4
occu@@ 4
rs 4
continued 4
operator 4
entails 4
sures 4
processes 4
rono@@ 4
beli@@ 4
efs 4
switch 4
registering 4
mÃ¤ 4
licences 4
eptember 4
esteiden 4
specialis@@ 4
Na@@ 4
sit@@ 4
packages 4
stoms 4
posted 4
entu@@ 4
ames 4
atory 4
Ste@@ 4
encesFinnish 4
dustries 4
suffer 4
prescri@@ 4
lic@@ 4
flag 4
stipulated 4
kb 4
prints 4
ower 4
2013 4
inte@@ 4
stad@@ 4
text@@ 4
leather 4
ert 4
wor@@ 4
comple@@ 4
Mat@@ 4
remained 4
Ã¤itiysraha 4
ference 4
criteria 4
xed 4
palvelu@@ 4
ica@@ 4
fas@@ 4
eij@@ 4
gyms 4
ptions 4
supermar@@ 4
tou@@ 4
justice 4
ands 4
ush@@ 4
explanation 4
itti@@ 4
rend@@ 4
vu@@ 4
neighbours 4
soci@@ 4
ishing 4
faces 4
stairs 4
proper 4
ie 4
roup 4
preliminary 4
series 4
lobbying 4
alised 4
worn 4
condo@@ 4
ghting 4
performance 4
pic 4
meat 4
ringing 4
warded 4
emed 4
laptop 4
mothers 4
stus 4
patients 4
raw 4
interrup@@ 4
embassy 4
visit@@ 4
rooms 4
King 4
ws 4
purposes 4
Fac@@ 4
good@@ 4
settled 4
person@@ 4
whe@@ 4
chair 4
musical 4
plain 4
twelve 4
tex@@ 4
arg@@ 4
mark 4
Canada 4
Qu@@ 4
ala@@ 4
of@@ 4
Fr@@ 4
F 4
Ei@@ 4
taining 4
strength 4
recei@@ 4
aries 4
industri@@ 4
stor@@ 4
pris@@ 4
bun@@ 4
cream 4
arly 4
contribu@@ 4
rely 4
oldest 4
faults 4
supervisorsFinnish 4
hai@@ 4
skas@@ 4
relations 4
alth@@ 4
genu@@ 4
explo@@ 4
opinions 4
So@@ 4
sia@@ 4
obligated 4
joined 4
dy@@ 4
cured 4
ods 4
saving 4
effective 4
bits 4
zero 4
pla@@ 4
correspon@@ 4
phas@@ 4
ority 4
ren@@ 4
ingly 4
recent 4
pow@@ 4
possibly 4
tation 4
expec@@ 4
lack 4
petite 4
gging 4
weigh@@ 4
free@@ 4
diploma 4
stolen 4
ground 4
dar@@ 4
entirely 4
forbidden 4
friendship 4
lab@@ 4
shopping 4
nee@@ 4
ight 4
streets 4
cand@@ 4
wealthy 4
solid 4
mai@@ 4
cat@@ 4
victory 4
pot 4
YouTube 4
thro@@ 4
ll 4
occasion 4
fluent 4
hard@@ 4
alis@@ 4
mechan@@ 4
strangers 4
ha 4
gas 4
forgotten 4
rela@@ 4
frankly 4
locked 4
scientists 4
definite 4
sunny 4
cruel 4
ignore 4
washed 4
egg 4
wh@@ 4
pean@@ 4
dness 4
drow@@ 4
um@@ 4
picnic 4
hap@@ 4
hello 4
mur@@ 4
weird 4
Chin@@ 4
hypo@@ 4
hell 4
horse 4
cross@@ 4
password 4
ats 4
ushed 4
tain 4
gonna 4
wind 4
Bob 4
priv@@ 4
sy 4
troubles 4
pleasure 4
sixty 4
scr@@ 4
ny 4
potatoes 4
remind 4
anus 4
deeply 4
ged 4
Linda 4
deser@@ 4
ghosts 4
mess 4
curtain 4
hero 4
weak 4
pour@@ 4
keeping 4
empty 4
feed 4
lay 4
cousin 4
slipped 4
hadn 4
comment 4
rice 4
antage 4
crossed 4
pickpock@@ 4
banan@@ 4
wondering 4
songs 4
flies 4
shame 4
draw@@ 4
sensitive 4
god 4
Susan 4
slowly 4
sely 4
pon@@ 4
doubts 4
mag@@ 4
esome 4
arri@@ 4
pie 4
postcard 4
bus@@ 4
vase 4
whale 4
imagine 4
sad 4
rank 4
mp 4
aci@@ 4
contributor 4
dishes 4
yal 4
regret 4
ugly 4
headache 4
neighbors 4
ian 4
az@@ 4
evolution 4
introduced 4
object 4
giant 4
shelf 4
knives 4
oranges 4
selfish 4
daughters 4
ble 4
engineers 4
pants 4
guilty 4
Lon@@ 4
ah 4
green 4
sandwich 4
illed 4
nec@@ 4
poem 4
introduce 4
fucking 4
conf@@ 4
evil 4
writ@@ 4
nose 4
sofa 4
crowd 4
spell 4
existence 4
appl@@ 4
thr@@ 4
wea@@ 4
crush 4
adi@@ 4
jealous 4
vegetables 4
Kate 4
twenty 4
princess 4
wee 4
skirt 4
ss@@ 4
appro@@ 4
phenomenon 4
baseball 4
thick 4
soft 4
persu@@ 4
angles 4
hanging 4
guitar 4
step 4
rob@@ 4
lad@@ 4
scho@@ 4
refl@@ 4
failure 4
spot 4
rumor 4
depar@@ 4
Jim 4
stood 4
eny 4
oppil@@ 3
guar@@ 3
ea 3
viron@@ 3
cle 3
buds@@ 3
abs@@ 3
bic@@ 3
yc@@ 3
Vanta@@ 3
bud@@ 3
interaction 3
ish@@ 3
equip@@ 3
ong@@ 3
schoo@@ 3
py@@ 3
broch@@ 3
core 3
yst@@ 3
Ac@@ 3
carri@@ 3
hor@@ 3
ater 3
sic 3
previ@@ 3
invitation 3
tification 3
Chil@@ 3
ilan 3
last@@ 3
publi@@ 3
Metro@@ 3
deci@@ 3
treat@@ 3
divor@@ 3
appen@@ 3
limit@@ 3
ecti@@ 3
ser 3
reas@@ 3
exce@@ 3
num@@ 3
tels 3
sement 3
ky@@ 3
nav@@ 3
sec@@ 3
tries 3
tribu@@ 3
stea@@ 3
Sou@@ 3
pou@@ 3
net 3
expi@@ 3
sear@@ 3
deli@@ 3
lav@@ 3
ster 3
counts 3
client 3
hosts 3
gro@@ 3
eligi@@ 3
Vaas@@ 3
numer@@ 3
ately 3
gor@@ 3
municipa@@ 3
habit@@ 3
VA@@ 3
ounds 3
reu@@ 3
Fore@@ 3
Jo@@ 3
dits 3
ama 3
amat@@ 3
os@@ 3
abor@@ 3
tti 3
ir 3
langu@@ 3
estimation 3
fix@@ 3
tures 3
cipa@@ 3
kun@@ 3
consi@@ 3
entrepren@@ 3
rial 3
timet@@ 3
Ser@@ 3
etus 3
dic@@ 3
pull 3
lors 3
grou@@ 3
ile 3
volu@@ 3
hol@@ 3
cale 3
cent@@ 3
lingual 3
consum@@ 3
anceFinnish 3
organis@@ 3
alai@@ 3
tements 3
bran@@ 3
ail@@ 3
ements 3
N 3
ala 3
omp@@ 3
achelor 3
tiv@@ 3
gues 3
ri 3
pur@@ 3
reco@@ 3
Coun@@ 3
Mid@@ 3
rai@@ 3
sim@@ 3
expire 3
aste 3
profession@@ 3
eg@@ 3
visions 3
Asun@@ 3
oundation 3
intelligence 3
utilise 3
occupation 3
Europe@@ 3
kuntou@@ 3
inher@@ 3
youn@@ 3
Lo@@ 3
subj@@ 3
deman@@ 3
ape 3
pregn@@ 3
slow@@ 3
ental 3
volun@@ 3
arily 3
os 3
ous@@ 3
sole 3
Ã©s 3
igners 3
itiesFinnish 3
cast@@ 3
raha 3
ken 3
pel@@ 3
pankki 3
ials 3
imisto 3
lings 3
dow@@ 3
sam@@ 3
Im@@ 3
part@@ 3
omy 3
consultation 3
Uu@@ 3
situ@@ 3
vakuutus 3
vam@@ 3
behavi@@ 3
assu@@ 3
Minis@@ 3
resid@@ 3
entres 3
tab@@ 3
inj@@ 3
pun@@ 3
ender 3
termin@@ 3
employe@@ 3
prison@@ 3
equi@@ 3
atri@@ 3
tude 3
deni@@ 3
vironmental 3
tes@@ 3
depen@@ 3
dence 3
employ@@ 3
schedu@@ 3
exhi@@ 3
busin@@ 3
tien 3
spo@@ 3
develo@@ 3
hau@@ 3
016.32@@ 3
ust@@ 3
ints 3
yers 3
house@@ 3
circum@@ 3
provin@@ 3
forma@@ 3
yÃ¶@@ 3
lim@@ 3
examine 3
aging 3
humili@@ 3
mature 3
confir@@ 3
ceship 3
tubercu@@ 3
mod@@ 3
ement@@ 3
tran@@ 3
met@@ 3
ial 3
outre@@ 3
Pol@@ 3
Bar@@ 3
alisation 3
histor@@ 3
Stu@@ 3
ambulance 3
registr@@ 3
riv@@ 3
arrives 3
qui@@ 3
reti@@ 3
avan@@ 3
accid@@ 3
posi@@ 3
bless@@ 3
smar@@ 3
oung 3
rup@@ 3
premi@@ 3
pick 3
idon 3
ono@@ 3
trop@@ 3
vision 3
itable 3
chan@@ 3
imag@@ 3
sugges@@ 3
alu@@ 3
pid@@ 3
iton 3
gn@@ 3
arrang@@ 3
ation@@ 3
As@@ 3
allitus 3
bs@@ 3
logi@@ 3
iner 3
rain@@ 3
radi@@ 3
wid@@ 3
ured 3
construc@@ 3
pas 3
neighbour@@ 3
portion 3
cus 3
lun@@ 3
document@@ 3
vention 3
program@@ 3
nus 3
specifi@@ 3
suggestions 3
ulti@@ 3
rati@@ 3
concer@@ 3
charg@@ 3
las 3
there@@ 3
ember 3
Edu@@ 3
kur@@ 3
respec@@ 3
conver@@ 3
terveys@@ 3
trol 3
tradition 3
post@@ 3
calend@@ 3
trative 3
cus@@ 3
cused 3
favour@@ 3
Tan@@ 3
dra@@ 3
tos 3
marketing 3
even@@ 3
commenc@@ 3
servant 3
restaur@@ 3
Isra@@ 3
anced 3
uti@@ 3
venti@@ 3
â€‹ 3
Je@@ 3
commun@@ 3
she@@ 3
volution 3
dd@@ 3
redu@@ 3
sosiaali@@ 3
ancy 3
sle@@ 3
eas 3
mil@@ 3
mort@@ 3
sies 3
ples 3
plement 3
elo@@ 3
dan@@ 3
quick@@ 3
lon@@ 3
bling 3
Celsius 3
ker@@ 3
ho 3
gynaeco@@ 3
ettes 3
agre@@ 3
illu@@ 3
tis@@ 3
Car@@ 3
trav@@ 3
van@@ 3
Ã©@@ 3
ables 3
gam@@ 3
sers 3
cas@@ 3
ust 3
guides 3
ises 3
fes@@ 3
vice 3
fel@@ 3
attend@@ 3
clas@@ 3
vide@@ 3
RI@@ 3
ram@@ 3
effort 3
chers 3
offen@@ 3
condi@@ 3
rare 3
Yu@@ 3
rel 3
Fran@@ 3
lion 3
futon 3
surprise 3
gra@@ 3
lover 3
Nancy 3
garage 3
itive 3
pus 3
unk 3
sors 3
pock@@ 3
artifi@@ 3
sac@@ 3
tomi@@ 3
absur@@ 3
mor 3
super 3
statue 3
istance 3
sty 3
timi@@ 3
bb@@ 3
cious 3
sno@@ 3
count 3
yg@@ 3
appear@@ 3
rose 3
accent 3
pizza 3
z 3
gentleman 3
imagination 3
ayed 3
pho@@ 3
tunnel 3
virus 3
any@@ 3
Australi@@ 3
race 3
determin@@ 3
sins 3
tat@@ 3
admi@@ 3
sympath@@ 3
oin 3
wher@@ 3
tail 3
got@@ 3
mea@@ 3
mam@@ 3
mal 3
sev@@ 3
enty 3
Nations 3
ref@@ 3
ems 3
plea@@ 3
apologi@@ 3
ead 3
bug 3
rum@@ 3
cil 3
direction 3
gue 3
spr@@ 3
ang 3
photos 3
demand@@ 3
bil@@ 3
profes@@ 3
fond 3
na 3
remar@@ 3
diam@@ 3
mos@@ 3
ache 3
confis@@ 3
spea@@ 3
wer@@ 3
ret@@ 3
reali@@ 3
orange 3
certain@@ 3
pil@@ 3
Char@@ 3
cot@@ 3
rang 3
hoo@@ 3
nations 3
aire 3
tend@@ 3
suicide 3
tra@@ 3
vive 3
Thomas 3
laugh@@ 3
football 3
atin 3
Paul 3
pyram@@ 3
bag@@ 3
pollution 3
reli@@ 3
secre@@ 3
propos@@ 3
trou@@ 3
caf@@ 3
pet 3
preci@@ 3
neigh@@ 3
your@@ 3
selves 3
miracle 3
fore@@ 3
batt@@ 3
pon 3
ok 3
M 3
aten 3
ko 3
doub@@ 3
sandwi@@ 3
fav@@ 3
mans 3
laid 3
jeans 3
Kyoto 3
let@@ 3
petition 3
ound 3
band 3
eure 2
ition 2
erc@@ 2
016.@@ 2
Dev@@ 2
elop@@ 2
Â¤ 2
Â¶ 2
dia 2
senti@@ 2
Wel@@ 2
Os@@ 2
Ohja@@ 2
belong@@ 2
asto 2
ind@@ 2
terve@@ 2
litres 2
stody 2
rees 2
musi@@ 2
nal 2
birth@@ 2
Hak@@ 2
Roman@@ 2
thes@@ 2
pose 2
issu@@ 2
Col@@ 2
euvola 2
mately 2
tech@@ 2
pace 2
chec@@ 2
Me@@ 2
linna 2
tifica@@ 2
illa 2
mFinnish 2
&apos;@@ 2
amies 2
Le@@ 2
prison 2
Nov@@ 2
housing@@ 2
pire 2
introdu@@ 2
maistr@@ 2
di 2
regar@@ 2
scope 2
dismis@@ 2
Fri@@ 2
vie@@ 2
prehen@@ 2
ton@@ 2
trict 2
milit@@ 2
reser@@ 2
Ostrobothni@@ 2
bilin@@ 2
thin@@ 2
thni@@ 2
versity 2
net@@ 2
mach@@ 2
von@@ 2
conse@@ 2
Jor@@ 2
vin 2
sairaus@@ 2
gFinnish 2
cription 2
encour@@ 2
Sy@@ 2
ago@@ 2
rap@@ 2
surveill@@ 2
liament 2
Ã¤h@@ 2
prehensive 2
ato@@ 2
regis@@ 2
testam@@ 2
foreig@@ 2
super@@ 2
antsFinnish 2
day@@ 2
humour 2
head@@ 2
ols 2
iter 2
lik@@ 2
Joh@@ 2
dres@@ 2
isi@@ 2
famil@@ 2
ille 2
pu 2
lev@@ 2
sia 2
rist@@ 2
Suomen@@ 2
discrimin@@ 2
Au@@ 2
repe@@ 2
bou@@ 2
deter@@ 2
defin@@ 2
sible 2
tus@@ 2
press@@ 2
tingu@@ 2
emi 2
Ã¤l@@ 2
Multi@@ 2
enne 2
politan 2
temper@@ 2
ron@@ 2
portant 2
dat@@ 2
twel@@ 2
found@@ 2
lais@@ 2
appoin@@ 2
conv@@ 2
alent@@ 2
asts 2
extr@@ 2
dix 2
oris@@ 2
ine@@ 2
sorti@@ 2
respe@@ 2
eas@@ 2
pit@@ 2
incon@@ 2
enter@@ 2
twi@@ 2
Helsin@@ 2
bers 2
law@@ 2
tau@@ 2
cop@@ 2
punish@@ 2
anger@@ 2
icant 2
ikk@@ 2
reg@@ 2
cem@@ 2
etery 2
lingFinnish 2
licen@@ 2
H 2
mati@@ 2
eral 2
servi@@ 2
accommod@@ 2
gni@@ 2
sing@@ 2
ira 2
estimon@@ 2
pilu@@ 2
okk@@ 2
Museu@@ 2
pric@@ 2
grow@@ 2
bile 2
struc@@ 2
repar@@ 2
indi@@ 2
resear@@ 2
ergy 2
aide 2
emon@@ 2
cel 2
Cem@@ 2
virasto 2
individu@@ 2
sociations 2
after@@ 2
exhau@@ 2
screen@@ 2
oblig@@ 2
025.@@ 2
Ã¤Ã¤tiÃ¶ 2
itus 2
dents 2
Clin@@ 2
peti@@ 2
fabri@@ 2
conserv@@ 2
tar@@ 2
tric 2
apos@@ 2
recon@@ 2
bes 2
continu@@ 2
institu@@ 2
proj@@ 2
fins 2
ague 2
ven 2
hja@@ 2
aja 2
eurs 2
requ@@ 2
syst@@ 2
ancies 2
hit@@ 2
huolto 2
care@@ 2
dou@@ 2
bour@@ 2
ois@@ 2
rit@@ 2
resol@@ 2
ished 2
targ@@ 2
amoun@@ 2
New@@ 2
Helsinki@@ 2
stipul@@ 2
Swed@@ 2
tro 2
poli 2
appropri@@ 2
salon 2
irs 2
refu@@ 2
ali 2
vin@@ 2
eless@@ 2
ried 2
Comm@@ 2
arry 2
ffici@@ 2
ections 2
tificates 2
eases 2
pharma@@ 2
seek@@ 2
qualifi@@ 2
ign@@ 2
rapid@@ 2
nment 2
atives 2
onym@@ 2
his@@ 2
vou@@ 2
univers@@ 2
habilit@@ 2
cuse 2
religi@@ 2
neu@@ 2
partment 2
proper@@ 2
U 2
tifi@@ 2
Am@@ 2
order@@ 2
ese 2
suc@@ 2
cer 2
palvel@@ 2
new@@ 2
secu@@ 2
rej@@ 2
anci@@ 2
wal@@ 2
VA 2
peri@@ 2
flow@@ 2
LÃ¤n@@ 2
dispu@@ 2
Rus@@ 2
plus 2
wed@@ 2
progress@@ 2
ban 2
sem@@ 2
recomm@@ 2
fran@@ 2
vac@@ 2
bis@@ 2
enrol@@ 2
Man@@ 2
vend@@ 2
iles 2
li 2
bid@@ 2
Langu@@ 2
acy 2
destin@@ 2
ext 2
worth@@ 2
open@@ 2
origin@@ 2
jug@@ 2
ale 2
cents 2
correspond@@ 2
ween 2
kis@@ 2
accor@@ 2
dant 2
discre@@ 2
tai@@ 2
pec@@ 2
blin@@ 2
vain 2
insis@@ 2
swim@@ 2
squir@@ 2
costume 2
Th@@ 2
horrible 2
pian@@ 2
ins@@ 2
mou@@ 2
dent 2
tations 2
logist 2
Sun@@ 2
ral 2
ilia 2
ferti@@ 2
ible 2
microscope 2
rac@@ 2
cham@@ 2
pagne 2
dai@@ 2
mem@@ 2
eful 2
diagno@@ 2
press 2
vent 2
inging 2
wei@@ 2
polit@@ 2
Anne 2
assure 2
yo@@ 2
absolu@@ 2
remo@@ 2
saka 2
ffel 2
invention 2
blan@@ 2
fro@@ 2
dra 2
thou@@ 2
craf@@ 2
pati@@ 2
scienti@@ 2
arrog@@ 2
tre 2
ined 2
see@@ 2
yth@@ 2
fort 2
pigeons 2
SM@@ 2
foot@@ 2
oner 2
fil@@ 2
cure 2
glis@@ 2
curios@@ 2
seas@@ 2
robot 2
pin 2
aster 2
ble@@ 2
pair 2
myst@@ 2
danger@@ 2
neighb@@ 2
sir 2
moun@@ 2
favorable 2
counting 2
hang@@ 2
spect@@ 2
da@@ 2
Chris@@ 2
lem@@ 2
fur@@ 2
esca@@ 2
que 2
mat 2
yer 2
bly 2
tant 2
liv@@ 2
beau@@ 2
uko 2
earthqu@@ 2
plas@@ 2
shu@@ 2
devo@@ 2
unfor@@ 2
racy 2
patr@@ 2
eff@@ 2
tour 2
ped@@ 2
Marie 2
ong 2
ennad 2
instant 2
liber@@ 2
sco@@ 2
horri@@ 2
tire 2
dessert 2
dn 2
ep 2
USA 2
moral 2
ais 2
sacrifices 2
accompl@@ 2
gy@@ 2
suspici@@ 2
lic 2
US@@ 2
wi@@ 2
morgue 2
impatient 2
onde 2
len@@ 2
chose 2
okohama 2
alls 2
orm@@ 2
Jean@@ 2
aband@@ 2
airs 2
whis@@ 2
paro@@ 2
v 2
yen 2
emer@@ 2
erve 2
intention 2
Cro@@ 2
curi@@ 2
iko 2
crow@@ 2
covering 2
hopin 2
sul@@ 2
da 2
embarrass@@ 2
excel@@ 2
idio@@ 2
expressions 2
compos@@ 2
aine 2
ambition 2
cla@@ 2
soldi@@ 2
Sach@@ 2
rage 2
thir@@ 2
lent 2
ake 2
impression 2
explosion 2
bel 2
sau@@ 2
talent 2
sApp 2
din@@ 2
ion 2
tune 2
ham@@ 2
Can@@ 2
ques@@ 2
invincible 2
awa 2
image 2
eth 2
surviv@@ 2
gars 2
cep@@ 2
conclusions 2
pressed 2
ignorance 2
gan@@ 2
gener@@ 2
ective 2
horr@@ 2
noti@@ 2
recogni@@ 2
lobal 2
popul@@ 2
phabet 2
kag@@ 2
surpris@@ 2
match 2
comman@@ 2
perspe@@ 2
ame 2
trem@@ 2
ony 2
abo@@ 2
ambi@@ 2
bru@@ 2
ette 2
tut 1
credenti@@ 1
Ã¤n@@ 1
obli@@ 1
liament@@ 1
edu@@ 1
ind 1
enFinnish 1
va 1
bot 1
cert@@ 1
117 1
therap@@ 1
uu@@ 1
ga@@ 1
illage 1
chant 1
indus@@ 1
Uusima@@ 1
netto@@ 1
constru@@ 1
Plan@@ 1
lear@@ 1
lum 1
El@@ 1
bott@@ 1
achel@@ 1
fare 1
deal@@ 1
tim@@ 1
adoles@@ 1
igner 1
jou@@ 1
cines 1
lor@@ 1
âˆ’ 1
recogn@@ 1
EE@@ 1
contain@@ 1
hospit@@ 1
ople 1
ital 1
Â­ 1
mainten@@ 1
kriisi@@ 1
seur 1
cadem@@ 1
rest@@ 1
alcoho@@ 1
lle 1
jour@@ 1
legis@@ 1
95.@@ 1
exhibi@@ 1
keino@@ 1
acti@@ 1
fau@@ 1
furn@@ 1
capa@@ 1
ishaku 1
* 1
sap@@ 1
trai@@ 1
detai@@ 1
â€¢ 1
mal@@ 1
partments 1
kol@@ 1
complet@@ 1
websit@@ 1
Estoni@@ 1
huol@@ 1
philosophi@@ 1
vari@@ 1
exten@@ 1
thor@@ 1
euvonta 1
restric@@ 1
Fe@@ 1
spou@@ 1
Eng@@ 1
Ã¶Ã¶@@ 1
partici@@ 1
nings 1
MA 1
res 1
Air@@ 1
tato@@ 1
interpret@@ 1
commod@@ 1
process@@ 1
i.@@ 1
agement 1
hou@@ 1
App 1
personnel 1
countr@@ 1
dispar@@ 1
build@@ 1
fertility 1
â€¹ 1
puis@@ 1
eu 1
hip 1
Por@@ 1
G 1
esse 1
Kiven@@ 1
purch@@ 1
asing 1
contrac@@ 1
refuge@@ 1
invent@@ 1
dit 1
dred 1
total@@ 1
tabl@@ 1
abet@@ 1
affai@@ 1
rect@@ 1
Set@@ 1
sosiaal@@ 1
sib@@ 1
tele@@ 1
activi@@ 1
orig@@ 1
estÃ¶@@ 1
iste 1
attends 1
Adminis@@ 1
dess@@ 1
ityis@@ 1
cts 1
principa@@ 1
Emer@@ 1
isure 1
veri@@ 1
Mannerhe@@ 1
cile 1
stitu@@ 1
kou@@ 1
depu@@ 1
jet@@ 1
establish@@ 1
VÃ¤estÃ¶@@ 1
ires 1
ix 1
cafÃ© 1
lu 1
pour 1
girl@@ 1
ai 1
retur@@ 1
clear@@ 1
prises 1
publ@@ 1
cher@@ 1
cuisine 1
childr@@ 1
satis@@ 1
Sup@@ 1
maj@@ 1
lineFinnish 1
tow@@ 1
jac@@ 1
deg@@ 1
ceremon@@ 1
requir@@ 1
angers 1
guardian@@ 1
asema 1
traffi@@ 1
ammatil@@ 1
fe 1
lure 1
cis@@ 1
mitted 1
lity 1
dish 1
convers@@ 1
blems 1
HO@@ 1
euro@@ 1
pense 1
MoniN@@ 1
muni@@ 1
iti@@ 1
strai@@ 1
reau 1
plied 1
828@@ 1
Tikk@@ 1
onic 1
Hom@@ 1
kitch@@ 1
Ã¤iti@@ 1
Enter@@ 1
este@@ 1
em 1
simil@@ 1
som@@ 1
nesses 1
Contin@@ 1
tment 1
vako@@ 1
encoun@@ 1
proc@@ 1
gag@@ 1
triculation 1
direct@@ 1
aku 1
pline 1
yhdenvertai@@ 1
stance 1
bying 1
tick@@ 1
asy@@ 1
He@@ 1
Cor@@ 1
ahanmuut@@ 1
collat@@ 1
eption 1
supervis@@ 1
aper@@ 1
@ 1
peo@@ 1
aatti 1
wealth@@ 1
ier 1
tovirasto 1
rien 1
dus 1
orsFinnish 1
tenstein 1
prom@@ 1
rehabilit@@ 1
cris@@ 1
aitos 1
func@@ 1
regul@@ 1
airaus@@ 1
ilma 1
bow 1
yden@@ 1
lem 1
divi@@ 1
pÃ¤ivyst@@ 1
UN@@ 1
web@@ 1
perm@@ 1
remov@@ 1
psychia@@ 1
sional 1
avai@@ 1
clin@@ 1
instruc@@ 1
problem@@ 1
Rov@@ 1
dom@@ 1
e.@@ 1
sexu@@ 1
Icel@@ 1
dic 1
micro@@ 1
ehen 1
chool 1
sour@@ 1
alo 1
exerc@@ 1
cultur@@ 1
pens@@ 1
inary 1
pÃ¤iv@@ 1
sty@@ 1
jeal@@ 1
swit@@ 1
nic 1
Regis@@ 1
Â² 1
lable 1
capable 1
adu@@ 1
sugg@@ 1
museu@@ 1
curricu@@ 1
phenomen@@ 1
erci@@ 1
lution 1
yhte@@ 1
Intern@@ 1
pren@@ 1
les@@ 1
fair@@ 1
operative 1
oms 1
consul@@ 1
entation 1
prepar@@ 1
them@@ 1
elinkeino@@ 1
Min@@ 1
kor@@ 1
chann@@ 1
Cul@@ 1
Ã¤ki 1
Leg@@ 1
dun 1
terveydenhoit@@ 1
conn@@ 1
X@@ 1
bat@@ 1
kio 1
than@@ 1
ange 1
Ã§o@@ 1
rag@@ 1
journal 1
augh@@ 1
piration 1
oth@@ 1
civ@@ 1
copy@@ 1
check@@ 1
gar 1
ican 1
ait 1
foun@@ 1
has@@ 1
vies 1
verse 1
Z@@ 1
Portu@@ 1
fie 1
sensible 1
expres@@ 1
fon@@ 1
dul@@ 1
lict 1
tale 1
Fren@@ 1
invit@@ 1
iness 1
accus@@ 1
eball 1
most@@ 1
dise 1
buil@@ 1
musici@@ 1
promis@@ 1
Q@@ 1
cover@@ 1
aug@@ 1
fal@@ 1
ami 1
maged 1
propri@@ 1
pure 1
vague 1
toil@@ 1
faul@@ 1
St@@ 1
zone 1
ctu@@ 1
courag@@ 1
ich 1
plain@@ 1
quit@@ 1
ales 1
contri@@ 1
inno@@ 1
diag@@ 1
sities 1
hos@@ 1
wards 1
corri@@ 1
holding 1
stes 1
ech@@ 1
ire 1
bed@@ 1
boy@@ 1
ions 1
mater@@ 1
ells 1
get@@ 1
consci@@ 1
gather@@ 1
suspi@@ 1
dÃ©@@ 1
Ã¯@@ 1
mÃ©tro 1
regret@@ 1
mobiles 1
bai@@ 1
bon 1
weir@@ 1
hi 1
cky 1
haz@@ 1
eau 1
tiz@@ 1
estima@@ 1
mark@@ 1
desc@@ 1
tom@@ 1
prou@@ 1
what@@ 1
trap@@ 1
vous 1
nd 1
respect@@ 1
endur@@ 1
conomi@@ 1
ears 1
disposes 1
venue 1
loca@@ 1
gust 1
natur@@ 1
kee@@ 1
festiv@@ 1
camer@@ 1
zer@@ 1
incre@@ 1
hum@@ 1
leav@@ 1
auc@@ 1
know@@ 1
pin@@ 1
solu@@ 1
bookke@@ 1
factory 1
fam@@ 1
mani@@ 1
Kur@@ 1
magnifi@@ 1
ick 1
â€½ 1
ore@@ 1
ques 1
dices 1
Secon@@ 1
asse 1
wash@@ 1
craz@@ 1
scen@@ 1
paci@@ 1
ug@@ 1
bot@@ 1
YouTu@@ 1
kilom@@ 1
era 1
venge@@ 1
perfec@@ 1
Pop@@ 1
bies 1
apo@@ 1
cou@@ 1
mile 1
cials 1
enem@@ 1
tradi@@ 1
impres@@ 1
che 1
cec@@ 1
pedi@@ 1
dorm@@ 1
elessness 1
stem 1
deration 1
transl@@ 1
occup@@ 1
sever@@ 1
pick@@ 1
terri@@ 1
prise 1
mage 1
onnaire 1
âŠ‚ 1
deno@@ 1
inclu@@ 1
espe@@ 1
Af@@ 1
non@@ 1
Ear@@ 1
necess@@ 1
pru@@ 1
illing 1
jam@@ 1
pom@@ 1
anim@@ 1
$ 1
fab@@ 1
Sal@@ 1
Tri@@ 1
confi@@ 1
villes 1
alter@@ 1
shir@@ 1
dispos@@ 1
encourag@@ 1
convin@@ 1
criter@@ 1
tot@@ 1
probab@@ 1
Itali@@ 1
sav@@ 1
voyage 1
mulated 1
extrem@@ 1
spati@@ 1
cles 1
rouge 1
mith 1
je@@ 1
prem@@ 1
tiful 1
pli@@ 1
allow@@ 1
squ@@ 1
para@@ 1
sol 1
recre@@ 1
cook@@ 1
im 1
onn@@ 1
epy 1
manu@@ 1
punctu@@ 1
matically 1
Vo@@ 1
Ã¡@@ 1
blu@@ 1
nes@@ 1
gle 1
mour@@ 1
ustr@@ 1
imp@@ 1
cha@@ 1
parti@@ 1
old@@ 1
repai@@ 1
happ@@ 1
poser 1
sch@@ 1
skir@@ 1
passage 1
path@@ 1
embarr@@ 1
guil@@ 1
techno@@ 1
oro@@ 1
ysi@@ 1
eased 1
mau@@ 1
sus 1
derni@@ 1
Ã­@@ 1
gency 1
wonder@@ 1
cau@@ 1
sian 1
four@@ 1
cle@@ 1
porter 1
sentiment 1
conscience 1
elihood 1
lin 1
sage 1
diff@@ 1
eping 1
flo@@ 1
pto@@ 1
tric@@ 1
libr@@ 1
ern@@ 1
fs 1
distur@@ 1
confu@@ 1
popu@@ 1
fus@@ 1
bab@@ 1
cro@@ 1
umbrel@@ 1
tives 1
earth@@ 1
exc@@ 1
tons 1
