de 21706
. 16513
la 13807
, 9137
que 8068
je 7952
l&apos; 7451
@-@ 7160
pas 7080
est 6744
le 6401
il 6134
a 5190
ne 4809
en 4635
Ã 4584
vous 4287
ai 4053
? 4036
les 4026
un 4003
ce 3266
train 2952
j&apos; 2844
fait 2833
n&apos; 2819
tu 2725
suis 2689
plus 2683
Tom 2501
des 1908
Ã©tÃ© 1798
vie 1792
qu&apos; 1629
une 1620
faire 1599
nous 1597
grand 1517
qui 1509
elle 1470
temps 1436
me 1429
Ãªtre 1325
s&apos; 1296
cette 1273
sont 1227
d&apos; 1203
chose 1178
et 1103
y 1071
autre 1064
as 1056
pour 998
&quot; 995
monde 992
! 983
si 932
t 922
mÃªme 921
se 914
gens 913
mon 908
votre 904
ont 887
maison 856
moi 788
air 788
tout 773
m&apos; 757
dit 752
dans 713
son 710
maniÃ¨re 709
c&apos; 709
avec 701
comme 688
Ã©tait 688
seule 670
te 669
langue 646
avoir 632
pense 631
Ã§a 604
aide 581
fin 580
dire 561
trÃ¨s 543
petite 539
autres 520
au 509
part 503
homme 495
peut 493
Terre 490
ils 486
fois 483
tous 478
pu 477
du 476
parler 462
mais 456
lui 454
peu 444
encore 437
veux 428
journÃ©e 426
avez 419
par 409
avons 405
point 402
plaÃ®t 398
ici 391
jamais 387
deux 383
nourriture 377
nuit 377
mÃ¨re 375
enfants 375
vraiment 374
sa 374
bien 368
avait 366
plupart 363
es 360
eu 358
trouve 358
femme 358
argent 357
jour 356
toujours 355
Ãªtes 352
quelque 351
peux 343
trois 342
Ã©cole 341
yeux 339
oÃ¹ 337
sommes 323
besoin 322
dÃ©jÃ 320
eau 320
sur 320
vu 318
allÃ© 313
heure 309
anglais 309
travail 308
avais 304
pourquoi 304
va 300
personne 295
on 294
peine 285
choses 284
habitude 282
trop 282
sais 275
soit 273
ma 273
lÃ 269
toi 268
petit 267
quand 264
sera 263
beaucoup 260
seul 256
franÃ§ais 254
pÃ¨re 253
simplement 251
ou 248
souvent 247
heures 246
quoi 243
t&apos; 241
ton 239
venir 238
Ã© 237
voir 235
passÃ© 235
maintenant 230
bon 229
tÃªte 229
ci 222
heureux 221
ses 221
aussi 220
sans 214
mort 213
voiture 213
prix 210
notre 207
livres 206
question 206
comment 205
jeune 204
avant 203
Marie 203
aime 202
piÃ¨ce 200
main 200
trouvÃ© 199
livre 198
fille 196
porte 196
arrivÃ© 192
manger 192
premiÃ¨re 190
demain 190
rien 189
questions 188
Mary 186
pris 184
levÃ© 182
aller 181
bonne 180
peuvent 179
dÃ©@@ 179
idÃ©e 178
semaine 174
dÃ» 174
annÃ©e 170
hommes 170
Ã©tais 170
derniÃ¨re 169
ans 169
hui 168
aujourd&apos; 167
entreprise 167
retard 166
crois 163
dois 163
Ã©e 163
er 163
pouvez 159
chien 157
mieux 154
jours 153
famille 150
soyez 150
nouveau 149
mes 147
lire 145
savais 145
Unis 144
femmes 143
acheter 142
@ 142
assez 142
- 141
regarder 141
cela 141
photo 140
dis 140
savoir 139
jeux 138
musique 138
ons 137
instant 134
prendre 134
parle 132
demandÃ© 132
prie 131
pensais 131
juste 131
ez 131
penses 130
expÃ©rience 129
quelle 129
Ã©@@ 128
nom 127
mal 126
sait 123
histoire 123
tard 123
tes 122
pays 122
langues 121
dÃ©jeuner 121
peur 121
ta 120
faut 120
aprÃ¨s 120
rendu 119
ces 119
re@@ 118
voulez 117
garÃ§on 117
travailler 117
sortir 116
vais 116
mis 116
elles 116
toutes 115
dÃ©solÃ© 115
sens 114
vue 114
cuisine 113
arrive 113
achetÃ© 113
hier 113
seulement 111
problÃ¨me 111
ait 109
chez 108
mot 107
soir 107
arrÃªter 106
ent 106
professeur 105
vrai 104
rester 104
pourrais 103
Ã©tranger 103
entendu 103
vÃ©ritÃ© 103
ami 103
demande 102
leurs 102
vivre 102
doit 101
occupÃ© 101
rencontrÃ© 100
cheveux 100
premier 100
colÃ¨re 100
ville 100
aux 100
tÃ©lÃ© 99
trouver 99
facile 99
problÃ¨mes 97
quelqu&apos; 96
partir 94
chance 94
situation 94
accident 94
in@@ 94
fils 93
eux 93
end 91
dormir 91
amour 90
faites 90
entre 88
aise 88
voulais 88
Ã©s 88
dites 87
veut 87
pourrait 87
quel 87
ch@@ 87
filles 86
moins 86
sÅ“ur 86
esprit 86
midi 84
Ã‰tats 84
ferai 84
accord 84
rÃ©@@ 84
perdu 83
pouvons 83
cours 83
sois 82
hÃ´pital 81
bas 81
importe 81
difficile 81
ant 81
fais 80
non 80
combien 79
Sami 78
venu 78
lettre 78
moment 77
leur 77
aimerais 77
en@@ 77
sol 76
frÃ¨re 76
tÃ´t 75
semble 75
s@@ 75
fumer 74
meilleur 74
malade 73
laisse 72
vieux 72
belle 72
parents 72
mÃ©decin 72
lunettes 72
commencÃ© 72
raison 71
devrait 71
Boston 71
nouvelle 71
Ã©taient 71
jouer 70
Japon 70
e 70
parce 69
fatiguÃ© 68
payer 68
sÃ»r 67
pensÃ© 67
comprendre 67
donnÃ© 67
apprendre 67
connais 66
voulait 66
aider 66
chambre 65
Ã©es 65
nos 64
vite 64
pensez 64
tÃ©lÃ©phone 64
chemin 64
tÃ© 64
fÃªte 63
par@@ 63
r@@ 63
sÃ»re 62
viens 62
veulent 62
aurais 62
c@@ 62
ter 62
matin 61
cet 61
suite 61
plan 61
chats 61
g@@ 61
santÃ© 60
intention 60
place 60
moindre 60
autant 60
classe 59
Ã©crit 59
v@@ 59
ais 59
lait 58
voyage 58
cÅ“ur 58
garÃ§ons 58
chat 57
laisser 57
devez 57
entendre 57
toute 57
allez 57
f@@ 57
itÃ© 57
sujet 56
rendre 56
quelques 56
b@@ 56
ciel 55
pouvait 55
longtemps 55
vÃ©lo 55
serait 55
n@@ 55
ti@@ 55
grande 54
depuis 54
lu 54
travaille 54
lieu 54
utiliser 54
l@@ 54
terre 53
propre 53
amie 53
intÃ©rieur 53
croire 53
fut 53
con@@ 53
presque 52
t@@ 52
rouge 51
serai 51
is 51
di@@ 51
pendant 50
numÃ©ro 50
dÃ®ner 50
essayer 50
lit 50
devrais 50
ca@@ 50
eur 50
Ã¨re 50
mettre 49
appris 49
parfois 49
prÃªt 49
jusqu&apos; 49
puis 49
prÃ©@@ 49
France 48
espagnol 48
bureau 48
dur 48
vos 48
riche 47
feu 47
vas 47
vieille 47
ai@@ 47
Ã¢ge 46
Tatoeba 46
vin 46
art 46
savez 46
laissÃ© 46
boÃ®te 46
l 46
ag@@ 46
i 46
re 46
amis 45
endroit 45
route 45
allemand 45
montagne 45
pouvais 45
ou@@ 45
serez 44
fini 44
loin 44
ceci 44
it 44
p@@ 44
fenÃªtre 43
thÃ©orie 43
surpris 43
enfant 43
nouvelles 43
s 43
able 43
bus 42
fort 42
envie 42
mots 42
sous 42
mer 42
o@@ 42
com@@ 42
occupÃ©e 41
sociÃ©tÃ© 41
fleurs 41
certains 41
av@@ 41
m@@ 41
tr@@ 41
chaud 40
mange 40
froid 40
ma@@ 40
as@@ 40
on@@ 40
montre 39
japonais 39
attention 39
devons 39
tant 39
ensemble 39
tÃ©lÃ©vision 39
poisson 39
devriez 39
ie 39
ante 39
Ã©t@@ 39
boulot 38
rend 38
mains 38
li@@ 38
ation 38
or@@ 38
d@@ 38
restaurant 37
mois 37
complÃ¨tement 37
sucre 37
chemise 37
amoureux 37
mangÃ© 37
qu@@ 37
e@@ 37
aient 37
ement 37
instituteur 36
erreur 36
courant 36
derriÃ¨re 36
partie 36
bÃ©bÃ© 36
dÃ©cidÃ© 36
possible 36
br@@ 36
ci@@ 36
ap@@ 36
am@@ 36
ab@@ 36
Ã©tudiants 35
opinion 35
Dan 35
mauvais 35
avenir 35
coup 35
guerre 35
dangereux 35
aire 35
sou@@ 35
a@@ 35
im@@ 35
nager 34
&apos; 34
Ã©quipe 34
cinq 34
cafÃ© 34
savait 34
prochaine 34
mo@@ 34
ine 34
ex@@ 34
i@@ 34
espÃ¨re 33
nombre 33
gare 33
Ã©crire 33
chaque 33
propos 33
adore 33
tellement 33
ar@@ 33
au@@ 33
important 32
d 32
blessÃ© 32
rÃ©pondre 32
marche 32
magasin 32
information 32
an 32
gu@@ 32
B@@ 32
euse 32
moitiÃ© 31
suppose 31
faim 31
serais 31
dessus 31
oubliÃ© 31
rÃ©ponse 31
bou@@ 31
ques 31
ac@@ 31
lo@@ 31
C@@ 31
al@@ 31
it@@ 31
er@@ 31
es@@ 31
dÃ©teste 30
nÃ©cessaire 30
ennuis 30
capable 30
dont 30
difficultÃ©s 30
grosse 30
alors 30
quatre 30
pouvoir 30
aucun 30
y@@ 30
sur@@ 30
ge 30
is@@ 30
Ã¨rent 30
che 30
noir 29
puisse 29
passe 29
oui 29
prÃ¨s 29
biÃ¨re 29
car 29
beau 29
aucune 29
u 29
fi@@ 29
si@@ 29
M@@ 29
vois 28
mari 28
marier 28
minutes 28
tour 28
celui 28
conseils 28
lorsque 28
vient 28
ment 28
cr@@ 28
an@@ 28
mi@@ 28
po@@ 28
at@@ 28
Ã¨@@ 28
mÃ©@@ 28
cou@@ 28
ler 28
balle 27
hÃ´tel 27
verre 27
laissez 27
lorsqu&apos; 27
dernier 27
chanson 27
veuillez 27
age 27
ants 27
no@@ 27
donne 27
res 27
ri@@ 27
gr@@ 27
in 27
A@@ 27
ir@@ 27
manteau 26
faÃ§on 26
essayÃ© 26
pourriez 26
vacances 26
dÃ©solÃ©e 26
lumiÃ¨re 26
clÃ© 26
font 26
Ã©pouser 26
perdre 26
aimes 26
vers 26
rez 26
sentiments 25
nÃ© 25
vit 25
parlez 25
allons 25
police 25
bl@@ 25
em@@ 25
pro@@ 25
Ã©ri@@ 25
P@@ 25
ise 25
per@@ 25
vo@@ 25
ins 25
facilement 24
nombreux 24
Dieu 24
changÃ© 24
film 24
contre 24
six 24
comprends 24
gÃ¢teau 24
dix 24
ette 24
Ã©r@@ 24
ren@@ 24
ale 24
ir 24
pl@@ 24
onn@@ 24
to@@ 24
c 24
tre 24
S@@ 24
conduire 23
mit 23
parlÃ© 23
tennis 23
anniversaire 23
appelle 23
bibliothÃ¨que 23
l&apos;l&apos; 23
dehors 23
Ã©tiez 23
neige 23
attendre 23
joue 23
vi@@ 23
ser@@ 23
era 23
ver@@ 23
ter@@ 23
cu@@ 23
dÃ© 23
discours 22
meilleure 22
ayez 22
sÃ©curitÃ© 22
boire 22
appelÃ© 22
pause 22
habite 22
penser 22
plutÃ´t 22
regarde 22
dÃ©t@@ 22
ers 22
ions 22
ra 22
ve 22
H@@ 22
ire 22
tour@@ 22
f 22
ro@@ 22
tu@@ 22
ettes 22
Ã§@@ 22
lÃ© 22
lÃ©@@ 22
for@@ 22
ordinateur 21
chapeau 21
Paris 21
choix 21
prÃ©fÃ©rÃ©e 21
rencontrer 21
compte 21
ages 21
pou@@ 21
Ã¨res 21
erai 21
gi@@ 21
ille 21
res@@ 21
u@@ 21
at 21
cher 21
ill@@ 21
ts 21
lu@@ 21
el 21
jou@@ 21
ens 21
chan@@ 21
gar@@ 21
ence 21
mienne 20
rappeler 20
chaussures 20
ainsi 20
rÃ©union 20
laquelle 20
heureuse 20
fer@@ 20
ass@@ 20
end@@ 20
su@@ 20
ven@@ 20
nÃ©e 20
rem@@ 20
quÃ© 20
j@@ 20
onnÃ© 20
sÃ©@@ 20
mar@@ 20
sÃ© 20
arrÃªtÃ© 19
prochain 19
voitures 19
inconvÃ©nient 19
gouvernement 19
devrions 19
pain 19
vÃªtements 19
mauvaise 19
genre 19
immÃ©diatement 19
so@@ 19
passer 19
eurs 19
ten@@ 19
pu@@ 19
o 19
Ãª@@ 19
ess@@ 19
mal@@ 19
mor@@ 19
cro@@ 19
ss@@ 19
parapluie 18
table 18
droit 18
sac 18
telle 18
fou 18
voudrais 18
pleurer 18
voulons 18
efforts 18
marchÃ© 18
affaire 18
rÃ©soudre 18
clÃ©s 18
prends 18
ad@@ 18
ite 18
J@@ 18
ec@@ 18
teur 18
do@@ 18
illes 18
ni@@ 18
attend@@ 18
pi@@ 18
davantage 18
go@@ 18
ance 18
crÃ©@@ 18
pos@@ 18
examen 17
phrases 17
fenÃªtres 17
stylo 17
Layla 17
tombÃ© 17
merci 17
exactement 17
tenir 17
ignore 17
mets 17
Ã‰@@ 17
ent@@ 17
ni 17
tement 17
men@@ 17
Ã©cou@@ 17
donc 17
Ã©g@@ 17
porter 17
fit 17
fu@@ 17
pa@@ 17
enti@@ 17
pen@@ 17
entr@@ 17
al 17
dis@@ 17
tri@@ 17
rent 17
manquer 16
fasse 16
jambes 16
irai 16
papier 16
long 16
pieds 16
savent 16
taille 16
compris 16
eu@@ 16
Ã¢@@ 16
r 16
Ã¯@@ 16
frapp@@ 16
tient 16
fr@@ 16
essay@@ 16
apprÃ©cie 16
chÃ© 16
ets 16
tion 16
enne 16
ob@@ 16
rÃ© 16
L@@ 16
co@@ 16
Australie 15
venus 15
affaires 15
seras 15
prÃ©fÃ¨re 15
content 15
probablement 15
conseil 15
coin 15
connaÃ®t 15
annÃ©es 15
jeu 15
allÃ©e 15
souviens 15
poser 15
essaie 15
arriver 15
gl@@ 15
mon@@ 15
il@@ 15
voy@@ 15
ard 15
autor@@ 15
ceux 15
apprÃ©ci@@ 15
jet@@ 15
aine 15
dou@@ 15
donnez 15
tez 15
mu@@ 15
sent 15
tres 15
dispos@@ 15
R@@ 15
de@@ 15
M 15
h@@ 15
tuÃ© 14
lequel 14
hiver 14
secret 14
enseignant 14
ressemble 14
amies 14
succÃ¨s 14
pauvre 14
terminÃ© 14
arme 14
sorte 14
oncle 14
libre 14
carte 14
parti 14
vieil 14
riviÃ¨re 14
vidÃ©o 14
poste 14
dents 14
prÃªte 14
garde 14
nu@@ 14
In@@ 14
sau@@ 14
Ã´@@ 14
appar@@ 14
bo@@ 14
D@@ 14
dev@@ 14
pleu@@ 14
voici 14
vis@@ 14
; 14
z@@ 14
ellement 14
ner 14
h 14
tÃ©e 14
st@@ 14
min@@ 14
col@@ 14
personnes 14
devant 14
cl@@ 14
ue 14
appr@@ 14
donn@@ 14
Ah 13
village 13
pied 13
vis 13
piano 13
leÃ§on 13
mariÃ© 13
parc 13
radio 13
Å“il 13
allÃ©s 13
thÃ© 13
hors 13
appeler 13
Ã©tage 13
huit 13
-@@ 13
sommeil 13
gagnÃ© 13
pluie 13
devenu 13
type 13
thÃ©Ã¢tre 13
donner 13
costume 13
arr@@ 13
pour@@ 13
confiance 13
trouv@@ 13
G@@ 13
be 13
tique 13
venue 13
bÃ©@@ 13
aires 13
rÃª@@ 13
arriv@@ 13
ier 13
sons 13
indre 13
bor@@ 13
Ã©tudi@@ 13
fon@@ 13
ables 13
ain@@ 13
its 13
se@@ 13
bientÃ´t 13
alis@@ 13
celle 13
aurait 13
and@@ 13
ay@@ 13
: 13
Ã¢mes 13
ur@@ 13
pr@@ 13
iez 13
T@@ 13
viendra 13
cause 13
aiss@@ 13
manqu@@ 13
pire 13
hab@@ 13
fera 12
univers 12
prenez 12
soleil 12
cadeau 12
baiser 12
honte 12
espace 12
printemps 12
vingt 12
ennemi 12
bicyclette 12
animaux 12
dÃ©cision 12
jardin 12
revoir 12
cour@@ 12
mang@@ 12
furent 12
viv@@ 12
ach@@ 12
allait 12
tÃ©es 12
ain 12
faisons 12
ig@@ 12
ites 12
all@@ 12
mou@@ 12
sin@@ 12
mettez 12
cen@@ 12
ements 12
gue 12
el@@ 12
tomber 12
erais 12
bre 12
ches 12
reste 12
gros 12
dispose 12
Ã¨te 12
ture 12
parviens 12
pÃ©@@ 12
ennu@@ 12
travers 12
emploi 12
ang@@ 12
prend 12
parti@@ 12
cherch@@ 12
pla@@ 12
agent 12
trans@@ 12
can@@ 12
Ã©p@@ 12
sion 12
cir@@ 12
tions 12
visite 12
esse 12
vaut 12
appel@@ 12
vÃ©cu 11
proposition 11
espoir 11
minute 11
bu 11
Å“ufs 11
fallu 11
vivent 11
accusÃ© 11
sembles 11
pleuvoir 11
journal 11
Ã©tudier 11
dormi 11
phrase 11
ser 11
rentrer 11
selon 11
du@@ 11
lou@@ 11
contr@@ 11
marcher 11
dor@@ 11
dr@@ 11
onne 11
pir@@ 11
chang@@ 11
sse 11
adresse 11
pe 11
quer 11
prise 11
plusieurs 11
rais 11
discuter 11
pri@@ 11
ves 11
cÃ© 11
attend 11
NoÃ«l 11
vr@@ 11
pass@@ 11
ru@@ 11
bi@@ 11
fou@@ 11
denti@@ 11
Ã©galement 11
fai@@ 11
cÃ´tÃ© 11
agit 11
ds 11
produit 11
compl@@ 11
10 11
considÃ©r@@ 11
ut 11
plan@@ 11
int 11
un@@ 11
comm@@ 11
bar@@ 11
dus 11
rou@@ 11
dort 11
ju@@ 11
lÃ¨ve 11
dÃ©li@@ 11
corps 10
face 10
ouvert 10
intelligent 10
savons 10
M. 10
docteur 10
Ã©tudiant 10
marteau 10
oublie 10
travaillÃ© 10
certain 10
portes 10
lac 10
manque 10
bless@@ 10
vit@@ 10
ignor@@ 10
revenir 10
lis 10
dollars 10
... 10
hu@@ 10
intÃ©ress@@ 10
vouloir 10
ade 10
sti@@ 10
dent 10
chi@@ 10
comman@@ 10
tenu 10
rapidement 10
cor@@ 10
stupide 10
Oh 10
ues 10
rait 10
devoir 10
our@@ 10
ra@@ 10
commencer 10
habitu@@ 10
N@@ 10
usÃ© 10
bal@@ 10
cent 10
portait 10
ant@@ 10
ferais 10
chante 10
bons 10
aband@@ 10
ll@@ 10
faisait 10
x@@ 10
Ã¨ne 10
ouv@@ 10
ents 10
ph@@ 10
commence 10
ains 10
pon@@ 10
ager 10
bout 10
pleut 10
fl@@ 10
euses 10
ies 10
mai@@ 10
dÃ©sormais 10
aille 10
vÃ©@@ 10
rentr@@ 10
sor@@ 10
ger 10
pouss@@ 10
por@@ 10
man@@ 10
changer 10
cÃ©@@ 10
arriver@@ 10
rer 10
inter@@ 10
isÃ© 10
pe@@ 10
pan@@ 10
bois 10
ard@@ 10
tuer 10
us@@ 10
Ã©tions 10
lle 10
dÃ©si@@ 10
Ã©couter 10
-mÃªme 9
charge 9
dÃ©tails 9
proche 9
fermÃ© 9
montrez 9
mariage 9
recherche 9
piscine 9
aimÃ© 9
rappelle 9
honnÃªte 9
aiment 9
Tokyo 9
lever 9
Ã©trange 9
aimait 9
alcool 9
humeur 9
danser 9
Ã©toiles 9
prÃªter 9
ArrÃªtez 9
idiot 9
sommet 9
press@@ 9
des@@ 9
isme 9
hÃ©@@ 9
pens@@ 9
viendrai 9
aim@@ 9
oubli@@ 9
connu 9
cli@@ 9
19@@ 9
mer@@ 9
veu@@ 9
rai 9
ble 9
pÃ© 9
prati@@ 9
pas@@ 9
atti@@ 9
der 9
nÃ©@@ 9
cass@@ 9
sauf 9
plai@@ 9
lent 9
car@@ 9
bag@@ 9
K@@ 9
autour 9
Ã¨rement 9
projet 9
pau@@ 9
reti@@ 9
gÃ© 9
voyez 9
capit@@ 9
x 9
regardÃ© 9
senti@@ 9
utilis@@ 9
ennes 9
cho@@ 9
poids 9
Ap@@ 9
aie 9
DÃ©@@ 9
cieux 9
app@@ 9
ati@@ 9
rencontre 9
montrer 9
rendez 9
siÃ¨@@ 9
O@@ 9
op@@ 9
der@@ 9
dra 9
entrÃ©e 9
pÃªcher 9
atte@@ 9
suffisamment 9
prit 9
ali@@ 9
dÃ©termin@@ 9
iller 9
dictionnaire 9
part@@ 9
demander 9
riez 9
quelconque 9
afin 9
Al@@ 9
mis@@ 9
coll@@ 9
plein 9
prÃ©ci@@ 9
avance 9
rÃ©ussi 9
irs 9
lis@@ 9
gÃ©@@ 9
milli@@ 9
ign@@ 9
lev@@ 9
dimanche 9
quotidi@@ 9
sai@@ 9
vont 9
devenir 9
connaÃ®tre 9
trom@@ 9
nez 9
danger 9
intÃ©res@@ 9
alitÃ© 9
cier 9
groupe 9
Ã©tr@@ 9
arbre 8
chanceux 8
emporter 8
cache 8
responsable 8
message 8
patron 8
perte 8
rapport 8
gne 8
cont@@ 8
mÃ©e 8
gro@@ 8
tent 8
travaill@@ 8
attrapÃ© 8
portÃ© 8
mourir 8
iste 8
prÃ©fÃ©rÃ© 8
tou@@ 8
dÃ©couvert 8
quement 8
jeunes 8
pati@@ 8
ente 8
prÃ©sident 8
nel 8
Ã®@@ 8
intÃ©ressant 8
restÃ© 8
croit 8
impossible 8
Ch@@ 8
conn@@ 8
robe 8
coupe 8
met 8
plain@@ 8
choisir 8
tor@@ 8
envoyÃ© 8
pul@@ 8
gÃ©ni@@ 8
char@@ 8
conse@@ 8
reÃ§u 8
rend@@ 8
Ã¨me 8
existe 8
chanter 8
gauche 8
5 8
ande 8
quit@@ 8
ho@@ 8
dre 8
erreurs 8
suivre 8
ri 8
quiconque 8
cents 8
rs 8
puis@@ 8
ion 8
bill@@ 8
port@@ 8
lav@@ 8
pommes 8
dem@@ 8
ours 8
rire 8
atta@@ 8
tro@@ 8
voudriez 8
prÃ©par@@ 8
aur@@ 8
bu@@ 8
raisons 8
correctement 8
id@@ 8
atten@@ 8
convain@@ 8
brÃ»@@ 8
seront 8
signe 8
voilÃ 8
val@@ 8
nue 8
sang 8
const@@ 8
gagner 8
ador@@ 8
accep@@ 8
voyager 8
30 8
haut 8
finalement 8
prÃ©sent 8
bÃ¢timent 8
moyen 8
tar@@ 8
actu@@ 8
regard@@ 8
dÃ©e 8
om@@ 8
visage 8
lundi 8
propres 8
mari@@ 8
time 8
Ã»@@ 8
soin 8
prim@@ 8
souhai@@ 8
tais 8
dure 8
indi@@ 8
ron@@ 8
ong@@ 8
dispu@@ 8
tal@@ 8
arrÃªte 8
lour@@ 8
per 8
week 8
ban@@ 8
cher@@ 8
payÃ© 8
ste 8
Ã»t 8
bateau 8
ations 8
illÃ© 8
fri@@ 8
cri@@ 8
entend@@ 8
parlent 8
dÃ©pend 8
Mo@@ 8
rencontr@@ 8
Ã©tat 8
eff@@ 8
jo@@ 8
rÃ©us@@ 8
attends 8
grand- 7
devoirs 7
coÃ»t 7
enfin 7
bras 7
rhume 7
vaches 7
droits 7
rÃ©veillÃ© 7
chiens 7
nature 7
rÃ´le 7
faute 7
loi 7
intÃ©ressÃ© 7
explo@@ 7
fas@@ 7
devint 7
vendre 7
devin@@ 7
oc@@ 7
cru 7
larmes 7
tif 7
dÃ©b@@ 7
scientifique 7
Pro@@ 7
article 7
vions 7
cer@@ 7
cle 7
aider@@ 7
nage 7
amoureuse 7
taxi 7
arrivÃ©e 7
Excusez 7
allais 7
arriÃ¨re 7
promen@@ 7
John 7
effet 7
ath@@ 7
semaines 7
diffÃ©rent 7
tÃ©s 7
touche 7
mille 7
contente 7
Ãªte 7
veille 7
os 7
arti@@ 7
embrasser 7
opÃ©r@@ 7
tait 7
viol@@ 7
roman 7
exem@@ 7
bizarre 7
brill@@ 7
marre 7
th@@ 7
occasion 7
ail@@ 7
bouteille 7
lors 7
isÃ©e 7
portable 7
plu@@ 7
igne 7
illa 7
rÃ©p@@ 7
prouv@@ 7
proch@@ 7
cuisin@@ 7
doivent 7
eaux 7
retour@@ 7
copine 7
dig@@ 7
fin@@ 7
Ã©te@@ 7
partout 7
sal@@ 7
sac@@ 7
intÃ©rÃªt 7
ev@@ 7
forme 7
ref@@ 7
trai@@ 7
mani@@ 7
laire 7
auriez 7
salle 7
mondi@@ 7
pes 7
ection 7
pai@@ 7
yer 7
couver@@ 7
sept 7
ferme 7
vide 7
bat@@ 7
cation 7
produire 7
rue 7
tranquille 7
dÃ©couvrir 7
off@@ 7
vou@@ 7
continu@@ 7
cha 7
antes 7
augment@@ 7
expliquer 7
hasard 7
lÃ¨@@ 7
tures 7
af@@ 7
compagnie 7
k@@ 7
tai@@ 7
z 7
pose 7
auparavant 7
prennent 7
jolie 7
moral 7
Angleterre 7
oblig@@ 7
va@@ 7
aÃ®@@ 7
mb@@ 7
ner@@ 7
disposez 7
aies 7
donna 7
automne 7
avis 7
pomme 7
utile 7
cas 7
amÃ©liorer 7
vendredi 7
disent 7
repas 7
plage 7
site 7
Ã©lec@@ 7
jouÃ© 7
montr@@ 7
quÃ©e 7
aimer 7
Internet 7
pÃ©r@@ 7
vement 7
hau@@ 7
E@@ 7
AmÃ©rique 7
sors 7
fil@@ 7
simple 7
sÃ©par@@ 7
cal@@ 7
tÃ¢che 7
maman 7
parlait 7
cassÃ© 7
appartient 7
sache 7
nes 7
morceau 7
bres 7
condu@@ 7
constru@@ 7
vre 7
refus@@ 7
enseign@@ 7
vraie 7
fau@@ 7
annu@@ 7
aimez 7
revenu 7
Å“uf 7
Ã©chou@@ 7
iles 7
viennent 7
fran@@ 7
istes 7
preuve 7
croy@@ 7
prÃ©sent@@ 7
Ã©pou@@ 7
terai 7
prÃ©senter 7
laver 7
emb@@ 7
bonnes 7
dÃ©part 7
sui@@ 7
viend@@ 7
lam@@ 7
ouvrir 7
chino@@ 7
retourner 7
faite 7
F@@ 7
timide 7
fs 7
liÃ¨rement 7
rÃ©flÃ©chir 7
dÃ©but 7
charg@@ 7
aimer@@ 7
regar@@ 7
service 7
ari@@ 7
derni@@ 7
travail@@ 7
cherche 7
football 7
Ã®tr@@ 7
demanda 7
grat@@ 7
sÃ©rieux 7
gagne 7
gn@@ 7
demi 7
l&apos;@@ 6
suicidÃ© 6
Ã©cureuils 6
mecs 6
senti 6
diffÃ©rence 6
teurs 6
nerveux 6
rÃ©jouis 6
tons 6
arbres 6
feuilles 6
probable 6
dit@@ 6
rier 6
souci 6
abor@@ 6
lut 6
double 6
aines 6
fus@@ 6
tÃ©@@ 6
arrog@@ 6
ssi@@ 6
plaisir 6
devient 6
Fran@@ 6
avaient 6
Ã©cri@@ 6
este 6
cuisiner 6
sage 6
els 6
sa@@ 6
dÃ©cida 6
couple 6
informa@@ 6
tiques 6
mesure 6
nombreuses 6
cs 6
serv@@ 6
habit@@ 6
conduis@@ 6
requ@@ 6
musÃ©e 6
trem@@ 6
uit 6
Espagne 6
change 6
tente 6
vol@@ 6
direction 6
sent@@ 6
nor@@ 6
visiter 6
liste 6
tho@@ 6
excus@@ 6
bour@@ 6
nettoyer 6
pay@@ 6
Ã©lo@@ 6
courage 6
blanc 6
demand@@ 6
gen@@ 6
cÃ¨s 6
rends 6
dur@@ 6
traver@@ 6
lie 6
eut 6
cis@@ 6
sec@@ 6
Ã©cras@@ 6
nulle 6
sÃ»@@ 6
souff@@ 6
seuls 6
courir 6
lai@@ 6
grandes 6
I@@ 6
trouver@@ 6
guer@@ 6
p 6
rÃ©par@@ 6
papa 6
Ã©nergie 6
rac@@ 6
petites 6
sup@@ 6
dÃ©clar@@ 6
aurions 6
droite 6
absolument 6
tasse 6
et@@ 6
sub@@ 6
fac@@ 6
certaine 6
rons 6
Ã©glise 6
mag@@ 6
rarement 6
ras 6
bon@@ 6
ajou@@ 6
voie 6
venait 6
portÃ©e 6
volon@@ 6
accepter 6
vers@@ 6
dess@@ 6
compter 6
Ã©tudie 6
imagine 6
parles 6
dispar@@ 6
imaginer 6
moutons 6
accus@@ 6
ff@@ 6
asseoir 6
politique 6
iss@@ 6
lement 6
soixante 6
inquiÃ¨te 6
foncti@@ 6
semblez 6
comment@@ 6
nouvel 6
vres 6
3 6
vivant 6
hor@@ 6
passÃ©e 6
sortes 6
pein@@ 6
aises 6
terais 6
prÃ©parer 6
fo@@ 6
calme 6
rempl@@ 6
stes 6
sour@@ 6
gie 6
asse 6
entends 6
mour@@ 6
contrat 6
admire 6
ique 6
anti@@ 6
poli 6
iÃ¨re 6
maladie 6
poin@@ 6
soyons 6
sav@@ 6
regret@@ 6
souvenir 6
refaire 6
bus@@ 6
onner 6
ira 6
eus 6
rencontrÃ©e 6
affi@@ 6
Ã©ment 6
mati@@ 6
prendrai 6
frÃ¨res 6
fruits 6
jug@@ 6
vÃ©r@@ 6
invitÃ© 6
disait 6
rÃ¨gles 6
ecte 6
or 6
fourn@@ 6
lier 6
ader 6
ires 6
cinÃ©ma 6
personn@@ 6
coucher 6
fromage 6
entrer 6
quitter 6
occupe 6
recomman@@ 6
ti 6
eusement 6
2 6
manu@@ 6
Mon@@ 6
garder 6
eur@@ 6
cer 6
douche 6
arrivent 6
mont@@ 6
Ã©viter 6
est@@ 6
corriger 6
iter 6
frÃ©qu@@ 6
gentil 6
consac@@ 6
offen@@ 6
sc@@ 6
ances 6
malheureusement 6
glis@@ 6
force 6
certaines 6
photos 6
yens 6
trente 6
excuses 6
met@@ 6
empÃªcher 6
boit 6
clairement 6
dant 6
ce@@ 6
enfance 6
prof@@ 6
compli@@ 6
lan@@ 6
enn@@ 6
poule 6
occuper 6
commenÃ§a 6
Allemagne 6
arrÃª@@ 6
ines 6
rÃ©si@@ 6
soi 6
lap@@ 6
universitÃ© 6
fermer 6
rÃ©parer 6
comp@@ 6
bas@@ 6
tel 6
principa@@ 6
van@@ 6
bÃ¢@@ 6
nag@@ 6
jouets 6
prend@@ 6
prÃªtes 6
ps 6
Smith 6
AmÃ©ric@@ 6
ne@@ 6
station 6
court 6
ouverte 6
ales 6
Jane 6
emment 6
appareil 6
coÃ»te 6
pierre 6
Thomas 6
chercher 6
importantes 6
gag@@ 6
effray@@ 6
public 6
tra@@ 6
bri@@ 6
vues 6
cap@@ 6
admis 6
pÃ¢le 6
Ã©chec 6
tÃ©lÃ©@@ 6
to 6
ple@@ 6
permis 6
durant 6
battre 6
soif 6
vir@@ 6
chanc@@ 6
planÃ¨te 6
An@@ 6
princesse 5
n 5
qu 5
fonctionne 5
ray@@ 5
cÃ©lÃ¨bre 5
celles 5
vus 5
apprends 5
entret@@ 5
voulu 5
rÃ©flÃ©chi 5
Devine 5
anni@@ 5
espÃ©ranto 5
New 5
York 5
hi@@ 5
appell@@ 5
autrefois 5
tomb@@ 5
joli 5
concer@@ 5
satisfait 5
plu 5
yons 5
As@@ 5
bonheur 5
Salut 5
prison 5
ate 5
vienne 5
rÃ©s@@ 5
fron@@ 5
verse 5
folle 5
ras@@ 5
nent 5
alent@@ 5
pouv@@ 5
extr@@ 5
rav@@ 5
retour 5
ins@@ 5
iner 5
occupÃ©s 5
remÃ¨de 5
pique 5
nique 5
agres@@ 5
Mi@@ 5
Ã©lu 5
arrÃªt 5
tion@@ 5
dÃ©cider 5
futur 5
bonjour 5
prÃ©f@@ 5
emprun@@ 5
velop@@ 5
connaisse 5
prÃ©venu 5
Di@@ 5
quittÃ© 5
populaire 5
parla 5
soirÃ©e 5
tort 5
sauv@@ 5
sig@@ 5
surprise 5
publi@@ 5
cheval 5
souhaite 5
croient 5
lettres 5
Ã¨vre 5
Soleil 5
cul@@ 5
Ã©ter 5
tin 5
fix@@ 5
rÃ©aliser 5
expli@@ 5
Italie 5
enfu@@ 5
possibilitÃ© 5
rÃ©es 5
ennent 5
forc@@ 5
vent 5
gÃ©rer 5
aurai 5
bien@@ 5
ouvrit 5
Con@@ 5
urgence 5
amusant 5
Quels 5
aliments 5
frais 5
conf@@ 5
beurre 5
Cor@@ 5
Ã©chapp@@ 5
traduire 5
dirai 5
riches 5
copain 5
monie 5
cha@@ 5
humour 5
beau@@ 5
super 5
impli@@ 5
quÃ©s 5
rap@@ 5
totalement 5
poli@@ 5
ure 5
centre 5
forte 5
distribu@@ 5
lon@@ 5
ani@@ 5
impressi@@ 5
patience 5
enseigner 5
Ã©veillÃ© 5
matiÃ¨re 5
neuf 5
cure 5
coÃ»ts 5
douleur 5
usÃ©e 5
uni@@ 5
siez 5
impression 5
voudrait 5
oux 5
connaissait 5
taire 5
crise 5
Ã©tang 5
servi 5
hÃ©ros 5
chaude 5
culture 5
meubles 5
ences 5
champ 5
population 5
importante 5
amÃ©lior@@ 5
prÃªts 5
Ã©lÃ¨ves 5
liez 5
croyez 5
poster 5
innocent 5
objectif 5
Ã©toile 5
position 5
alliez 5
comporte 5
secon@@ 5
Re@@ 5
trice 5
saisir 5
fus 5
conduit 5
jour@@ 5
deven@@ 5
crime 5
aus@@ 5
chacun 5
lais@@ 5
tÃ©ri@@ 5
silencieux 5
froide 5
U@@ 5
S 5
acide 5
gle 5
verrai 5
hÃ¢te 5
fie 5
mÃ¨@@ 5
petits 5
rom@@ 5
sen@@ 5
poche 5
laient 5
patient 5
unique 5
admi@@ 5
secr@@ 5
rÃ©s 5
tombÃ©e 5
fro@@ 5
appelez 5
envoyer 5
eriez 5
lais 5
yez 5
compos@@ 5
diffÃ©ren@@ 5
faits 5
Europe 5
mathÃ©matiques 5
sortie 5
diplo@@ 5
rÃ©gu@@ 5
din@@ 5
abo@@ 5
cherches 5
Ja@@ 5
Ã©cris 5
date 5
ateurs 5
salaire 5
Ã©gal 5
amuser 5
respecter 5
pru@@ 5
populaires 5
foi 5
appro@@ 5
restÃ©e 5
rÃ©pondu 5
Ã©rer 5
sel 5
feriez 5
rÃ©ellement 5
ourr@@ 5
mÃ© 5
oiseau 5
grands 5
dÃ©s@@ 5
sentez 5
ical 5
propos@@ 5
coupÃ© 5
acti@@ 5
attendu 5
sort 5
signifie 5
Tr@@ 5
mensonge 5
pÃ©ri@@ 5
form@@ 5
conscience 5
his@@ 5
dÃ©Ã§u 5
Ã©rÃ© 5
voisins 5
niveau 5
sport 5
occup@@ 5
vic@@ 5
toire 5
fÃ©lic@@ 5
produ@@ 5
rÃ©sultats 5
ern@@ 5
ct@@ 5
vÃª@@ 5
honn@@ 5
dÃ©truit 5
soldats 5
clai@@ 5
exig@@ 5
promesse 5
mien 5
ards 5
fatigu@@ 5
eng@@ 5
incon@@ 5
No@@ 5
bandes 5
iser 5
he 5
pa 5
couteau 5
promettre 5
dÃ©cÃ©@@ 5
chal@@ 5
courag@@ 5
chocolat 5
toucher 5
tera 5
indiquer 5
chauff@@ 5
remercier 5
zoo 5
connaissez 5
dos 5
tionn@@ 5
sandwich 5
Ã©puis@@ 5
supplÃ©ment@@ 5
sentir 5
sante 5
rejoindre 5
rement 5
achet@@ 5
parie 5
dies 5
magazine 5
animal 5
dorm@@ 5
cartes 5
prÃ©sen@@ 5
gars 5
para@@ 5
pÃª@@ 5
pronon@@ 5
jambe 5
ann@@ 5
certainement 5
ace 5
visit@@ 5
fume 5
but 5
vendu 5
vie@@ 5
longues 5
concert 5
rencontrÃ©s 5
peuple 5
consci@@ 5
chau@@ 5
venez 5
foule 5
tex@@ 5
servi@@ 5
rÃ©du@@ 5
soud@@ 5
grÃ¢ce 5
cravate 5
gÃ©nÃ©ration 5
etÃ© 5
quelles 5
interdit 5
existence 5
traitÃ© 5
promesses 5
desc@@ 5
dÃ©range 5
attrape 5
souci@@ 5
plait 5
som@@ 5
conseillÃ© 5
erait 5
suivi 5
rÃ©solu 5
ul@@ 5
norm@@ 5
gnÃ©e 5
page 5
abilitÃ© 5
tiens 5
carac@@ 5
tÃ¨re 5
bleu 5
ouvrez 5
mariÃ©s 5
connaiss@@ 5
gÃ©ri@@ 5
corde 5
ail 5
campagne 5
ecti@@ 5
onique 5
passez 5
cochon 5
/ 5
up@@ 5
avocat 5
euro@@ 5
Ã©norme 5
mignonne 5
parfait 5
soutien 5
te@@ 5
clair 5
tromp@@ 5
volution 5
aper@@ 5
Ã¨s 5
tenez 5
base 5
suppos@@ 5
pit@@ 5
ak@@ 5
ordinaire 5
suffit 5
oubliez 5
rumeur 5
environ 5
voit 5
logi@@ 5
volontÃ© 5
rec@@ 5
dirait 5
ressources 5
regardez 5
rÃ©vÃ©@@ 5
tableau 5
Ã©ti@@ 5
chant 5
sienne 5
ot@@ 5
d&apos;@@ 4
anci@@ 4
systÃ¨me 4
har@@ 4
quel@@ 4
asi@@ 4
traiter 4
irez 4
critique 4
rÃ©col@@ 4
devraient 4
sÃ©rieusement 4
destination 4
gÃ©nÃ©ral 4
franchement 4
discu@@ 4
enez 4
ta@@ 4
scientifiques 4
parmi 4
gentillesse 4
let 4
USA 4
soli@@ 4
Ã§o@@ 4
dÃ©mÃ©@@ 4
films 4
horreur 4
douÃ© 4
sexu@@ 4
itÃ©s 4
finir 4
lar@@ 4
rÃ©alitÃ© 4
dommage 4
correcte 4
Vo@@ 4
horrible 4
mener 4
sem@@ 4
Ã¨tes 4
lin@@ 4
mÃ©r@@ 4
mement 4
folie 4
protÃ©ger 4
sauver 4
clin@@ 4
seriez 4
consom@@ 4
na@@ 4
gÃ©nie 4
regard 4
sive 4
pourvu 4
Ã®mes 4
prÃ©vu 4
instru@@ 4
cti@@ 4
fiÃ© 4
nul 4
hypo@@ 4
exercice 4
boute@@ 4
dro@@ 4
garage 4
rÃ©alis@@ 4
veuilles 4
fleur 4
prÃ©fÃ©rerais 4
gout@@ 4
hen@@ 4
gÃ¢@@ 4
famil@@ 4
faisais 4
interrom@@ 4
pre 4
queue 4
diable 4
utilisez 4
bles 4
pus 4
contrÃ´le 4
fronti@@ 4
premi@@ 4
russe 4
onz@@ 4
cem@@ 4
toit 4
tÃ©mo@@ 4
Bob 4
Par@@ 4
spÃ©ci@@ 4
couverture 4
reprÃ©sent@@ 4
exac@@ 4
isa 4
dises 4
lignes 4
matin@@ 4
hur@@ 4
compag@@ 4
pres@@ 4
absur@@ 4
uti@@ 4
adoles@@ 4
peu@@ 4
ffi@@ 4
perdue 4
g 4
sses 4
musicien 4
istance 4
Ã©lev@@ 4
rag@@ 4
surance 4
prendra 4
seconde 4
proj@@ 4
propri@@ 4
pÃªche 4
terminer 4
Linda 4
mÃ©rite 4
fantÃ´mes 4
rÃ©sil 4
tombe 4
dance 4
parlons 4
supporter 4
secrets 4
prudente 4
commer@@ 4
cial 4
rideau 4
rir 4
Ã´le 4
contrari@@ 4
Ã©tit 4
imagin@@ 4
dise 4
rai@@ 4
sonn@@ 4
teuse 4
permettre 4
veniez 4
tenait 4
rappelez 4
blement 4
inf@@ 4
Ã®tre 4
minu@@ 4
prof 4
puni 4
utilisÃ© 4
seurs 4
cu 4
m 4
saou@@ 4
peinture 4
dira 4
rÃ©pon@@ 4
die 4
chois@@ 4
enf@@ 4
idio@@ 4
riz 4
entrÃ© 4
Ã©clata 4
intelligente 4
ordres 4
our 4
sert 4
philosophie 4
promets 4
examin@@ 4
maient 4
suggÃ¨re 4
impliquÃ© 4
ja@@ 4
diffÃ©rences 4
exi@@ 4
dirige@@ 4
lab@@ 4
out 4
trouveras 4
couramment 4
tire 4
gÃ©nÃ©ralement 4
acqu@@ 4
banan@@ 4
termin@@ 4
sir 4
ordre 4
ans@@ 4
jette 4
jouent 4
physique 4
couper 4
dipl@@ 4
Ã´me 4
grand@@ 4
ront 4
volÃ© 4
tentÃ© 4
plo@@ 4
forÃªt 4
traductions 4
itu@@ 4
embr@@ 4
don@@ 4
att@@ 4
connaissais 4
daire 4
sions 4
Ã©tab@@ 4
humaine 4
sensÃ© 4
lentement 4
maj@@ 4
mauvaises 4
habituÃ© 4
prÃ©fÃ©r@@ 4
sure 4
aff@@ 4
assu@@ 4
tem@@ 4
arro@@ 4
publique 4
truc 4
lycÃ©e 4
travailles 4
devait 4
directeur 4
prÃ©vois 4
Wh@@ 4
ponctu@@ 4
trouvait 4
na 4
doute 4
heur@@ 4
portement 4
invitÃ©es 4
espÃ¨ce 4
endur@@ 4
Ã©ner@@ 4
mentir 4
Å“urs 4
genoux 4
pers@@ 4
coÃ»@@ 4
fortune 4
constituent 4
pensent 4
plaisante 4
utilise 4
permission 4
ponais 4
donnÃ©es 4
ague 4
gas@@ 4
nav@@ 4
Mar@@ 4
vouliez 4
traverser 4
sol@@ 4
postale 4
vase 4
Ã©car@@ 4
salade 4
verrou@@ 4
persu@@ 4
eine 4
carri@@ 4
sÃ©rie 4
cham@@ 4
debout 4
ticket 4
triste 4
hi 4
bre@@ 4
auto@@ 4
cesse 4
employ@@ 4
sion@@ 4
faux 4
dÃ©r@@ 4
ocÃ©an 4
risque 4
contributeur 4
Å“u@@ 4
piÃ¨ces 4
spor@@ 4
seu@@ 4
produits 4
Uni@@ 4
fer 4
oiseaux 4
teaux 4
quinze 4
donnent 4
concentr@@ 4
puissiez 4
mÃ©dica@@ 4
ments 4
crit 4
parfaitement 4
restez 4
ures 4
sieur 4
rÃ©ponds 4
enten@@ 4
photo@@ 4
lÃ¢che 4
diffic@@ 4
risques 4
illard 4
congÃ© 4
marr@@ 4
insul@@ 4
az@@ 4
yait 4
terriblement 4
diffÃ©rents 4
profonde 4
forcer 4
dÃ©jeu@@ 4
cray@@ 4
ram@@ 4
traduction 4
qui@@ 4
Ã©tude 4
coÃ»tÃ© 4
8@@ 4
hon@@ 4
20@@ 4
prononcer 4
ouver@@ 4
meill@@ 4
couleur 4
trouvent 4
prises 4
pÃ©enne 4
ito@@ 4
commun@@ 4
apprenti@@ 4
ssage 4
mignons 4
passeport 4
suivant 4
tien 4
anc@@ 4
Ãªtres 4
noyÃ© 4
ivent 4
moyenne 4
sombre 4
culation 4
Su@@ 4
dessinÃ©es 4
joie 4
restes 4
couteaux 4
me@@ 4
corri@@ 4
pÃ©nÃ©tr@@ 4
vÃ© 4
voix 4
be@@ 4
cue 4
Ã©goÃ¯@@ 4
ver 4
pren@@ 4
Ã©conomie 4
lesquelles 4
dues 4
menti 4
endormi 4
ingÃ©nieurs 4
nier 4
tru@@ 4
sorti@@ 4
gÃ©r@@ 4
sit 4
vÃ©ritable 4
pression 4
coupable 4
Lon@@ 4
dres 4
mÃªmes 4
empÃªchÃ© 4
ors 4
portent 4
expliqu@@ 4
objets 4
marron 4
ction 4
issait 4
satis@@ 4
rÃ©gl@@ 4
mouv@@ 4
tain 4
cancer 4
plac@@ 4
monte 4
poÃ¨me 4
rapide 4
Per@@ 4
Ã¢me 4
deuxiÃ¨me 4
la@@ 4
dÃ©goÃ»@@ 4
del 4
Ã©v@@ 4
Ã»mes 4
orange 4
mise 4
sÃ»rement 4
faible 4
sÃ©chÃ© 4
guim@@ 4
sortez 4
ea 4
onnaire 4
puissance 4
touchÃ© 4
cas@@ 4
mÃ©moire 4
Ã¢chÃ© 4
fautes 4
Ã©tant 4
mem@@ 4
gri@@ 4
Contin@@ 4
Ã®ner 4
remar@@ 4
Ro@@ 4
dai@@ 4
endom@@ 4
fidÃ¨le 4
image 4
trez 4
mÃ©tro 4
tante 4
note 4
peint 4
ret@@ 4
ssÃ© 4
nationale 4
pleure 4
issant 4
perm@@ 4
crai@@ 4
piÃ¨@@ 4
prudent 4
silenci@@ 4
ze 4
ones 4
adi@@ 4
matins 4
sourire 4
jal@@ 4
server 4
lÃ©gumes 4
nus 4
Kate 4
naturel 4
visions 4
entation 4
pis@@ 4
merveilleux 4
cru@@ 4
correspon@@ 4
solution 4
gorge 4
Ã©tudiante 4
mÃ©di@@ 4
cale 4
raconter 4
peau 4
malgrÃ© 4
tendance 4
user 4
sembl@@ 4
heureuses 4
origin@@ 4
embarrass@@ 4
conversation 4
soul@@ 4
Ã©taire 4
concentrer 4
ouons 4
condition 4
naissance 4
bel 4
isez 4
invit@@ 4
volant 4
le@@ 4
fous 4
devenus 4
bis@@ 4
jean 4
ises 4
forts 4
possÃ¨de 4
respect@@ 4
tur@@ 4
cles 4
espÃ©r@@ 4
entier 4
terie 4
partici@@ 4
mur@@ 4
paro@@ 4
contact 4
semblait 4
quitte 4
000 4
confÃ©rence 4
cÃ©libataire 4
logie 4
phÃ©nomÃ¨ne 4
biz@@ 4
ball 4
souri@@ 4
impatience 4
troisiÃ¨me 4
angle 4
commenc@@ 4
reconnaissante 4
V@@ 4
guitare 4
forcÃ© 4
da 4
quar@@ 4
arri@@ 4
remettre 4
traite 4
tÃ©nu@@ 4
ame 4
erre 4
viez 4
invitÃ©s 4
enc@@ 4
fallait 4
voleur 4
pÃ©e 4
fier 4
privÃ© 4
environnement 4
parole 4
semblant 4
nÃ´tre 4
genti@@ 4
particu@@ 4
onnes 4
Ã©roport 4
sain 4
Ã©poque 4
longs 4
mÃ©tÃ©oro@@ 4
logiques 4
connaissance 4
Jim 4
pars 4
blo@@ 4
ridicul@@ 4
emprunter 4
fond@@ 4
rel@@ 4
fond 4
dÃ©f@@ 4
ponctuel 4
justice 4
j 3
esti@@ 3
caf@@ 3
absent 3
ends 3
fal@@ 3
tives 3
ouvr@@ 3
dÃ©couver@@ 3
prou@@ 3
esses 3
ange 3
Ã¨le 3
toil@@ 3
netto@@ 3
futon 3
chec@@ 3
ient 3
Gu@@ 3
stu@@ 3
sap@@ 3
ats 3
blan@@ 3
poison 3
souv@@ 3
ok@@ 3
pure 3
piration 3
arch@@ 3
mation 3
attrap@@ 3
pleur@@ 3
sign@@ 3
adop@@ 3
ber@@ 3
ges 3
condi@@ 3
ples 3
Ju@@ 3
Nancy 3
endre 3
num@@ 3
Ver@@ 3
nat@@ 3
nification 3
illage 3
mine 3
four 3
imp@@ 3
four@@ 3
tel@@ 3
dan@@ 3
humili@@ 3
situ@@ 3
coff@@ 3
us 3
direc@@ 3
nov@@ 3
ill 3
priv@@ 3
maine 3
alisation 3
ar 3
science 3
endu 3
laiss@@ 3
accompl@@ 3
omi@@ 3
paci@@ 3
kil@@ 3
accu@@ 3
expÃ©ri@@ 3
ment@@ 3
veau 3
cam@@ 3
univers@@ 3
statue 3
Anne 3
trou@@ 3
batt@@ 3
igner 3
assure 3
temp@@ 3
onna 3
cin@@ 3
cinÃ©@@ 3
grap@@ 3
ous 3
bes@@ 3
b 3
ty@@ 3
construction 3
soi@@ 3
accent 3
Ã©vit@@ 3
passage 3
En@@ 3
inti@@ 3
vague 3
pizza 3
addition 3
enir 3
impatient 3
merveill@@ 3
tes@@ 3
invention 3
ute 3
her@@ 3
gentleman 3
imagination 3
bin@@ 3
prÃª@@ 3
gran@@ 3
ilit@@ 3
tunnel 3
ths 3
virus 3
ition 3
ache 3
accor@@ 3
li 3
Susan 3
symbo@@ 3
intelligen@@ 3
aches 3
tat@@ 3
yth@@ 3
ago@@ 3
ature 3
hÃ©ro@@ 3
pigeons 3
SM@@ 3
nom@@ 3
archit@@ 3
pot 3
vies 3
pal@@ 3
far@@ 3
dans@@ 3
feu@@ 3
mam@@ 3
surviv@@ 3
spÃ©@@ 3
lum@@ 3
ther@@ 3
chem@@ 3
calcul@@ 3
Ã¨que 3
difficul@@ 3
conserv@@ 3
artifi@@ 3
encourag@@ 3
stat@@ 3
avan@@ 3
Ã§ais 3
rejo@@ 3
Nations 3
myst@@ 3
ize 3
refuse 3
lÃ©e 3
correspond@@ 3
ative 3
dÃ©cou@@ 3
pag@@ 3
activ@@ 3
vois@@ 3
venge@@ 3
thÃ©@@ 3
divor@@ 3
Canada 3
itiÃ© 3
dÃ©cl@@ 3
gan@@ 3
loca@@ 3
public@@ 3
bru@@ 3
endorm@@ 3
options 3
natur@@ 3
illez 3
abs@@ 3
jet 3
litres 3
cible 3
teau 3
spect@@ 3
iti@@ 3
commen@@ 3
contac@@ 3
Chris@@ 3
Co@@ 3
mb 3
pÃªchÃ© 3
organis@@ 3
file 3
profession@@ 3
rage 3
W@@ 3
oppos@@ 3
nouv@@ 3
points 3
quences 3
zone 3
employer 3
ert 3
pÃ©n@@ 3
diam@@ 3
salon 3
illu@@ 3
minimum 3
anger 3
tent@@ 3
mate 3
confis@@ 3
ape 3
personnel 3
clo@@ 3
vend@@ 3
tern@@ 3
mobiles 3
mala@@ 3
exc@@ 3
Ã®t 3
ki 3
libr@@ 3
k 3
mand@@ 3
Char@@ 3
opport@@ 3
ile 3
ore@@ 3
nations 3
former 3
pare@@ 3
villes 3
Y@@ 3
appe@@ 3
pic@@ 3
larg@@ 3
suppl@@ 3
14 3
rest@@ 3
disposes 3
2013 3
anges 3
cut 3
4@@ 3
pÃ¨@@ 3
menti@@ 3
entre@@ 3
dessert 3
bar 3
sins 3
ave 3
inqui@@ 3
ars 3
lim@@ 3
sale 3
diff@@ 3
supermar@@ 3
bunal 3
atin 3
conna@@ 3
sentiment 3
Paul 3
pyram@@ 3
ides 3
Mat@@ 3
consi@@ 3
co 3
cla@@ 3
amus@@ 3
ation@@ 3
Jean@@ 3
anger@@ 3
instructions 3
tradi@@ 3
yen 3
tim@@ 3
ili@@ 3
stric@@ 3
once 3
matiques 3
ef@@ 3
sÃ©ri@@ 3
fruit 3
phones 3
finan@@ 3
preu@@ 3
amment 3
cep@@ 3
bro@@ 3
ato@@ 3
pare 3
spati@@ 3
vive 3
Fr@@ 3
match 3
invent@@ 3
copies 3
ala@@ 3
miracle 3
pareil 3
one 3
stupi@@ 3
due 3
gues 3
magnifi@@ 3
mÃª@@ 3
curi@@ 3
Sh@@ 3
ko 3
lin 3
ve@@ 3
esca@@ 3
parl@@ 3
inclu@@ 3
ambition 3
distance 3
ple 3
ed 3
assis@@ 3
Sach@@ 3
Ã©co@@ 3
man 3
ands 3
kilom@@ 3
immÃ©di@@ 3
uses 3
inst@@ 3
Kyoto 3
ls 3
ym@@ 3
aka 3
talent 3
Ã©ro 3
suspe@@ 3
Ã©tu@@ 3
gau@@ 3
pol@@ 3
awa 3
chon 3
erc@@ 3
ible 3
course 3
fi 3
line 3
respons@@ 3
pil@@ 3
den@@ 3
sensible 3
tut 3
pin@@ 3
prÃ©si@@ 3
ge@@ 3
liber@@ 3
emplo@@ 3
Am@@ 3
ty 3
angers 3
adap@@ 3
ol@@ 3
sible 3
&apos;@@ 2
ic@@ 2
Po@@ 2
cess@@ 2
rions 2
aint 2
Yu@@ 2
reconnaiss@@ 2
cre@@ 2
Ã©cureu@@ 2
ambulance 2
son@@ 2
cruel 2
lion 2
progress@@ 2
mÃ©dec@@ 2
moder@@ 2
bs@@ 2
cur@@ 2
hÃ¢@@ 2
ates 2
introdu@@ 2
terrible 2
contribu@@ 2
pian@@ 2
tradu@@ 2
Ho@@ 2
destin@@ 2
ingÃ©ni@@ 2
source 2
um@@ 2
rece@@ 2
tude 2
ke 2
sim@@ 2
pli@@ 2
ack@@ 2
card 2
aver@@ 2
active 2
bes 2
bio@@ 2
my@@ 2
adres@@ 2
dist@@ 2
civ@@ 2
Em@@ 2
ilia 2
ger@@ 2
microscope 2
provi@@ 2
protÃ©@@ 2
atri@@ 2
sel@@ 2
occupation 2
ms 2
fins 2
diagno@@ 2
neu@@ 2
tations 2
communi@@ 2
anta 2
copi@@ 2
ridi@@ 2
dat@@ 2
testam@@ 2
Gre@@ 2
tran@@ 2
xi@@ 2
Å“ur 2
vidence 2
mili@@ 2
dri@@ 2
Ã´tre 2
goÃ»@@ 2
cous@@ 2
profes@@ 2
Jo@@ 2
han@@ 2
identification 2
jus@@ 2
social 2
saka 2
avo@@ 2
12 2
Ei@@ 2
ffel 2
institu@@ 2
lots 2
ix 2
0 2
excuse 2
facil@@ 2
Hel@@ 2
cement 2
lo 2
race 2
respect 2
close 2
nes@@ 2
figure 2
nombr@@ 2
Celsius 2
Ã©ni@@ 2
physi@@ 2
50 2
patients 2
racon@@ 2
Sou@@ 2
pre@@ 2
prison@@ 2
appropri@@ 2
err@@ 2
Ã©cl@@ 2
pruden@@ 2
curios@@ 2
fabri@@ 2
robot 2
client 2
ingle 2
ettre 2
cal 2
ense@@ 2
cool 2
confir@@ 2
ustr@@ 2
acceptable 2
bran@@ 2
nam@@ 2
club 2
ses@@ 2
ys@@ 2
parties 2
tis@@ 2
danger@@ 2
mission 2
exerc@@ 2
Tur@@ 2
mes@@ 2
Chil@@ 2
dial@@ 2
clients 2
str@@ 2
act 2
complÃ¨@@ 2
favorable 2
cations 2
bug 2
lun@@ 2
human@@ 2
ois@@ 2
Euro@@ 2
itage 2
prom@@ 2
encour@@ 2
oris@@ 2
trop@@ 2
150 2
kar@@ 2
correct 2
1@@ 2
2@@ 2
,@@ 2
affai@@ 2
amat@@ 2
Nor@@ 2
cultures 2
( 2
) 2
oranges 2
suc@@ 2
registr@@ 2
exist@@ 2
Bar@@ 2
ack 2
ama 2
perspe@@ 2
flu@@ 2
cousin 2
avantage 2
riv@@ 2
lit@@ 2
capa@@ 2
sister 2
compar@@ 2
rain 2
Ã´t 2
mat 2
eter 2
addi@@ 2
40 2
11 2
00 2
cide 2
Ã©ch@@ 2
ving@@ 2
pharma@@ 2
pris@@ 2
relations 2
super@@ 2
sures 2
laires 2
squ@@ 2
fication 2
favor@@ 2
uko 2
ba@@ 2
Ã´mes 2
intÃ©ri@@ 2
pilu@@ 2
vote 2
sex@@ 2
deman@@ 2
cot@@ 2
Isra@@ 2
Ã«l 2
jeu@@ 2
ry 2
obligations 2
cle@@ 2
onnement 2
tus 2
vain 2
tax@@ 2
Ã¢tre 2
manche 2
Ã©lic@@ 2
Ã©cr@@ 2
amÃ©@@ 2
suspici@@ 2
and 2
land@@ 2
anxi@@ 2
aim 2
Li@@ 2
ennad 2
Comm@@ 2
Ã”@@ 2
entres 2
tend@@ 2
rare 2
pagne 2
Ã©clat@@ 2
horri@@ 2
D 2
Dis@@ 2
ban 2
vali@@ 2
assist@@ 2
programme 2
mar 2
sil@@ 2
ide 2
che@@ 2
lot 2
magazines 2
sements 2
regret 2
YouTube 2
jam@@ 2
guide 2
offi@@ 2
sam@@ 2
ed@@ 2
dÃ©sor@@ 2
fa@@ 2
lec@@ 2
aste 2
non@@ 2
bai@@ 2
observe 2
recon@@ 2
sacrifices 2
tale 2
dra@@ 2
issue 2
8 2
pois@@ 2
Lu@@ 2
fen@@ 2
rang 2
oun@@ 2
insis@@ 2
cÃ´@@ 2
excel@@ 2
pollution 2
mage 2
US@@ 2
B 2
courses 2
aug@@ 2
morgue 2
voudr@@ 2
services 2
respec@@ 2
arrives 2
ces@@ 2
gent 2
internet 2
ah 2
okohama 2
orientation 2
tempor@@ 2
Ac@@ 2
ok 2
distingu@@ 2
sit@@ 2
Qu@@ 2
heur 2
confi@@ 2
rus@@ 2
so 2
RI@@ 2
ist@@ 2
v 2
Ste@@ 2
enter 2
suspect 2
techno@@ 2
eue 2
side 2
meu@@ 2
Ã§u 2
ut@@ 2
dÃ©ci@@ 2
sk@@ 2
clari@@ 2
bite 2
rÃ©sul@@ 2
Ã¨de 2
grou@@ 2
tie 2
san@@ 2
cus 2
tin@@ 2
pos 2
sus 2
embrass@@ 2
front 2
Maria 2
pect 2
rose 2
machine 2
dres@@ 2
geons 2
sance 2
Na@@ 2
omi 2
X@@ 2
iko 2
web 2
prin@@ 2
Australi@@ 2
ama@@ 2
action 2
approxi@@ 2
hopin 2
sco@@ 2
whis@@ 2
ky 2
expressions 2
intelligence 2
effort 2
flex@@ 2
rÃ©sou@@ 2
les@@ 2
import@@ 2
sandwi@@ 2
alternative 2
fre@@ 2
sci@@ 2
cop@@ 2
tre@@ 2
influ@@ 2
Allem@@ 2
lÃ©gu@@ 2
yal 2
Ã©qu@@ 2
his 2
hÃ´@@ 2
profit 2
second 2
dÃ©pen@@ 2
Ci@@ 2
identi@@ 2
cy@@ 2
explosion 2
tric@@ 2
tab@@ 2
sApp 2
poss@@ 2
magas@@ 2
excellent 2
18@@ 2
60 2
agement 2
adu@@ 2
suiv@@ 2
rÃ©f@@ 2
cile 2
mod@@ 2
permit 2
out@@ 2
sciences 2
ham@@ 2
bur@@ 2
obj@@ 2
dÃ©tru@@ 2
Can@@ 2
religion 2
ambi@@ 2
Ex@@ 2
hom@@ 2
but@@ 2
Tan@@ 2
ques@@ 2
invincible 2
anus 2
rist@@ 2
proc@@ 2
28 2
nÃ©cess@@ 2
Car@@ 2
pur@@ 2
dern@@ 2
angles 2
tation 2
Man@@ 2
surveill@@ 2
15 2
ice 2
onde 2
probab@@ 2
exclu@@ 2
dÃ©so@@ 2
milit@@ 2
intÃ©rÃª@@ 2
initi@@ 2
application 2
C 2
conclusions 2
ignorance 2
rock 2
cons@@ 2
indivi@@ 2
mign@@ 2
songe 2
ement@@ 2
tels 2
taxes 2
6@@ 2
diffÃ©r@@ 2
phabet 2
stations 2
sympath@@ 2
orig@@ 2
kag@@ 2
Fin@@ 2
portant 2
surface 2
impres@@ 2
crimin@@ 2
gram@@ 2
mi 2
vidÃ©@@ 2
nement 2
pho@@ 2
refl@@ 2
â€‹ 2
ony 2
pat@@ 2
articles 2
Union 2
lors@@ 1
@@ 1
cel@@ 1
ordinat@@ 1
class@@ 1
cid@@ 1
mess@@ 1
rit@@ 1
kio 1
Mis@@ 1
70 1
chers 1
di 1
organ@@ 1
iton 1
pid@@ 1
Ko@@ 1
80 1
ween 1
ilÃ 1
spi@@ 1
300 1
pet 1
pick 1
up 1
ori@@ 1
guides 1
couples 1
alo@@ 1
municipa@@ 1
remer@@ 1
deni@@ 1
logis@@ 1
marketing 1
lor@@ 1
influence 1
Jan@@ 1
sugg@@ 1
politi@@ 1
Du@@ 1
don 1
occu@@ 1
Anti@@ 1
To@@ 1
local 1
fes@@ 1
asu@@ 1
ono@@ 1
ine@@ 1
lat@@ 1
alement 1
of 1
inj@@ 1
occa@@ 1
dom@@ 1
rÃ©flÃ©ch@@ 1
sno@@ 1
indus@@ 1
tries 1
industri@@ 1
refer@@ 1
yg@@ 1
nourr@@ 1
Z@@ 1
Ar@@ 1
gent@@ 1
timi@@ 1
alu@@ 1
ing@@ 1
documents 1
possib@@ 1
bac@@ 1
thou@@ 1
sia@@ 1
wo@@ 1
fall 1
poses 1
Portu@@ 1
sib@@ 1
H 1
hy@@ 1
surg@@ 1
ka@@ 1
w@@ 1
Q 1
ol 1
fici@@ 1
100 1
malheur@@ 1
cate 1
outre@@ 1
ally 1
fla@@ 1
grant 1
tenant 1
expl@@ 1
lign@@ 1
amp 1
giving 1
most@@ 1
office 1
venti@@ 1
ind@@ 1
mobile 1
musici@@ 1
enro@@ 1
mel@@ 1
bot@@ 1
union 1
ski 1
aci@@ 1
positive 1
consis@@ 1
hal@@ 1
interaction 1
dy@@ 1
81 1
apparti@@ 1
poir 1
q@@ 1
Ale@@ 1
jan@@ 1
sies 1
Es@@ 1
pages 1
progres@@ 1
inv@@ 1
passe@@ 1
ports 1
roit 1
ck@@ 1
tail 1
amÃ©li@@ 1
ker 1
sy@@ 1
exception 1
mil@@ 1
objective 1
rhu@@ 1
Pr@@ 1
cess 1
ride 1
signifi@@ 1
sun@@ 1
vision 1
reli@@ 1
200 1
ky@@ 1
Ã´ 1
entu@@ 1
condo@@ 1
0@@ 1
26 1
Jour@@ 1
Langu@@ 1
ril@@ 1
multi@@ 1
bli@@ 1
tative 1
Ã©ren@@ 1
patr@@ 1
religi@@ 1
exam@@ 1
ater 1
Sy@@ 1
ney 1
craf@@ 1
ka 1
At@@ 1
St@@ 1
ctu@@ 1
fices 1
prot@@ 1
crimes 1
dd@@ 1
invitation 1
serve 1
cast@@ 1
11@@ 1
got 1
diag@@ 1
ket 1
itive 1
causes 1
accidents 1
violence 1
migr@@ 1
emon@@ 1
torture 1
stea@@ 1
eure 1
discrimin@@ 1
ints 1
confu@@ 1
mic@@ 1
Ã” 1
boy@@ 1
lives 1
franch@@ 1
session 1
am 1
hoo@@ 1
tubercu@@ 1
lose 1
oung 1
professions 1
scr@@ 1
ambul@@ 1
Un@@ 1
vat@@ 1
fast 1
gir@@ 1
commission 1
int@@ 1
tive 1
gre@@ 1
ster 1
licence 1
Cre@@ 1
Pat@@ 1
2.@@ 1
gion 1
voud@@ 1
maximum 1
Pu@@ 1
stars 1
gni@@ 1
adul@@ 1
ey@@ 1
dogs 1
wing 1
yÃ© 1
pensions 1
estima@@ 1
cines 1
mas 1
hel@@ 1
compens@@ 1
ga@@ 1
strai@@ 1
sym@@ 1
Res@@ 1
id 1
normal 1
ilan 1
mos@@ 1
Sup@@ 1
spa@@ 1
do 1
flo@@ 1
tt@@ 1
raient 1
suicide 1
tech@@ 1
gy@@ 1
tabl@@ 1
lyc@@ 1
hall 1
tradition 1
Y 1
conclu@@ 1
objecti@@ 1
Ã§on 1
trav@@ 1
put 1
sor 1
Os@@ 1
Tu@@ 1
fts 1
Ã©conomi@@ 1
impact 1
dul@@ 1
he@@ 1
ik@@ 1
ea@@ 1
ks 1
administration 1
sources 1
6 1
conver@@ 1
lation 1
7 1
lies 1
pron@@ 1
urgent 1
arts 1
pickpock@@ 1
servant 1
ava 1
T 1
ond 1
musi@@ 1
bet 1
oner 1
festiv@@ 1
paren@@ 1
N 1
plans 1
chall@@ 1
Col@@ 1
seur 1
0.@@ 1
pack 1
wn 1
licen@@ 1
visa 1
iture 1
bul@@ 1
conditions 1
zer@@ 1
ia 1
17@@ 1
9 1
net 1
vac@@ 1
contents 1
diri@@ 1
Ma@@ 1
gÃ©nÃ©r@@ 1
phÃ©@@ 1
sement 1
Sa@@ 1
document 1
hospit@@ 1
go 1
discussions 1
27 1
mainten@@ 1
fant@@ 1
express 1
chaus@@ 1
solu@@ 1
regis@@ 1
escor@@ 1
gis@@ 1
yl@@ 1
jard@@ 1
spen@@ 1
ust@@ 1
You@@ 1
you 1
lable 1
piste 1
rel 1
kur@@ 1
rapid@@ 1
ick 1
ko@@ 1
use 1
ho 1
20 1
ct 1
portion 1
my 1
bel@@ 1
tun@@ 1
ali 1
refu@@ 1
â€½ 1
style 1
idi@@ 1
pace 1
baseball 1
thÃ©or@@ 1
rect@@ 1
indica@@ 1
meeting 1
radi@@ 1
um 1
connai@@ 1
struc@@ 1
ola 1
Secon@@ 1
victi@@ 1
bun@@ 1
set 1
bil@@ 1
nia 1
by 1
ki@@ 1
My@@ 1
bir@@ 1
moire 1
applications 1
cel 1
atives 1
key 1
perf@@ 1
naiss@@ 1
polit@@ 1
Central 1
dge 1
mature 1
enter@@ 1
expert 1
engage 1
rati@@ 1
isions 1
ing 1
imag@@ 1
air@@ 1
pair 1
sole 1
suit 1
ton@@ 1
circu@@ 1
ic 1
candi@@ 1
communications 1
laid 1
Pal@@ 1
euros 1
planning 1
aut 1
Lin@@ 1
excep@@ 1
famili@@ 1
ties 1
sis@@ 1
noise 1
changes 1
quin@@ 1
Ã¢che 1
astu@@ 1
born 1
phone 1
3@@ 1
tise 1
od@@ 1
fir@@ 1
tiv@@ 1
kin@@ 1
alim@@ 1
ourt 1
cable 1
las 1
examine 1
spr@@ 1
final 1
pt 1
ll 1
along 1
the 1
wat@@ 1
wer 1
imi 1
arry 1
Ãƒ 1
Â© 1
ames 1
hit 1
joint 1
assistant 1
âŠ‚ 1
vola 1
pier 1
espe@@ 1
are 1
ender 1
incid@@ 1
format 1
mach@@ 1
consultation 1
a.@@ 1
clas@@ 1
dures 1
De@@ 1
sy 1
valid@@ 1
arre 1
test 1
tw@@ 1
right 1
solu 1
port 1
py@@ 1
fare 1
Je@@ 1
recomm@@ 1
divorce 1
original 1
Sal@@ 1
sers 1
total 1
can 1
Jor@@ 1
grÃ© 1
veillÃ© 1
iv@@ 1
pull 1
rup@@ 1
stock 1
hand@@ 1
domesti@@ 1
appli@@ 1
suffis@@ 1
ker@@ 1
Ã©gl@@ 1
perman@@ 1
jeans 1
med 1
amour@@ 1
net@@ 1
crit@@ 1
ilitÃ© 1
Itali@@ 1
code 1
organise 1
New@@ 1
minor@@ 1
usu@@ 1
mans 1
nie 1
ther 1
King 1
jum@@ 1
Ã©rence 1
pom@@ 1
aints 1
if 1
espÃ¨@@ 1
collection 1
opinions 1
plas@@ 1
assistance 1
anim@@ 1
ective 1
im 1
musical 1
psycho@@ 1
batter@@ 1
may@@ 1
centr@@ 1
ong 1
ury 1
evant 1
stance 1
rob@@ 1
inspection 1
Intern@@ 1
tomi@@ 1
quiet 1
psychi@@ 1
contin@@ 1
gor@@ 1
gin@@ 1
ay 1
section 1
mort@@ 1
ris@@ 1
estimation 1
auth@@ 1
da@@ 1
blu@@ 1
mathÃ©@@ 1
25 1
large 1
vera 1
International 1
Fac@@ 1
book 1
violent 1
vrir 1
Joh@@ 1
gÃ©n@@ 1
Ã¨g@@ 1
01 1
old@@ 1
Rus@@ 1
get 1
doub@@ 1
plement 1
exact 1
orial 1
gging 1
chair 1
R 1
mÃ©t@@ 1
sch@@ 1
land 1
gol@@ 1
constitu@@ 1
path@@ 1
volu@@ 1
plem@@ 1
embarr@@ 1
types 1
guil@@ 1
accid@@ 1
stop@@ 1
Ã‚@@ 1
inÃ©es 1
A 1
ang 1
even@@ 1
ick@@ 1
play 1
extra 1
future 1
liv@@ 1
ysi@@ 1
ctive 1
lover 1
interrup@@ 1
sales 1
sul@@ 1
lic 1
sensi@@ 1
rar@@ 1
BC 1
arrogant 1
Ã­@@ 1
Bu@@ 1
curr@@ 1
fortable 1
pec@@ 1
rab@@ 1
omp@@ 1
nation@@ 1
location 1
ptions 1
alternatives 1
popul@@ 1
positions 1
envir@@ 1
ids 1
rÃ¨g@@ 1
occupa@@ 1
consum@@ 1
yc@@ 1
rum@@ 1
sh@@ 1
2016 1
envoy@@ 1
histor@@ 1
soci@@ 1
igners 1
var@@ 1
blin@@ 1
cats 1
foot 1
Tam@@ 1
gs 1
cand@@ 1
7@@ 1
veill@@ 1
asse@@ 1
lise 1
tranqu@@ 1
La@@ 1
04 1
J 1
provin@@ 1
appl@@ 1
discussion 1
ermin@@ 1
yenne 1
manager 1
direct 1
OK 1
Centre 1
Ã¢le 1
dits 1
cat 1
bicycl@@ 1
hai@@ 1
bibli@@ 1
visu@@ 1
particul@@ 1
Christian 1
Chin@@ 1
trouble 1
communication 1
4 1
74 1
Cu@@ 1
X 1
del@@ 1
assume 1
lic@@ 1
vari@@ 1
Ã€ 1
expire 1
ctions 1
reg@@ 1
ck 1
qualifi@@ 1
thro@@ 1
quit 1
suggestions 1
Ã©qui@@ 1
confusion 1
description 1
best 1
seller 1
protection 1
Bo@@ 1
dre@@ 1
w 1
Be@@ 1
thes@@ 1
mid@@ 1
dence 1
pel@@ 1
oni@@ 1
eb@@ 1
trac@@ 1
Com@@ 1
