#version: 0.2
t h
p o
po s
a pos
& apos
o u
i n
a n
r e</w>
i s</w>
e n
&apos ;</w>
th e</w>
y o
yo u</w>
e r</w>
t o</w>
o n
r e
h a
&apos ;
e s</w>
e d</w>
in g</w>
a r
e r
o n</w>
q u
m e</w>
i t</w>
l e</w>
a s</w>
e s
t i
v e</w>
a l
h e</w>
e l
a t</w>
o m</w>
i n</w>
n o
i s
i t
o r
e n</w>
d e</w>
e a
T om</w>
a n</w>
l i
o f</w>
t r
o m
i l
c e</w>
u s
n e</w>
en t</w>
l a
h o
d i
ou s</w>
th at</w>
r i
e re</w>
&apos; t</w>
o r</w>
j e</w>
m a
s t
r o
w h
l o
es t</w>
@ -
@- @</w>
l e
s u
t e</w>
s e</w>
y ou
f a
r a
d o</w>
ha ve</w>
k e</w>
e t</w>
c h
i l</w>
an d</w>
th is</w>
l d</w>
qu e</w>
e v
a re</w>
w as</w>
t a
an t</w>
m y</w>
e u
l y</w>
p as</w>
t o
l a</w>
c a
s a
m o
ou t</w>
f or</w>
w e</w>
&apos; s</w>
b e
d o
w ha
no t</w>
g h
c o
s he</w>
p a
e m
th e
g o
wha t</w>
you r</w>
a v
v ous</w>
w a
b e</w>
c h</w>
n &apos;</w>
no w</w>
s e
t s</w>
c om
u n</w>
n e
t er</w>
l es</w>
al l</w>
gh t</w>
u n
c an</w>
h i
s t</w>
s i
c on
p l
on e</w>
p r
d a
ou ld</w>
o t
a b
u r
l &apos;</w>
p ar
re a
it h</w>
v er
w ith</w>
d on</w>
s o
h is</w>
a g
t u</w>
ti on</w>
w ant</w>
li ke</w>
b u
b o
a c
th ing</w>
f i
k now</w>
w or
on s</w>
i r</w>
th er</w>
p p
c i
j &apos;</w>
th in
u s</w>
the y</w>
l l</w>
th ere</w>
an g
t ed</w>
h er</w>
ho w</w>
d e
v i
e x
&apos; m</w>
a i</w>
u ne</w>
qu ot
quot ;</w>
& quot;</w>
en d
p e
hi m</w>
d &apos;</w>
el le</w>
i m
us t</w>
p ro
c ou
e z</w>
s h
g o</w>
f r
da y</w>
I &apos;</w>
e e
a t
di d</w>
ha s</w>
el l</w>
il l</w>
n ous</w>
d on
k ing</w>
eu x</w>
ar y</w>
t er
o d</w>
g i
u r</w>
g et</w>
&apos; re</w>
d é
a m
p la
an s</w>
ti me</w>
ver y</w>
i re</w>
d y</w>
thin k</w>
t re</w>
f o
re s
p er
n o</w>
o k</w>
v o
b i
f or
a u
s p
re d</w>
qu &apos;</w>
n i
w ill</w>
ha d</w>
t es</w>
ev er
l u
c u
e ar
c ho
i f</w>
p u
s om
ev er</w>
an y</w>
w ere</w>
in e</w>
ab out</w>
ou r</w>
f u
t u
p i
m on
h ere</w>
a s
in d</w>
ou r
y s</w>
s o</w>
o p
k s</w>
fr om</w>
wh o</w>
t en
u p</w>
M ary</w>
m ent</w>
e t
d es</w>
don &apos;</w>
b le</w>
al ly</w>
d s</w>
on t</w>
k ed</w>
bu t</w>
a l</w>
di d
g e</w>
t h</w>
i d</w>
mo re</w>
wh ere</w>
g u
j ust</w>
po r
c k</w>
po ur</w>
r y</w>
en d</w>
b y</w>
co me</w>
wh y</w>
c &apos;</w>
s on</w>
f e
l ea
w ould</w>
d is
t al
o f
a is</w>
wh en</w>
su is</w>
ou n
a d
é ta
it e</w>
h el
us e</w>
som e
ha pp
go od</w>
re s</w>
t ing</w>
go ing</w>
on g</w>
m es</w>
m i
an ce</w>
d er</w>
m u
wa y</w>
é e</w>
d ans</w>
a m</w>
pl ea
è re</w>
er s</w>
&apos; ve</w>
ne ed</w>
s el
m ar
a f
c ha
y thing</w>
g s</w>
t y</w>
t ell</w>
n a
is h</w>
c t</w>
a p
&apos; ll</w>
se e</w>
m e
m an</w>
t e
d u</w>
a i
v er</w>
n ever</w>
be en</w>
al l
w i
to o</w>
d er
r en
w e
sh ould</w>
a in</w>
w n</w>
es s</w>
ta ke</w>
t en</w>
mu ch</w>
p en
t em
s es</w>
t ter</w>
ea r</w>
f ri
hel p</w>
s i</w>
qu i</w>
th an</w>
plea se</w>
ç a</w>
t é</w>
c an
pl us</w>
p s</w>
p re
ri ght</w>
on ly</w>
an d
j o
re ally</w>
r é
en ts</w>
c ould</w>
st a
fa ire</w>
did n</w>
v ed</w>
st u
i c
s &apos;</w>
wor k</w>
e y</w>
you &apos;</w>
sel f</w>
re e</w>
il s</w>
y ing</w>
tr u
ou ght</w>
go t</w>
g a
g h</w>
av e
a u</w>
s er
s en
mo i</w>
ne w</w>
is e</w>
f e</w>
ma is</w>
m &apos;</w>
le t</w>
d u
sp ea
o l</w>
t ou
b ea
è s</w>
w an
ha r
éta it</w>
ar ri
oun d</w>
d ev
so me</w>
st o
s or
v ing</w>
t out</w>
c es</w>
m on</w>
il l
m is
tr i
t ea
w r
v es</w>
it y</w>
ave c</w>
s s
av a
fa it</w>
lo o
s ti
ca r</w>
a pp
ag e</w>
t &apos;</w>
es e</w>
ti ons</w>
wh i
rea dy</w>
lo ve</w>
el i
ê tre</w>
ar d</w>
i r
la st</w>
m ust</w>
v en
bo dy</w>
t el
lo t</w>
di f
c e
t om
t le</w>
pro b
ma ke</w>
en ce</w>
some thing</w>
&apos; d</w>
o ther</w>
i e</w>
do es</w>
u m
b a
k es</w>
po ur
am i</w>
tr y</w>
p h
fu l</w>
t w
s ont</w>
m il
it &apos;</w>
b er</w>
g l
n ing</w>
w s</w>
mon ey</w>
l it
gi ve</w>
do es
ch il
m in
b ac
pe op
ou gh</w>
f in
b eli
qu o
peop le</w>
p e</w>
ou v
j our
g ar
d ing</w>
d ed</w>
g r
re n</w>
w ent</w>
ro w</w>
ho me</w>
tr o
t ur
s in
it u
tem ps</w>
su r
c or
quo i</w>
com p
us ed</w>
s ho
v eux</w>
su re</w>
em ent</w>
spea k</w>
sa y</w>
s ed</w>
s cho
lo ok</w>
h e
pr é
bea u
qu el
the m</w>
su r</w>
ro om</w>
an ything</w>
v is
to ld</w>
sa id</w>
s w
rea d</w>
n ed</w>
l d
d r
ni ght</w>
e l</w>
S ami</w>
m a</w>
et te</w>
c el
s s</w>
s le
p res
n er</w>
lit tle</w>
m an
l ong</w>
a tion</w>
g en
eu r</w>
sti ll</w>
lea ve</w>
f ind</w>
bi en</w>
b r
to day</w>
qu es
tal k</w>
scho ol</w>
m any</w>
h ou
fri end</w>
fo re</w>
c lo
be ca
bac k</w>
in s</w>
tw o</w>
gi r
beli e
be fore</w>
ab le</w>
m or
d ent</w>
c r
lu i</w>
la te</w>
end s</w>
ch er</w>
wa ys</w>
w ell</w>
k no
i g
f er
b ro
tr ès</w>
re m
of f</w>
i on</w>
c t
al ways</w>
st ar
il le</w>
th ought</w>
o ld</w>
hou se</w>
fi r
E n
vo ir</w>
can &apos;</w>
ê tes</w>
v ou
tu re</w>
ever ything</w>
c ette</w>
bo ok</w>
un der
t é
ee l</w>
ear s</w>
d es
c k
é té</w>
r s</w>
ma de</w>
le ar
g e
belie ve</w>
re st
p ri
l ang
g re
g er</w>
f t</w>
c he</w>
no thing</w>
happ y</w>
fa ther</w>
En gl
yo ne</w>
sa is</w>
s a</w>
j a
h eu
ch ang
li fe</w>
c ro
u v
or y</w>
k ee
b us
F ren
w ee
lang u
l is
end re</w>
a te</w>
v ot
or row</w>
li ve</w>
f eel</w>
eu t</w>
e at</w>
ag ain</w>
Fren ch</w>
s on
to ok</w>
sle e
l er</w>
in to</w>
cou n
com m
av ez</w>
vot re</w>
c ti
wi th
whi ch</w>
wan ted</w>
ma y</w>
ea s
d it</w>
an y
po n
wa t
v ra
t on</w>
mo st</w>
fir st</w>
en t
c la
al one</w>
did n&apos;</w>
tr ain</w>
ra is</w>
pu t</w>
pa r</w>
h u
a it</w>
th ese</w>
ri ed</w>
it s</w>
ic i</w>
be tter</w>
a way</w>
Engl ish</w>
s ou
do g</w>
does n</w>
o ù</w>
lo w
h om
ea u</w>
chil d
al ready</w>
h ur
en ti
tom orrow</w>
the ir</w>
t ant</w>
jo b</w>
har d</w>
bu y</w>
b l
tr ava
tr ou
c ra
with out</w>
th ree</w>
st and</w>
it é</w>
g la
en ough</w>
com ment</w>
beca use</w>
pour quoi</w>
é r
pa ss
j e
cu l
b or
h ear
d one</w>
s tr
p eux</w>
al i
w on
s m
s eu
b rea
z e</w>
l s</w>
l ar
ja mais</w>
i de
d ea
cho se</w>
é s</w>
u x</w>
su p
m er</w>
le ft</w>
do wn</w>
af ter</w>
m us
pr om
po in
o c
le ment</w>
dif fi
b est</w>
to i</w>
se en</w>
pla ce</w>
o ver</w>
kee p</w>
h ea
ev en</w>
em ber</w>
el y</w>
child ren</w>
as ked</w>
pen se</w>
p t</w>
n u
en s</w>
c er
vi e</w>
cou p</w>
an ts</w>
w in
thin gs</w>
sor ry</w>
na me</w>
is on</w>
dr in
do or</w>
co l
ch e
o b
av o
so l
per son
c le</w>
a im
M ar
we &apos;</w>
w on</w>
u t</w>
t a</w>
sto p</w>
m ind</w>
k en</w>
ide a</w>
ever y</w>
en ed</w>
c ar
par ti
y ears</w>
tea cher</w>
t ous</w>
sa w</w>
prob le
loo king</w>
it ed</w>
el les</w>
J ap
si ble</w>
or s</w>
pla y</w>
o se</w>
m er
le z</w>
g ent</w>
cel a</w>
wa ter</w>
r u
of ten</w>
do ing</w>
con tr
com me</w>
ca me</w>
c ed</w>
bus y</w>
bo o
be ing</w>
par ents</w>
es sa
l on
es s
c ri
w al
under stand</w>
ti mes</w>
p eut</w>
m é
h ed</w>
ever y
wee k</w>
im ent</w>
fa mil
e y
d em
av ons</w>
ld n</w>
y ed</w>
s is
ra id</w>
m s</w>
lo st</w>
jour s</w>
gre at</w>
es ter
ca l</w>
beau coup</w>
af raid</w>
vra iment</w>
e f
d in
b es
you n
p er</w>
ne x
di re</w>
c re
y ester
yester day</w>
wan ts</w>
wa s
u gh
rem ember</w>
nex t</w>
mo ther</w>
it ing</w>
c all</w>
wor ld</w>
ang er</w>
m ê
is s
is n</w>
i c</w>
w om
m y
k new</w>
in te
f ound</w>
ct or</w>
co ld</w>
c en
ba d</w>
an k</w>
ai me</w>
si on</w>
si de</w>
se z</w>
s em
par t</w>
ma g
e u</w>
ava it</w>
s k
po uv
itu re</w>
im por
tro p</w>
j us
eas y</w>
b li
C h
ti ve</w>
la is</w>
B o
v ais</w>
qu es</w>
pr endre</w>
d ri
all er</w>
t ly</w>
quel que</w>
po li
ph one</w>
mê me</w>
me et</w>
diffi cul
c ted</w>
be g
b ed</w>
o in</w>
ma l</w>
m ine</w>
i ght</w>
ever yone</w>
d res
youn g</w>
v re</w>
s ha
ri en</w>
fa st</w>
b ot
wr ong</w>
wor d</w>
w ho
tur n</w>
tru th</w>
slee p</w>
s mo
por t</w>
mar ried</w>
lo w</w>
in ten
fe w</w>
ear ly</w>
com ing</w>
ch ing</w>
c all
avo ir</w>
qu and</w>
our s</w>
g ra
v a</w>
th at
that &apos;</w>
ha b
en f
F r
y et</w>
w ar
th ose</w>
ter s</w>
t in
sta y</w>
sm all</w>
ma in</w>
le tter</w>
l ing</w>
kno ws</w>
j ou
h ear</w>
fa r</w>
drin k</w>
do ctor</w>
co re</w>
c ked</w>
boo ks</w>
ar ound</w>
an other</w>
ac ci
v en</w>
ta ble</w>
b la
an s
ques tion</w>
n ouv
mon de</w>
m p
he &apos;</w>
dé j
d eux</w>
w ea
v a
un i
tal king</w>
ta in</w>
ra it</w>
pl an</w>
pa y</w>
o l
is t</w>
is ed</w>
inte rest
fo is</w>
every body</w>
en core</w>
c are</w>
y er</w>
y ear</w>
u re</w>
u e</w>
su c
par ler</w>
k ind</w>
c tion</w>
bes oin</w>
n um
m et</w>
le ur</w>
c l
you r
v e
tur ned</w>
tru e</w>
sin ce</w>
s how</w>
ra in</w>
pos sible</w>
par ty</w>
p ho
on ce</w>
my self</w>
mor ning</w>
m ing</w>
k e
ha ving</w>
h un
c lea
at ten
as k</w>
s se</w>
r ê
r is
l à</w>
ch i
é es</w>
sur pr
som mes</w>
ques tions</w>
person ne</w>
l è
b re</w>
acci dent</w>
éta is</w>
wat ch</w>
us si</w>
ti red</w>
t on
st on</w>
s ing</w>
s hi
pu is</w>
ni ce</w>
lear n</w>
it es</w>
ill ed</w>
il y</w>
ho pe</w>
happ ened</w>
happ en</w>
b ar
arri ve</w>
any more</w>
Bo ston</w>
qu i
p ère</w>
l é
hom me</w>
d ro
an te</w>
stu d
s ci
li ves</w>
i ent</w>
e b
au x</w>
whi le</w>
tr a
tou jours</w>
s pe
proble m</w>
pre t
pp ed</w>
pe u</w>
pa ti
n é</w>
in gs</w>
i es</w>
g et
fo l
fe el
ex ac
em s</w>
da ys</w>
coun try</w>
ti on
qu el</w>
pl an
min u
famil y</w>
d ou
ang e</w>
ag es</w>
v u</w>
comp le
cha r
c i</w>
a ir</w>
I n
your self</w>
su ch</w>
sa me</w>
s al
re ux</w>
pr ès</w>
ne e
m self</w>
loo ks</w>
li kes</w>
is hed</w>
hi mself</w>
ga ve</w>
f ree</w>
qu elle</w>
per son</w>
h on
gir l</w>
f fe
do is</w>
cor re
ch ez</w>
bu s</w>
b on</w>
b on
ar gent</w>
Mar ie</w>
p le
l un
in v
in d
fa v
c at</w>
av ant</w>
î t</w>
wr ite</w>
wa it</w>
to ge
toge ther</w>
ti l</w>
se cre
s po
pe ct</w>
pa in
p ing</w>
of fi
mis s</w>
me di
ma kes</w>
le t
langu age</w>
fri ends</w>
fr an
de ci
c us
c rea
beau ti
b all</w>
a ussi</w>
Fr ance</w>
ê te</w>
s ent</w>
pi c
ou t
o th
n er
ma ison</w>
does n&apos;</w>
a in
vi ce</w>
re gar
m ee
it al</w>
c er</w>
w ard</w>
th r
sup pos
star ted</w>
some one</w>
so it</w>
mi ght</w>
l ess</w>
j u
impor tant</w>
h is
get ting</w>
f il
chil d</w>
call ed</w>
ca tion</w>
ca re
bi g</w>
b ought</w>
a d</w>
pro f
por te</w>
no body</w>
h an
f er</w>
con si
c ent</w>
av ais</w>
au t
é ri
vo iture</w>
sen ten
no tre</w>
la it</w>
g g
d d
cou r
bi r
win do
un til</w>
trava il</w>
tr ans
stu dy</w>
se ems</w>
se e
rea ding</w>
n ée</w>
li ght</w>
in ed</w>
f un</w>
dres s</w>
difficul t</w>
dif fer
chang e</w>
can not</w>
beauti ful</w>
b it</w>
an yone</w>
a y
wom an</w>
wha t&apos;</w>
re t
pr is</w>
in ter
ch es</w>
bro ther</w>
au tre</w>
D an</w>
y &apos;</w>
vo y
ven ir</w>
re f
poin t</w>
p lo
mee ting</w>
ma inten
ho t</w>
ô t</w>
wor king</w>
wa iting</w>
un der</w>
st e
si ck</w>
sem ble</w>
s et</w>
re z</w>
re st</w>
n ess</w>
mainten ant</w>
ma tter</w>
hear d</w>
he al
h ours</w>
ea ch</w>
c y</w>
c y
an sw
G er
v ent</w>
sh ou
s ans</w>
res pon
r ent</w>
pl u
ou s
m en
m al
i ons</w>
din ner</w>
ch ance</w>
c ur
te l</w>
sis ter</w>
s y
po pu
oc cu
ma ti
déj à</w>
con na
bo y</w>
z y</w>
tr ying</w>
tel y</w>
st ory</w>
ri ch</w>
op in
op en</w>
o wn</w>
m om
i ce</w>
ha te</w>
h and</w>
gir ls</w>
fo od</w>
fin ished</w>
ffe e</w>
f ish</w>
f el
ey es</w>
en ing</w>
di ed</w>
cu t</w>
co ffee</w>
ch ed</w>
T a
o k
jour d&apos;</w>
in for
hu i</w>
fa ce</w>
ch an
au jourd&apos;</w>
tem ent</w>
r ou
offi ce</w>
in es</w>
ig no
h and
fa ut</w>
tri ed</w>
to eb
toeb a</w>
ti s
th ir
sw im
st s</w>
so on</w>
s tru
pro du
pret ty</w>
pa in</w>
p end
num ber</w>
m mer</w>
li ving</w>
li ved</w>
hear t</w>
hea d</w>
ha ir</w>
h er
gla d</w>
for get</w>
fi ve</w>
er ais</w>
el se</w>
da ugh
ci le</w>
bot h</w>
at ely</w>
an ese</w>
al most</w>
a ren</w>
Ta toeba</w>
Jap anese</w>
Jap an</w>
é tu
wi fe</w>
ur ant</w>
t it</w>
prob ab
o u</w>
j our</w>
g ro
en g
ea n</w>
dem and
com bien</w>
c is
w er</w>
t un
suc c
si mp
sh e
pr in
pla ît</w>
mom ent</w>
m ed</w>
i gh
ex per
ex c
der ni
d or
bu t
bor n</w>
b ou
ag er</w>
ad m
P ar
wea ther</w>
w ish</w>
vi e
thin king</w>
ta kes</w>
sen se</w>
r a</w>
pa per</w>
p ra
kno wn</w>
hur t</w>
heu res</w>
fel t</w>
cti on
bi cy
ar ti
answ er</w>
ad vice</w>
T V</w>
0 0</w>
vi r
u p
tou tes</w>
s ses</w>
pi an
p le</w>
opin ion</w>
mil k</w>
ld n&apos;</w>
gr and</w>
ar rê
we en</w>
us u
t end
su l
ha l
fu ture</w>
enf ants</w>
b ur
b les</w>
au c
an i
a w
a r</w>
a po
é co
éco le</w>
wr it
wal k</w>
vis it</w>
uni ver
thr ough</w>
th en</w>
t ent</w>
swim ming</w>
su b
sta tion</w>
sa it</w>
s é</w>
re ci
ra i</w>
prom ise</w>
popu la
ne c
n is</w>
h ind</w>
f em
f ell</w>
d ar
cou ldn</w>
comp any</w>
cla ss</w>
care ful</w>
brea k</w>
bla ck</w>
be hind</w>
be come</w>
atten tion</w>
arri ved</w>
ang ry</w>
an de</w>
ai de</w>
ag o</w>
A mer
w ou
tr ouv
ter min
stu pi
seu l</w>
s itu
n es</w>
n at
ma tion</w>
li vre</w>
is n&apos;</w>
in té
gr and
aim erais</w>
A n
étu di
vo l
u ti
tou te</w>
t est</w>
sta urant</w>
si ve</w>
si g
she &apos;</w>
ri ez</w>
re staurant</w>
prob lè
n y</w>
minu tes</w>
lo gi
is se</w>
h or
fav or
d ra
d en
be t
b lo
b il
arri v
ç on</w>
ç ais</w>
z ed</w>
wor ry</w>
wor ks</w>
wor ds</w>
won der</w>
won &apos;</w>
who le</w>
w ine</w>
ur s</w>
u ght</w>
tri p</w>
ton ight</w>
ti c</w>
t ôt</w>
surpr ised</w>
stud ents</w>
sto re</w>
si x</w>
ro ad</w>
r un
qu ite</w>
poli ce</w>
pe ti
p an
oth ers</w>
o t</w>
ne ws</w>
l or
k illed</w>
interest ed</w>
i ous</w>
hi gh</w>
hi er</w>
gu ess</w>
ga me</w>
fo re
f low
exper i
exac tly</w>
en jo
dé e</w>
do l
deci ded</w>
de main</w>
d ang
com es</w>
ce p
bu il
bon ne</w>
bet ween</w>
ain st</w>
ag ainst</w>
a près</w>
a ch
u l
tr av
situ ation</w>
se con
pass é</w>
lu tion</w>
lor s
k i
k ey</w>
ha ven</w>
fi gu
e ts</w>
di re
c et</w>
w ing</w>
v il
us tr
t ez</w>
s û
s é
pre mi
pe tit</w>
p un
ob je
li e</w>
k et</w>
jus te</w>
d é</w>
con cer
chi en</w>
ch é</w>
b ri
ang lais</w>
ac cor
you rs</w>
windo w</w>
wat ching</w>
vi ens</w>
v é
us h</w>
to wn</w>
ter ri
t ch</w>
smo king</w>
sin g
sa v
ren contr
re ment</w>
re &apos;</w>
r un</w>
pu bli
pro pos
pian o</w>
p ed</w>
or der</w>
nec ess
lon ger</w>
la ugh
k is
hur ry</w>
han ds</w>
g é
fu t</w>
fran çais</w>
f is
dea th</w>
daugh ter</w>
co st</w>
clea r</w>
ck y</w>
c tu
c ity</w>
beca me</w>
ap poin
al s</w>
M r</w>
A l
th y</w>
secre t</w>
pa g
mi eux</w>
gu e</w>
ex am
cou ra
corre ct</w>
clo se</w>
ck et</w>
cha m
c s</w>
c in
b ra
a de</w>
y es</w>
was n</w>
w o
us es</w>
tro is</w>
s il
pouv ez</w>
po u
pho to</w>
o ver
nu it</w>
mus i
li es</w>
lar ge</w>
l l
infor mation</w>
ha s
fi re</w>
ch er
ai der</w>
J o
y be</w>
wi m</w>
to p</w>
th ank</w>
tel ling</w>
tel li
su mmer</w>
star t</w>
sp end</w>
some times</w>
sho t</w>
shi r
sh or
s wim</w>
re ly</w>
ra pp
po or</w>
par le</w>
pa st</w>
occu p
o ds</w>
no on</w>
n on</w>
mus ic</w>
ma ybe</w>
ma king</w>
lu cky</w>
loo ked</w>
le t&apos;</w>
langu ages</w>
l friend</w>
in telli
heal th</w>
gir lfriend</w>
g y</w>
fi ed</w>
fi c</w>
f on
el e
dar k</w>
cti ve</w>
cra zy</w>
con du
comm en
com pu
ci al</w>
c al
bicy cle</w>
be er</w>
b ab
as sez</w>
app reci
any body</w>
ag ree</w>
Par is</w>
Ch ris
té lé
ten nis</w>
t y
stu dent</w>
seu le</w>
sci enti
pi e
l é</w>
i mag
gen s</w>
eu rs</w>
dis pos
d û</w>
b at
app el
t es
se ma
p eur</w>
mo ins</w>
lo se</w>
in st
ic k
i a</w>
ho sp
h um
g es</w>
fem me</w>
f ro
f our</w>
f lo
f ille</w>
en tr
en ne</w>
e i
ca ts</w>
b re
al is
E u
A ustr
. .</w>
œ ur</w>
writ ten</w>
wh e
thin ks</w>
th s</w>
ta ken</w>
t or
st and
slee ping</w>
shir t</w>
sa ying</w>
ra ther</w>
probab ly</w>
pla ying</w>
ous ly</w>
n s</w>
n ear</w>
mo vie</w>
lun ch</w>
low ed</w>
lis ten</w>
lea ving</w>
la ter</w>
in ing</w>
hun g
hung ry</w>
hosp ital</w>
ho tel</w>
hea v
hal f</w>
ga r</w>
favor ite</w>
fa i
f ine</w>
end u</w>
en ty</w>
en &apos;</w>
eas ily</w>
ea ting</w>
de red</w>
d rea
d ly</w>
d is</w>
d enti
cho ses</w>
ce i
ca ught</w>
ca p
ca ke</w>
b and</w>
al so</w>
M on
E ar
Amer ic
2 0
v eut</w>
su i
so ir</w>
quel qu&apos;</w>
pré f
ou bli
nouv eau</w>
m ère</w>
m et
in t</w>
fa is</w>
f lu
f en
de puis</w>
cer ta
bab y</w>
ac tu
vou lez</w>
vou lais</w>
vo s</w>
ver s</w>
v an
trou ble</w>
the re&apos;</w>
th er
t ance</w>
st e</w>
sa voir</w>
quel ques</w>
pré ci
pen sais</w>
mi li
li re</w>
le v
is es</w>
i dée</w>
heu re</w>
ex p
ef for
do it</w>
di e</w>
d re</w>
d ance</w>
ce ci</w>
c ts</w>
c li
O h</w>
L ay
Eu ro
. ..</w>
who se</w>
wha t
was h</w>
wa ke</w>
un k</w>
the y&apos;</w>
th es</w>
ter noon</w>
tea m</w>
ta king</w>
su gar</w>
sto od</w>
sta yed</w>
st er</w>
spea king</w>
sa fe</w>
s us
s li
rea l</w>
re ali
proble ms</w>
pp ing</w>
parti r</w>
op ened</w>
no r
mon th</w>
mis take</w>
m en</w>
m anger</w>
lear ned</w>
lea st</w>
la ge</w>
l ed</w>
ke pt</w>
k fast</w>
it ted</w>
in ess</w>
im pres
im medi
il ed</w>
fr u
for got</w>
feel ing</w>
f all
experi ence</w>
ex pen
ex pe
e g
dé sol
differ ent</w>
compu ter</w>
comple tely</w>
co at</w>
clo thes</w>
clo ck</w>
cho ice</w>
ch em
ca ted</w>
c ks</w>
brea kfast</w>
bo ys</w>
ar t</w>
appreci ate</w>
an g</w>
Ger man</w>
v ér
v eu
v al
trou ve</w>
ta x
ta l</w>
s qu
pend ant</w>
no m
n et</w>
m ents</w>
la iss
heu reux</w>
ha t</w>
en ces</w>
con se
con n
bar ra
Lay la</w>
Jo h
G od</w>
1 0</w>
ti r</w>
ta ge</w>
t re
t our
simp lement</w>
s it</w>
s er</w>
ra l</w>
n é
n om</w>
mar i
lar s</w>
j eu
i di
f it</w>
em plo
dol lars</w>
demand é</w>
d ge</w>
cro is</w>
cou rs</w>
au rais</w>
ac c
a ire</w>
Ch in
y ez</w>
wom en</w>
what ever</w>
w ro
wro te</w>
w ed</w>
vil lage</w>
trava ill
tou ch</w>
th day</w>
t ex
stupi d</w>
str ong</w>
spe e
smo ke</w>
sle pt</w>
sh ed</w>
senten ce</w>
sema ine</w>
sa tis
s ouv
s mar
publi c</w>
pres ent</w>
pre fer</w>
pr ê
pla in</w>
pic ture</w>
pan ish</w>
nee ded</w>
necess ary</w>
mar ry</w>
m ous</w>
m oun
m ou
li ked</w>
le gs</w>
l o</w>
l ine</w>
ke ys</w>
k o</w>
je ct</w>
ir s</w>
inv ited</w>
in side</w>
il les</w>
hab itu
h our</w>
go t
gla sses</w>
gen er
g one</w>
flow ers</w>
flo or</w>
f ur
f la
ei ther</w>
ear ing</w>
e f</w>
dri ve</w>
dif f
di ction
dev rais</w>
dea l</w>
dea d</w>
dang er
cou ple</w>
co ok</w>
clea n</w>
chang ed</w>
ca se</w>
c é</w>
bro ke</w>
bo x</w>
bir thday</w>
beg an</w>
aut res</w>
af ternoon</w>
ad vis
S panish</w>
Ear th</w>
1 9
vi v
tea u</w>
souv ent</w>
s ons</w>
n a</w>
fa ites</w>
el s</w>
dor m
da te</w>
che ter</w>
at ta
an e</w>
all é</w>
a cheter</w>
Austr ali
wou ldn</w>
vra i</w>
to ire</w>
ti es</w>
suppos e</w>
su n
si dent</w>
re li
problè me</w>
pi è
pati ent</w>
par a
p é
p u</w>
on es</w>
me il
le urs</w>
l and</w>
h it</w>
g er
en tre</w>
d i</w>
ci r
c lu
N o
whe ther</w>
wal ked</w>
w in</w>
w earing</w>
vi de
ven u</w>
v in
us ing</w>
us band</w>
tu res</w>
trouv é</w>
tal ked</w>
suppos ed</w>
su n</w>
stand ing</w>
ss ed</w>
spo ke</w>
sp i
sho es</w>
senten ces</w>
sen s</w>
see m</w>
se a</w>
sa vais</w>
sa u
s pr
s ity</w>
run ning</w>
ri ver</w>
re la
pla yed</w>
pa ys</w>
oun ds</w>
ou d</w>
on er</w>
nee ds</w>
low ing</w>
lo ved</w>
lis ten
li br
lear ning</w>
l es
l ent</w>
ki ds</w>
k ill</w>
jus qu&apos;</w>
j et</w>
it er</w>
inté res
interest ing</w>
immedi ately</w>
heav y</w>
h usband</w>
gla ss</w>
gi ven</w>
g rea
fru it</w>
for ward</w>
feel ings</w>
fe ct</w>
fa ct</w>
expen sive</w>
ev ening</w>
et y</w>
enjo y</w>
ea ten</w>
derni ère</w>
danger ous</w>
d anger</w>
cu te</w>
cr u
con f
ci ous</w>
ca tch</w>
br ing</w>
beli ev
b ill</w>
an ces</w>
ac t</w>
In ter
I tal
éta ient</w>
y é</w>
ver n
t res</w>
secon d</w>
ret ard</w>
ra di
pr ise</w>
par t
pa ce</w>
mor t</w>
let tre</w>
l it</w>
ind re</w>
ga z
ex is
en n
em barra
dev ons</w>
cham bre</w>
cha t</w>
b as
b an
a th
a do
Joh n</w>
3 0</w>
é g
z z
y o</w>
v ite</w>
uti lis
tion al</w>
ti cket</w>
su f
star s</w>
sor tir</w>
so lu
ré pon
ri r</w>
ri de</w>
r um
qu er</w>
pr ends</w>
po l
pho to
peti te</w>
per du</w>
pa s
p ê
p es</w>
ok yo</w>
ma gaz
m is</w>
m em
m as</w>
famil le</w>
fa is
fa cile</w>
et é</w>
er re</w>
con tri
ca use</w>
c le
c ine</w>
ar ro
ap préci
ac cep
U n
T okyo</w>
é cr
y eux</w>
wr iting</w>
wor ked</w>
won der
v ille</w>
um bre
the ory</w>
tea ch</w>
t ree</w>
t rea
t ory</w>
t mas</w>
t ee
t ears</w>
stud ying</w>
str ange</w>
st y</w>
st ai
stai rs</w>
spea ks</w>
smar t</w>
shor t</w>
sha ll</w>
ser a</w>
sen ti
see ing</w>
s ound</w>
s now</w>
s end</w>
reali ze</w>
rea son</w>
re co
re cei
qu ick
quick ly</w>
pra cti
por ter</w>
pla ys</w>
par k</w>
p en</w>
out side</w>
o w
o per
no s</w>
ne igh
n on
moun tain</w>
ma t
m it</w>
m ang
libr ary</w>
le e
k ni
jo in</w>
ir re
intelli gent</w>
in vol
i an</w>
ho od</w>
his tory</w>
hi gh
h y
h ors</w>
gu ys</w>
go es</w>
gh ts</w>
ge ts</w>
g res
g ed</w>
fin ish</w>
fa mous</w>
f un
f l
ey e</w>
ex ist</w>
ent ly</w>
end ed</w>
effor ts</w>
dr unk</w>
des er
cr ying</w>
com for
clo sed</w>
che ck</w>
buil ding</w>
bro ken</w>
beg in
b ly</w>
ar en&apos;</w>
appoin ted</w>
ad dress</w>
a re
S un
N e
Chris tmas</w>
è rent</w>
vér ité</w>
v res</w>
u m</w>
trou ver</w>
to il
th é
ta ils</w>
t ard</w>
s ous</w>
res pect</w>
ra ison</w>
ne z</w>
ne l</w>
ma uv
i de</w>
fr ont</w>
exc use</w>
don ne</w>
dev en
d an
con tre</w>
con di
cis ion</w>
b al
auc un</w>
ab o
é tr
voy age</w>
tr er</w>
th i
ta tion</w>
t une</w>
st at
s and
sand wi
re use</w>
qui et</w>
poli ti
po us
ne t
nat u
n ers</w>
man i
m essa
l u</w>
k er</w>
igno re</w>
i tion</w>
i ez</w>
g am
f f
ent re
d ur
ap prendre</w>
al lez</w>
ai ent</w>
ac ro
A h</w>
é cou
è res</w>
win ter</w>
wee k
week end</w>
w el
w ear</w>
vie w</w>
vi vre</w>
vi ent</w>
vi end
v ue</w>
usu ally</w>
usu al</w>
us ted</w>
us hed</w>
under stood</w>
un for
umbre l
umbrel la</w>
trans la
tr af
traf fic</w>
tel ev
telev is
televis ion</w>
st re
spr ing</w>
some where</w>
sol ve</w>
so oner</w>
sing le</w>
si ght</w>
si bil
sho p</w>
seu lement</w>
s ever
re pa
r an</w>
pro ve</w>
pro cha
pri ce</w>
pour rais</w>
pos t</w>
popula r</w>
plea sed</w>
pen ses</w>
pa sse</w>
pa red</w>
or ity</w>
ol der</w>
o we</w>
ner vous</w>
n one</w>
mé di
mar ket</w>
m ean</w>
m ea
lors que</w>
lo in</w>
la r</w>
kis s</w>
jeu ne</w>
is sez</w>
ho ld</w>
his toire</w>
her self</w>
h ô
got ten</w>
gi ves</w>
g un</w>
g ag
fu ll</w>
fu ck</w>
fil m</w>
figu red</w>
fa ul
f at</w>
ex plo
ex pect</w>
es se</w>
end ing</w>
ear th</w>
déj eu
dri ving</w>
dis co
diffi cile</w>
diction ary</w>
d ence</w>
d en</w>
d ding</w>
cu p</w>
cu is
coura ge</w>
cour se</w>
cou ldn&apos;</w>
consi der</w>
comple te</w>
com pla
col le
char ge</w>
cha u
cer tain</w>
car ry</w>
c é
blo od</w>
bi ke</w>
ba g</w>
b er
at t
arro g
arriv é</w>
apo logi
an ks</w>
al lowed</w>
al ity</w>
ag re
advis ed</w>
actu ally</w>
ab solu
ab sent</w>
ab road</w>
M i
J ane</w>
é ren
un cle</w>
tro du
terri ble</w>
t eur</w>
sy m
sor t</w>
so is</w>
si on
ro ck</w>
pour rait</w>
piè ce</w>
or i
n our
m p</w>
li vres</w>
langu e</w>
la isse</w>
k in
jour née</w>
in trodu
im possible</w>
idi ot</w>
has n</w>
gr ou
gar çon</w>
dé ci
don t</w>
don né</w>
de z</w>
cro ire</w>
cl us
ch ev
b é
auc une</w>
at tr
app ro
al ement</w>
Ne w</w>
M o
î ner</w>
é cri
vi ol
vi es</w>
ver sa
ven &apos;</w>
u i</w>
u es</w>
trava ille</w>
ti e</w>
ti ce</w>
tax i</w>
t ête</w>
su it</w>
st or
so ci
se ig
s ite</w>
s an
re w</w>
radi o</w>
qu a
par ce</w>
mé de
mo t</w>
mis sion</w>
in stru
in er</w>
ill é</w>
i res</w>
ha ven&apos;</w>
fro id</w>
fil les</w>
fa mili
f ête</w>
f all</w>
en vir
do gs</w>
conn ais</w>
co û
cel ui</w>
c ard</w>
bo y
b lu
b et</w>
b el
au tant</w>
arrê ter</w>
an im
ach eté</w>
a y</w>
a k
S ta
O K</w>
Inter net</w>
è te</w>
è me</w>
y si
wor th</w>
wor se</w>
wi ce</w>
vide o</w>
vern ment</w>
va cation</w>
v el</w>
v as</w>
v ac
tr ust</w>
tr ave
trave l</w>
thir ty</w>
th ea
t wice</w>
sû r</w>
su gg
spo ken</w>
spee ch</w>
so f
sig n</w>
shou ldn</w>
ser ious</w>
se at</w>
satis fied</w>
s pace</w>
s ong</w>
s low</w>
s k</w>
s har
s h</w>
s ca
re turn</w>
re sul
r ing</w>
qu é</w>
pun ctu
pré sen
prof ess
pre pared</w>
pos t
po ol</w>
po n</w>
pla y
pie ce</w>
ph ysi
pen sé</w>
pati ence</w>
pa ss</w>
p eu
or din
om &apos;</w>
o king</w>
nouv elle</w>
nour r
n ant</w>
mo ved</w>
mo ve</w>
mis takes</w>
mis sed</w>
minu te</w>
met tre</w>
messa ge</w>
mati n</w>
ma te</w>
m n</w>
lu ck</w>
li k
les son</w>
lee p</w>
l ly</w>
k it
kit ch
kitch en</w>
invol ved</w>
i ously</w>
hu man</w>
har dly</w>
ha med</w>
go vernment</w>
g ni
fu lly</w>
fri end
fol low</w>
fin ally</w>
expe cted</w>
ex pres
ex er
er gy</w>
enf ant</w>
en seig
en e
eg gs</w>
ee p</w>
désol é</w>
dé tes
dur ing</w>
dou ble</w>
dis appointed</w>
di pl
dem ande</w>
de termin
d om</w>
d eli
coun t</w>
consi dered</w>
con fi
comp li
comfor table</w>
com prendre</w>
co oking</w>
cha que</w>
ce pt</w>
car s</w>
ca f
c ry</w>
bus iness</w>
bl an
b read</w>
b b
av an
at ing</w>
as leep</w>
as hamed</w>
app le</w>
ado re</w>
adm ire</w>
ad van
acro ss</w>
acc used</w>
a le</w>
a di
Un ited</w>
T om&apos;</w>
Sun day</w>
S m
Mon day</w>
Chin ese</w>
Australi a</w>
Americ a</w>
écr it</w>
wh ite</w>
was n&apos;</w>
vou lait</w>
télé phone</w>
ta it</w>
so yez</w>
rou ge</w>
ri ons</w>
re qu
re gre
qu it
pri e</w>
premi er</w>
pe ine</w>
or k</w>
nourr iture</w>
méde c
médec in</w>
lors qu&apos;</w>
lon g
long temps</w>
is su
in no
gu y</w>
gra tu
fr ère</w>
for t</w>
fin i</w>
figu re</w>
er re
ent endu</w>
en semble</w>
déjeu ner</w>
di x</w>
dev rait</w>
d ites</w>
con ten
con om
con cen
co ol</w>
bea u</w>
at tend
as su
ani mal</w>
am ou
a tions</w>
a ise</w>
Y ork</w>
E s
é li
we ren</w>
vou d
tri es</w>
travaill er</w>
ti v
t ar
st an
sav ez</w>
s la
r é</w>
qu it</w>
prof es
pro te
pres que</w>
premi ère</w>
pr on
pouv ons</w>
po is
p ends</w>
p ea
ma j
ma ge</w>
m el
li cen
jou e</w>
in di
il o
il lez</w>
i x</w>
i m</w>
habitu de</w>
gr ande</w>
for tune</w>
fo ot
essa yer</w>
détes te</w>
da d</w>
d el
cou ver
con stru
col ère</w>
bu l
bro wn</w>
b é</w>
au th
al ong</w>
accor d</w>
J apo
D i
y e</w>
windo ws</w>
we ight</w>
war ned</w>
w s
ws paper</w>
w ise</w>
vo is</w>
vis ited</w>
us si
up stairs</w>
unfor tun
unfortun ately</w>
ty pe</w>
trav el
ti n</w>
thir sty</w>
th qua
th ous
th anks</w>
ter re</w>
tee th</w>
te red</w>
te en</w>
te a</w>
ta sk</w>
t rem
t all</w>
succ ess</w>
succ ee
succee ded</w>
su res</w>
su jet</w>
su dd
squ irre
sp ent</w>
sol di
sk y</w>
sil ent</w>
sibil ity</w>
sho wer</w>
shi p</w>
sh y</w>
sh ut</w>
ser iously</w>
ser ait</w>
sca red</w>
s œur</w>
s ounds</w>
s cen
ru de</w>
ri day</w>
respon sible</w>
reco gni
recei ved</w>
rea u</w>
rea ch</w>
re port</w>
ra ining</w>
pro p
pr it</w>
plu tôt</w>
pl enty</w>
pass ed</w>
pain ting</w>
pain ted</w>
pa id</w>
p ly</w>
p is
om a
ob li
no vel</w>
ne wspaper</w>
natu ral</w>
nat ure</w>
mus eu
mo is</w>
meil leur</w>
medi cine</w>
me ans</w>
lo ves</w>
lo ss</w>
lik ely</w>
let ters</w>
laugh ing</w>
la w</w>
k ers</w>
ju red</w>
jou er</w>
in k</w>
in jured</w>
in crea
in ation</w>
ill s</w>
i ti
hur ried</w>
hun d
hel ped</w>
hel d</w>
h ing</w>
gu es
grea test</w>
gen i
gar den</w>
g é</w>
g row</w>
fun ny</w>
for m</w>
for give</w>
fol lowing</w>
fis hing</w>
fi x</w>
fe et</w>
famili ar</w>
fa ti
f s</w>
f illed</w>
ex plain</w>
es ca
er a</w>
ene my</w>
en ergy</w>
ear thqua
e qu
dres sed</w>
dou b
dis tance</w>
differ ence</w>
de tails</w>
de pends</w>
de cision</w>
dd le</w>
d îner</w>
cus tom
ct ly</w>
com mon</w>
co sts</w>
ck ets</w>
ci an</w>
cho ose</w>
chev eux</w>
ch ur
caf é</w>
c ting</w>
c king</w>
c eux</w>
bu reau</w>
br ought</w>
boy friend</w>
bot tle</w>
blu e</w>
bl ess
begin ning</w>
bea ch</w>
avo id</w>
arti cle</w>
are a</w>
anim als</w>
all ons</w>
al ter
accor ding</w>
a wake</w>
U ni
Sm ith</w>
Japo n</w>
J u
F riday</w>
A p
z o
zo o</w>
tel lement</w>
ta b
t our</w>
su per
sk i
sci ence</w>
s our
res pe
re g
r om
prê t</w>
pa le</w>
or g
occup é</w>
na tive</w>
n ager</w>
magaz ine</w>
lo ts</w>
le m
laiss er</w>
l y
j am
inten tion</w>
inst ant</w>
inno cent</w>
fati gu
f re
es père</w>
er ai</w>
envir on
ef fe
di v
concer t</w>
com pl
c tions</w>
c ré
b es</w>
b elle</w>
b ag
avan tage</w>
an to</w>
am ie</w>
a ma
S e
Euro pe</w>
C an
écri re</w>
vis ion</w>
v it</w>
tr om
t ée</w>
t an
simp le</w>
si ons</w>
ser v
ser ai</w>
secre ts</w>
san té</w>
sa ge</w>
s por
regar der</w>
regar de</w>
ra te</w>
ra c
r end</w>
préf ér
pou voir</w>
plu ie</w>
ph ra
pass er</w>
parti e</w>
pag ne</w>
p y
oubli é</w>
ou i</w>
o ir</w>
o d
no ir</w>
neigh bor
na tional</w>
n i</w>
man ager</w>
mal ade</w>
li eu</w>
is ir</w>
im médi
fu mer</w>
f in</w>
f ils</w>
exer c
ex ha
enn ent</w>
en nu
du e</w>
de hors</w>
d a</w>
cri ti
contri but
con tin
comp te</w>
co pi
chem in</w>
ca pa
c œur</w>
c ta
c il
c ess</w>
c em
b le
ar i
app elle</w>
ab an
B ra
yo ns</w>
wor st</w>
wor ried</w>
wonder ful</w>
wo re</w>
wee ks</w>
we dding</w>
wat ched</w>
war m</w>
wa ste</w>
wa r</w>
w yer</w>
vé lo</w>
vo lun
vi eux</w>
veu illez</w>
ve red</w>
v in</w>
us ting</w>
up set</w>
univer sity</w>
univer se</w>
under standing</w>
un ion</w>
trea ted</w>
tre es</w>
trans late</w>
tr a</w>
tou ched</w>
to ys</w>
thea ter</w>
th rew</w>
ten ce</w>
tem p
tel e
tele phone</w>
tal ler</w>
tal ks</w>
ta bles</w>
t or</w>
t ment</w>
t les</w>
sur viv
stre et</w>
sto pped</w>
ste m</w>
star ting</w>
ss ing</w>
sou l</w>
so ld</w>
sin gs</w>
sin ger</w>
si ze</w>
sh eep</w>
sever al</w>
ser ved</w>
sel ves</w>
se ar
scen e</w>
sa ys</w>
s éri
s mil
s ell</w>
s co
s ant</w>
run s</w>
ru les</w>
rest er</w>
res our
ref used</w>
rea sons</w>
re mon
ra pi
ra is
r or</w>
r endre</w>
qu at
punctu al</w>
pu isse</w>
prote ct</w>
prom ises</w>
problè mes</w>
pro per
pro ject</w>
pri x</w>
pri v
pri ces</w>
pr u
pr en
por tun
po wer</w>
po s</w>
plan et</w>
pic tures</w>
per ha
perha ps</w>
per fect</w>
p y</w>
ou ver
op portun
ni fi
museu m</w>
mon ths</w>
mo vies</w>
mi le</w>
mem ory</w>
me ant</w>
mat ters</w>
mani ère</w>
man u
mag as
ma ins</w>
ma il</w>
m om</w>
lo ws</w>
lo gy</w>
listen ing</w>
lis t</w>
licen se</w>
lea ves</w>
le g</w>
le g
laugh ed</w>
langu es</w>
laiss é</w>
la zy</w>
la wyer</w>
la quelle</w>
la ke</w>
l ons</w>
l end</w>
l en
l d&apos;</w>
kni fe</w>
kis sed</w>
kin ds</w>
kee ps</w>
it ting</w>
in ven
impres sed</w>
impor te</w>
imag ine</w>
ill ing</w>
il ing</w>
ic ken</w>
hund red</w>
hor ri
hon est</w>
hom e
home work</w>
hi de</w>
heal thy</w>
happ ening</w>
hand le</w>
hab ite</w>
gé ni
gro wing</w>
grand father</w>
gr ound</w>
gam es</w>
g ing</w>
g ho
fore ig
for ced</w>
fo ods</w>
fi ght</w>
fa ster</w>
fa iled</w>
f ly</w>
f ear</w>
exerc ise</w>
ev i
es ti
es p
er y</w>
entre prise</w>
embarra ssed</w>
el ls</w>
el ess</w>
ea red</w>
e ight</w>
drin king</w>
drea m</w>
dr ank</w>
dorm ir</w>
diff éren
dev ez</w>
des tin
der ing</w>
de e
d ur</w>
d avantage</w>
cro w
coun tries</w>
con vin
con gratu
co ws</w>
chur ch</w>
child hood</w>
cha p
ch icken</w>
ce ed</w>
ca mer
c les</w>
bur st</w>
bo ther</w>
bo at</w>
be d
bac k
ba r</w>
b s</w>
b right</w>
b orrow</w>
b en
ar gu
apologi ze</w>
ap pris</w>
ap par
an ti
an née</w>
am our</w>
ali ve</w>
al ors</w>
ain si</w>
ai r
agre ed</w>
ag gres
adm itted</w>
ad ver
ac ted</w>
ac cept</w>
abo ve</w>
a ted</w>
U S
Sta tes</w>
S pain</w>
S a
P re
Ger many</w>
Engl and</w>
Americ ans</w>
&apos; clock</w>
é ti
y en</w>
wou ldn&apos;</w>
w er
us ement</w>
u g
ti ves</w>
ten ir</w>
t elle</w>
sus pect</w>
sup por
su pp
sti tu
si denti
sandwi ch</w>
s port</w>
ré f
rou te</w>
ri ère</w>
ri che</w>
rencontr er</w>
re comm
quat re</w>
pro vi
pr end
pour riez</w>
pos ition</w>
popula tion</w>
ple u
peu vent</w>
pen sez</w>
parti es</w>
par lez</w>
pa yer</w>
pa uv
p in</w>
oc ca
o me</w>
né c
nouv elles</w>
ne i
n am
mo ts</w>
mo on</w>
mar ché</w>
mar che</w>
mang é</w>
m é</w>
is é</w>
im p
i que</w>
heu reuse</w>
grand mother</w>
g on
g ne</w>
g ence</w>
fe u</w>
f ont</w>
exp éri
exis tence</w>
et tes</w>
ent endre</w>
end ro
en vie</w>
el lement</w>
don c</w>
dis tri
dis cus
dev riez</w>
der rière</w>
cu ri
ct eur</w>
con tent</w>
con que</w>
cin q</w>
b ite</w>
av er
au tom
atten d</w>
att endre</w>
ar ds</w>
ang es</w>
an n
am is</w>
am bi
aim es</w>
ad di
ac k</w>
1 1</w>
œ u
ér o</w>
è rement</w>
ç ons</w>
voud rais</w>
ven ue</w>
va se</w>
ur y</w>
ti ent</w>
ta ire</w>
t ter
sur ance</w>
sui ci
su s</w>
stu me</w>
sta r</w>
sor s</w>
so lution</w>
so le
ser vice</w>
ser ais</w>
se t
s tri
s no
s in</w>
re qui
ra tion</w>
qu ar
pu l
profess eur</w>
procha in</w>
pro pos</w>
pouv ait</w>
pos er</w>
po m
pl ans</w>
pi zz
pi ck
ph ilo
philo so
per su
per mission</w>
or ig
occa sion</w>
néc essa
nor mal</w>
na ire</w>
musi que</w>
mil li
mi ra
mi di</w>
me ts</w>
magas in</w>
m ur
m ange</w>
li c</w>
la issez</w>
jus tice</w>
in sul
immédi at
immédiat ement</w>
i cal</w>
hy po
h é
gu it
gu il
gi ving</w>
for d</w>
foot ball</w>
fen être</w>
fatigu é</w>
fai m</w>
fa çon</w>
fa u
f our
f al
exp li
exac tement</w>
ev en
et ing</w>
e use</w>
don ner</w>
div or
dire ct</w>
d it
cu e</w>
condi tion</w>
con su
comm un
co stume</w>
chau d</w>
cha ll
ch ers</w>
can cer</w>
ca ss
c arri
br u
bou lot</w>
bi ère</w>
b res</w>
b as</w>
arrog ant</w>
appréci e</w>
an ni
am us
R ussi
L on
K ate</w>
J im</w>
G re
Bo b</w>
20 1
éti ez</w>
é qui
ç u</w>
â ge</w>
z ing</w>
with in</w>
wel come</w>
we ir
wal ks</w>
wa st
wa sh
wa ited</w>
w n
w illing</w>
w ears</w>
ver re</w>
ven us</w>
ve ge
vac ances</w>
us e
use ful</w>
us an</w>
u pon</w>
télé vision</w>
té s</w>
tu mn</w>
tru ck</w>
travel ing</w>
tr ad
trad u
toil et</w>
to es</w>
tis h</w>
ti z
th row</w>
th ough</w>
th ers</w>
terri bly</w>
tel ls</w>
tea ching</w>
ta ts</w>
ta ct</w>
t s
t ors</w>
sû re</w>
sym bo
sy stem</w>
sw ea
sup port</w>
suc ceed</w>
sub ject</w>
su it
stor ies</w>
sto pping</w>
sta te</w>
squirre ls</w>
sp ir
soldi ers</w>
so l</w>
so c
soc cer</w>
sm ells</w>
sm aller</w>
slee py</w>
sk ir
sk in</w>
sing ing</w>
sha re</w>
ser vi
sel ling</w>
scienti fic</w>
sal t</w>
sa f
s mile</w>
s low
s even</w>
s che
sche du
s at</w>
ri tish</w>
ri d</w>
resul ts</w>
rest ed</w>
recogni ze</w>
re turned</w>
re ti
re ma
ra rely</w>
ra ins</w>
r ound</w>
r ang</w>
pê cher</w>
pu zz
propos al</w>
pr oud</w>
pr end</w>
pon d</w>
pon ais</w>
poli cem
policem an</w>
po e
play ers</w>
pi gg
pigg y</w>
physi cal</w>
photo s</w>
per anto</w>
pe ci
par lé</w>
par ked</w>
pa ying</w>
p ushed</w>
p ush</w>
p are</w>
ow es</w>
our ite</w>
oun ded</w>
oun ce</w>
opportun ity</w>
on ed</w>
of fer</w>
nécessa ire</w>
non sense</w>
mon tre</w>
mo od</w>
min im
mer ci</w>
mea l</w>
me an
mauv ais</w>
man ag
ma th</w>
ma d</w>
lon ely</w>
lo sing</w>
listen ed</w>
li ez</w>
li ed</w>
lear ly</w>
la p
l ines</w>
k ind
kind ness</w>
is m</w>
is er</w>
inv it
inte rest</w>
ind a</w>
in ly</w>
in con
in ci
im prove</w>
ill ness</w>
i red</w>
i er</w>
i can</w>
hu ge</w>
hom as</w>
ho li
ho le</w>
hi ding</w>
hel ps</w>
har der</w>
happ ens</w>
ha mmer</w>
h es</w>
h ang
gu ard</w>
go ods</w>
go ld</w>
gener ation</w>
g â
friend ly</w>
fore ver</w>
fol lowed</w>
fo ol</w>
flow er</w>
fin ite</w>
fi red</w>
fer ai</w>
fav ourite</w>
faul t</w>
fall ing</w>
f rapp
f f</w>
f ar
exha usted</w>
exc ited</w>
ex am</w>
evi dence</w>
every where</w>
esca pe</w>
erre ur</w>
er ing</w>
endro it</w>
en ly</w>
ele cted</w>
earthqua ke</w>
ea ts</w>
ea si
ea d</w>
e igh
e ct</w>
e conom
désol ée</w>
du m
dro p</w>
drin ks</w>
don nez</w>
don n
do wn
do ors</w>
dis g
dis cu
dire ction</w>
difficul ty</w>
di a</w>
dev rions</w>
determin ed</w>
deser ve</w>
des k</w>
derni er</w>
den y</w>
deli cious</w>
deci de</w>
de f
dang e
dan ced</w>
da ta</w>
d ents</w>
ct ory</w>
cri min
crea te</w>
cou p
copi es</w>
convin ced</w>
contr ol</w>
contr act</w>
conna iss
condu ire</w>
concen tr
commen cé</w>
col or</w>
co late</w>
cle ver</w>
cl ou
cin em
cho colate</w>
cher che</w>
che ese</w>
chang ing</w>
cha us
certa ins</w>
cel eb
ce remon
car ds</w>
can dy</w>
camer a</w>
call ing</w>
cal m</w>
ca used</w>
c learly</w>
c ing</w>
but ton</w>
buil t</w>
bu tter</w>
bro thers</w>
bo ss</w>
bla me</w>
bir d</w>
believ ed</w>
bed room</w>
be ef</w>
be coming</w>
be at</w>
b ear</w>
b by</w>
b ank</w>
b ad
aver age</w>
aut or
au tumn</w>
at ti
ar rested</w>
ar ms</w>
ar ch
appoin tment</w>
app e
any where</w>
an ds</w>
amou reux</w>
adver ti
ad d</w>
ac cus
absolu tely</w>
a head</w>
T u
T homas</w>
S usan</w>
L inda</w>
Ital y</w>
H i</w>
Fr an
Es peranto</w>
C har
Bra z
B ritish</w>
Al ger
0 00</w>
. m</w>
ô le</w>
é v
é t
è ne</w>
y al</w>
vou lons</w>
vo ici</w>
v el
utilis er</w>
té es</w>
sé cur
sécur ité</w>
surpr ise</w>
sup er</w>
suc re</w>
some body</w>
sen si
ré union</w>
ro b
ret our
regre t</w>
re c
rapp el
pouv ais</w>
person nes</w>
par o
pa re
p ur
p sy
orig in
or d
or anges</w>
of f
n es
m es
lo g
li er</w>
li bre</w>
l le</w>
k il
jour n
iti é</w>
issu e</w>
i des</w>
hom mes</w>
gi e</w>
fir m</w>
fa cil
f us
f ou
expéri ence</w>
essa yé</w>
essa ie</w>
eng ag
en ter</w>
ea ux</w>
e ter</w>
dri ver</w>
dev ant</w>
dem an
cul ture</w>
cuis ine</w>
cu re</w>
cru el</w>
cri me</w>
cou sin</w>
conna ît</w>
com pris</w>
cla sse</w>
cla ss
cir cu
ci eux</w>
ci er</w>
ci el</w>
cho ix</w>
chem ise</w>
cha ts</w>
capa ble</w>
c te</w>
bé bé</w>
bo ire</w>
bl on
ban an
b â
b out</w>
b al</w>
attr ap
as sis
arri ver</w>
ang les</w>
an x
ac tive</w>
T ur
T erre</w>
R e
L a
Di eu</w>
C on
C om
C o
î tre</w>
î te</w>
ë l</w>
étr anger</w>
équi pe</w>
é pous
è tement</w>
è que</w>
â mes</w>
versa tion</w>
ur er</w>
té lé</w>
tr an
to tal</w>
ti mi
ti m
ther &apos;</w>
th es
termin é</w>
ta ille</w>
sur vi
sou viens</w>
sou ha
sor te</w>
so li
ser t</w>
se rez</w>
se ball</w>
sav ait</w>
sa k
s is</w>
réf lé
réflé ch
respon d</w>
res semble</w>
rencontr é</w>
ref us
re mar
r er</w>
r endu</w>
pré par
prop re</w>
pre sident</w>
pick po
pi er</w>
per fe
per dre</w>
pen ser</w>
par fois</w>
pa y
pa ck</w>
ordin at
or ange</w>
obje ctive</w>
num éro</w>
mé ri
mu l
mor al</w>
mo der
man qu
lu m
lo cal</w>
lem and</w>
l ou
j ury</w>
j um
in e
i ve</w>
i rai</w>
i ds</w>
hô tel</w>
hô p
has n&apos;</w>
h a</w>
gre en</w>
gen t
gar çons</w>
gar age</w>
fon d</w>
f ra
ex cel
ent ôt</w>
em p
déci dé</w>
dro it</w>
distri bu
di es</w>
destin ation</w>
des ig
des cri
den i
d eau</w>
cour ant</w>
cor ri
consi dé
confi ance</w>
con versation</w>
comm uni
ci pa
chang es</w>
chall en
ca tions</w>
ca te</w>
c ô
c it
c elle</w>
bo îte</w>
bi entôt</w>
ba seball</w>
b un
b one</w>
aw a</w>
au rait</w>
ar d
am éli
al lemand</w>
al ité</w>
ai ma
ad res
ac tiv
ab sur
ab il
a da
Q u
Mar y&apos;</w>
H o
A méri
5 0</w>
étudi ants</w>
ér er</w>
â tre</w>
â che</w>
youn ger</w>
yo to</w>
x ty</w>
wonder ing</w>
wo od</w>
win ning</w>
wi de</w>
wha le</w>
weir d</w>
wea k</w>
we red</w>
we e</w>
we al
wash ing</w>
wa shed</w>
w ned</w>
w it
w is
w ind</w>
w il
vo ice</w>
vis ite</w>
vir us</w>
viend ra</w>
vege tables</w>
ve illé</w>
val id</w>
v ê
v end
v ement</w>
v au
vau t</w>
un less</w>
ug ly</w>
tw enty</w>
tun nel</w>
trou bles</w>
trav ers</w>
transla tions</w>
ton gue</w>
tom ber</w>
thous and</w>
thi ck</w>
the red</w>
the mati
themati cs</w>
tex t</w>
ter ms</w>
ter ia</w>
tend ed</w>
ten ed</w>
tem per
temper at
temperat ure</w>
te en
te ch
ta toes</w>
ta il</w>
t ons</w>
t i</w>
t ches</w>
symbo l</w>
surpr is</w>
sun ny</w>
sugg est</w>
sudd enly</w>
su ite</w>
str on
str eng
ste p</w>
stat ue</w>
sta ying</w>
st y
st am
spor ts</w>
spo t</w>
spe cial</w>
sp read</w>
sp ending</w>
sp ell</w>
son gs</w>
sol ved</w>
sof a</w>
soci ety</w>
so ft</w>
slow ly</w>
sli pped</w>
skir t</w>
sig nifi
sidenti al</w>
si xty</w>
shou ldn&apos;</w>
sho wed</w>
sha me</w>
sh el
shel f</w>
sensi tive</w>
sel y</w>
sel fish</w>
se x</w>
scienti sts</w>
schedu le</w>
sal ad</w>
sa ved</w>
sa ve</w>
sa d</w>
s y</w>
s ev
s cra
s c
rum or</w>
ru le</w>
ru ined</w>
ris k</w>
ri re</w>
ri ghts</w>
ri ce</w>
rest e</w>
requ est</w>
repa ired</w>
rem ind</w>
reli gi
rela ted</w>
ref le
rea ched</w>
re moved</w>
ra ised</w>
r on
r ise</w>
r ank</w>
r ange</w>
r and
py ra
pun ished</w>
proper ly</w>
prom ised</w>
profes sion
probab lement</w>
pro ved</w>
prin cess</w>
pres sure</w>
pren ez</w>
pre pare</w>
pre g
pr ête</w>
pr ou
post card</w>
pos te</w>
pos sibility</w>
politi cal</w>
pol ite</w>
pois son</w>
poe m</w>
po tatoes</w>
po t</w>
po ison</w>
plea sure</w>
plan e</w>
pizz a</w>
pic ni
picni c</w>
pi e</w>
philoso ph
philosoph y</w>
ph ones</w>
ph en
phen om
phenom en
phenomen on</w>
pen c
peci ally</w>
pe an
pass word</w>
pass port</w>
part ment</w>
par viens</w>
pain t</w>
pag no
pagno l</w>
pa cked</w>
p ean</w>
p ants</w>
org ani
ordinat eur</w>
op tions</w>
op ening</w>
om s</w>
of fen
occup ée</w>
obje ct</w>
o s</w>
o lution</w>
o be
nom bre</w>
no se</w>
neighbor s</w>
ne ar
na tions</w>
my st
musi cian</w>
mira cle</w>
minim um</w>
mi g
mi ddle</w>
mag ed</w>
ma thematics</w>
ma m
ma ch
m ess</w>
lu mi
lo v
lo cked</w>
lo ck</w>
li ghts</w>
leg al</w>
le man</w>
la y</w>
l est</w>
l ess
kni ves</w>
kee ping</w>
k ly</w>
k iss
kiss ing</w>
ju dge</w>
journ al</w>
je al
jeal ous</w>
is ts</w>
is is</w>
is i
introdu ced</w>
introdu ce</w>
instru ctions</w>
inst ead</w>
ine ers</w>
in tended</w>
in surance</w>
in stitu
in sis
in flu
in de
imag ination</w>
ill er</w>
il ure</w>
il able</w>
igno r
i ze</w>
hôp ital</w>
hor se</w>
holi day</w>
ho l</w>
ho bby</w>
high ly</w>
high er</w>
her o</w>
hel lo</w>
hea da
heada che</w>
he at</w>
happ iness</w>
hang ing</w>
han g</w>
ha d
h ell</w>
guit ar</w>
guil ty</w>
gues ts</w>
gu es</w>
grou p</w>
gro sse</w>
gro s</w>
gre w</w>
gon na</w>
go d</w>
gi ant</w>
gho sts</w>
gent leman</w>
gen re</w>
gen cy</w>
ge ons</w>
gar de</w>
ga thered</w>
g ement</w>
fur ent</w>
fu ton</w>
fu cking</w>
fre e
fran kly</w>
foreig n</w>
for gotten</w>
fl at</w>
fi cial</w>
fer ence</w>
fe ed</w>
fall en</w>
fais ons</w>
facil ement</w>
fa ith</w>
fa ilure</w>
f lies</w>
f leurs</w>
ex pla
ex cus
ev olution</w>
ev il</w>
et tre</w>
es prit</w>
es pecially</w>
es pagnol</w>
es ome</w>
equ al</w>
enti re</w>
eng ineers</w>
en y</w>
en tered</w>
en te</w>
emplo i</w>
emp ty</w>
em er
em bra
eg g</w>
ef fect</w>
econom y</w>
ear ance</w>
ea ted</w>
e du
dé sor
dé si
dra w</w>
doub ts</w>
dispos e</w>
dis hes</w>
dis count</w>
dipl om
di am
di ag
des p
deni ed</w>
dee ply</w>
de par
dd en</w>
daugh ters</w>
da ting</w>
da l</w>
d ry</w>
d ness</w>
d ement</w>
cur tain</w>
crow d</w>
cro ssed</w>
crea ted</w>
crea m</w>
cr ush</w>
cr isis</w>
cour t</w>
contribut or</w>
constru ction</w>
congratu la
concer ned</w>
con fis
con clus
compl ètement</w>
comm itted</w>
com prends</w>
com pos
com man
com ic</w>
co ward</w>
co ver</w>
co ok
co hol</w>
cle an
cinem a</w>
ci tiz
chi ev
char ged</w>
chang é</w>
cha rac
ch ou
ceremon y</w>
ce ful</w>
c u</w>
c ally</w>
bur ned</w>
brea th</w>
br ush</w>
bot tles</w>
bor ro
bor ing</w>
boo k
bo red</w>
bl ing</w>
bl ind</w>
bir ds</w>
ben ef
believ es</w>
belie f</w>
beg in</w>
beau ty</w>
bea ting</w>
be tra
be have</w>
bad ly</w>
b rain</w>
b our
b it
aw esome</w>
ava ilable</w>
atta cked</w>
ath le
arrê té</w>
arch it
appel é</w>
app earance</w>
ang ers</w>
an cy</w>
améli or
am ong</w>
alis m</w>
al lait</w>
al cohol</w>
air port</w>
aggres sive</w>
af ford</w>
advan tage</w>
ad v
ad a</w>
ac tion</w>
ac cent</w>
abil ity</w>
a z
a st</w>
a part</w>
a .m</w>
Y ou
W ar</w>
T he</w>
Russi an</w>
P ro
P au
N ations</w>
N ancy</w>
M at
Lon don</w>
K yoto</w>
K o
In dia</w>
Euro pean</w>
Chin a</w>
Can ada</w>
Braz il</w>
Amer ican</w>
A ra
A r
201 3</w>
19 8
19 7
œ il</w>
ê tres</w>
ég alement</w>
è de</w>
z ar
yo n
wh is
wer en&apos;</w>
vo lution</w>
vo lon
vis it
vin g
veu lent</w>
versa ire</w>
v ar
us i
usi eurs</w>
ti que</w>
ti f</w>
thé or
ten d</w>
tech no
tax es</w>
t te</w>
sym pa
sus pi
sole il</w>
shou ld&apos;</w>
sel on</w>
scienti fi
sa vent</w>
sa c</w>
s ité</w>
ré sou
ré par
ro se</w>
ren trer</w>
re voir</w>
ra p
ra ce</w>
produ it</w>
pol lution</w>
pl usieurs</w>
pa ge</w>
nom b
nomb reux</w>
nei ge</w>
n eu
mon ta
mo itié</w>
mo indre</w>
meil le
mari er</w>
mar cher</w>
man teau</w>
man che</w>
magaz ines</w>
mach ine</w>
ma ter
m ér
m our
lè ve</w>
li on</w>
li fe
lev é</w>
l in
ja ponais</w>
is te</w>
inté ri
in ts</w>
in te</w>
in spi
impres sion</w>
i vent</w>
hon n
gâ teau</w>
gu ide</w>
gar s</w>
ga tion</w>
g lo
g le</w>
g au
g are</w>
fon ction
fi x
fer a</w>
fem mes</w>
fa sse</w>
exam en</w>
em ents</w>
dé li
dé couver
dé c
dor t</w>
discu ter</w>
dis tin
dis pu
deven u</w>
des sus</w>
d y
cô té</w>
contri bu
conse ils</w>
com pag
co p
clu b</w>
cli m
cl és</w>
chap eau</w>
chang er</w>
ch in
cap tain</w>
cal cu
c ture</w>
c tr
c es
c ents</w>
bu g</w>
bou te
bo ard</w>
bli oth
bless é</w>
bi zar
bi o
bi blioth
b or</w>
b lement</w>
b all
av en
au g
ar me</w>
ar a
anni versaire</w>
an ci
alter native</w>
all ée</w>
ag it</w>
af fai
adres se</w>
a tive</w>
You Tu
Y u
Uni on</w>
T o
S u
R es
Pre sident</w>
Pau l</w>
No ël</w>
L u
D é
D is
étudi er</w>
écou ter</w>
é tions</w>
é ner
É tats</w>
y g
vou lo
voulo ir</w>
vo itu
voitu res</w>
vis i
vir g
vie il</w>
vi ère</w>
vi dé
vi cti
va in
v it
v is</w>
trav er
tra di
tom b
ti re</w>
théor ie</w>
thé âtre</w>
th ro
t ante</w>
suici de</w>
sui v
suf fis
succ ès</w>
stupi de</w>
sto ck</w>
sti c</w>
st ea
som me
somme il</w>
senti ments</w>
se ction</w>
sa c
s ée</w>
s cis
répon dre</w>
ri vière</w>
ri c</w>
respon sa
reg ard</w>
re venir</w>
re u
rapi dement</w>
ra ge</w>
r us
préfér ée</w>
préf ère</w>
pre u
pr is
pos e</w>
por tait</w>
plu part</w>
ple ut</w>
ple urer</w>
plan ning</w>
pie ds</w>
pi ed</w>
phra se</w>
pauv re</w>
part i</w>
pa ct</w>
p ti
p ire</w>
out ons</w>
ou se</w>
o ld
o is</w>
o is
no te</w>
no ise</w>
net tes</w>
na tion
musi cal</w>
mul ti
mo st
mauv aise</w>
mar i</w>
man que</w>
ma ux</w>
ma ture</w>
m ée</w>
m enti
lumi ère</w>
lu nettes</w>
lo ver</w>
li g
la u
la id</w>
la bor
l is</w>
l an
je u</w>
je ans</w>
jam bes</w>
j ack</w>
institu teur</w>
ind us
im pact</w>
i mage</w>
i denti
horri ble</w>
ho o
heu re
h i</w>
g ée</w>
g le
for ce</w>
fo u</w>
fo ot</w>
fi cation</w>
fer ais</w>
fais ait</w>
expres s</w>
exac t</w>
essa y
ent end
enseig nant</w>
embra ss
désor mais</w>
dé p
dé cou
dorm i</w>
dis cours</w>
di r
dev oir</w>
de l</w>
dange reux</w>
da it</w>
d ant</w>
d ans
cur ren
contin u
con spi
commen cer</w>
comm er
comm ence</w>
co t
cl é</w>
chaus sures</w>
cha ir</w>
ch ic</w>
ch ante</w>
ce l</w>
car te</w>
ca st
ca s
ca m
c tement</w>
bo is</w>
biblioth èque</w>
bi le</w>
be l</w>
bal le</w>
b ons</w>
ay ez</w>
at om
assu me</w>
as se
as sa
appel er</w>
ang le</w>
an us</w>
an nu
ag ent</w>
af faire</w>
ad mi
a ine</w>
US A</w>
U nis</w>
S al
N or
K ing</w>
D e
C ap
1 0
é le
é cu
é cla
é che
z er
zer o</w>
your selves</w>
y th
y side</w>
y el
writ er</w>
wor n</w>
wor kers</w>
wis dom</w>
whi ch
which ever</w>
whe re
where ver</w>
wh om</w>
wh eel</w>
weal thy</w>
wea pon</w>
we igh
we et</w>
we b
web site</w>
wast ing</w>
war n</w>
war ds</w>
wal king</w>
w ra
w ol
w le
w arri
warri or</w>
w &apos;</w>
voy é</w>
voy ez</w>
vou dri
volun tee
voluntee red</w>
ving t</w>
vie ille</w>
vi ously</w>
vi ctory</w>
ver ty</w>
ver sity</w>
ven ted</w>
v ont</w>
us ion</w>
ur in
un t</w>
un known</w>
un dance</w>
u ts</w>
u te</w>
tw el
tu ally</w>
trou ver
tre at</w>
tr yside</w>
tr usted</w>
tr unk</w>
tr app
trapp ed</w>
to ward</w>
to oth
tion ed</w>
tin y</w>
tin gs</w>
tim id</w>
ti te</w>
ti mate</w>
ti ll
ti ger</w>
ti en</w>
ti di
ti ckets</w>
thous ands</w>
thir d</w>
thi ef</w>
thes is</w>
ther n</w>
th under</w>
th rea
th ful</w>
th em
them selves</w>
tex t
ter m</w>
ter ing</w>
ten u</w>
tea chers</w>
tar get</w>
tal lest</w>
tal ent</w>
tab lis
tablis hed</w>
ta ught</w>
ta t
ta le</w>
ta ins</w>
t rez</w>
t led</w>
t ends</w>
t ear</w>
t ching</w>
sw ear</w>
surviv ors</w>
survi ve</w>
suppor ted</w>
super market</w>
suffis am
suffisam ment</w>
sudd en</w>
sub way</w>
stu ff</w>
stu dies</w>
stu died</w>
stron ger</w>
streng th</w>
stre ets</w>
str angers</w>
str anger</w>
str ai
strai ght</w>
stor m</w>
sto l
stol en</w>
sti ck</w>
ste red</w>
ste pped</w>
stat us</w>
st one</w>
st ances</w>
spi der</w>
spe cta
spe ci
sp ends</w>
sour ces</w>
soli d</w>
soci été</w>
so i
smil ing</w>
sm ell</w>
sli p</w>
sk in
skin ny</w>
sis ters</w>
sin s</w>
sil ly</w>
sil en
si è
shor ter</w>
sho pping</w>
sho ck</w>
sha king</w>
sh it</w>
sh ine</w>
sever ance</w>
sev enty</w>
ser ve</w>
ser ies</w>
ser as</w>
sem bl
sear ch</w>
se para
se par
se cur
secur ity</w>
scis sors</w>
scho lar</w>
sc ary</w>
sau f</w>
sal ary</w>
saf ety</w>
sa ving</w>
sa le</w>
s weet</w>
s si
s our</w>
s itting</w>
s en</w>
s ea
s cre
s car
résou dre</w>
ré ussi</w>
ré alis
ro s</w>
ro pes</w>
ro oms</w>
ro of</w>
ro le</w>
ro cks</w>
ret ar
resul t</w>
respon sibility</w>
resour ces</w>
res ist</w>
res is
resis tance</w>
res cu
rescu ed</w>
requi res</w>
repa ir</w>
ren dez</w>
ren contre</w>
rema ined</w>
rela x
regar dé</w>
ref use</w>
recomm end</w>
rec ently</w>
reali zed</w>
re si
re rais</w>
re pe
repe at</w>
re main</w>
re jo
re gu
regu lar
regular ly</w>
re du
re ality</w>
rappel er</w>
ra w</w>
ra ined</w>
ra in
ra ient</w>
ra con
ra bb
rabb its</w>
r ying</w>
r ough</w>
r ons</w>
r end
quo tidi
quel les</w>
quel conque</w>
qu ences</w>
pyra mi
puzz le</w>
pu is
psy chic</w>
propos ed</w>
pron on
profession al</w>
produ cts</w>
produ ct</w>
procha ine</w>
pro ving</w>
pro per</w>
pro jet</w>
priv ate</w>
prin temps</w>
pri ved</w>
pri l</w>
pret ti
pres er
pres en
preg nant</w>
pre vented</w>
pre cious</w>
practi cal</w>
pra ised</w>
pr un
pou red</w>
post po
postpo ne</w>
po verty</w>
po ids</w>
po et</w>
po ems</w>
plea sant</w>
ple in</w>
plan ation</w>
pla is
pickpo ckets</w>
pi geons</w>
pi cked</w>
pi c</w>
phra ses</w>
peti tion</w>
persu ade</w>
perfe ctly</w>
per severance</w>
pend ent</w>
penc il</w>
pean uts</w>
pare il</w>
para pluie</w>
par don</w>
pain ful</w>
pa th</w>
pa pier</w>
p us</w>
p ills</w>
p il
p her</w>
p a</w>
ot ed</w>
organi zed</w>
or dered</w>
oper ation</w>
oper ate</w>
op pos
op ed</w>
on ous</w>
on line</w>
on gs</w>
on cle</w>
on aire</w>
om i</w>
offi cer</w>
od d</w>
od b
odb ye</w>
oc ean</w>
ob viously</w>
o w</w>
o ke</w>
o il</w>
o es</w>
o &apos;</w>
nu ts</w>
no tice</w>
no r</w>
net to
ner ve</w>
nee d
necess ar
necessar ily</w>
near ly</w>
na p</w>
n iture</w>
n ement</w>
n ea
nea rest</w>
n age</w>
mu la
mou th</w>
mor c
monta gne</w>
mon trer</w>
moder n</w>
mis understanding</w>
mis took</w>
mis taken</w>
mer cy</w>
men tal</w>
meille ure</w>
me th
me dal</w>
me chan
me at</w>
me als</w>
mater i
mari é</w>
manu al</w>
manag ed</w>
mam mal</w>
maj ority</w>
maj or</w>
ma tch</w>
ma ster</w>
ma shed</w>
m i</w>
m eu
m ember</w>
lum bus</w>
lov ely</w>
logi cal</w>
log ist</w>
lo ses</w>
lit ers</w>
life time</w>
li king</w>
li ber
lev el</w>
let ting</w>
le quel</w>
lar ger</w>
lap top</w>
la tely</w>
la dy</w>
la ck</w>
l ying</w>
l oud</w>
l ink</w>
l i</w>
l and
kno wle
kno ck</w>
ke ts</w>
k id</w>
ju d
jo ke</w>
ja il</w>
j et
j el
j ard
it self</w>
iss ance</w>
is ter</w>
is sait</w>
is ing</w>
ir on</w>
inven tion</w>
intéri eur</w>
inté rê
inter national</w>
inten d</w>
inde pendent</w>
increa sed</w>
in qui
in ging</w>
in ement</w>
in come</w>
imp li
im patient</w>
il à</w>
il legal</w>
igno red</w>
ig ne</w>
ic y</w>
i est</w>
hypo thesis</w>
hun g</w>
hum or</w>
hu mili
hu it</w>
hou ses</w>
hon ey</w>
ho ping</w>
hi ver</w>
her oin</w>
heav ily</w>
he re
har v
har d
hand some</w>
hand ed</w>
hab it</w>
ha tes</w>
gé né
gues sed</w>
gu lar</w>
gu erre</w>
grou pe</w>
grand ma</w>
gra du
got ta</w>
go û
go odbye</w>
go ld
glo bal</w>
gi ft</w>
gh ting</w>
geni uses</w>
geni us</w>
gener ally</w>
ga y</w>
ga ted</w>
g gl
g ger</w>
g as</w>
fur ther</w>
fur niture</w>
fu el</w>
friend ship</w>
fr on
fore ca
foreca st</w>
for ms</w>
for bi
forbi dden</w>
flu ent</w>
fla v
fl ying</w>
fin ger</w>
fi ghting</w>
fi el
fiel d</w>
fi ces</w>
feel s</w>
fe teria</w>
faul ts</w>
fall u</w>
fai thful</w>
fa ther&apos;</w>
fa ir</w>
fa ces</w>
f oun
f li
f eu
expla ined</w>
exam ination</w>
ex planation</w>
ex change</w>
every day</w>
even tually</w>
ev ents</w>
esp ér
es tablished</w>
es senti
er ror</w>
er ait</w>
environ ment</w>
entr ée</w>
entr ance</w>
enti rely</w>
enjo ys</w>
engag ement</w>
end ure</w>
end or
en vo
en ess</w>
en cy</w>
en ced</w>
emplo yed</w>
em prun
ele ct</w>
el led</w>
eigh teen</w>
effe ctive</w>
easi er</w>
ear lier</w>
ea se</w>
e d
e an
décou v
du ty</w>
du ck</w>
dro wned</w>
dro ve</w>
dro pped</w>
down town</w>
doub t</w>
do w</w>
disg usting</w>
discus sed</w>
disco vered</w>
dis app
dire ctor</w>
dir ty</w>
diction naire</w>
di manche</w>
di g
deven ir</w>
determin ation</w>
desp ise</w>
deser ves</w>
des sert</w>
des ire</w>
depar ture</w>
demand ed</w>
deman der</w>
de te
de prived</w>
de finite</w>
de fe
de ed</w>
de cor
de cei
da maged</w>
da is</w>
da ily</w>
d ried</w>
d ear</w>
cu red</w>
cro ssing</w>
crimin al</w>
cre dit</w>
cra shed</w>
coun tryside</w>
corre ctly</w>
cor respon
cook ies</w>
contr ary</w>
conna ître</w>
conn u</w>
congratula tions</w>
condu ct</w>
concer n</w>
concentr ate</w>
compli cated</w>
comple x</w>
compla ints</w>
compla ining</w>
comm and</w>
comm and
co vered</w>
co a
clou ds</w>
clo sely</w>
clean ed</w>
cla sses</w>
citiz ens</w>
circu m
cin é
cho sen</w>
che er</w>
chan son</w>
challen ge</w>
ch ess</w>
ch eating</w>
ch a</w>
certa inly</w>
cep tion</w>
cen tur
celeb rate</w>
ce iling</w>
care fully</w>
cap it
call s</w>
ca sh</w>
ca feteria</w>
ca deau</w>
ca b</w>
c ter</w>
c happ
c ement</w>
borro wed</w>
bor der</w>
blan ket</w>
bla ck
bi gger</w>
bi c</w>
bes ides</w>
bel ongs</w>
bel ong</w>
beg ins</w>
bea ten</w>
be ha
be es</w>
be comes</w>
bat tle</w>
bar king</w>
bag s</w>
bac ks</w>
ba rely</w>
b u</w>
b ound</w>
b ers</w>
aven ir</w>
av ance</w>
auth ority</w>
aut our</w>
atta ck</w>
at te
at or</w>
as sure</w>
arti ficial</w>
arri ver
archit ect</w>
ar m</w>
appro ve</w>
appe tite</w>
app les</w>
app ear</w>
apologi zed</w>
anx ious</w>
ans wered</w>
ambi tion</w>
ama zing</w>
am ies</w>
am bul
all és</w>
al p
al ed</w>
ak a</w>
aim ed</w>
affai res</w>
af in</w>
advan ced</w>
adm it</w>
addi cted</w>
ad dressed</w>
ad ded</w>
activ ity</w>
accep ted</w>
ac t
ac id</w>
ac he</w>
aban don
ab undance</w>
ab ly</w>
a unt</w>
a side</w>
a partment</w>
To wer</w>
T his</w>
S un</w>
S M
Re petition</w>
R o
M il
La tin</w>
J ean
Ital ian</w>
G rand
E x
Co lumbus</w>
C ath
Australi an</w>
An ne</w>
Alger ia</w>
A pril</w>
, 000</w>
œu fs</w>
étr ange</w>
ét at</w>
épous er</w>
é toil
étoil es</w>
é p
é conom
x i
vê tem
vêtem ents</w>
vé cu</w>
voy ager</w>
voudri ez</w>
vo te</w>
vo is
vo ilà</w>
vis age</w>
viend rai</w>
vidé o</w>
vi vent</w>
ver se</w>
ve il
v eau</w>
v ain</w>
u t
u ko</w>
té ri
tu é</w>
tu er</w>
tu de</w>
ts Ap
tsAp p</w>
travaill é</w>
trans por
tran qu
tom bé</w>
ti ment</w>
tea ux</w>
ta is</w>
ta ires</w>
t is</w>
suspi ci
sur face</w>
sui vre</w>
st es</w>
som met</w>
so in</w>
so cial</w>
sig ne</w>
si us</w>
servi ces</w>
ser ont</w>
sco pe</w>
sci ences</w>
sak a</w>
sa cri
sacri fices</w>
sa cr
s ra
s ang</w>
rê tez</w>
répon se</w>
ro bo
robo t</w>
ro be</w>
ri es</w>
rest é</w>
ren tr
religi on</w>
re çu</w>
re l</w>
re cherche</w>
rapp elle</w>
rais ons</w>
ra re</w>
r it</w>
r i</w>
qui conque</w>
qu ement</w>
qu e
prê ter</w>
préfér é</w>
pré sident</w>
pré sent</w>
propos ition</w>
prop res</w>
profess or</w>
prof it</w>
pro gra
pro che</w>
pr ison</w>
pr ennent</w>
por tes</w>
pon ctu
pom mes</w>
pleu voir</w>
pis cine</w>
per spe
per mit</w>
pe in
par lent</w>
par c</w>
pa yé</w>
pa use</w>
p har
phar ma
ouver t</w>
oubli e</w>
on y</w>
ok o
oko ha
okoha ma</w>
ob serve</w>
o le
nu e</w>
ni e</w>
na d</w>
mé tr
musi ci
mou rir</w>
mor gue</w>
mo yen</w>
mi enne</w>
mi cro
micro scope</w>
met tez</w>
man quer</w>
ma r</w>
ma le</w>
lun di</w>
le çon</w>
la is
la c</w>
k y</w>
k ag
jeu nes</w>
jard in</w>
j eux</w>
it és</w>
it ez</w>
is ée</w>
is me</w>
inv inci
invinci ble</w>
intéres sant</w>
intéres s
inter net</w>
intelli gence</w>
in clu
im mor
il es</w>
ignor ance</w>
i tive</w>
i rement</w>
i le</w>
i ffe
iffe l</w>
hum our</w>
hum eur</w>
hum an
hon te</w>
ho pin</w>
had n</w>
hab et</w>
ha ut</w>
ha tsApp</w>
ha m
gr an
gl is
gau che</w>
gag ner</w>
g ou
g les</w>
fin an
fin alement</w>
fi e</w>
fer me</w>
favor able</w>
f es
expres sions</w>
explo sion</w>
exis te</w>
erre urs</w>
enn em
en voyé</w>
en nad</w>
el en</w>
effor t</w>
dép end</w>
découver t</w>
dé cision</w>
dy nam
du re</w>
do cu
do cteur</w>
distin gu
dipl oma
diag no
di al
des c
denti st</w>
dans er</w>
curi o
cul tures</w>
ctr ic
cro it</w>
cou pe</w>
corre ctement</w>
conse il</w>
conclus ions</w>
con vain
con science</w>
con sci
com por
co in</w>
ci p
ci ation</w>
cho isir</w>
chan ter</w>
ch on</w>
centur y</w>
cen tre</w>
c us</w>
c esse</w>
bâ timent</w>
br û
br an
blon de</w>
bl es
be cue</w>
bat eau</w>
bar becue</w>
ba iser</w>
b om
b i</w>
b at</w>
b an</w>
b am
az ak
ay uko</w>
attrap é</w>
atti tude</w>
att ends</w>
arrê te</w>
arrog ance</w>
arri ves</w>
ar a</w>
ap parti
ann ées</w>
ani maux</w>
and ra</w>
an ta</w>
an aka</w>
ambul ance</w>
am i
alp habet</w>
all er
ali bi</w>
al ie</w>
al es</w>
al a
ala x
aima it</w>
aim é</w>
accep table</w>
ac k
ab y
ab str
ab sor
ab les</w>
a thy</w>
a spir
YouTu be</w>
Y okohama</w>
W hatsApp</w>
US B</w>
T ony</w>
T anaka</w>
S te
S ou
S h
R I
P yth
P eter</w>
O saka</w>
Mo sco
Mi ke</w>
Mar s</w>
Mar ia</w>
M y
M ennad</w>
M ayuko</w>
M ag
K en</w>
J ones</w>
J im
J ack
I to</w>
I sra
H it
H en
H elen</w>
H ar
E iffel</w>
Com m
Chris to
Char les</w>
Can adi
C hopin</w>
C ar
B er
B ar
Austr alie</w>
Ar rêtez</w>
An k
Al le
A la
A kag
A fri
6 0</w>
4 0</w>
20 0
19 1
1 8
1 5</w>
1 50</w>
œu f</w>
étudi ant</w>
éta ge</w>
éren ce</w>
ér ent</w>
écu reu
é to
é te
é qu
é pa
é nor
é gl
é chou
è le</w>
â le</w>
y pti
vé ni
véni ent</w>
vra ie</w>
vo lu
visi ble</w>
vis ions</w>
viol ent</w>
vi de</w>
vern ement</w>
vend re
vendre di</w>
ven ge</w>
veil le
ve ille</w>
v ital</w>
v endre</w>
v al</w>
v age</w>
v able</w>
uti le</w>
ur gent</w>
tranqu ille</w>
tr on</w>
tr ag
tr ac
tou che</w>
tor ture</w>
tin a</w>
timi de</w>
ten ez</w>
tab lea
t âche</w>
séri eux</w>
sympa thi
sugg es
sty le</w>
stea k</w>
sp é
son ge</w>
senti ment</w>
sema ines</w>
sem ents</w>
sem bles</w>
se pt</w>
scientifi que</w>
sal le</w>
sa uv
sa che</w>
s prin
réfléch ir</w>
ré sul
ré s</w>
ru e</w>
rom an</w>
ro pe</w>
retour ner</w>
responsa ble</w>
re venu</w>
re por
re pas</w>
re fu
rap port</w>
ra tes</w>
r è
r is</w>
qu ée</w>
qu ali
pê ché</w>
pu ll</w>
présen ter</w>
propos es</w>
prom en
produ ire</w>
pro pri
preu ve</w>
pres sion</w>
prend rai</w>
pr ises</w>
pos s
pom me</w>
po lit
po ir</w>
pla ge</w>
pi ck</w>
pi cal</w>
persu ad
perspe ctive</w>
per te</w>
per man
parti cu
par tout</w>
par lait</w>
par avant</w>
pa tron</w>
pa ir</w>
p éri
p tion</w>
ouv rir</w>
ou x</w>
origin al</w>
or tu
or o
or ies</w>
or able</w>
opin ions</w>
o bile</w>
na tives</w>
n it</w>
n av
métr o</w>
multi lin
multilin gu
morc eau</w>
mon di
mil le</w>
mil es</w>
mig non
mer veille
mati ques</w>
mari age</w>
mar re</w>
mar r
mar k
mark eting</w>
mag ne</w>
ma man</w>
m me</w>
m ent
m ans</w>
lé gu
li èrement</w>
li ver</w>
li a</w>
lev ant</w>
le ver</w>
lar mes</w>
la ver</w>
l ors</w>
k er
jou é</w>
jo lie</w>
jo gg
jogg ing</w>
j i</w>
intérê t</w>
inter ru
inst an
incon vénient</w>
in fe
in a</w>
impres sion
his tor
has ard</w>
hab its</w>
ha ll</w>
h â
h eur</w>
gou vernement</w>
gle terre</w>
gag ne</w>
g or
g ez</w>
g end
for me</w>
for m
fo ss
fer mer</w>
fen êtres</w>
fa ite</w>
f le</w>
f le
f et</w>
expli quer</w>
ex tra</w>
ex pi
esti ma
es poir</w>
es pace</w>
entr al</w>
ennu is</w>
ennem i</w>
en nes</w>
en coura
embrass er</w>
ef fet</w>
e uses</w>
e usement</w>
découv rir</w>
dé tru
dé termin
dé tails</w>
dé part</w>
dé but</w>
don na</w>
do ivent</w>
divor ce</w>
dispos ez</w>
dis tant</w>
dis ent</w>
dis e</w>
diff érent</w>
di ct</w>
dev int</w>
demand a</w>
dem i</w>
cus ez</w>
cuis in
ctu res</w>
cro y
cra ft</w>
cr u</w>
cor pus</w>
cor ps</w>
cop ine</w>
conten te</w>
con tact</w>
compag nie</w>
communi cation</w>
ci v
cher ch
cham pagne</w>
cass é</w>
calcu la
ca uses</w>
ca us
c ée</w>
c ité</w>
c as</w>
boute ille</w>
bon nes</w>
blo g</w>
bizar re</w>
bat ter
bar s</w>
ba te</w>
b lis
b is
av is</w>
autom obile</w>
autom ne</w>
au riez</w>
au paravant</w>
atom ic</w>
at es</w>
assis tant</w>
arriv ée</w>
arri ère</w>
ar bre</w>
apparti ent</w>
app li
an cho
amélior er</w>
amou reuse</w>
ambi ti
alter natives</w>
aller gi
al ty</w>
al lais</w>
al ent
aim ez</w>
aim er</w>
aim ent</w>
ai der
af fli
a x</w>
a ille</w>
a h</w>
W i
W h
W ar
V o
T i
T ha
Ro yal</w>
R i
P ortu
P er
P al
M us
M is
Ko be</w>
Inter national</w>
In vite</w>
H um
Gre en</w>
Ex cusez</w>
D u
D a
Chris ti
C rea
C ol
C entral</w>
B u
B r
B e
B C</w>
An gleterre</w>
Améri que</w>
A t
3 00</w>
2 .
1 00</w>
ô tre</w>
ô mes</w>
î tr
év iter</w>
étudi e</w>
éner gie</w>
égl ise</w>
éche c</w>
é po
é lo
é cra
é chapp
è se</w>
z one</w>
z en</w>
ypti an</w>
yon d</w>
yg ones</w>
yel low</w>
y ens</w>
x ante</w>
wra pped</w>
wr in
wrin k
wrink led</w>
wol f</w>
wo ol</w>
wo ods</w>
wit ness</w>
wit nes
win gs</w>
win ds</w>
wil d
wi dow</w>
wi der</w>
who &apos;</w>
wh ites</w>
wh en
when ever</w>
wel d</w>
weigh s</w>
we l</w>
we i
wei gh</w>
wast ed</w>
war s</w>
war ming</w>
wan ting</w>
wan na</w>
wa m</w>
wa ist</w>
w re
wre ck</w>
w ound</w>
w im
w et</w>
w ers</w>
w av
w are</w>
w all</w>
volun te
vol can
viv ant</w>
vis iter</w>
virg in</w>
viol in</w>
vil les</w>
vie ws</w>
vide o
victi m</w>
vi ous</w>
vi or</w>
vi ons</w>
ver ing</w>
ven s</w>
ven ge
ven ez</w>
ven ait</w>
vel ous</w>
ve ill
ve get
var ious</w>
val ue</w>
val u
valu able</w>
va ted</w>
va cations</w>
v y</w>
v ues</w>
v ember</w>
v ag
vag ue</w>
urin ating</w>
ur ges</w>
ur ged</w>
ur day</w>
univer sité</w>
univer s</w>
uni forms</w>
un shot</w>
un re
un likely</w>
un ks</w>
un healthy</w>
un gar
ungar ian</w>
un g</w>
un employed</w>
un easy</w>
un comfortable</w>
un ciation</w>
um p</w>
ul timate</w>
u ine</w>
twel ve</w>
tw are</w>
tur ns</w>
tter y</w>
tru mp
trump et</w>
tro l
trem ely</w>
trea ts</w>
trava il
trav els</w>
transpor ted</w>
transla tion</w>
tra ted</w>
tra p</w>
tra de</w>
tr usting</w>
tr ente</w>
tour ists</w>
tor ren
torren ts</w>
tooth ache</w>
ton ed</w>
to y</w>
to wards</w>
to vers</w>
to ol</w>
to e</w>
to cks</w>
ti sts</w>
ti li
tili z
ti ght</w>
threa tened</w>
thr one</w>
thir teen</w>
ther ing</w>
thea tre</w>
th é</w>
th us</w>
th re
thre at</w>
th o
th ence</w>
th eless</w>
th ed</w>
text book</w>
tex ting</w>
ter n
ter mine</w>
ter fuck</w>
tend ency</w>
temp ted</w>
temp tation</w>
tem per</w>
teen ager</w>
teen ag
teenag ers</w>
techno logy</w>
te use</w>
te book</w>
tat too</w>
tan tes</w>
ta ste</w>
ta sse</w>
ta iled</w>
ta ck</w>
t less</w>
t et
tet anus</w>
t ary</w>
sympathi ze</w>
swea ty</w>
sw inging</w>
sw eep</w>
sw ee
sus pe
surviv al</w>
surpr ising</w>
sur r
sur ger
surger y</w>
suppor tive</w>
supp lies</w>
sup pl
suppl é
sun scre
sunscre en</w>
suit case</w>
suit able</w>
suf fer</w>
suf fer
succ ess
sub je
su ffe
suffe red</w>
ste ps</w>
ste ering</w>
star ing</w>
stand ards</w>
stan tly</w>
stan ds</w>
stam p</w>
sta ted</w>
st oma
stoma ch</w>
st are</w>
st ard</w>
st all
stall ing</w>
st ain</w>
st ac
stac ked</w>
squirre l</w>
squ are</w>
spr ang</w>
spee ding</w>
specta tors</w>
spea ker</w>
sp y</w>
sp ite</w>
sp in
sp icy</w>
sp here</w>
sp are</w>
sp an</w>
sou venir</w>
sou thern</w>
sou ci</w>
sor tes</w>
sor row</w>
some day</w>
soldi er</w>
sol u</w>
sol dering</w>
soi xante</w>
sof tware</w>
sof tly</w>
so yons</w>
so w</w>
so if</w>
so i</w>
so cks</w>
so a
smil ed</w>
smar ter</w>
sli d</w>
sla in</w>
ski pped</w>
ski p</w>
ski ing</w>
sk illed</w>
sin k</w>
si r</w>
si an</w>
shou l
shoul der</w>
sho ws</w>
sho ot</w>
sho ot
shoot ing</w>
sho e</w>
sho cked</w>
she er</w>
shar pen</w>
shar p</w>
sha ken</w>
sh mal
shmal lows</w>
sh es</w>
seu ls</w>
set tled</w>
set backs</w>
separa tists</w>
separ ate</w>
sen sible</w>
sen ed</w>
sem b
semb lez</w>
sel dom</w>
see ds</w>
secre tary</w>
secon ds</w>
sear ching</w>
se x
se i
se em
seem ed</w>
scra tching</w>
scienti st</w>
scar f</w>
sandwi ches</w>
sal ted</w>
sal on</w>
sac red</w>
sa ke</w>
sa is
sa int</w>
s wam</w>
s pati
s p</w>
s oun
soun ding</w>
s na
s mashed</w>
s its</w>
s est</w>
s ers</w>
s ends</w>
s eas
seas ons</w>
s cri
s col
scol ded</w>
s ank</w>
répar er</w>
ré vé
ré veillé</w>
ré s
ré jou
réjou is</w>
rè gles</w>
ru g</w>
ru bb
rubb ish</w>
rou p</w>
ro ple
rople ts</w>
ro ot</w>
ro ast</w>
ris ks</w>
ris ked</w>
ri fle</w>
ri er</w>
ri di
retar ded</w>
respe cted</w>
resour ceful</w>
res h</w>
res cue</w>
requi red</w>
rencontr ée</w>
ren ted</w>
rem er
reli ev
reliev ed</w>
reli ef</w>
reli able</w>
relax ed</w>
rela tion
regre t
regar ded</w>
ref re
redu ced</w>
recomm ended</w>
recogni zed</w>
reco very</w>
reci pe</w>
recei ve</w>
rea k</w>
rea ds</w>
re war
re volution</w>
re venge</w>
re tired</w>
re sidential</w>
re rs</w>
re ques
re pro
re place</w>
re pla
re mo
re min
re lea
re faire</w>
re connaiss
re cent</w>
rain bo
rainbo w</w>
ra ys</w>
ra tional</w>
ra rement</w>
ra cy</w>
r ôle</w>
r ush</w>
r ors</w>
r ings</w>
r hu
rhu me</w>
r ends</w>
r as</w>
quit ter</w>
pyrami ds</w>
pur pose</w>
pun is
punis h
punish ment</w>
pul ses</w>
pu ts</w>
pu re</w>
pu mp</w>
prépar er</w>
pru den
provi ding</w>
proper ty</w>
pron unciation</w>
pron ounce</w>
prof on
produ ctive</w>
produ ced</w>
prob able</w>
pro té
pro of</w>
pro gres
pris oner</w>
prin ts</w>
prin ted</w>
pretti est</w>
pret ending</w>
pret ended</w>
preser ve</w>
presen ta
pres s</w>
pres ence</w>
pre vious</w>
pre tend</w>
pre sidential</w>
practi cing</w>
practi ce</w>
pra ti
pra ise</w>
pr êtes</w>
pou le</w>
pos ted</w>
pos sibil
pos si
por table</w>
pon ents</w>
politi que</w>
politi cian</w>
pol i</w>
pois onous</w>
poin ts</w>
po x</w>
po wer
po un
po or
po cket</w>
plu ral</w>
plea sures</w>
play ground</w>
plan ète</w>
pla yer</w>
pla sh</w>
pla isir</w>
pla ces</w>
pl ying</w>
pl ant</w>
pie ces</w>
pian ist</w>
pi erre</w>
peti tes</w>
person n
person ality</w>
person al</w>
perman ent</w>
per mis</w>
per cent</w>
pea ceful</w>
pea ce</w>
pay check</w>
pass ée</w>
pass ing</w>
pas sage</w>
parti cipa
parti ally</w>
par les</w>
par ently</w>
pain tings</w>
pa used</w>
pa tent</w>
pa pa</w>
pa l</w>
pa ci
p âle</w>
p ted</w>
p int</w>
p ill</w>
p ful</w>
ow ever</w>
over looked</w>
ouver te</w>
oun t</w>
ou ter</w>
ou l</w>
ori ze</w>
ordin ary</w>
ord ers</w>
or mous</w>
or ld</w>
or dering</w>
or as</w>
oppos ite</w>
oper a</w>
op s</w>
on to</w>
on e
on d</w>
om age</w>
old est</w>
ol ish</w>
ok ay</w>
off ended</w>
occu per</w>
occu pe</w>
oc cur
occur red</w>
oc c
occ ur</w>
obli ged</w>
obje cts</w>
obje cti
obe yed</w>
obe y</w>
o ts</w>
o tic</w>
o te</w>
o re</w>
o re
o pa
o ls</w>
o lic</w>
o irs</w>
num bers</w>
nu lle</w>
nouv el</w>
nor th</w>
nom bre
nombre uses</w>
no where</w>
no ti
no tebook</w>
ni ck
nick name</w>
netto yer</w>
ner veux</w>
neighbor hood</w>
nei ther</w>
ne go
nego ti
ne es</w>
ne ck</w>
na sty</w>
na ked</w>
na ive</w>
na it</w>
na ils</w>
na il</w>
n ons</w>
n ine</w>
n ent</w>
n ar
nar row</w>
n ag
myst ery</w>
mus ée</w>
mur der</w>
mp tions</w>
moun tains</w>
most ly</w>
mon y</w>
mon trez</w>
mon key</w>
mo ving</w>
mo ves</w>
mo vement</w>
mo s
mo e</w>
mo del</w>
mis ts</w>
mis ery</w>
min y</w>
milli onaire</w>
mi d
mid night</w>
meth od</w>
mes ure</w>
mes sed</w>
men tion</w>
mem orize</w>
mee ts</w>
mean ings</w>
mean ing</w>
mea sure</w>
me eny</w>
mar velous</w>
mar shmallows</w>
mar k</w>
manag ement</w>
man ner</w>
man age</w>
mal heure
malheure usement</w>
mal a
mala die</w>
mag nifi
ma thé
ma stered</w>
ma p</w>
ma id</w>
ma dness</w>
m pl
m pic</w>
m outons</w>
m mit</w>
m ere</w>
ly mpic</w>
ly fish</w>
lu t</w>
lu gg
lugg age</w>
loo p</w>
loo dy</w>
lo ving</w>
lo i</w>
lo cated</w>
lo an</w>
lo a
lis te</w>
li zed</w>
li ties</w>
li ons</w>
li gh
li ar</w>
li an</w>
let te</w>
lem ons</w>
lee ding</w>
lea ther</w>
lea ped</w>
lea f</w>
lea der</w>
lea d</w>
le y</w>
le opa
le is
leis ure</w>
le f
lef tovers</w>
laugh ter</w>
lau gh</w>
la p</w>
la ient</w>
la bor</w>
l ous</w>
l our
l in</w>
knowle dge</w>
kno cked</w>
kil om
ki dding</w>
kee per</w>
k ward</w>
k nees</w>
jum ped</w>
jou ets</w>
jo y</w>
jo king</w>
jo kes</w>
jo ined</w>
jo bs</w>
jel lyfish</w>
j ac
jac ket</w>
it ate</w>
it alism</w>
issu es</w>
iss ent</w>
is tr
is land</w>
irre gular</w>
ir person</w>
ir oned</w>
ir ly</w>
ir a</w>
inv ité</w>
intéres sé</w>
interest s</w>
insul ting</w>
instan tly</w>
inspi red</w>
inqui ète</w>
in é</w>
in san
in qu
in jury</w>
in géni
in gen
ingen ious</w>
impor tantes</w>
immor tal</w>
immedi ate</w>
imag iner</w>
im s</w>
im proving</w>
im proved</w>
ill top</w>
il or</w>
ide as</w>
ick y</w>
ic s</w>
i or</w>
i dé
i ans</w>
hur ts</w>
hun ch</w>
humili ated</w>
horri fied</w>
hor ror</w>
honn ête</w>
hon or</w>
hon ey
honey moon</w>
hon es
hones ty</w>
ho w&apos;</w>
ho l
ho ever</w>
hi re</w>
hi le</w>
hi king</w>
hi d</w>
her it
hel pful</w>
hear t
hear ing</w>
hea vens</w>
hea ded</w>
he els</w>
harv est</w>
hard est</w>
har m</w>
happ iest</w>
happ ier</w>
hand led</w>
hand ful</w>
hal f
half way</w>
ha ted</w>
ha ir
h its</w>
h illtop</w>
h ill</w>
h ers</w>
h en</w>
h en
gé n
gu er
gro w
grea tly</w>
gre es</w>
gran des</w>
gra ss</w>
gra pes</w>
gra de</w>
gra b</w>
gr ounds</w>
go o
gl ory</w>
gi ants</w>
gho st</w>
gh ty</w>
gh tened</w>
ggl ed</w>
gg le</w>
gg est</w>
gg ed</w>
gener al</w>
gen uine</w>
gen til</w>
ge ous</w>
gar lic</w>
gar der</w>
gam bling</w>
gag né</w>
g yptian</w>
g unshot</w>
g ri
fun ds</w>
fu cked</w>
fru its</w>
fri ghtened</w>
fri es</w>
fri ed</w>
fri dge</w>
free dom</w>
fr équ
fr ères</w>
fr omage</w>
foun da
fore head</w>
for ty</w>
for given</w>
for getting</w>
fol lows</w>
fo rest</w>
fo g</w>
flu ently</w>
flav or</w>
fla sh
fla gs</w>
finan cial</w>
fin ger
fi le</w>
fi f
ff le</w>
feu illes</w>
fer tiliz
fer red</w>
fel low</w>
fe male</w>
fav or</w>
fau te</w>
far m</w>
fal se</w>
fa te</w>
fa shi
fa ke</w>
fa irs</w>
fa irly</w>
fa il</w>
fa ctory</w>
f resh</w>
f reak</w>
f ounded</w>
f light</w>
f ee
f ed</w>
f an
explo de</w>
experi ences</w>
experi enced</w>
expen ses</w>
expe cting</w>
expe cta
expecta tions</w>
excus es</w>
exam ple</w>
exam ined</w>
ex tremely</w>
ex it</w>
ex em
ex cept</w>
ev ent</w>
eu r
et h</w>
essenti al</w>
esca ped</w>
es say</w>
er t</w>
er rors</w>
er o
er able</w>
environ mental</w>
entr er</w>
ent ends</w>
enjo yed</w>
enf ance</w>
end ings</w>
en vy</w>
en tra
en ted</w>
en ormous</w>
en courage</w>
en coun
encoun ter</w>
emer gency</w>
embarra ssing</w>
em pêcher</w>
em porter</w>
ele ph
ele ctric
electric ity</w>
el oped</w>
el ling</w>
eigh ty</w>
effe cts</w>
ef fra
ee k</w>
edu cated</w>
easi est</w>
earthqua kes</w>
ear chers</w>
ea ses</w>
ea ger</w>
e es</w>
e eny</w>
e di
déci da</w>
déc lar
dum ber</w>
dum b</w>
du cted</w>
dro its</w>
dro ite</w>
dres ses</w>
drea ms</w>
drea ming</w>
dra wings</w>
dra wing</w>
dr a</w>
down stairs</w>
dou che</w>
dol ls</w>
divor ced</w>
distribu ted</w>
distingu ish</w>
dispos es</w>
discus s</w>
disco very</w>
disco ver</w>
disapp eared</w>
dis tur
dis obeyed</w>
dis liked</w>
dis eases</w>
dis courage</w>
dis charged</w>
dis ait</w>
dis agree</w>
diplom at</w>
din gs</w>
dig ital</w>
difficul tés</w>
difficul ties</w>
differ ences</w>
diff ers</w>
diam ond</w>
dial ect</w>
di eting</w>
di et</w>
di ence</w>
di ary</w>
dev oted</w>
dev oirs</w>
dev il</w>
dev ient</w>
dev eloped</w>
dev a
deva stated</w>
descri be</w>
des tro
del a
dela yed</w>
defe at</w>
def eated</w>
dee p</w>
deci ding</w>
dea f</w>
de tailed</w>
de grees</w>
de cla
de cl
de cep
decep tive</w>
de cent</w>
de bate</w>
de b
deb t</w>
dd ly</w>
da mage</w>
da ire</w>
d war
d ust</w>
d urant</w>
d un
d om
d le</w>
d ity</w>
d ges</w>
d ers</w>
custom s</w>
custom ers</w>
custom ed</w>
curio sity</w>
curi ous</w>
cuis iner</w>
ct or
cru tches</w>
crow ded</w>
cro ss</w>
criti cal</w>
cra p</w>
cra cy</w>
coû te</w>
coû t</w>
coun tless</w>
coun ting</w>
cou rir</w>
cou cher</w>
corri ger</w>
corre cted</w>
cor ner</w>
contribu te</w>
contr at</w>
conten ted</w>
conspi racy</w>
conse quences</w>
congratu late</w>
confis cated</w>
confi dence</w>
conf li
condu is
condi tion
con tain</w>
con stantly</w>
con ference</w>
compos ed</w>
compla int</w>
comp ter</w>
comp elled</w>
comp an
compan ions</w>
commun ity</w>
commun ism</w>
commen ça</w>
comm ents</w>
comfor t</w>
com promise</w>
com ponents</w>
com plain</w>
colle ge</w>
colle cted</w>
col ours</w>
co py
co ins</w>
clus terfuck</w>
clou dy</w>
clo set</w>
clo sest</w>
clim b</w>
class room</w>
cla p</w>
cla irement</w>
cla ims</w>
cl oud</w>
ck ers</w>
civ il</w>
cis m</w>
circum stances</w>
ciné ma</w>
ci ties</w>
cho o
chiev ing</w>
chi ens</w>
cher cher</w>
charac ters</w>
charac ter</w>
char ges</w>
chap ter</w>
chan ceux</w>
cha it</w>
cha irs</w>
cha irperson</w>
cha in</w>
ch unks</w>
ch eated</w>
ch ea
ces tors</w>
certa ines</w>
certa ine</w>
cen ter</w>
celeb ra
cast le</w>
carri ed</w>
care er</w>
car rying</w>
cap ture</w>
cap ital</w>
can cel</w>
can cel
cal me</w>
ca res</w>
ca che</w>
ca bb
c ried</w>
c o</w>
c ali
c a</w>
but tocks</w>
but ter
bus h</w>
bur n</w>
bun ch</w>
bul let</w>
bu ying</w>
bri dge</w>
brea sts</w>
brea ks</w>
brea king</w>
bra ve</w>
br ings</w>
br ill
br a</w>
bo wed</w>
bo w
bo it</w>
blo cked</w>
blis s</w>
blan kets</w>
blan c</w>
black board</w>
bl ings</w>
bl in
bl ed</w>
bit ter</w>
bir th</w>
bicy cles</w>
bicy c
bi ggest</w>
betra yed</w>
betra y</w>
bes ide</w>
benef its</w>
benef it</w>
believ able</w>
beha vior</w>
begin ners</w>
beg gars</w>
bea d</w>
be yond</w>
be ings</w>
be having</w>
be ard</w>
be ar
bear ing</w>
be ans</w>
bat tre</w>
bat h</w>
bas ed</w>
bar ks</w>
banan as</w>
banan a</w>
ball s</w>
ba th
ba stard</w>
ba ked</w>
b ygones</w>
b ounce</w>
b lowing</w>
b low</w>
b loody</w>
b leeding</w>
b iting</w>
b bed</w>
b are</w>
aw oke</w>
aw kward</w>
aw are</w>
auth or</w>
aug men
au rions</w>
au dience</w>
attr acted</w>
athle tic</w>
athle te</w>
at urday</w>
assu mptions</w>
asse oir</w>
assa ul
as s</w>
as ks</w>
as king</w>
arti st</w>
arriv al</w>
arri ving</w>
arri vent</w>
argu ing</w>
are as</w>
ar se</w>
ar rest</w>
ar ian</w>
ar gue</w>
ar bres</w>
appe aled</w>
app ears</w>
ap pr
ap plying</w>
ap pareil</w>
any way</w>
answ ers</w>
ann oun
ang ed</w>
an no
an k
an cestors</w>
ambiti ous</w>
am used</w>
am ount</w>
alis tic</w>
ali en</w>
alax y</w>
al lows</w>
al ist</w>
al im
al ert</w>
al cool</w>
air o</w>
ai es</w>
aggres sion</w>
ag res
ag oras</w>
af fairs</w>
advis er</w>
adverti sing</w>
adverti sements</w>
adv ise</w>
adv ance</w>
admi red</w>
adm is</w>
ada pt</w>
accus é</w>
accep ter</w>
acc ess</w>
ac customed</w>
ac cu
absur d</w>
abstr act</w>
absolu te</w>
absolu ment</w>
abo ard</w>
abandon ed</w>
ab use</w>
ab ducted</w>
a ur
a ts</w>
a the
a jou
a ching</w>
Y ear</w>
Y 2
Y2 K</w>
Wh ite</w>
W orld</w>
W hoever</w>
Uni versity</w>
Un believable</w>
U S</w>
Tur key</w>
Se e</w>
SM S</w>
S co
S aturday</w>
Res earchers</w>
Qu e
Pyth agoras</w>
P ré
P en
P ee
O lympic</w>
O c
No vember</w>
Mosco w</w>
Mon days</w>
Mag ic</w>
M ay</w>
M ac
L a</w>
L O
J une</w>
Isra el</w>
In deed</w>
H ungarian</w>
H owever</w>
H on
H ey</w>
Ger mans</w>
G roup</w>
G o
F ill</w>
F a
Es pagne</w>
E gyptian</w>
D roplets</w>
Christo pher</w>
Cath olic</w>
Cap italism</w>
C ro
C leopa
C hile</w>
C airo</w>
B ye</w>
B ur
Ara bic</w>
Ap parently</w>
An d</w>
Améri ca
Alle magne</w>
Afri ca</w>
A tom
A m
A chieving</w>
û t</w>
éto ile</w>
ét ang</w>
ér é</w>
énor me</w>
ég al</w>
écureu ils</w>
écr is</w>
é vi
é veillé</w>
é lè
élè ves</w>
é lu</w>
è vre</w>
è tes</w>
è ce</w>
â ce</w>
z i
y enne</w>
vér it
voud rait</w>
vou lu</w>
volon té</w>
vois ins</w>
vo it</w>
vi ez</w>
vi ennent</w>
vi enne</w>
vi c
ver sion</w>
ver rai</w>
venge ance</w>
vel o
velo pp
va ches</w>
v é</w>
v us</w>
v endu</w>
v ate</w>
ur gence</w>
uni que</w>
ty pes</w>
tu e</w>
trom pe
tri ce</w>
tradu ire</w>
tra ité</w>
tr ap
tou cher</w>
tor t</w>
tomb ée</w>
tom a
to tal
total ement</w>
ti ques</w>
ti g
ti ens</w>
ter ais</w>
ter ai</w>
tablea u</w>
ta ges</w>
t ur</w>
t eurs</w>
sé par
sur veill
supplé men
suiv i</w>
suici dé</w>
suf fit</w>
su y
sty lo</w>
str ic
spati al</w>
sour ce</w>
souha ite</w>
sou tien</w>
sou da
sou ci
sor tie</w>
sol da
solda ts</w>
so ir
soir ée</w>
silen cieux</w>
signifi e</w>
sig n
si ez</w>
si enne</w>
servi ettes</w>
serv i</w>
sen tir</w>
sen ti</w>
sen tez</w>
se l</w>
se cr
sav ons</w>
satis fait</w>
sal aire</w>
sacr é</w>
sa isir</w>
s an</w>
résul tats</w>
répon du</w>
réfléch i</w>
réalis er</w>
ré ussi
ré solu</w>
ré pé
ré p
ré gu
ré ellement</w>
ré du
rum eur</w>
ridi cu
ri ches</w>
ret tes</w>
ret our</w>
rest ée</w>
respe cter</w>
respe ct
res sources</w>
rencontr és</w>
remer cier</w>
rem ède</w>
rem pl
rejo indre</w>
regar dez</w>
re ur</w>
re présen
re fois</w>
re comman
rais ins</w>
r ont</w>
r ang
r an
quit té</w>
ques tion
quar ter</w>
qu és</w>
qu anti
prê ts</w>
préf é
pré venu</w>
prou ve</w>
prom ettre</w>
prom esse</w>
prom es
promes ses</w>
progra mme</w>
pro je
possibil ité</w>
pos ter</w>
por tée</w>
por té</w>
popula ires</w>
popula ire</w>
po che</w>
ple uv
pla it</w>
pl u</w>
pis to
pi ti
pi que</w>
ph é
peu ple</w>
peti ts</w>
pend u
pati ents</w>
pas sez</w>
pas se
par la</w>
par ie</w>
par fait</w>
pa tri
pa t
p ture</w>
p li
p hi
p he</w>
ouv rit</w>
ouv rez</w>
oubli ez</w>
org an
ordin aire</w>
on ique</w>
ole il</w>
ois eau</w>
occup és</w>
oc at</w>
obli ga
obliga tions</w>
objecti f</w>
obje ction</w>
ob s
ob iles</w>
o gle</w>
no tes</w>
ni veau</w>
ni que</w>
neu f</w>
net te</w>
neigh bor</w>
nav i
nation ale</w>
na ise</w>
n és</w>
n ais</w>
médi ca
mu m</w>
mp a</w>
mon tr
mon ie</w>
mo squ
mo ire</w>
mil it
mignon ne</w>
mi en</w>
meu bles</w>
men songe</w>
men er</w>
mati ère</w>
mathé matiques</w>
mari és</w>
mar teau</w>
mani pu
man &apos;</w>
ma to
lè bre</w>
lon gues</w>
let tres</w>
lar i
la ire</w>
l ise</w>
k ilo
kilo s</w>
jo li</w>
jam be</w>
j ean</w>
it ement</w>
iss ons</w>
iss er</w>
iss ant</w>
is tes</w>
is ance</w>
inter dit</w>
inspi ration</w>
indus tri
indi quer</w>
in timi
in f
in ent</w>
in dé
in corri
incorri gi
in ce</w>
impor tante</w>
im pati
ill ard</w>
il li
il la</w>
ig ni
i rez</w>
hé ros</w>
hâ te</w>
hab it
géné ration</w>
gr é</w>
gr âce</w>
gr ands</w>
gar d
g érer</w>
g an
fu tur</w>
fu me</w>
fro ide</w>
fran ch
fou le</w>
for te</w>
for ces</w>
fonction ne</w>
fol le</w>
fo i</w>
fi é</w>
fi ci
fer mé</w>
fer iez</w>
fan t
fa its</w>
fa in
fa bri
f éli
f us</w>
f rais</w>
excel lent</w>
ex tr
ex ig
ev ine</w>
eur re</w>
eu s</w>
et tez</w>
espér anto</w>
es te</w>
envo yer</w>
envir on</w>
enseig ner</w>
enf in</w>
en us</w>
en fu
emplo y
el sius</w>
e rez</w>
e cte</w>
détru it</w>
déci der</w>
dé çu</w>
dé range</w>
dé la
dé f
dé cé
dé cl
dou leur</w>
don ner
do s</w>
do g
différen ce</w>
di ri
di rait</w>
di rai</w>
d èle</w>
d us</w>
cé lèbre</w>
cro yez</w>
cro ient</w>
cra vate</w>
cr ise</w>
coû ts</w>
coup é</w>
cou teau</w>
cor de</w>
contin ue</w>
conse illé</w>
conna issez</w>
conna isse</w>
conna issait</w>
condu it</w>
con stitu
con st
con fir
commer ce</w>
com porte</w>
com pen
com bus
col on
col lis
col labor
col at</w>
co pain</w>
co lo
co chon</w>
cli ent</w>
cla ir</w>
cho ir</w>
cho colat</w>
chev al</w>
cher ches</w>
chau de</w>
chan ce
cham p</w>
cha c
chac un</w>
ch ant</w>
certa inement</w>
cel les</w>
car tes</w>
car act
cam pagne</w>
c lari
c ist</w>
bri o
br as</w>
bour g</w>
bon jour</w>
bon heur</w>
ble u</w>
bil ité</w>
bicyc lette</w>
bi en
ban des</w>
ba se</w>
b in
b eurre</w>
av ocat</w>
av aient</w>
aut refois</w>
au rai</w>
attend u</w>
arti cles</w>
arrê t</w>
appel ez</w>
ap prends</w>
anx i
an &apos;</w>
amus er</w>
amus ant</w>
alim ents</w>
al lu
al lo
al liez</w>
ai res</w>
ai g
ai e</w>
ach et
ac ide</w>
ac compli
ab sen
a per
a pa
a ises</w>
a il
V enus</w>
U r
T ra
Sal ut</w>
S on
S oleil</w>
S ach
R em
Qu els</w>
O u
L in
Jean ne</w>
Jack son</w>
Ital ie</w>
Go ogle</w>
D evine</w>
Ch il
C or
C elsius</w>
Atom ic</w>
A s
A pp
4 000</w>
2 8</w>
œ urs</w>
û mes</w>
ô me</w>
ï de</w>
î ne</w>
î mes</w>
í o</w>
ê t</w>
étudi ante</w>
étu de</w>
éta ire</w>
éri e</w>
ér alement</w>
épo que</w>
ép in
économ ie</w>
écla ta</w>
é tit</w>
é tant</w>
é ro
éro port</w>
é pu
é lev
é go
égo ï
é car
é an</w>
é a</w>
ç ois</w>
â me</w>
â ché</w>
z z</w>
z om
z art</w>
yon naise</w>
yo ne
yone &apos;</w>
yo n</w>
yo ko</w>
y u
yu an</w>
y ser</w>
y d
yd ne
ydne y</w>
y azak
yazak i</w>
y ait</w>
y ach
yach ts</w>
xi ème</w>
x yg
x ford</w>
x em
xem bourg</w>
x e</w>
wat ch
w ton</w>
vérit able</w>
vou liez</w>
vol é</w>
vol ant</w>
vo leur</w>
vo ix</w>
vo ie</w>
vit am
virg in
viol ence</w>
vin ce</w>
veu illes</w>
ver rou
ver dict</w>
ver &apos;</w>
ven ons</w>
ven iez</w>
vac u
va ta
vata r</w>
v ari
utilis é</w>
utilis ez</w>
uti lise</w>
ustr op
ustrop ho
us ions</w>
us er</w>
up iter</w>
un es</w>
u res</w>
té oro
té mo
tu ber
tuber cu
tter bro
tterbro t</w>
ts ch
tsch land</w>
tru c</w>
trouver as</w>
trouv ent</w>
trouv ait</w>
trom bone</w>
tro pical</w>
tro isi
troisi ème</w>
tri g
tri ci
trici a</w>
tri angle</w>
traver ser</w>
trava illes</w>
trans lu
trans fus
transfus ions</w>
tradu ctions</w>
tradu ction</w>
tradi tions</w>
tradi tion</w>
tra iter</w>
tra ite</w>
tra it
tr ous</w>
tr iste</w>
tr age</w>
tou ché</w>
tou ch
tor i
tori al</w>
tom be</w>
to x
to wer</w>
to it</w>
tiv al</w>
till esse</w>
ti sti
thro po
thes da</w>
ther most
thermost at</w>
ther mom
ther mo
thermo dynam
th ou
tex te</w>
terri blement</w>
termin er</w>
ter r
terr or
ter ie</w>
ter a</w>
ter &apos;</w>
tend in
tend ance</w>
ten té</w>
ten te</w>
ten sions</w>
ten ait</w>
tem por
tal o
tal is
talis man</w>
ta ux</w>
ta .
ta. go
ta.go v</w>
t èrent</w>
t sun
tsun ami</w>
t res
t ants</w>
t ances</w>
sû rement</w>
séri eusement</w>
séri e</w>
sé ché</w>
sympa th
sy st
syst ème</w>
sy n
suy am
suyam a</w>
suspici on</w>
surveill ance</w>
sup porter</w>
sul fu
suiv ant</w>
sugges tions</w>
sugg ère</w>
stru cture</w>
stri ct</w>
str at
sti que</w>
stat es</w>
stan bu
stanbu l</w>
sta tisti
st an</w>
st able</w>
ss ée</w>
ss é</w>
spé ci
sprin t</w>
spe ction</w>
sou rire</w>
sou ri
sou la
sou f
sor tez</w>
som bre</w>
solu ble</w>
sol ent</w>
so ch
sno b</w>
sk i</w>
sk a</w>
sin ées</w>
sin o</w>
sin es</w>
silen ci
si mula
si lia</w>
si eur</w>
si den
sex u
serv ant</w>
ser ver</w>
ser va
ser mon</w>
ser iez</w>
sen sé</w>
sembl ant</w>
sem i</w>
sem bla
sembla it</w>
sel ler</w>
sel fie</w>
secon de</w>
se ize</w>
se ille</w>
se c</w>
scientifi ques</w>
sau ver</w>
sau ce</w>
sal ons</w>
sal ade</w>
sak i</w>
sa tion</w>
sa in</w>
sa g
sa d
s ées</w>
s sage</w>
s pa
s it
s giving</w>
s cul
scul pture</w>
s cin
s car</w>
s can
s bru
sbru ck</w>
rés il</w>
répon ds</w>
rép and
ré gl
ré es</w>
ré col
ré alité</w>
rus se</w>
ron y
rom ettez</w>
ro pé
ro dis
rodis i
rodisi a
ris tina</w>
ris ques</w>
ris que</w>
ri z</w>
ri x</w>
ri val</w>
ri gh
ri fication</w>
ri deau</w>
rest ez</w>
rest es</w>
res ti
rem ettre</w>
regret table</w>
refu ge</w>
reconnaiss ante</w>
rec ev
re prise</w>
re l
re constru
re con
re char
rechar g
recharg ea
re and
rappel ez</w>
rapi de</w>
radi um</w>
racon ter</w>
ra ti
ra mp</w>
ra m
ra ine</w>
ra ces</w>
ra ble</w>
r ée</w>
r use</w>
r in
rin cess</w>
r ho
quit te</w>
question naire</w>
qu o</w>
qu ir
qu in
quin ze</w>
qu eu
queu e</w>
pê che</w>
pé né
pun i</w>
puis siez</w>
publi que</w>
pu tation</w>
pu rification</w>
pu issance</w>
psy cho
préfé rerais</w>
pré vu</w>
pré vois</w>
pré cis
pruden te</w>
pru dent</w>
proté ger</w>
prote ction</w>
pronon cer</w>
prom ets</w>
profon de</w>
profes sions</w>
produ its</w>
pro tes
pro se</w>
priv é</w>
prin cip
prin cesse</w>
prin ce</w>
pri vil
prend ra</w>
pr ouv
pr of</w>
pour vu</w>
poss ède</w>
pos tale</w>
pos itive</w>
pos es</w>
por ts</w>
por tion</w>
popu lar
ponctu el</w>
po ème</w>
po ll
poll o</w>
po ker</w>
ple ure</w>
plais ante</w>
pl orable</w>
piè ces</w>
pizz er
pizzer ia</w>
pickpo cket</w>
pi rate</w>
pi r
phé nom
phénom ène</w>
physi que</w>
photo syn
photo gra
pho sp
philoso phi
philosophi e</w>
ph on</w>
ph en</w>
ph an
phan um
perfe ction
per sion</w>
per mettre</w>
per due</w>
per ception</w>
pen sent</w>
pein ture</w>
pea re</w>
pe int</w>
patri o
patrio tis
pati o</w>
passe port</w>
pas sion</w>
pas sion
paro v</w>
paro le</w>
para sol</w>
par ta
par s</w>
par mi</w>
par lons</w>
par l
par fa
parfa itement</w>
par an
paran o
par am
par ach
parach ute</w>
pag es</w>
paci fis
pa st
pa sses</w>
pa res
pa ins</w>
pa go
pa chin
pachin ko</w>
pa ble</w>
p é</w>
p tem
p se</w>
p re</w>
p neu
p is</w>
p et</w>
p eau</w>
oun es</w>
oun an</w>
ou trage</w>
ou ons</w>
ou b</w>
ori ko</w>
ord res</w>
ord an</w>
or p
or o</w>
or ent</w>
or dre</w>
or d</w>
op é
op ti
op k
opk ins</w>
op hy
ophy si
on né</w>
on n
on go</w>
old man</w>
ok er</w>
ois eaux</w>
offen se</w>
oc ío</w>
oc éan</w>
oc re</w>
oc a</w>
obje ts</w>
ob u</w>
ob in
obin son</w>
o xyg
o res
o lives</w>
nu l</w>
no yé</w>
ni gh
ni er</w>
ni cot
nicot ine</w>
ni a</w>
nes ty</w>
need n</w>
natu rel</w>
nag e
na tion</w>
na issance</w>
n ôtre</w>
n sbruck</w>
n itu
nitu de</w>
n it
n ard</w>
mê mes</w>
mér ite</w>
mé téoro
mé moire</w>
musici en</w>
mus t&apos;</w>
mus ic
mu g</w>
mp us</w>
mou sines</w>
mon te</w>
mon ot
mon ade</w>
mo yenne</w>
mo tion
mo tel</w>
mo sa
mis es</w>
min istr
ministr ation</w>
mili a</w>
mig nons</w>
messa ges</w>
merveille ux</w>
menti r</w>
ment i</w>
men u</w>
men tation</w>
men sion</w>
mel on</w>
me cs</w>
mauv aises</w>
mati que</w>
mat ins</w>
marr on</w>
mar ath
marath on</w>
manipu la
man us
mal gré</w>
mag nitude</w>
ma yonnaise</w>
ma tions</w>
ma tin
ma soch
ma is
ma ine</w>
ma gi
m è
m ouv
m ment</w>
m m</w>
m ise</w>
m ez</w>
m ement</w>
légu mes</w>
ly cée</w>
lu de</w>
lon gs</w>
logi ques</w>
logi e</w>
lo yal</w>
lo y
lo cation</w>
lig nes</w>
li p</w>
li mousines</w>
li en</w>
li ba
liba taire</w>
les quelles</w>
len tement</w>
le ts</w>
le j
lej andra</w>
le cture</w>
la tion</w>
la h</w>
l âche</w>
l ton</w>
l f</w>
l ence</w>
kil t</w>
kil ea
kilea ks</w>
ki o</w>
ki ko</w>
ker villes</w>
k sgiving</w>
k raine</w>
k ey
k es
kes peare</w>
k awa</w>
k ara
jou ent</w>
jo ie</w>
ja zz</w>
j ong</w>
j ette</w>
j ban</w>
j al
it z</w>
it anni
iss é</w>
is sais</w>
is ez</w>
is a</w>
invit és</w>
invit ées</w>
invit ation</w>
interru p
inter section</w>
inter rom
inter cep
inter action</w>
intelli gen
intelligen te</w>
instru ments</w>
ingéni eurs</w>
influ ences</w>
influ ence</w>
infe ct
inf anti
infanti le</w>
indi cation</w>
indi ca
incorrigi ble</w>
inci dent</w>
in tu
in tes</w>
in tact</w>
in spection</w>
in solent</w>
in se
in s
in obu</w>
in justice</w>
in g
in com
in clus
inclus ion</w>
in able</w>
impli qué</w>
imp sons</w>
im patience</w>
im parti
ill usions</w>
ill usion</w>
ig nez</w>
idi oma
ick Dis
ickDis play</w>
i rait</w>
i ci
i cas
icas so</w>
hy dro
hydro g
hu maine</w>
hu la</w>
hor reur</w>
hoo p</w>
ho p</w>
ho ll
ho ck
hock ey</w>
hi ma</w>
hi lip</w>
heure uses</w>
heu r
he re&apos;</w>
hand ball</w>
han ksgiving</w>
ham med</w>
ham bur
hambur ger</w>
had n&apos;</w>
habitu é</w>
ha ramp</w>
ha kespeare</w>
h stan</w>
h rodisia
h o</w>
géné ral</w>
géni e</w>
gén éralement</w>
guit are</w>
gu m</w>
gu ides</w>
gu ch
guch i</w>
gor ge</w>
go sla
go lf</w>
gi on</w>
gi gan
gen tillesse</w>
gen ti
gen oux</w>
ge yser</w>
ge a</w>
ga sp
ga rettes</w>
g és</w>
g ère</w>
g out
g ons</w>
g an</w>
g al</w>
fron ti
franch ement</w>
fran cs</w>
fra me</w>
fr us
for êt</w>
for tun
for ts</w>
for mer</w>
for cé</w>
for cer</w>
fo o</w>
fo lie</w>
flu ores
flu ctu
fin ir</w>
fin al</w>
fil ms</w>
fi er</w>
fi dèle</w>
fi an
ff re</w>
fes tival</w>
fe ction
fau tes</w>
fant ômes</w>
fal lait</w>
fais ais</w>
fai ble</w>
fa ux</w>
fa tal</w>
fa scin
fa ctures</w>
f ts</w>
f red</w>
f r</w>
f ous</w>
f leur</w>
f ans</w>
ey mar</w>
expli qu
exper t</w>
exer ci
exerci ce</w>
excel lence</w>
exam ine</w>
ex pri
ex pos
ex or
ex clus
ex ception</w>
ever yone&apos;</w>
ev in</w>
eu xième</w>
eu tschland</w>
eu ros</w>
eu ropé
esp èce</w>
es tin
es sion</w>
es cor
es cha
escha to
er ra
er born</w>
environ nement</w>
entr é</w>
enti ssage</w>
enti er</w>
endor mi</w>
end rix</w>
end ra</w>
end om
end er</w>
en ri
en ra
en ny</w>
emprun ter</w>
em pêché</w>
el t</w>
el son</w>
el ler</w>
el fast</w>
el a</w>
ei ch
eich elt</w>
ea gan</w>
e x</w>
e re&apos;</w>
e ine</w>
e book</w>
e B
eB ay</w>
déla ïde</w>
dé te
dé mé
dé goû
dé con
du res</w>
du o</w>
dri ver&apos;</w>
dri an</w>
dou é</w>
dou te</w>
donn ées</w>
donn ent</w>
don née</w>
dom mage</w>
dol es
docu ments</w>
docu ment</w>
do tes</w>
dit ation</w>
dis tances</w>
dis tan
dis su
dis persion</w>
dis par
dis es</w>
dis crimin
dire cteur</w>
din o
din av
différen ts</w>
différen ces</w>
diffi cil
diag on
di ra</w>
di mension</w>
di ctions</w>
di cta
dicta torial</w>
di able</w>
deven us</w>
dev raient</w>
dev in
dev i
dev ait</w>
desig ners</w>
descri ption</w>
des sinées</w>
de mo
de bout</w>
dd his
dan us</w>
d rew</w>
d res</w>
d euxième</w>
cé libataire</w>
cy m
cy ber
curren ce</w>
cur ry</w>
cul tu
cul ti
criti que</w>
cr it</w>
cr it
coû té</w>
couver ture</w>
coura mment</w>
coup les</w>
cou teaux</w>
cou sins</w>
cou per</w>
cou pable</w>
cou leur</w>
cou ld&apos;</w>
corre cte</w>
cor respond</w>
contribut eur</w>
contr ôle</w>
contr ari
contr adi
contradi ction</w>
conten ts</w>
constitu ent</w>
connaiss ance</w>
conna issais</w>
conf érence</w>
conf usion</w>
condi tions</w>
conclus ion</w>
concen trer</w>
con ver
con ven
con som
con ne
con ju
con gé</w>
con fection
compor tement</w>
comp let</w>
commer ci
comman de</w>
comm un</w>
combus tion</w>
com par
com pa
com mission</w>
colon ies</w>
collis ions</w>
colle ction</w>
collabor ative</w>
col n</w>
co de</w>
co ck
cock tail</w>
cli pse</w>
cli mato
clari fication</w>
cla ustropho
cit o
cis ions</w>
circu lation</w>
cir rho
ci vi
ci garettes</w>
cho is
chin ois</w>
chi ko</w>
che wing</w>
chaus set
char d</w>
chance use</w>
chan teuse</w>
chan teur</w>
challen ger</w>
cha leur</w>
cha el</w>
ch ée</w>
ch ons</w>
ch ans
chans ons</w>
ces co</w>
cen sé</w>
cel et</w>
caus é</w>
cass er</w>
cas li</w>
carri ère</w>
caract ère</w>
capit aine</w>
can dinav
can ap
canap é</w>
cal ories</w>
ca talo
ca sino</w>
ca mpus</w>
ca mp</w>
ca mi
ca ble</w>
c tri
c re</w>
c it</w>
c ez</w>
c enti
c ence</w>
bun tu</w>
brû lé</w>
bru it</w>
brio che</w>
brill ante</w>
bra celet</w>
br ou
bou ton</w>
bor del</w>
bor a
bora casli</w>
blon des</w>
bless ée</w>
bless er</w>
bl in</w>
bis cu
bil lets</w>
bil let</w>
bi got</w>
ber t</w>
beau té</w>
be c</w>
bas sad
bas ket</w>
bar a</w>
ban que</w>
bam bo
bam a</w>
bal eine</w>
b œuf</w>
b in</w>
b arri
barri ca
b a</w>
azak hstan</w>
az a</w>
ay ne</w>
ay ant</w>
ava S
avaS C
avaSC RI
avaSCRI P
avaSCRIP T</w>
av ions</w>
av ion</w>
av id</w>
av a</w>
aut eur</w>
augmen té</w>
au té</w>
au to</w>
attrap e</w>
attend ons</w>
atten dais</w>
atte int</w>
atte indre</w>
at mo
assis tance</w>
as tro
as surance</w>
as sis</w>
as parov</w>
as kervilles</w>
as h</w>
ari th
ara h</w>
ar o</w>
ar danus</w>
appr entissage</w>
appli cations</w>
appel ée</w>
appel l
app étit</w>
app lau
ap prend</w>
ap porte</w>
ap les</w>
ap hrodisia
annu l
ani mation</w>
ani guchi</w>
and range</w>
and ela</w>
an thropo
an que</w>
an mar</w>
an al
anal o
an a
ana ko</w>
ami ca
ama ko</w>
am ical</w>
am bo
am bassad
allo ween</w>
allergi es</w>
all as</w>
ali for
al tru
al phanum
al as</w>
ak ongo</w>
ak ag
akag awa</w>
aim ée</w>
aim erait</w>
agres si
ag ir</w>
ag a
aga saki</w>
adi l</w>
adi es</w>
ad ul
ad mira
ad ministration</w>
ad erborn</w>
actu ari
ach ète</w>
acci dents</w>
ac ti
ac rony
ac i
ac ebook</w>
ac compl
aby le</w>
aby l
abo ie</w>
aban donner</w>
ab ord</w>
ab ah</w>
a éroport</w>
a tricia</w>
a res</w>
a ponais</w>
a omi</w>
a isé</w>
a doles
a be
Yu kio</w>
Yu kawa</w>
Wi kileaks</w>
War craft</w>
W here&apos;</w>
W ayne</w>
V ince</w>
Ur anus</w>
U kraine</w>
U buntu</w>
Tu fts</w>
Ti bet</w>
T rang</w>
T im</w>
T ickDisplay</w>
T hanksgiving</w>
T ed</w>
T aro</w>
T aniguchi</w>
Ste ve</w>
Ste phen</w>
Sta mpa</w>
Son ia</w>
Sh ounan</w>
Sh inobu</w>
Se con
Sal z
Sach s</w>
Sa yoko</w>
Sa to</w>
Sa chiko</w>
S ydney</w>
S pot</w>
S impsons</w>
S hakespeare</w>
S candinav
S arah</w>
S andra</w>
S am</w>
S ally</w>
S abah</w>
S D</w>
Ri ck</w>
Res nais</w>
RI C</w>
R ome</w>
R ocío</w>
R obinson</w>
R h
R even
R eichelt</w>
R eagan</w>
R A
RA M</w>
Portu gal</w>
Par k</w>
Pal ais</w>
P romettez</w>
P rincess</w>
P icasso</w>
P hilip</w>
P haramp</w>
P atricia</w>
P aderborn</w>
P aci
O xford</w>
O scar</w>
O ri
O liver</w>
O kin
O bama</w>
No bel</w>
Ne wton</w>
N oriko</w>
N eymar</w>
N elson</w>
N ash</w>
N ara</w>
N aples</w>
N aomi</w>
N akagawa</w>
N agasaki</w>
My anmar</w>
Mon go
Mon drian</w>
Mo zart</w>
Mo hammed</w>
Mis hima</w>
Mil an</w>
Mi yazaki</w>
Mi ra
Mi ho</w>
Mi chael</w>
Mat t</w>
Mat suyama</w>
Mat oub</w>
Mar ty</w>
Mar tin</w>
Mar seille</w>
M er
M ax</w>
M andela</w>
M al
M age</w>
Lu xembourg</w>
Lu ther</w>
Lon dres</w>
Lin coln</w>
L éa</w>
L ounes</w>
L ang
L SD</w>
K evin</w>
K eller</w>
K azakhstan</w>
K athy</w>
K asparov</w>
K akongo</w>
Ju lie</w>
Ju ba</w>
Joh n
Jo e</w>
Jim my</w>
Jim i</w>
Jean ette</w>
J upiter</w>
J ouons</w>
J ordan</w>
J enny</w>
J avaSCRIPT</w>
J ava</w>
J aponais</w>
J an
In nsbruck</w>
In de</w>
I stanbul</w>
I r
Hum mer</w>
Ho oker</w>
Hit omi</w>
Hit ler</w>
Hen ry</w>
Hen an</w>
Har ry</w>
Har bin</w>
H opkins</w>
H ere&apos;</w>
H endrix</w>
H anako</w>
H alloween</w>
G oro</w>
G oldman</w>
G aza</w>
G andrange</w>
G ables</w>
Fran çois</w>
Fran z</w>
Fran cesco</w>
Fr itz</w>
F red</w>
F anta</w>
F adil</w>
F acebook</w>
E ric</w>
E milia</w>
Du blin</w>
De bus
Da me</w>
D eutschland</w>
D avid</w>
D ardanus</w>
D an&apos;</w>
D allas</w>
Crea tive</w>
Con tr
Comm un
Comm ons</w>
Col bert</w>
Co la</w>
Cleopa tra</w>
Char tres</w>
Ch ine</w>
Ch an
Car tw
Car lton</w>
Cap itu
C ristina</w>
C oca</w>
C athy</w>
C ambo
C alifor
C .</w>
Bu tterbrot</w>
Bra silia</w>
Ber nard</w>
Ber lin</w>
Be thesda</w>
Bar bara</w>
Bar ack</w>
B résil</w>
B ride</w>
B reand
B elfast</w>
B askervilles</w>
B anque</w>
B amako</w>
B abyl
B RIC</w>
B BC</w>
App en
Ank i</w>
Ank ara</w>
An ti
An na</w>
An drew</w>
América ins</w>
Am nesty</w>
Ala ska</w>
Ala in</w>
Al lah</w>
Al fred</w>
Al bi
Akag i</w>
Akag awa</w>
A vatar</w>
A si
A pollo</w>
A ll</w>
A lejandra</w>
A kiko</w>
A délaïde</w>
8 9</w>
8 8</w>
8 3</w>
7 89</w>
6 0
60 4</w>
4 2</w>
3 2</w>
201 6</w>
200 3</w>
200 1</w>
20 30</w>
20 00</w>
2. 0</w>
2 7</w>
2 5</w>
2 0</w>
2 00</w>
198 5</w>
198 1</w>
198 0</w>
197 4</w>
197 2</w>
197 0</w>
191 4</w>
191 2</w>
19 20</w>
18 88</w>
18 60</w>
1 789</w>
1 2</w>
œ uv
œuv re</w>
ô ne</w>
ï ne</w>
î n
ê mement</w>
év è
étudi é</w>
étudi ent</w>
étu des</w>
étr angers</w>
étr ang
éte indre</w>
éta gère</w>
éri que</w>
éri ca
ér a</w>
épu isé</w>
épous é</w>
épa is</w>
élev és</w>
éle ctr
électr onique</w>
égoï ste</w>
ég ard</w>
ég alité</w>
ég age</w>
écou té</w>
écou tez</w>
écou tes</w>
écou te</w>
échou é</w>
éche cs</w>
é volution</w>
é ton
é ter</w>
é tend
é prouve</w>
é n
é ment</w>
é lé
é lève</w>
é du
è tre</w>
ç o
á n</w>
zom bi
zombi es</w>
zi p</w>
z éro</w>
z ure</w>
z iest</w>
z i</w>
z es</w>
z enly</w>
z ement</w>
z ees</w>
z ation</w>
z ards</w>
z ant</w>
you th</w>
yo r</w>
yo l
yol ks</w>
yo g
yog ur
yogur t</w>
yo del
yodel er</w>
yel ling</w>
y stan
ystan der</w>
y sit</w>
y self</w>
y pr
ypr us</w>
y lic</w>
y going</w>
y ells</w>
y ard</w>
y able</w>
x ury</w>
x im
writ ers</w>
wra p</w>
wr ites</w>
wor thy</w>
wor ries</w>
wor ms</w>
wor ld
world wide</w>
wor ker</w>
wor k
work force</w>
won dered</w>
wol ves</w>
wo ke</w>
witnes ses</w>
witnes sed</w>
wis hes</w>
win ner</w>
win ded</w>
wim ps</w>
wim p</w>
wild life</w>
wild flowers</w>
wil dly</w>
wil d</w>
wi re
wire ta
wireta pping</w>
wi ped</w>
wi ggled</w>
wi cked</w>
whis tle</w>
whis pe
whispe red</w>
whis key</w>
whi pped</w>
whi plash</w>
what so
whatso ever</w>
wha les</w>
wel ling</w>
wel com
welcom ed</w>
weir do</w>
weigh ing</w>
wee p</w>
wee ds</w>
weal th</w>
wea ved</w>
wea pon
weapon s</w>
wea ker</w>
wea ken</w>
we re
were wolf</w>
we pt</w>
we gi
wegi an</w>
we den</w>
wav ing</w>
wav ed</w>
watch ful</w>
wash es</w>
war ning</w>
war mer</w>
war m
warm th</w>
war eness</w>
wan dering</w>
wal let</w>
wa ve</w>
wa tering</w>
wa tered</w>
wa ter
water melon</w>
wa sp
wasp s</w>
wa king</w>
wa its</w>
wa iter</w>
wa is
wais t
waist coat</w>
wa gs</w>
wa ges</w>
wa ff
waff les</w>
wa days</w>
w room</w>
w rea
wrea ths</w>
w ounds</w>
w ounded</w>
w ny</w>
w ning</w>
w ire</w>
w ins</w>
w illed</w>
w fall</w>
w els</w>
w ds</w>
w der</w>
vér ance</w>
vé cut</w>
vou lut</w>
vou laient</w>
vot ed</w>
volunte ers</w>
volunte ering</w>
volun tar
voluntar ily</w>
volu mes</w>
volu me</w>
volon taire</w>
volcan oes</w>
volcan o</w>
vo ler</w>
vo l</w>
vo cated</w>
viv ez</w>
viv ait</w>
vitam in</w>
vit esse</w>
visit ors</w>
visit or</w>
vis its</w>
virgin ity</w>
vir é</w>
vir tue</w>
viol ently</w>
video ta
videota ped</w>
video games</w>
vide os</w>
victi ms</w>
vic toire</w>
vi ve</w>
vi ties</w>
vi ole
viole ts</w>
vi et</w>
vi er</w>
vi ded</w>
vi cious</w>
vi ande</w>
vi a</w>
ver ted</w>
ver res</w>
ver b</w>
vend ors</w>
ven ues</w>
ven ture</w>
velopp é</w>
vel ler</w>
veget arian</w>
veget ari
vegetari ans</w>
vege table</w>
ve resti
veresti ma
verestima ted</w>
ve rers</w>
vari ety</w>
var k</w>
van tes</w>
van ity</w>
van ish</w>
val ley</w>
val eur</w>
val edi
valedi ctor
valedictor ian</w>
vacu um</w>
vac y</w>
va tives</w>
va iss
v éri
v ité</w>
v i</w>
v ez</w>
v ation</w>
v alis
v ali
uti ous</w>
uti lized</w>
uti les</w>
ut tled</w>
ut tered</w>
us ts</w>
us tri
ustri an</w>
us tion</w>
us ters</w>
us so</w>
us se</w>
us he
ushe red</w>
us eless</w>
urin ate</w>
ur é</w>
ur ry</w>
ur man
urman ji</w>
ur gency</w>
ur ban</w>
ur ally</w>
up ts</w>
up right</w>
up date</w>
unre len
unrelen ting</w>
unre alistic</w>
univer sa
universa l</w>
uni qu
uniqu eness</w>
uni mag
unimag inable</w>
unfor gi
unforgi vable</w>
unfor get
unforget table</w>
under wear</w>
under water</w>
under value</w>
under stands</w>
under mine</w>
un wrapped</w>
un tly</w>
un ted</w>
un ta
unta pped</w>
un su
unsu al</w>
un solved</w>
un skilled</w>
un satisfied</w>
un salted</w>
un s</w>
un related</w>
un professional</w>
un popular</w>
un pleasant</w>
un ned</w>
un locked</w>
un intended</w>
un impressed</w>
un happy</w>
un fit</w>
un faithful</w>
un dress</w>
un de
unde res
underes timate</w>
un con
uncon trol
uncontrol la
uncontrolla bly</w>
un common</w>
un clear</w>
un cla
uncla sp</w>
un ching</w>
un anim
unanim ous</w>
un ambitious</w>
un ai
unai ded</w>
umbre ll
umbrell as</w>
um p
ump h</w>
um bling</w>
um ber</w>
ul ed</w>
ug ust</w>
u ten
uten s
utens ils</w>
u red</w>
u plo
uplo ad</w>
u no
uno pen
unopen ed</w>
u near
unear thed</w>
u ne
une mo
unemo tional</w>
u le</w>
u g</w>
u ffle</w>
u ding</w>
u dd
udd ers</w>
u ca
uca sian</w>
u ary</w>
u ages</w>
témo in</w>
télé phones</w>
té nu
ty re</w>
ty ran
tyran ny</w>
ty pical</w>
ty pho
typho on</w>
ty p
typ o</w>
twel f
twelf th</w>
tw itted</w>
tw is
twis ting</w>
tw in</w>
tur ning</w>
tun ing</w>
tubercu lo
tuberculo sis</w>
tu t</w>
tu ries</w>
tu red</w>
tu ous</w>
tu m</w>
tu cked</w>
tu bes</w>
tu b</w>
tu al</w>
tter ns</w>
tter ing</w>
ts man</w>
tru ths</w>
tru ly</w>
tru ant</w>
trouv erez</w>
trou sers</w>
trou bled</w>
trou ble
trouble ma
troublema ker</w>
trom per</w>
trol man</w>
tro u</w>
tro ops</w>
tro le</w>
tro le
trole um</w>
trig ge
trigge red</w>
tri umph</w>
tri ps</w>
tri pping</w>
tri ple</w>
tri f
trif ling</w>
tri bun
tribun al</w>
tri bu
tribu tion</w>
tres passing</w>
trem end
tremend ous</w>
trem bling</w>
trem blement</w>
trea tment</w>
trea sure</w>
tre mists</w>
tre bled</w>
travel ers</w>
travel ed</w>
travaill ons</w>
travail lais</w>
trap s</w>
translu cent</w>
transla tor</w>
transla ting</w>
transla ted</w>
trans for
transfor med</w>
trag ed</w>
trag e
trage dy</w>
trac tor</w>
trac ting</w>
tra y</w>
tra des</w>
tr é
tr usts</w>
tr icky</w>
tr en
tren ches</w>
tr ate</w>
tr ang
trang ely</w>
tr am
tram p</w>
