{
  "version": "1.0",
  "truncation": null,
  "padding": null,
  "added_tokens": [
    {
      "id": 0,
      "content": "<s>",
      "single_word": false,
      "lstrip": false,
      "rstrip": false,
      "normalized": false,
      "special": true
    },
    {
      "id": 1,
      "content": "<pad>",
      "single_word": false,
      "lstrip": false,
      "rstrip": false,
      "normalized": false,
      "special": true
    },
    {
      "id": 2,
      "content": "</s>",
      "single_word": false,
      "lstrip": false,
      "rstrip": false,
      "normalized": false,
      "special": true
    },
    {
      "id": 3,
      "content": "<unk>",
      "single_word": false,
      "lstrip": false,
      "rstrip": false,
      "normalized": false,
      "special": true
    }
  ],
  "normalizer": null,
  "pre_tokenizer": {
    "type": "Whitespace"
  },
  "post_processor": null,
  "decoder": null,
  "model": {
    "type": "BPE",
    "dropout": null,
    "unk_token": "<unk>",
    "continuing_subword_prefix": null,
    "end_of_word_suffix": null,
    "fuse_unk": false,
    "byte_fallback": false,
    "ignore_merges": false,
    "vocab": {
      "<s>": 0,
      "<pad>": 1,
      "</s>": 2,
      "<unk>": 3,
      "!": 4,
      "$": 5,
      "&": 6,
      "(": 7,
      ")": 8,
      ",": 9,
      "-": 10,
      ".": 11,
      "/": 12,
      "0": 13,
      "1": 14,
      "2": 15,
      "3": 16,
      "4": 17,
      "5": 18,
      "6": 19,
      "7": 20,
      "8": 21,
      "9": 22,
      ":": 23,
      ";": 24,
      "?": 25,
      "@": 26,
      "A": 27,
      "B": 28,
      "C": 29,
      "D": 30,
      "E": 31,
      "F": 32,
      "G": 33,
      "H": 34,
      "I": 35,
      "J": 36,
      "K": 37,
      "L": 38,
      "M": 39,
      "N": 40,
      "O": 41,
      "P": 42,
      "Q": 43,
      "R": 44,
      "S": 45,
      "T": 46,
      "U": 47,
      "V": 48,
      "W": 49,
      "X": 50,
      "Y": 51,
      "Z": 52,
      "a": 53,
      "b": 54,
      "c": 55,
      "d": 56,
      "e": 57,
      "f": 58,
      "g": 59,
      "h": 60,
      "i": 61,
      "j": 62,
      "k": 63,
      "l": 64,
      "m": 65,
      "n": 66,
      "o": 67,
      "p": 68,
      "q": 69,
      "r": 70,
      "s": 71,
      "t": 72,
      "u": 73,
      "v": 74,
      "w": 75,
      "x": 76,
      "y": 77,
      "z": 78,
      "©": 79,
      "À": 80,
      "Â": 81,
      "Ã": 82,
      "É": 83,
      "Ô": 84,
      "à": 85,
      "á": 86,
      "â": 87,
      "ç": 88,
      "è": 89,
      "é": 90,
      "ê": 91,
      "ë": 92,
      "í": 93,
      "î": 94,
      "ï": 95,
      "ô": 96,
      "ù": 97,
      "û": 98,
      "œ": 99,
      "​": 100,
      "‽": 101,
      "⊂": 102,
      "th": 103,
      "ou": 104,
      "re": 105,
      "po": 106,
      "pos": 107,
      "in": 108,
      "apos": 109,
      "is": 110,
      "an": 111,
      "on": 112,
      "er": 113,
      "en": 114,
      "es": 115,
      "the": 116,
      "to": 117,
      "you": 118,
      "at": 119,
      "le": 120,
      "as": 121,
      "it": 122,
      "om": 123,
      "he": 124,
      "ar": 125,
      "ing": 126,
      "ve": 127,
      "or": 128,
      "ll": 129,
      "de": 130,
      "qu": 131,
      "me": 132,
      "se": 133,
      "ne": 134,
      "no": 135,
      "te": 136,
      "ha": 137,
      "ce": 138,
      "il": 139,
      "be": 140,
      "st": 141,
      "of": 142,
      "ent": 143,
      "do": 144,
      "ch": 145,
      "wh": 146,
      "la": 147,
      "we": 148,
      "li": 149,
      "Tom": 150,
      "ke": 151,
      "al": 152,
      "ai": 153,
      "ri": 154,
      "est": 155,
      "je": 156,
      "ous": 157,
      "ver": 158,
      "that": 159,
      "un": 160,
      "ay": 161,
      "ro": 162,
      "di": 163,
      "ed": 164,
      "are": 165,
      "and": 166,
      "que": 167,
      "for": 168,
      "-@": 169,
      "@-@": 170,
      "go": 171,
      "ant": 172,
      "ld": 173,
      "lo": 174,
      "all": 175,
      "au": 176,
      "su": 177,
      "wi": 178,
      "ti": 179,
      "was": 180,
      "ra": 181,
      "ge": 182,
      "pas": 183,
      "pe": 184,
      "have": 185,
      "our": 186,
      "ma": 187,
      "don": 188,
      "this": 189,
      "out": 190,
      "gh": 191,
      "us": 192,
      "my": 193,
      "com": 194,
      "ir": 195,
      "tu": 196,
      "mo": 197,
      "ho": 198,
      "not": 199,
      "ion": 200,
      "ta": 201,
      "she": 202,
      "can": 203,
      "ter": 204,
      "your": 205,
      "what": 206,
      "now": 207,
      "im": 208,
      "one": 209,
      "am": 210,
      "ad": 211,
      "ly": 212,
      "vous": 213,
      "ould": 214,
      "ut": 215,
      "ght": 216,
      "tr": 217,
      "ic": 218,
      "ac": 219,
      "fe": 220,
      "ab": 221,
      "with": 222,
      "so": 223,
      "les": 224,
      "did": 225,
      "very": 226,
      "res": 227,
      "ot": 228,
      "con": 229,
      "want": 230,
      "par": 231,
      "know": 232,
      "thing": 233,
      "his": 234,
      "ur": 235,
      "si": 236,
      "ok": 237,
      "el": 238,
      "pr": 239,
      "like": 240,
      "od": 241,
      "ther": 242,
      "here": 243,
      "ment": 244,
      "sa": 245,
      "end": 246,
      "ren": 247,
      "ome": 248,
      "any": 249,
      "ple": 250,
      "co": 251,
      "ink": 252,
      "wor": 253,
      "there": 254,
      "her": 255,
      "they": 256,
      "et": 257,
      "ust": 258,
      "son": 259,
      "how": 260,
      "fr": 261,
      "ap": 262,
      "him": 263,
      "av": 264,
      "une": 265,
      "ait": 266,
      "day": 267,
      "vi": 268,
      "quot": 269,
      "ans": 270,
      "ex": 271,
      "ux": 272,
      "get": 273,
      "ci": 274,
      "bo": 275,
      "ag": 276,
      "has": 277,
      "ted": 278,
      "ave": 279,
      "think": 280,
      "pl": 281,
      "man": 282,
      "up": 283,
      "ate": 284,
      "pen": 285,
      "der": 286,
      "some": 287,
      "pour": 288,
      "pro": 289,
      "per": 290,
      "dé": 291,
      "ul": 292,
      "sh": 293,
      "if": 294,
      "ary": 295,
      "nous": 296,
      "tre": 297,
      "du": 298,
      "ais": 299,
      "ation": 300,
      "vo": 301,
      "ind": 302,
      "time": 303,
      "ang": 304,
      "ble": 305,
      "des": 306,
      "ry": 307,
      "pla": 308,
      "ard": 309,
      "fo": 310,
      "oun": 311,
      "who": 312,
      "way": 313,
      "ine": 314,
      "will": 315,
      "lu": 316,
      "ten": 317,
      "had": 318,
      "mon": 319,
      "tra": 320,
      "ts": 321,
      "elle": 322,
      "ons": 323,
      "read": 324,
      "were": 325,
      "cho": 326,
      "ill": 327,
      "but": 328,
      "ni": 329,
      "let": 330,
      "about": 331,
      "every": 332,
      "ong": 333,
      "see": 334,
      "ven": 335,
      "ure": 336,
      "from": 337,
      "Mary": 338,
      "use": 339,
      "would": 340,
      "té": 341,
      "ite": 342,
      "mes": 343,
      "tell": 344,
      "ak": 345,
      "ally": 346,
      "ck": 347,
      "dis": 348,
      "just": 349,
      "by": 350,
      "che": 351,
      "does": 352,
      "didn": 353,
      "mi": 354,
      "more": 355,
      "where": 356,
      "por": 357,
      "ast": 358,
      "mb": 359,
      "ance": 360,
      "come": 361,
      "why": 362,
      "lf": 363,
      "ct": 364,
      "hap": 365,
      "ess": 366,
      "ain": 367,
      "fi": 368,
      "when": 369,
      "good": 370,
      "work": 371,
      "bi": 372,
      "ked": 373,
      "aire": 374,
      "need": 375,
      "suis": 376,
      "ase": 377,
      "ish": 378,
      "qui": 379,
      "red": 380,
      "mp": 381,
      "sur": 382,
      "gi": 383,
      "look": 384,
      "going": 385,
      "spe": 386,
      "ère": 387,
      "should": 388,
      "ep": 389,
      "dans": 390,
      "tal": 391,
      "ear": 392,
      "than": 393,
      "could": 394,
      "ser": 395,
      "ille": 396,
      "mar": 397,
      "car": 398,
      "ré": 399,
      "mor": 400,
      "hel": 401,
      "éta": 402,
      "help": 403,
      "too": 404,
      "sto": 405,
      "mu": 406,
      "pre": 407,
      "tes": 408,
      "age": 409,
      "ie": 410,
      "mais": 411,
      "ame": 412,
      "new": 413,
      "never": 414,
      "been": 415,
      "quel": 416,
      "ach": 417,
      "mer": 418,
      "ty": 419,
      "ée": 420,
      "aid": 421,
      "mis": 422,
      "lie": 423,
      "take": 424,
      "ound": 425,
      "much": 426,
      "right": 427,
      "cou": 428,
      "gu": 429,
      "tout": 430,
      "sp": 431,
      "got": 432,
      "please": 433,
      "plus": 434,
      "ça": 435,
      "ved": 436,
      "row": 437,
      "ol": 438,
      "pu": 439,
      "fait": 440,
      "ff": 441,
      "only": 442,
      "self": 443,
      "really": 444,
      "dent": 445,
      "talk": 446,
      "jo": 447,
      "ded": 448,
      "try": 449,
      "long": 450,
      "ses": 451,
      "ils": 452,
      "faire": 453,
      "ought": 454,
      "moi": 455,
      "bu": 456,
      "fa": 457,
      "riend": 458,
      "gl": 459,
      "other": 460,
      "ree": 461,
      "ers": 462,
      "lit": 463,
      "speak": 464,
      "ue": 465,
      "wat": 466,
      "book": 467,
      "ès": 468,
      "était": 469,
      "wn": 470,
      "jour": 471,
      "ild": 472,
      "sor": 473,
      "ise": 474,
      "ity": 475,
      "wr": 476,
      "avec": 477,
      "ces": 478,
      "ves": 479,
      "arri": 480,
      "ici": 481,
      "ack": 482,
      "say": 483,
      "pi": 484,
      "won": 485,
      "love": 486,
      "cle": 487,
      "cti": 488,
      "ence": 489,
      "play": 490,
      "ese": 491,
      "ody": 492,
      "ont": 493,
      "cau": 494,
      "must": 495,
      "ner": 496,
      "ready": 497,
      "oi": 498,
      "wo": 499,
      "être": 500,
      "body": 501,
      "va": 502,
      "ving": 503,
      "fore": 504,
      "gr": 505,
      "ph": 506,
      "ami": 507,
      "friend": 508,
      "last": 509,
      "tle": 510,
      "whi": 511,
      "feel": 512,
      "lot": 513,
      "stu": 514,
      "off": 515,
      "eat": 516,
      "under": 517,
      "make": 518,
      "able": 519,
      "af": 520,
      "vis": 521,
      "home": 522,
      "sed": 523,
      "oney": 524,
      "something": 525,
      "sé": 526,
      "hi": 527,
      "bet": 528,
      "min": 529,
      "temp": 530,
      "cha": 531,
      "fu": 532,
      "ru": 533,
      "dit": 534,
      "ig": 535,
      "bus": 536,
      "ough": 537,
      "veux": 538,
      "cet": 539,
      "beau": 540,
      "sont": 541,
      "ful": 542,
      "went": 543,
      "aren": 544,
      "ning": 545,
      "sent": 546,
      "ins": 547,
      "money": 548,
      "tri": 549,
      "them": 550,
      "doesn": 551,
      "give": 552,
      "gar": 553,
      "pres": 554,
      "fin": 555,
      "ople": 556,
      "tou": 557,
      "tor": 558,
      "belie": 559,
      "child": 560,
      "rais": 561,
      "people": 562,
      "tro": 563,
      "ens": 564,
      "kes": 565,
      "back": 566,
      "mber": 567,
      "rai": 568,
      "old": 569,
      "ting": 570,
      "rend": 571,
      "again": 572,
      "lui": 573,
      "cat": 574,
      "cor": 575,
      "year": 576,
      "room": 577,
      "temps": 578,
      "quoi": 579,
      "tur": 580,
      "may": 581,
      "vie": 582,
      "cl": 583,
      "bre": 584,
      "port": 585,
      "scho": 586,
      "pon": 587,
      "ions": 588,
      "pré": 589,
      "night": 590,
      "gre": 591,
      "ton": 592,
      "anything": 593,
      "person": 594,
      "happen": 595,
      "Sami": 596,
      "ist": 597,
      "lle": 598,
      "quest": 599,
      "find": 600,
      "king": 601,
      "said": 602,
      "told": 603,
      "ned": 604,
      "rest": 605,
      "ati": 606,
      "bien": 607,
      "ms": 608,
      "sing": 609,
      "voir": 610,
      "sle": 611,
      "ouve": 612,
      "little": 613,
      "cre": 614,
      "hu": 615,
      "nu": 616,
      "toi": 617,
      "star": 618,
      "care": 619,
      "leave": 620,
      "stand": 621,
      "still": 622,
      "school": 623,
      "ouse": 624,
      "py": 625,
      "today": 626,
      "dev": 627,
      "ick": 628,
      "cer": 629,
      "many": 630,
      "well": 631,
      "comp": 632,
      "clo": 633,
      "sure": 634,
      "vé": 635,
      "dr": 636,
      "gir": 637,
      "two": 638,
      "before": 639,
      "used": 640,
      "br": 641,
      "ide": 642,
      "main": 643,
      "lais": 644,
      "ways": 645,
      "sou": 646,
      "house": 647,
      "thought": 648,
      "hed": 649,
      "teach": 650,
      "live": 651,
      "always": 652,
      "irst": 653,
      "très": 654,
      "sais": 655,
      "pay": 656,
      "ys": 657,
      "été": 658,
      "dog": 659,
      "bit": 660,
      "cu": 661,
      "hard": 662,
      "late": 663,
      "led": 664,
      "life": 665,
      "father": 666,
      "over": 667,
      "ass": 668,
      "wee": 669,
      "En": 670,
      "mat": 671,
      "vou": 672,
      "êtes": 673,
      "everything": 674,
      "cette": 675,
      "fam": 676,
      "sho": 677,
      "lé": 678,
      "ez": 679,
      "pp": 680,
      "meet": 681,
      "cause": 682,
      "made": 683,
      "rench": 684,
      "after": 685,
      "believe": 686,
      "diff": 687,
      "lang": 688,
      "nothing": 689,
      "happy": 690,
      "Engl": 691,
      "put": 692,
      "ange": 693,
      "hand": 694,
      "mé": 695,
      "French": 696,
      "came": 697,
      "eas": 698,
      "wan": 699,
      "hear": 700,
      "ily": 701,
      "int": 702,
      "air": 703,
      "bor": 704,
      "cr": 705,
      "ja": 706,
      "pri": 707,
      "vent": 708,
      "most": 709,
      "plan": 710,
      "wait": 711,
      "ried": 712,
      "ité": 713,
      "otre": 714,
      "pris": 715,
      "into": 716,
      "dire": 717,
      "coun": 718,
      "isn": 719,
      "took": 720,
      "keep": 721,
      "ture": 722,
      "avez": 723,
      "votre": 724,
      "week": 725,
      "ds": 726,
      "bro": 727,
      "lear": 728,
      "which": 729,
      "sleep": 730,
      "wanted": 731,
      "bon": 732,
      "trou": 733,
      "ever": 734,
      "first": 735,
      "alone": 736,
      "comment": 737,
      "cal": 738,
      "vrai": 739,
      "train": 740,
      "even": 741,
      "ire": 742,
      "away": 743,
      "win": 744,
      "these": 745,
      "ated": 746,
      "lles": 747,
      "rent": 748,
      "coup": 749,
      "job": 750,
      "buy": 751,
      "better": 752,
      "English": 753,
      "op": 754,
      "ler": 755,
      "où": 756,
      "their": 757,
      "tomor": 758,
      "ors": 759,
      "down": 760,
      "already": 761,
      "tomorrow": 762,
      "ath": 763,
      "ger": 764,
      "vais": 765,
      "pense": 766,
      "ction": 767,
      "bl": 768,
      "ft": 769,
      "hur": 770,
      "aut": 771,
      "cent": 772,
      "mind": 773,
      "stay": 774,
      "tru": 775,
      "cro": 776,
      "ze": 777,
      "three": 778,
      "enough": 779,
      "met": 780,
      "because": 781,
      "without": 782,
      "great": 783,
      "girl": 784,
      "né": 785,
      "pourquoi": 786,
      "att": 787,
      "rain": 788,
      "mag": 789,
      "done": 790,
      "place": 791,
      "langu": 792,
      "fer": 793,
      "pain": 794,
      "ense": 795,
      "peux": 796,
      "comm": 797,
      "watch": 798,
      "low": 799,
      "understand": 800,
      "jamais": 801,
      "vers": 802,
      "chose": 803,
      "bes": 804,
      "call": 805,
      "left": 806,
      "ours": 807,
      "part": 808,
      "best": 809,
      "cc": 810,
      "its": 811,
      "parti": 812,
      "name": 813,
      "ob": 814,
      "ow": 815,
      "xt": 816,
      "asked": 817,
      "seen": 818,
      "door": 819,
      "aux": 820,
      "children": 821,
      "dy": 822,
      "ants": 823,
      "stop": 824,
      "eux": 825,
      "sm": 826,
      "aller": 827,
      "things": 828,
      "sorry": 829,
      "drink": 830,
      "paren": 831,
      "ask": 832,
      "pet": 833,
      "vre": 834,
      "sup": 835,
      "act": 836,
      "hom": 837,
      "kind": 838,
      "being": 839,
      "puis": 840,
      "water": 841,
      "idea": 842,
      "ef": 843,
      "side": 844,
      "ose": 845,
      "prend": 846,
      "som": 847,
      "ince": 848,
      "aime": 849,
      "Jap": 850,
      "bad": 851,
      "gent": 852,
      "open": 853,
      "show": 854,
      "tous": 855,
      "member": 856,
      "sible": 857,
      "saw": 858,
      "proble": 859,
      "anger": 860,
      "looking": 861,
      "years": 862,
      "teacher": 863,
      "Japan": 864,
      "prom": 865,
      "cela": 866,
      "comme": 867,
      "pt": 868,
      "inte": 869,
      "bed": 870,
      "often": 871,
      "doing": 872,
      "grand": 873,
      "busy": 874,
      "parents": 875,
      "Ch": 876,
      "gg": 877,
      "times": 878,
      "gen": 879,
      "wal": 880,
      "peut": 881,
      "letter": 882,
      "ester": 883,
      "avons": 884,
      "ey": 885,
      "ars": 886,
      "tain": 887,
      "afr": 888,
      "ctor": 889,
      "id": 890,
      "lost": 891,
      "mother": 892,
      "cold": 893,
      "world": 894,
      "jours": 895,
      "beaucoup": 896,
      "afraid": 897,
      "vraiment": 898,
      "youn": 899,
      "less": 900,
      "appe": 901,
      "far": 902,
      "found": 903,
      "ight": 904,
      "yester": 905,
      "remember": 906,
      "next": 907,
      "lic": 908,
      "wants": 909,
      "yesterday": 910,
      "pou": 911,
      "dres": 912,
      "mê": 913,
      "cher": 914,
      "trop": 915,
      "ca": 916,
      "knew": 917,
      "lis": 918,
      "ost": 919,
      "swi": 920,
      "wom": 921,
      "asse": 922,
      "heure": 923,
      "peu": 924,
      "break": 925,
      "ête": 926,
      "avait": 927,
      "Mar": 928,
      "dri": 929,
      "mine": 930,
      "oir": 931,
      "iture": 932,
      "ques": 933,
      "str": 934,
      "tion": 935,
      "cted": 936,
      "ken": 937,
      "mus": 938,
      "ited": 939,
      "ache": 940,
      "everyone": 941,
      "miss": 942,
      "phone": 943,
      "turn": 944,
      "diffic": 945,
      "swim": 946,
      "cra": 947,
      "mal": 948,
      "rien": 949,
      "ations": 950,
      "fast": 951,
      "gé": 952,
      "cess": 953,
      "fun": 954,
      "lt": 955,
      "run": 956,
      "beg": 957,
      "wed": 958,
      "ket": 959,
      "table": 960,
      "few": 961,
      "porte": 962,
      "quelque": 963,
      "study": 964,
      "question": 965,
      "easy": 966,
      "truth": 967,
      "même": 968,
      "difficul": 969,
      "oin": 970,
      "lez": 971,
      "leur": 972,
      "trava": 973,
      "din": 974,
      "sit": 975,
      "sol": 976,
      "conn": 977,
      "cident": 978,
      "young": 979,
      "sk": 980,
      "smo": 981,
      "war": 982,
      "doctor": 983,
      "tic": 984,
      "coming": 985,
      "word": 986,
      "avant": 987,
      "avoir": 988,
      "early": 989,
      "married": 990,
      "wrong": 991,
      "student": 992,
      "arr": 993,
      "deux": 994,
      "quand": 995,
      "Fr": 996,
      "elles": 997,
      "core": 998,
      "yet": 999,
      "those": 1000,
      "another": 1001,
      "around": 1002,
      "knows": 1003,
      "books": 1004,
      "small": 1005,
      "bab": 1006,
      "accident": 1007,
      "parler": 1008,
      "ball": 1009,
      "nouve": 1010,
      "sha": 1011,
      "wer": 1012,
      "ante": 1013,
      "ings": 1014,
      "boy": 1015,
      "ages": 1016,
      "monde": 1017,
      "personne": 1018,
      "occ": 1019,
      "since": 1020,
      "ister": 1021,
      "encore": 1022,
      "iti": 1023,
      "vel": 1024,
      "rait": 1025,
      "fois": 1026,
      "everybody": 1027,
      "talking": 1028,
      "country": 1029,
      "besoin": 1030,
      "bla": 1031,
      "pho": 1032,
      "pend": 1033,
      "enf": 1034,
      "char": 1035,
      "dre": 1036,
      "ding": 1037,
      "free": 1038,
      "hun": 1039,
      "là": 1040,
      "pic": 1041,
      "és": 1042,
      "possible": 1043,
      "once": 1044,
      "having": 1045,
      "light": 1046,
      "myself": 1047,
      "hope": 1048,
      "true": 1049,
      "soon": 1050,
      "party": 1051,
      "illed": 1052,
      "morning": 1053,
      "writ": 1054,
      "turned": 1055,
      "matter": 1056,
      "pped": 1057,
      "jou": 1058,
      "ital": 1059,
      "cri": 1060,
      "jus": 1061,
      "vu": 1062,
      "ank": 1063,
      "import": 1064,
      "arrive": 1065,
      "questions": 1066,
      "sommes": 1067,
      "00": 1068,
      "Bost": 1069,
      "ffe": 1070,
      "mil": 1071,
      "pé": 1072,
      "ward": 1073,
      "unt": 1074,
      "tired": 1075,
      "anymore": 1076,
      "nice": 1077,
      "étais": 1078,
      "happened": 1079,
      "brother": 1080,
      "learn": 1081,
      "Boston": 1082,
      "..": 1083,
      "ale": 1084,
      "père": 1085,
      "ures": 1086,
      "comple": 1087,
      "homme": 1088,
      "In": 1089,
      "eu": 1090,
      "mand": 1091,
      "sci": 1092,
      "point": 1093,
      "set": 1094,
      "lives": 1095,
      "uni": 1096,
      "form": 1097,
      "big": 1098,
      "ali": 1099,
      "ious": 1100,
      "lat": 1101,
      "prof": 1102,
      "food": 1103,
      "couldn": 1104,
      "pret": 1105,
      "wonder": 1106,
      "while": 1107,
      "high": 1108,
      "toujours": 1109,
      "family": 1110,
      "problem": 1111,
      "ice": 1112,
      "lar": 1113,
      "lad": 1114,
      "same": 1115,
      "ba": 1116,
      "ss": 1117,
      "ssi": 1118,
      "den": 1119,
      "gave": 1120,
      "mom": 1121,
      "ming": 1122,
      "mble": 1123,
      "ished": 1124,
      "dow": 1125,
      "chang": 1126,
      "likes": 1127,
      "alth": 1128,
      "rich": 1129,
      "such": 1130,
      "yourself": 1131,
      "près": 1132,
      "himself": 1133,
      "days": 1134,
      "looks": 1135,
      "Marie": 1136,
      "important": 1137,
      "gn": 1138,
      "nom": 1139,
      "argent": 1140,
      "dois": 1141,
      "chance": 1142,
      "vol": 1143,
      "chez": 1144,
      "quelle": 1145,
      "corre": 1146,
      "photo": 1147,
      "cus": 1148,
      "fav": 1149,
      "ît": 1150,
      "poli": 1151,
      "med": 1152,
      "venir": 1153,
      "prendre": 1154,
      "ato": 1155,
      "cy": 1156,
      "spo": 1157,
      "tour": 1158,
      "toge": 1159,
      "head": 1160,
      "deci": 1161,
      "medi": 1162,
      "secre": 1163,
      "haven": 1164,
      "change": 1165,
      "aient": 1166,
      "aussi": 1167,
      "pect": 1168,
      "makes": 1169,
      "might": 1170,
      "maison": 1171,
      "write": 1172,
      "friends": 1173,
      "beauti": 1174,
      "language": 1175,
      "listen": 1176,
      "France": 1177,
      "together": 1178,
      "dou": 1179,
      "pati": 1180,
      "sister": 1181,
      "ule": 1182,
      "ention": 1183,
      "autre": 1184,
      "voy": 1185,
      "aw": 1186,
      "fac": 1187,
      "chi": 1188,
      "ical": 1189,
      "vice": 1190,
      "plain": 1191,
      "Dan": 1192,
      "bir": 1193,
      "bought": 1194,
      "cour": 1195,
      "cked": 1196,
      "fais": 1197,
      "fish": 1198,
      "pare": 1199,
      "thr": 1200,
      "inv": 1201,
      "ats": 1202,
      "trans": 1203,
      "soit": 1204,
      "cook": 1205,
      "getting": 1206,
      "someone": 1207,
      "started": 1208,
      "called": 1209,
      "suppos": 1210,
      "dro": 1211,
      "fall": 1212,
      "pul": 1213,
      "seule": 1214,
      "nobody": 1215,
      "avais": 1216,
      "mbre": 1217,
      "cut": 1218,
      "cap": 1219,
      "notre": 1220,
      "voiture": 1221,
      "ather": 1222,
      "cé": 1223,
      "danger": 1224,
      "ks": 1225,
      "men": 1226,
      "ness": 1227,
      "sim": 1228,
      "sick": 1229,
      "ences": 1230,
      "leg": 1231,
      "wear": 1232,
      "diffe": 1233,
      "wasn": 1234,
      "ghter": 1235,
      "cannot": 1236,
      "anyone": 1237,
      "cost": 1238,
      "luck": 1239,
      "reading": 1240,
      "seems": 1241,
      "surpris": 1242,
      "window": 1243,
      "dress": 1244,
      "woman": 1245,
      "difficult": 1246,
      "travail": 1247,
      "until": 1248,
      "beautiful": 1249,
      "ôt": 1250,
      "inst": 1251,
      "inter": 1252,
      "entre": 1253,
      "pass": 1254,
      "bic": 1255,
      "nor": 1256,
      "ref": 1257,
      "aimer": 1258,
      "hot": 1259,
      "tenant": 1260,
      "spend": 1261,
      "meeting": 1262,
      "Ger": 1263,
      "bles": 1264,
      "each": 1265,
      "hours": 1266,
      "own": 1267,
      "ating": 1268,
      "heard": 1269,
      "health": 1270,
      "llow": 1271,
      "tel": 1272,
      "offe": 1273,
      "rested": 1274,
      "urs": 1275,
      "ured": 1276,
      "working": 1277,
      "class": 1278,
      "maintenant": 1279,
      "heart": 1280,
      "waiting": 1281,
      "complete": 1282,
      "police": 1283,
      "sans": 1284,
      "respon": 1285,
      "col": 1286,
      "aper": 1287,
      "ager": 1288,
      "face": 1289,
      "visit": 1290,
      "dinner": 1291,
      "ju": 1292,
      "jà": 1293,
      "mit": 1294,
      "mmer": 1295,
      "née": 1296,
      "demand": 1297,
      "rap": 1298,
      "propos": 1299,
      "déjà": 1300,
      "petit": 1301,
      "coffe": 1302,
      "hate": 1303,
      "mas": 1304,
      "sun": 1305,
      "zy": 1306,
      "hair": 1307,
      "died": 1308,
      "forget": 1309,
      "six": 1310,
      "fran": 1311,
      "fice": 1312,
      "story": 1313,
      "trying": 1314,
      "clear": 1315,
      "finished": 1316,
      "hui": 1317,
      "opin": 1318,
      "girls": 1319,
      "attend": 1320,
      "eyes": 1321,
      "black": 1322,
      "coffee": 1323,
      "tard": 1324,
      "ét": 1325,
      "regar": 1326,
      "fort": 1327,
      "aujour": 1328,
      "exam": 1329,
      "aujourd": 1330,
      "emp": 1331,
      "fai": 1332,
      "faut": 1333,
      "har": 1334,
      "ris": 1335,
      "sc": 1336,
      "ste": 1337,
      "office": 1338,
      "contr": 1339,
      "exact": 1340,
      "illes": 1341,
      "Tato": 1342,
      "ago": 1343,
      "dau": 1344,
      "eba": 1345,
      "fut": 1346,
      "glad": 1347,
      "hon": 1348,
      "kis": 1349,
      "ps": 1350,
      "rou": 1351,
      "wish": 1352,
      "leav": 1353,
      "order": 1354,
      "seul": 1355,
      "lived": 1356,
      "living": 1357,
      "almost": 1358,
      "wife": 1359,
      "else": 1360,
      "answer": 1361,
      "both": 1362,
      "ately": 1363,
      "produ": 1364,
      "month": 1365,
      "five": 1366,
      "tried": 1367,
      "number": 1368,
      "Japanese": 1369,
      "pretty": 1370,
      "Tatoeba": 1371,
      "daughter": 1372,
      "four": 1373,
      "étu": 1374,
      "anim": 1375,
      "art": 1376,
      "habit": 1377,
      "ili": 1378,
      "lait": 1379,
      "aur": 1380,
      "combien": 1381,
      "born": 1382,
      "connais": 1383,
      "moment": 1384,
      "correct": 1385,
      "Par": 1386,
      "blo": 1387,
      "cur": 1388,
      "dor": 1389,
      "lun": 1390,
      "ème": 1391,
      "dec": 1392,
      "key": 1393,
      "utes": 1394,
      "ments": 1395,
      "exper": 1396,
      "derni": 1397,
      "plaît": 1398,
      "essay": 1399,
      "favor": 1400,
      "TV": 1401,
      "ace": 1402,
      "ake": 1403,
      "eded": 1404,
      "flow": 1405,
      "hind": 1406,
      "lors": 1407,
      "mme": 1408,
      "na": 1409,
      "nis": 1410,
      "sound": 1411,
      "ates": 1412,
      "heures": 1413,
      "weather": 1414,
      "takes": 1415,
      "advice": 1416,
      "felt": 1417,
      "known": 1418,
      "pleas": 1419,
      "thinking": 1420,
      "télé": 1421,
      "company": 1422,
      "hurt": 1423,
      "milk": 1424,
      "through": 1425,
      "bicy": 1426,
      "bar": 1427,
      "pan": 1428,
      "um": 1429,
      "inform": 1430,
      "exc": 1431,
      "toutes": 1432,
      "pian": 1433,
      "close": 1434,
      "secret": 1435,
      "simple": 1436,
      "opinion": 1437,
      "da": 1438,
      "dance": 1439,
      "ile": 1440,
      "usu": 1441,
      "vir": 1442,
      "erre": 1443,
      "stup": 1444,
      "entend": 1445,
      "ween": 1446,
      "auc": 1447,
      "future": 1448,
      "occup": 1449,
      "enfants": 1450,
      "An": 1451,
      "Amer": 1452,
      "cry": 1453,
      "emb": 1454,
      "igh": 1455,
      "nat": 1456,
      "sal": 1457,
      "çais": 1458,
      "éco": 1459,
      "then": 1460,
      "popul": 1461,
      "inté": 1462,
      "tement": 1463,
      "ced": 1464,
      "become": 1465,
      "behind": 1466,
      "station": 1467,
      "lau": 1468,
      "aide": 1469,
      "road": 1470,
      "sub": 1471,
      "wash": 1472,
      "irt": 1473,
      "fell": 1474,
      "sait": 1475,
      "safe": 1476,
      "angry": 1477,
      "preci": 1478,
      "arrived": 1479,
      "full": 1480,
      "careful": 1481,
      "attention": 1482,
      "promise": 1483,
      "interest": 1484,
      "walk": 1485,
      "swimming": 1486,
      "decided": 1487,
      "école": 1488,
      "bri": 1489,
      "cul": 1490,
      "gy": 1491,
      "top": 1492,
      "net": 1493,
      "ché": 1494,
      "livre": 1495,
      "aider": 1496,
      "riez": 1497,
      "solu": 1498,
      "sive": 1499,
      "aimerais": 1500,
      "bli": 1501,
      "bur": 1502,
      "hor": 1503,
      "çon": 1504,
      "êt": 1505,
      "thes": 1506,
      "passé": 1507,
      "termin": 1508,
      "probl": 1509,
      "fire": 1510,
      "minutes": 1511,
      "press": 1512,
      "toute": 1513,
      "restaur": 1514,
      "ative": 1515,
      "obje": 1516,
      "étudi": 1517,
      "restaurant": 1518,
      "après": 1519,
      "city": 1520,
      "dar": 1521,
      "dra": 1522,
      "ele": 1523,
      "game": 1524,
      "ier": 1525,
      "ique": 1526,
      "killed": 1527,
      "oked": 1528,
      "sat": 1529,
      "wine": 1530,
      "zed": 1531,
      "rel": 1532,
      "rer": 1533,
      "reas": 1534,
      "real": 1535,
      "post": 1536,
      "enne": 1537,
      "enjo": 1538,
      "demain": 1539,
      "death": 1540,
      "quite": 1541,
      "near": 1542,
      "necess": 1543,
      "cep": 1544,
      "ches": 1545,
      "forgot": 1546,
      "rage": 1547,
      "comes": 1548,
      "conf": 1549,
      "worry": 1550,
      "words": 1551,
      "agree": 1552,
      "follow": 1553,
      "whole": 1554,
      "wouldn": 1555,
      "ched": 1556,
      "works": 1557,
      "store": 1558,
      "news": 1559,
      "guess": 1560,
      "others": 1561,
      "hier": 1562,
      "between": 1563,
      "trip": 1564,
      "against": 1565,
      "tonight": 1566,
      "bonne": 1567,
      "hurry": 1568,
      "interested": 1569,
      "students": 1570,
      "hung": 1571,
      "surprised": 1572,
      "français": 1573,
      "exactly": 1574,
      "experi": 1575,
      "bill": 1576,
      "uation": 1577,
      "secon": 1578,
      "accor": 1579,
      "soir": 1580,
      "rence": 1581,
      "fig": 1582,
      "trois": 1583,
      "ouvez": 1584,
      "situation": 1585,
      "dur": 1586,
      "gard": 1587,
      "ia": 1588,
      "ident": 1589,
      "ny": 1590,
      "non": 1591,
      "sû": 1592,
      "val": 1593,
      "yo": 1594,
      "ées": 1595,
      "asses": 1596,
      "semble": 1597,
      "aill": 1598,
      "terri": 1599,
      "concer": 1600,
      "dée": 1601,
      "anglais": 1602,
      "premi": 1603,
      "ctive": 1604,
      "juste": 1605,
      "chien": 1606,
      "10": 1607,
      "Mr": 1608,
      "bou": 1609,
      "grow": 1610,
      "ies": 1611,
      "ki": 1612,
      "tent": 1613,
      "poor": 1614,
      "town": 1615,
      "heav": 1616,
      "vez": 1617,
      "half": 1618,
      "became": 1619,
      "ush": 1620,
      "yours": 1621,
      "viens": 1622,
      "travel": 1623,
      "venu": 1624,
      "earth": 1625,
      "thank": 1626,
      "longer": 1627,
      "clean": 1628,
      "vision": 1629,
      "shot": 1630,
      "hands": 1631,
      "watching": 1632,
      "strong": 1633,
      "music": 1634,
      "smoking": 1635,
      "scient": 1636,
      "large": 1637,
      "Paris": 1638,
      "piano": 1639,
      "dark": 1640,
      "band": 1641,
      "bag": 1642,
      "cam": 1643,
      "fau": 1644,
      "pun": 1645,
      "ude": 1646,
      "vant": 1647,
      "ines": 1648,
      "eng": 1649,
      "consi": 1650,
      "contre": 1651,
      "prise": 1652,
      "exp": 1653,
      "probab": 1654,
      "mieux": 1655,
      "Aust": 1656,
      "Jo": 1657,
      "pie": 1658,
      "pouvez": 1659,
      "sens": 1660,
      "teur": 1661,
      "doll": 1662,
      "past": 1663,
      "fect": 1664,
      "const": 1665,
      "trav": 1666,
      "nuit": 1667,
      "crit": 1668,
      "trouble": 1669,
      "assez": 1670,
      "information": 1671,
      "bil": 1672,
      "bot": 1673,
      "cla": 1674,
      "nes": 1675,
      "yes": 1676,
      "intell": 1677,
      "ene": 1678,
      "tory": 1679,
      "quit": 1680,
      "noon": 1681,
      "tele": 1682,
      "beer": 1683,
      "als": 1684,
      "looked": 1685,
      "summer": 1686,
      "peur": 1687,
      "making": 1688,
      "condu": 1689,
      "parle": 1690,
      "anybody": 1691,
      "appreci": 1692,
      "sometimes": 1693,
      "shor": 1694,
      "telling": 1695,
      "lfriend": 1696,
      "fied": 1697,
      "serious": 1698,
      "puter": 1699,
      "maybe": 1700,
      "start": 1701,
      "girlfriend": 1702,
      "languages": 1703,
      "crazy": 1704,
      "lucky": 1705,
      "bicycle": 1706,
      "experience": 1707,
      "intellig": 1708,
      "az": 1709,
      "aff": 1710,
      "ctu": 1711,
      "cine": 1712,
      "dû": 1713,
      "fil": 1714,
      "gens": 1715,
      "imag": 1716,
      "poin": 1717,
      "tez": 1718,
      "donne": 1719,
      "prin": 1720,
      "vide": 1721,
      "tennis": 1722,
      "dispos": 1723,
      "tribu": 1724,
      "patient": 1725,
      "em": 1726,
      "fille": 1727,
      "test": 1728,
      "ash": 1729,
      "lies": 1730,
      "ros": 1731,
      "lose": 1732,
      "moins": 1733,
      "hosp": 1734,
      "femme": 1735,
      "sage": 1736,
      "ign": 1737,
      "cats": 1738,
      "comprend": 1739,
      "pouv": 1740,
      "facile": 1741,
      "Austra": 1742,
      "hospital": 1743,
      "Ear": 1744,
      "God": 1745,
      "Mon": 1746,
      "bé": 1747,
      "fon": 1748,
      "fine": 1749,
      "flu": 1750,
      "gra": 1751,
      "ither": 1752,
      "owed": 1753,
      "sy": 1754,
      "sen": 1755,
      "sense": 1756,
      "slow": 1757,
      "whe": 1758,
      "œur": 1759,
      "ism": 1760,
      "mean": 1761,
      "cei": 1762,
      "also": 1763,
      "rope": 1764,
      "rather": 1765,
      "computer": 1766,
      "movie": 1767,
      "hotel": 1768,
      "taken": 1769,
      "thinks": 1770,
      "shirt": 1771,
      "choses": 1772,
      "saying": 1773,
      "playing": 1774,
      "caught": 1775,
      "igno": 1776,
      "present": 1777,
      "certain": 1778,
      "laisse": 1779,
      "easily": 1780,
      "sleeping": 1781,
      "crois": 1782,
      "commen": 1783,
      "cake": 1784,
      "begin": 1785,
      "arrê": 1786,
      "baby": 1787,
      "written": 1788,
      "later": 1789,
      "birth": 1790,
      "different": 1791,
      "leaving": 1792,
      "lunch": 1793,
      "favorite": 1794,
      "enjoy": 1795,
      "hungry": 1796,
      "probably": 1797,
      "Un": 1798,
      "card": 1799,
      "ges": 1800,
      "mère": 1801,
      "sac": 1802,
      "veut": 1803,
      "depuis": 1804,
      "die": 1805,
      "diction": 1806,
      "suit": 1807,
      "tax": 1808,
      "trouve": 1809,
      "actu": 1810,
      "app": 1811,
      "quelqu": 1812,
      "préf": 1813,
      "nouveau": 1814,
      "travaill": 1815,
      "Eu": 1816,
      "Lay": 1817,
      "Oh": 1818,
      "bat": 1819,
      "cli": 1820,
      "fro": 1821,
      "idée": 1822,
      "ran": 1823,
      "sil": 1824,
      "spr": 1825,
      "uit": 1826,
      "sell": 1827,
      "ceci": 1828,
      "doit": 1829,
      "lire": 1830,
      "ries": 1831,
      "maine": 1832,
      "savoir": 1833,
      "cial": 1834,
      "manger": 1835,
      "pensais": 1836,
      "vos": 1837,
      "quelques": 1838,
      "sorti": 1839,
      "préci": 1840,
      "voulais": 1841,
      "voulez": 1842,
      "partir": 1843,
      "petite": 1844,
      "...": 1845,
      "Layla": 1846,
      "Sun": 1847,
      "ado": 1848,
      "bas": 1849,
      "blic": 1850,
      "eau": 1851,
      "flo": 1852,
      "hat": 1853,
      "hour": 1854,
      "land": 1855,
      "sau": 1856,
      "send": 1857,
      "thir": 1858,
      "rez": 1859,
      "reali": 1860,
      "iness": 1861,
      "ists": 1862,
      "ane": 1863,
      "least": 1864,
      "dead": 1865,
      "team": 1866,
      "law": 1867,
      "kept": 1868,
      "ject": 1869,
      "unk": 1870,
      "sugar": 1871,
      "uses": 1872,
      "taking": 1873,
      "immedi": 1874,
      "coat": 1875,
      "expen": 1876,
      "expect": 1877,
      "boys": 1878,
      "hasn": 1879,
      "plu": 1880,
      "whose": 1881,
      "choice": 1882,
      "cks": 1883,
      "dist": 1884,
      "stood": 1885,
      "prefer": 1886,
      "mistake": 1887,
      "public": 1888,
      "speaking": 1889,
      "feeling": 1890,
      "fuck": 1891,
      "touch": 1892,
      "clock": 1893,
      "clothes": 1894,
      "airs": 1895,
      "learned": 1896,
      "stayed": 1897,
      "opened": 1898,
      "problems": 1899,
      "breakfast": 1900,
      "German": 1901,
      "completely": 1902,
      "stupid": 1903,
      "Joh": 1904,
      "appreciate": 1905,
      "Earth": 1906,
      "apon": 1907,
      "ban": 1908,
      "vit": 1909,
      "tem": 1910,
      "logi": 1911,
      "suc": 1912,
      "util": 1913,
      "conse": 1914,
      "sign": 1915,
      "iez": 1916,
      "vér": 1917,
      "trouver": 1918,
      "heureux": 1919,
      "second": 1920,
      "John": 1921,
      "cours": 1922,
      "idi": 1923,
      "vac": 1924,
      "oud": 1925,
      "ition": 1926,
      "arti": 1927,
      "ory": 1928,
      "telle": 1929,
      "aurais": 1930,
      "succ": 1931,
      "passe": 1932,
      "mid": 1933,
      "porter": 1934,
      "courage": 1935,
      "Chin": 1936,
      "demandé": 1937,
      "simplement": 1938,
      "dollars": 1939,
      "19": 1940,
      "Span": 1941,
      "bite": 1942,
      "case": 1943,
      "date": 1944,
      "egg": 1945,
      "either": 1946,
      "ged": 1947,
      "gone": 1948,
      "kill": 1949,
      "moun": 1950,
      "owe": 1951,
      "pra": 1952,
      "paper": 1953,
      "rist": 1954,
      "sof": 1955,
      "sli": 1956,
      "snow": 1957,
      "smar": 1958,
      "wro": 1959,
      "yer": 1960,
      "thé": 1961,
      "inside": 1962,
      "llage": 1963,
      "deal": 1964,
      "sea": 1965,
      "semaine": 1966,
      "needed": 1967,
      "keys": 1968,
      "jet": 1969,
      "vert": 1970,
      "tures": 1971,
      "whatever": 1972,
      "admi": 1973,
      "advis": 1974,
      "ress": 1975,
      "liked": 1976,
      "song": 1977,
      "village": 1978,
      "box": 1979,
      "prove": 1980,
      "perdu": 1981,
      "shouldn": 1982,
      "mari": 1983,
      "marry": 1984,
      "prepare": 1985,
      "couple": 1986,
      "join": 1987,
      "build": 1988,
      "glasses": 1989,
      "dition": 1990,
      "sentence": 1991,
      "catch": 1992,
      "cated": 1993,
      "slept": 1994,
      "devrais": 1995,
      "pping": 1996,
      "afternoon": 1997,
      "broke": 1998,
      "autres": 1999,
      "promis": 2000,
      "gener": 2001,
      "eye": 2002,
      "women": 2003,
      "drive": 2004,
      "began": 2005,
      "smoke": 2006,
      "pendant": 2007,
      "dream": 2008,
      "picture": 2009,
      "changed": 2010,
      "invited": 2011,
      "dangerous": 2012,
      "legs": 2013,
      "flowers": 2014,
      "satis": 2015,
      "necessary": 2016,
      "birthday": 2017,
      "floor": 2018,
      "succe": 2019,
      "Spanish": 2020,
      "wrote": 2021,
      "ber": 2022,
      "fit": 2023,
      "tin": 2024,
      "zz": 2025,
      "pois": 2026,
      "era": 2027,
      "teau": 2028,
      "iling": 2029,
      "rir": 2030,
      "ride": 2031,
      "jeun": 2032,
      "faites": 2033,
      "toire": 2034,
      "souvent": 2035,
      "acheter": 2036,
      "univers": 2037,
      "dernière": 2038,
      "Australi": 2039,
      "Europe": 2040,
      "20": 2041,
      "cir": 2042,
      "cts": 2043,
      "hit": 2044,
      "line": 2045,
      "os": 2046,
      "pat": 2047,
      "vite": 2048,
      "ination": 2049,
      "ande": 2050,
      "ones": 2051,
      "meille": 2052,
      "sel": 2053,
      "stre": 2054,
      "rie": 2055,
      "forts": 2056,
      "allé": 2057,
      "super": 2058,
      "respect": 2059,
      "sons": 2060,
      "ific": 2061,
      "sort": 2062,
      "piè": 2063,
      "jusqu": 2064,
      "suppose": 2065,
      "problème": 2066,
      "cas": 2067,
      "clu": 2068,
      "dge": 2069,
      "dden": 2070,
      "ew": 2071,
      "fact": 2072,
      "gun": 2073,
      "hus": 2074,
      "ican": 2075,
      "nation": 2076,
      "ute": 2077,
      "vic": 2078,
      "éc": 2079,
      "retard": 2080,
      "deman": 2081,
      "quer": 2082,
      "nos": 2083,
      "tee": 2084,
      "teen": 2085,
      "chat": 2086,
      "weren": 2087,
      "libr": 2088,
      "river": 2089,
      "forward": 2090,
      "loved": 2091,
      "using": 2092,
      "hold": 2093,
      "trust": 2094,
      "savais": 2095,
      "fruit": 2096,
      "appoin": 2097,
      "vient": 2098,
      "explain": 2099,
      "shi": 2100,
      "seem": 2101,
      "check": 2102,
      "needs": 2103,
      "given": 2104,
      "talked": 2105,
      "carry": 2106,
      "glass": 2107,
      "played": 2108,
      "feelings": 2109,
      "eaten": 2110,
      "eating": 2111,
      "sentences": 2112,
      "view": 2113,
      "bring": 2114,
      "pays": 2115,
      "cute": 2116,
      "famous": 2117,
      "shoes": 2118,
      "learning": 2119,
      "trouvé": 2120,
      "evening": 2121,
      "mettre": 2122,
      "walked": 2123,
      "running": 2124,
      "Inter": 2125,
      "spoke": 2126,
      "supposed": 2127,
      "wearing": 2128,
      "interesting": 2129,
      "reason": 2130,
      "kids": 2131,
      "heavy": 2132,
      "consider": 2133,
      "intelligent": 2134,
      "whether": 2135,
      "immediately": 2136,
      "expensive": 2137,
      "husband": 2138,
      "30": 2139,
      "Al": 2140,
      "bal": 2141,
      "gne": 2142,
      "mou": 2143,
      "mau": 2144,
      "pau": 2145,
      "squ": 2146,
      "vres": 2147,
      "yez": 2148,
      "rep": 2149,
      "polit": 2150,
      "esse": 2151,
      "atta": 2152,
      "arro": 2153,
      "lla": 2154,
      "tions": 2155,
      "radi": 2156,
      "exist": 2157,
      "indre": 2158,
      "foot": 2159,
      "lettre": 2160,
      "fix": 2161,
      "survi": 2162,
      "mort": 2163,
      "arrivé": 2164,
      "chambre": 2165,
      "human": 2166,
      "devons": 2167,
      "charge": 2168,
      "étaient": 2169,
      "embarr": 2170,
      "Tok": 2171,
      "cin": 2172,
      "fat": 2173,
      "lè": 2174,
      "ras": 2175,
      "sand": 2176,
      "invol": 2177,
      "acc": 2178,
      "accep": 2179,
      "sold": 2180,
      "ural": 2181,
      "appréci": 2182,
      "volu": 2183,
      "répon": 2184,
      "stars": 2185,
      "famille": 2186,
      "magaz": 2187,
      "commun": 2188,
      "Christ": 2189,
      "ticket": 2190,
      "emplo": 2191,
      "popular": 2192,
      "sortir": 2193,
      "Tokyo": 2194,
      "New": 2195,
      "apo": 2196,
      "hors": 2197,
      "kni": 2198,
      "lts": 2199,
      "none": 2200,
      "oper": 2201,
      "rit": 2202,
      "rare": 2203,
      "swe": 2204,
      "tall": 2205,
      "tôt": 2206,
      "umbre": 2207,
      "ville": 2208,
      "yeux": 2209,
      "thre": 2210,
      "reco": 2211,
      "recei": 2212,
      "iste": 2213,
      "ision": 2214,
      "theory": 2215,
      "depend": 2216,
      "quick": 2217,
      "neigh": 2218,
      "tears": 2219,
      "stairs": 2220,
      "wel": 2221,
      "kets": 2222,
      "goes": 2223,
      "log": 2224,
      "suff": 2225,
      "pected": 2226,
      "donné": 2227,
      "outside": 2228,
      "move": 2229,
      "hood": 2230,
      "address": 2231,
      "acti": 2232,
      "park": 2233,
      "history": 2234,
      "sibil": 2235,
      "worked": 2236,
      "gets": 2237,
      "tree": 2238,
      "deser": 2239,
      "montre": 2240,
      "seeing": 2241,
      "sera": 2242,
      "guys": 2243,
      "ffic": 2244,
      "speaks": 2245,
      "plays": 2246,
      "finish": 2247,
      "raison": 2248,
      "présent": 2249,
      "closed": 2250,
      "drunk": 2251,
      "count": 2252,
      "broken": 2253,
      "efforts": 2254,
      "strange": 2255,
      "studying": 2256,
      "leurs": 2257,
      "shall": 2258,
      "writing": 2259,
      "rappe": 2260,
      "American": 2261,
      "crying": 2262,
      "laugh": 2263,
      "terrible": 2264,
      "short": 2265,
      "video": 2266,
      "realize": 2267,
      "vérité": 2268,
      "mountain": 2269,
      "smart": 2270,
      "building": 2271,
      "library": 2272,
      "appointed": 2273,
      "Christmas": 2274,
      "quickly": 2275,
      "No": 2276,
      "nent": 2277,
      "sous": 2278,
      "èrent": 2279,
      "ances": 2280,
      "ric": 2281,
      "verse": 2282,
      "mala": 2283,
      "tails": 2284,
      "abo": 2285,
      "absent": 2286,
      "rencontr": 2287,
      "colle": 2288,
      "front": 2289,
      "viend": 2290,
      "procha": 2291,
      "vois": 2292,
      "rée": 2293,
      "nombre": 2294,
      "voyage": 2295,
      "excuse": 2296,
      "aucun": 2297,
      "ignore": 2298,
      "mauvais": 2299,
      "Ah": 2300,
      "ade": 2301,
      "cru": 2302,
      "dest": 2303,
      "pus": 2304,
      "ud": 2305,
      "vas": 2306,
      "vend": 2307,
      "ép": 2308,
      "étr": 2309,
      "oubli": 2310,
      "reg": 2311,
      "reux": 2312,
      "attra": 2313,
      "arch": 2314,
      "allez": 2315,
      "jeune": 2316,
      "loin": 2317,
      "tune": 2318,
      "mot": 2319,
      "acro": 2320,
      "absolu": 2321,
      "parce": 2322,
      "ury": 2323,
      "apprendre": 2324,
      "agne": 2325,
      "pensé": 2326,
      "quiet": 2327,
      "icile": 2328,
      "matin": 2329,
      "famili": 2330,
      "difficile": 2331,
      "croire": 2332,
      "travaille": 2333,
      "joue": 2334,
      "profess": 2335,
      "nature": 2336,
      "arrog": 2337,
      "sandwi": 2338,
      "Jane": 2339,
      "cup": 2340,
      "ech": 2341,
      "fly": 2342,
      "gam": 2343,
      "hy": 2344,
      "hô": 2345,
      "hang": 2346,
      "ial": 2347,
      "ière": 2348,
      "ring": 2349,
      "tend": 2350,
      "vue": 2351,
      "ères": 2352,
      "ég": 2353,
      "pool": 2354,
      "inj": 2355,
      "ined": 2356,
      "ering": 2357,
      "ener": 2358,
      "itch": 2359,
      "veu": 2360,
      "ority": 2361,
      "sever": 2362,
      "nel": 2363,
      "stat": 2364,
      "uncle": 2365,
      "gover": 2366,
      "allowed": 2367,
      "ussi": 2368,
      "usted": 2369,
      "imp": 2370,
      "admit": 2371,
      "ics": 2372,
      "abroad": 2373,
      "contribu": 2374,
      "histoire": 2375,
      "sight": 2376,
      "worth": 2377,
      "herself": 2378,
      "apple": 2379,
      "avoi": 2380,
      "penses": 2381,
      "somewhere": 2382,
      "pourrais": 2383,
      "proper": 2384,
      "perfect": 2385,
      "traffic": 2386,
      "disco": 2387,
      "mith": 2388,
      "fight": 2389,
      "bike": 2390,
      "gives": 2391,
      "speech": 2392,
      "market": 2393,
      "merci": 2394,
      "space": 2395,
      "nervous": 2396,
      "understood": 2397,
      "older": 2398,
      "single": 2399,
      "cuis": 2400,
      "shop": 2401,
      "diffé": 2402,
      "médi": 2403,
      "price": 2404,
      "weekend": 2405,
      "winter": 2406,
      "painting": 2407,
      "driving": 2408,
      "mission": 2409,
      "solve": 2410,
      "sooner": 2411,
      "course": 2412,
      "seulement": 2413,
      "instant": 2414,
      "kiss": 2415,
      "blood": 2416,
      "lorsque": 2417,
      "pleased": 2418,
      "usual": 2419,
      "usually": 2420,
      "figured": 2421,
      "sûr": 2422,
      "explo": 2423,
      "television": 2424,
      "film": 2425,
      "dictionary": 2426,
      "actually": 2427,
      "spring": 2428,
      "utilis": 2429,
      "success": 2430,
      "practi": 2431,
      "advised": 2432,
      "street": 2433,
      "apologi": 2434,
      "umbrella": 2435,
      "Japon": 2436,
      "bra": 2437,
      "dence": 2438,
      "gros": 2439,
      "ix": 2440,
      "ko": 2441,
      "mir": 2442,
      "nour": 2443,
      "pick": 2444,
      "tar": 2445,
      "vait": 2446,
      "intro": 2447,
      "issu": 2448,
      "esp": 2449,
      "dez": 2450,
      "qué": 2451,
      "livres": 2452,
      "rock": 2453,
      "dont": 2454,
      "impossible": 2455,
      "feu": 2456,
      "sois": 2457,
      "conv": 2458,
      "rencontre": 2459,
      "vivre": 2460,
      "pourrait": 2461,
      "déso": 2462,
      "déci": 2463,
      "déjeun": 2464,
      "gue": 2465,
      "journée": 2466,
      "grou": 2467,
      "grat": 2468,
      "garçon": 2469,
      "certa": 2470,
      "langue": 2471,
      "autant": 2472,
      "acheté": 2473,
      "conna": 2474,
      "itive": 2475,
      "aucune": 2476,
      "préfé": 2477,
      "idiot": 2478,
      "pièce": 2479,
      "embarras": 2480,
      "introdu": 2481,
      "OK": 2482,
      "blu": 2483,
      "brow": 2484,
      "fas": 2485,
      "fête": 2486,
      "filles": 2487,
      "gni": 2488,
      "mn": 2489,
      "oo": 2490,
      "pis": 2491,
      "pes": 2492,
      "sme": 2493,
      "sant": 2494,
      "tête": 2495,
      "uf": 2496,
      "wing": 2497,
      "écri": 2498,
      "îner": 2499,
      "envir": 2500,
      "lly": 2501,
      "celui": 2502,
      "chan": 2503,
      "fortable": 2504,
      "sui": 2505,
      "tern": 2506,
      "iment": 2507,
      "condition": 2508,
      "coû": 2509,
      "vies": 2510,
      "viol": 2511,
      "spi": 2512,
      "fini": 2513,
      "dogs": 2514,
      "médec": 2515,
      "ggest": 2516,
      "instru": 2517,
      "fortun": 2518,
      "essayer": 2519,
      "pression": 2520,
      "arrêter": 2521,
      "taxi": 2522,
      "froid": 2523,
      "adore": 2524,
      "Internet": 2525,
      "radio": 2526,
      "environ": 2527,
      "Jim": 2528,
      "Re": 2529,
      "Smith": 2530,
      "US": 2531,
      "bly": 2532,
      "bread": 2533,
      "caf": 2534,
      "dle": 2535,
      "event": 2536,
      "eight": 2537,
      "fur": 2538,
      "ize": 2539,
      "kitch": 2540,
      "muse": 2541,
      "nment": 2542,
      "ron": 2543,
      "scare": 2544,
      "twi": 2545,
      "ye": 2546,
      "ète": 2547,
      "reed": 2548,
      "resu": 2549,
      "return": 2550,
      "power": 2551,
      "incre": 2552,
      "ente": 2553,
      "theat": 2554,
      "leep": 2555,
      "asha": 2556,
      "asleep": 2557,
      "hell": 2558,
      "ordin": 2559,
      "determin": 2560,
      "memor": 2561,
      "seat": 2562,
      "cept": 2563,
      "beat": 2564,
      "aires": 2565,
      "rions": 2566,
      "dipl": 2567,
      "ared": 2568,
      "gold": 2569,
      "complain": 2570,
      "comfortable": 2571,
      "moved": 2572,
      "ica": 2573,
      "lesson": 2574,
      "confi": 2575,
      "conside": 2576,
      "cow": 2577,
      "worse": 2578,
      "ety": 2579,
      "exer": 2580,
      "expected": 2581,
      "shut": 2582,
      "illé": 2583,
      "message": 2584,
      "disappointed": 2585,
      "cars": 2586,
      "missed": 2587,
      "mistakes": 2588,
      "guy": 2589,
      "ground": 2590,
      "minute": 2591,
      "chaque": 2592,
      "business": 2593,
      "pressed": 2594,
      "finally": 2595,
      "irsty": 2596,
      "hardly": 2597,
      "planet": 2598,
      "blan": 2599,
      "effe": 2600,
      "appear": 2601,
      "skin": 2602,
      "nouvelle": 2603,
      "enfant": 2604,
      "spoken": 2605,
      "patience": 2606,
      "cooking": 2607,
      "honest": 2608,
      "entendu": 2609,
      "America": 2610,
      "fully": 2611,
      "during": 2612,
      "punctu": 2613,
      "piece": 2614,
      "comprendre": 2615,
      "Monday": 2616,
      "United": 2617,
      "travailler": 2618,
      "Sunday": 2619,
      "thirty": 2620,
      "distance": 2621,
      "vacation": 2622,
      "Chinese": 2623,
      "eggs": 2624,
      "soft": 2625,
      "admire": 2626,
      "prepared": 2627,
      "satisfied": 2628,
      "Australia": 2629,
      "demande": 2630,
      "involved": 2631,
      "accused": 2632,
      "volution": 2633,
      "neighbor": 2634,
      "across": 2635,
      "government": 2636,
      "désolé": 2637,
      "smell": 2638,
      "kitchen": 2639,
      "twice": 2640,
      "ashamed": 2641,
      "considered": 2642,
      "Can": 2643,
      "De": 2644,
      "Yor": 2645,
      "ama": 2646,
      "bout": 2647,
      "fen": 2648,
      "riture": 2649,
      "sour": 2650,
      "site": 2651,
      "ug": 2652,
      "écrit": 2653,
      "regre": 2654,
      "inno": 2655,
      "ata": 2656,
      "nez": 2657,
      "white": 2658,
      "lig": 2659,
      "dix": 2660,
      "suspe": 2661,
      "peine": 2662,
      "amou": 2663,
      "soyez": 2664,
      "conom": 2665,
      "contra": 2666,
      "concent": 2667,
      "content": 2668,
      "coll": 2669,
      "cool": 2670,
      "frère": 2671,
      "décou": 2672,
      "teste": 2673,
      "longtemps": 2674,
      "arriver": 2675,
      "grande": 2676,
      "dites": 2677,
      "devrait": 2678,
      "laisser": 2679,
      "voulait": 2680,
      "prie": 2681,
      "ensemble": 2682,
      "heureuse": 2683,
      "double": 2684,
      "rouge": 2685,
      "animal": 2686,
      "lorsqu": 2687,
      "téléphone": 2688,
      "accord": 2689,
      "figure": 2690,
      "premier": 2691,
      "national": 2692,
      "nourriture": 2693,
      "déjeuner": 2694,
      "médecin": 2695,
      "York": 2696,
      "regret": 2697,
      "bul": 2698,
      "cand": 2699,
      "ient": 2700,
      "jam": 2701,
      "mour": 2702,
      "pap": 2703,
      "pale": 2704,
      "ror": 2705,
      "sla": 2706,
      "ues": 2707,
      "vin": 2708,
      "vor": 2709,
      "thous": 2710,
      "poc": 2711,
      "iner": 2712,
      "indi": 2713,
      "noir": 2714,
      "chant": 2715,
      "lay": 2716,
      "lid": 2717,
      "along": 2718,
      "aie": 2719,
      "fortune": 2720,
      "auth": 2721,
      "auto": 2722,
      "passer": 2723,
      "mage": 2724,
      "mois": 2725,
      "uts": 2726,
      "soci": 2727,
      "pron": 2728,
      "savez": 2729,
      "mange": 2730,
      "prote": 2731,
      "déteste": 2732,
      "ular": 2733,
      "chair": 2734,
      "presque": 2735,
      "tors": 2736,
      "rester": 2737,
      "compli": 2738,
      "command": 2739,
      "ski": 2740,
      "doub": 2741,
      "colère": 2742,
      "habitude": 2743,
      "première": 2744,
      "constru": 2745,
      "pouvons": 2746,
      "article": 2747,
      "poison": 2748,
      "brown": 2749,
      "Fri": 2750,
      "St": 2751,
      "apart": 2752,
      "bure": 2753,
      "cation": 2754,
      "cré": 2755,
      "cise": 2756,
      "dom": 2757,
      "dad": 2758,
      "dred": 2759,
      "dîner": 2760,
      "equ": 2761,
      "fou": 2762,
      "fla": 2763,
      "fati": 2764,
      "filled": 2765,
      "gan": 2766,
      "ghed": 2767,
      "ian": 2768,
      "kno": 2769,
      "len": 2770,
      "ling": 2771,
      "lend": 2772,
      "lons": 2773,
      "mic": 2774,
      "ped": 2775,
      "paid": 2776,
      "smi": 2777,
      "sœur": 2778,
      "tant": 2779,
      "task": 2780,
      "vil": 2781,
      "wise": 2782,
      "thirsty": 2783,
      "reach": 2784,
      "report": 2785,
      "remain": 2786,
      "regard": 2787,
      "possibil": 2788,
      "tomb": 2789,
      "assu": 2790,
      "itted": 2791,
      "held": 2792,
      "deli": 2793,
      "details": 2794,
      "means": 2795,
      "semb": 2796,
      "novel": 2797,
      "tea": 2798,
      "text": 2799,
      "bear": 2800,
      "beach": 2801,
      "enty": 2802,
      "entire": 2803,
      "chur": 2804,
      "lax": 2805,
      "weight": 2806,
      "rière": 2807,
      "unfortun": 2808,
      "area": 2809,
      "andon": 2810,
      "forgive": 2811,
      "loves": 2812,
      "loss": 2813,
      "allons": 2814,
      "allow": 2815,
      "sujet": 2816,
      "sudden": 2817,
      "passed": 2818,
      "mad": 2819,
      "common": 2820,
      "irrel": 2821,
      "hop": 2822,
      "ters": 2823,
      "terre": 2824,
      "amie": 2825,
      "adv": 2826,
      "utôt": 2827,
      "accus": 2828,
      "feet": 2829,
      "prit": 2830,
      "likely": 2831,
      "bother": 2832,
      "plenty": 2833,
      "plutôt": 2834,
      "upstairs": 2835,
      "shy": 2836,
      "shar": 2837,
      "tended": 2838,
      "choose": 2839,
      "butter": 2840,
      "nie": 2841,
      "tée": 2842,
      "cheveux": 2843,
      "thanks": 2844,
      "illez": 2845,
      "helped": 2846,
      "newsp": 2847,
      "type": 2848,
      "mise": 2849,
      "gué": 2850,
      "spent": 2851,
      "ician": 2852,
      "wore": 2853,
      "phys": 2854,
      "visited": 2855,
      "hide": 2856,
      "rude": 2857,
      "president": 2858,
      "raised": 2859,
      "clus": 2860,
      "brought": 2861,
      "voud": 2862,
      "borrow": 2863,
      "hurried": 2864,
      "cros": 2865,
      "greatest": 2866,
      "raining": 2867,
      "painted": 2868,
      "shower": 2869,
      "letters": 2870,
      "dressed": 2871,
      "funny": 2872,
      "soldi": 2873,
      "sky": 2874,
      "warm": 2875,
      "warned": 2876,
      "boyfriend": 2877,
      "ities": 2878,
      "hundred": 2879,
      "jouer": 2880,
      "medicine": 2881,
      "awake": 2882,
      "fishing": 2883,
      "transl": 2884,
      "difference": 2885,
      "costs": 2886,
      "windows": 2887,
      "responsible": 2888,
      "faith": 2889,
      "animals": 2890,
      "decision": 2891,
      "sounds": 2892,
      "natural": 2893,
      "burst": 2894,
      "following": 2895,
      "according": 2896,
      "garden": 2897,
      "earthqu": 2898,
      "bottle": 2899,
      "enemy": 2900,
      "seriously": 2901,
      "beginning": 2902,
      "silent": 2903,
      "succeeded": 2904,
      "meilleur": 2905,
      "teeth": 2906,
      "ship": 2907,
      "squirrel": 2908,
      "recogni": 2909,
      "received": 2910,
      "depends": 2911,
      "laughing": 2912,
      "absolute": 2913,
      "familiar": 2914,
      "injured": 2915,
      "energy": 2916,
      "avoid": 2917,
      "blue": 2918,
      "café": 2919,
      "scared": 2920,
      "punctual": 2921,
      "thousand": 2922,
      "Friday": 2923,
      "bureau": 2924,
      "unfortunately": 2925,
      "newspaper": 2926,
      "Co": 2927,
      "Mi": 2928,
      "cs": 2929,
      "cous": 2930,
      "flat": 2931,
      "ides": 2932,
      "mmes": 2933,
      "nager": 2934,
      "pir": 2935,
      "pill": 2936,
      "zoo": 2937,
      "èmes": 2938,
      "ouver": 2939,
      "isten": 2940,
      "espère": 2941,
      "organ": 2942,
      "belle": 2943,
      "lap": 2944,
      "alle": 2945,
      "eds": 2946,
      "lots": 2947,
      "maj": 2948,
      "outer": 2949,
      "prêt": 2950,
      "pleu": 2951,
      "ava": 2952,
      "exac": 2953,
      "ards": 2954,
      "choco": 2955,
      "chemin": 2956,
      "serait": 2957,
      "ctions": 2958,
      "intention": 2959,
      "direct": 2960,
      "pouvoir": 2961,
      "avantage": 2962,
      "péri": 2963,
      "science": 2964,
      "occupé": 2965,
      "intéres": 2966,
      "concert": 2967,
      "tellement": 2968,
      "magazine": 2969,
      "diplom": 2970,
      "innocent": 2971,
      "App": 2972,
      "Brit": 2973,
      "War": 2974,
      "cœur": 2975,
      "fus": 2976,
      "fils": 2977,
      "gres": 2978,
      "gag": 2979,
      "lone": 2980,
      "mate": 2981,
      "mill": 2982,
      "obe": 2983,
      "pack": 2984,
      "ration": 2985,
      "spor": 2986,
      "oui": 2987,
      "requi": 2988,
      "retour": 2989,
      "ennu": 2990,
      "esca": 2991,
      "ara": 2992,
      "dehors": 2993,
      "habite": 2994,
      "ilt": 2995,
      "iles": 2996,
      "chante": 2997,
      "suggest": 2998,
      "tie": 2999,
      "compl": 3000,
      "cancer": 3001,
      "immédi": 3002,
      "trom": 3003,
      "abandon": 3004,
      "contin": 3005,
      "els": 3006,
      "copi": 3007,
      "exha": 3008,
      "manager": 3009,
      "venus": 3010,
      "venue": 3011,
      "réf": 3012,
      "lieu": 3013,
      "phy": 3014,
      "fumer": 3015,
      "ignor": 3016,
      "compte": 3017,
      "vélo": 3018,
      "partie": 3019,
      "prends": 3020,
      "appelle": 3021,
      "000": 3022,
      "alement": 3023,
      "universe": 3024,
      "secrets": 3025,
      "regarde": 3026,
      "regarder": 3027,
      "dormir": 3028,
      "sûre": 3029,
      "malade": 3030,
      "oublié": 3031,
      "sandwich": 3032,
      "santé": 3033,
      "écrire": 3034,
      "11": 3035,
      "Ita": 3036,
      "Ju": 3037,
      "Spain": 3038,
      "alive": 3039,
      "ben": 3040,
      "base": 3041,
      "bright": 3042,
      "bable": 3043,
      "brain": 3044,
      "cast": 3045,
      "crow": 3046,
      "cue": 3047,
      "davantage": 3048,
      "evi": 3049,
      "fing": 3050,
      "ga": 3051,
      "hes": 3052,
      "lent": 3053,
      "list": 3054,
      "lines": 3055,
      "nic": 3056,
      "nons": 3057,
      "ners": 3058,
      "pac": 3059,
      "rang": 3060,
      "round": 3061,
      "sw": 3062,
      "taller": 3063,
      "wind": 3064,
      "wake": 3065,
      "throw": 3066,
      "remon": 3067,
      "poser": 3068,
      "année": 3069,
      "ended": 3070,
      "toes": 3071,
      "toys": 3072,
      "lead": 3073,
      "lebr": 3074,
      "argu": 3075,
      "vered": 3076,
      "dered": 3077,
      "deep": 3078,
      "devez": 3079,
      "quat": 3080,
      "meant": 3081,
      "separ": 3082,
      "celebr": 3083,
      "belong": 3084,
      "chick": 3085,
      "lake": 3086,
      "laquelle": 3087,
      "lazy": 3088,
      "weak": 3089,
      "alors": 3090,
      "altern": 3091,
      "rid": 3092,
      "rif": 3093,
      "union": 3094,
      "unity": 3095,
      "forced": 3096,
      "logy": 3097,
      "waste": 3098,
      "rapi": 3099,
      "math": 3100,
      "mail": 3101,
      "mach": 3102,
      "mains": 3103,
      "ghost": 3104,
      "moon": 3105,
      "movies": 3106,
      "tait": 3107,
      "tables": 3108,
      "sheep": 3109,
      "importe": 3110,
      "impression": 3111,
      "impressed": 3112,
      "amé": 3113,
      "amour": 3114,
      "accept": 3115,
      "fear": 3116,
      "resour": 3117,
      "resist": 3118,
      "resident": 3119,
      "contro": 3120,
      "congrat": 3121,
      "size": 3122,
      "proud": 3123,
      "worst": 3124,
      "worried": 3125,
      "appris": 3126,
      "appoint": 3127,
      "express": 3128,
      "boat": 3129,
      "agreed": 3130,
      "manu": 3131,
      "manière": 3132,
      "upset": 3133,
      "project": 3134,
      "probable": 3135,
      "perhap": 3136,
      "trees": 3137,
      "treated": 3138,
      "aise": 3139,
      "fool": 3140,
      "tenir": 3141,
      "button": 3142,
      "nivers": 3143,
      "ainsi": 3144,
      "served": 3145,
      "moral": 3146,
      "stopped": 3147,
      "talks": 3148,
      "fail": 3149,
      "watched": 3150,
      "says": 3151,
      "wood": 3152,
      "homework": 3153,
      "rules": 3154,
      "tries": 3155,
      "touched": 3156,
      "childhood": 3157,
      "rendre": 3158,
      "vieux": 3159,
      "happening": 3160,
      "sings": 3161,
      "singer": 3162,
      "toilet": 3163,
      "starting": 3164,
      "drank": 3165,
      "laissé": 3166,
      "soul": 3167,
      "payer": 3168,
      "England": 3169,
      "handle": 3170,
      "cris": 3171,
      "prix": 3172,
      "prices": 3173,
      "countries": 3174,
      "keeps": 3175,
      "weeks": 3176,
      "calm": 3177,
      "opport": 3178,
      "magas": 3179,
      "langues": 3180,
      "understanding": 3181,
      "drinking": 3182,
      "kinds": 3183,
      "puisse": 3184,
      "grandfather": 3185,
      "grandmother": 3186,
      "Chris": 3187,
      "geni": 3188,
      "license": 3189,
      "driver": 3190,
      "runs": 3191,
      "wedding": 3192,
      "blame": 3193,
      "pictures": 3194,
      "matters": 3195,
      "professe": 3196,
      "foods": 3197,
      "wonderful": 3198,
      "favour": 3199,
      "listening": 3200,
      "translate": 3201,
      "entreprise": 3202,
      "refused": 3203,
      "Germany": 3204,
      "healthy": 3205,
      "respond": 3206,
      "failed": 3207,
      "scene": 3208,
      "kissed": 3209,
      "leaves": 3210,
      "months": 3211,
      "laughed": 3212,
      "horri": 3213,
      "problèmes": 3214,
      "draw": 3215,
      "elect": 3216,
      "reasons": 3217,
      "growing": 3218,
      "fault": 3219,
      "telephone": 3220,
      "imagine": 3221,
      "lawyer": 3222,
      "temper": 3223,
      "promises": 3224,
      "university": 3225,
      "selves": 3226,
      "knife": 3227,
      "threw": 3228,
      "Americans": 3229,
      "above": 3230,
      "games": 3231,
      "veuillez": 3232,
      "several": 3233,
      "admitted": 3234,
      "apologize": 3235,
      "convince": 3236,
      "embarrassed": 3237,
      "faster": 3238,
      "museum": 3239,
      "increas": 3240,
      "theater": 3241,
      "memory": 3242,
      "cows": 3243,
      "exercise": 3244,
      "protect": 3245,
      "States": 3246,
      "church": 3247,
      "chicken": 3248,
      "congratul": 3249,
      "perhaps": 3250,
      "Es": 3251,
      "Se": 3252,
      "cteur": 3253,
      "fra": 3254,
      "font": 3255,
      "gle": 3256,
      "gare": 3257,
      "hé": 3258,
      "nit": 3259,
      "rate": 3260,
      "sport": 3261,
      "ttes": 3262,
      "vable": 3263,
      "yen": 3264,
      "yal": 3265,
      "ène": 3266,
      "oub": 3267,
      "poll": 3268,
      "position": 3269,
      "isir": 3270,
      "envie": 3271,
      "asion": 3272,
      "iter": 3273,
      "meur": 3274,
      "ilo": 3275,
      "entr": 3276,
      "laire": 3277,
      "aimes": 3278,
      "rice": 3279,
      "riche": 3280,
      "rob": 3281,
      "dies": 3282,
      "sus": 3283,
      "tient": 3284,
      "donc": 3285,
      "donner": 3286,
      "compris": 3287,
      "mots": 3288,
      "amis": 3289,
      "sole": 3290,
      "ots": 3291,
      "consu": 3292,
      "parlez": 3293,
      "endro": 3294,
      "existen": 3295,
      "agno": 3296,
      "mangé": 3297,
      "derrière": 3298,
      "pourriez": 3299,
      "anges": 3300,
      "discus": 3301,
      "happ": 3302,
      "marche": 3303,
      "marché": 3304,
      "spic": 3305,
      "offer": 3306,
      "sentiment": 3307,
      "devriez": 3308,
      "pensez": 3309,
      "nécess": 3310,
      "parties": 3311,
      "suppor": 3312,
      "cherche": 3313,
      "peuvent": 3314,
      "nouvelles": 3315,
      "occasion": 3316,
      "normal": 3317,
      "attendre": 3318,
      "route": 3319,
      "entendre": 3320,
      "population": 3321,
      "cinq": 3322,
      "issue": 3323,
      "rencontrer": 3324,
      "suspect": 3325,
      "immédiate": 3326,
      "quatre": 3327,
      "existence": 3328,
      "15": 3329,
      "Bob": 3330,
      "Kate": 3331,
      "Lon": 3332,
      "Lind": 3333,
      "Russi": 3334,
      "bate": 3335,
      "data": 3336,
      "fl": 3337,
      "fri": 3338,
      "gon": 3339,
      "mur": 3340,
      "ns": 3341,
      "nul": 3342,
      "naire": 3343,
      "oth": 3344,
      "ole": 3345,
      "pê": 3346,
      "pur": 3347,
      "rat": 3348,
      "rom": 3349,
      "vase": 3350,
      "vée": 3351,
      "çons": 3352,
      "éti": 3353,
      "pol": 3354,
      "ino": 3355,
      "insu": 3356,
      "invent": 3357,
      "isé": 3358,
      "itu": 3359,
      "orig": 3360,
      "devoir": 3361,
      "quar": 3362,
      "sex": 3363,
      "sez": 3364,
      "nement": 3365,
      "note": 3366,
      "cell": 3367,
      "celle": 3368,
      "stri": 3369,
      "dia": 3370,
      "divor": 3371,
      "ford": 3372,
      "suici": 3373,
      "myst": 3374,
      "amus": 3375,
      "ambit": 3376,
      "abil": 3377,
      "parlé": 3378,
      "costu": 3379,
      "appro": 3380,
      "expéri": 3381,
      "plans": 3382,
      "penser": 3383,
      "persu": 3384,
      "permission": 3385,
      "trer": 3386,
      "due": 3387,
      "justice": 3388,
      "midi": 3389,
      "bière": 3390,
      "surance": 3391,
      "giving": 3392,
      "serai": 3393,
      "serais": 3394,
      "service": 3395,
      "ieu": 3396,
      "guit": 3397,
      "façon": 3398,
      "sors": 3399,
      "pizz": 3400,
      "phen": 3401,
      "philo": 3402,
      "chall": 3403,
      "chaud": 3404,
      "clou": 3405,
      "numé": 3406,
      "curi": 3407,
      "prison": 3408,
      "musique": 3409,
      "itié": 3410,
      "color": 3411,
      "faim": 3412,
      "solution": 3413,
      "boulot": 3414,
      "pouvait": 3415,
      "laissez": 3416,
      "201": 3417,
      "football": 3418,
      "apprécie": 3419,
      "activ": 3420,
      "prochain": 3421,
      "arrogant": 3422,
      "hypo": 3423,
      "fenêtre": 3424,
      "fatigué": 3425,
      "voudrais": 3426,
      "exactement": 3427,
      "magasin": 3428,
      "professeur": 3429,
      "nécessaire": 3430,
      "immédiatement": 3431,
      "Linda": 3432,
      "costume": 3433,
      "philoso": 3434,
      "Bra": 3435,
      "Ital": 3436,
      "Sus": 3437,
      "Thom": 3438,
      "athe": 3439,
      "aver": 3440,
      "aded": 3441,
      "ahead": 3442,
      "bare": 3443,
      "bby": 3444,
      "bound": 3445,
      "bank": 3446,
      "cte": 3447,
      "cab": 3448,
      "ccer": 3449,
      "dry": 3450,
      "dange": 3451,
      "econom": 3452,
      "fre": 3453,
      "fir": 3454,
      "fair": 3455,
      "gs": 3456,
      "gâ": 3457,
      "hill": 3458,
      "honey": 3459,
      "ied": 3460,
      "kid": 3461,
      "lan": 3462,
      "mment": 3463,
      "mbo": 3464,
      "nal": 3465,
      "push": 3466,
      "rê": 3467,
      "rank": 3468,
      "sion": 3469,
      "sad": 3470,
      "sche": 3471,
      "scre": 3472,
      "sys": 3473,
      "tun": 3474,
      "tles": 3475,
      "tong": 3476,
      "upon": 3477,
      "var": 3478,
      "vate": 3479,
      "vrir": 3480,
      "wha": 3481,
      "ying": 3482,
      "yed": 3483,
      "zing": 3484,
      "âge": 3485,
      "çu": 3486,
      "éle": 3487,
      "œuf": 3488,
      "though": 3489,
      "thick": 3490,
      "reti": 3491,
      "request": 3492,
      "recent": 3493,
      "remind": 3494,
      "returned": 3495,
      "pot": 3496,
      "incon": 3497,
      "istic": 3498,
      "anto": 3499,
      "ero": 3500,
      "ened": 3501,
      "tori": 3502,
      "toward": 3503,
      "ashed": 3504,
      "arrested": 3505,
      "vege": 3506,
      "ller": 3507,
      "llowed": 3508,
      "defe": 3509,
      "meal": 3510,
      "mets": 3511,
      "seven": 3512,
      "search": 3513,
      "tex": 3514,
      "hammer": 3515,
      "ceux": 3516,
      "ceremon": 3517,
      "beef": 3518,
      "becoming": 3519,
      "state": 3520,
      "stick": 3521,
      "doors": 3522,
      "ching": 3523,
      "weir": 3524,
      "wears": 3525,
      "weigh": 3526,
      "lian": 3527,
      "lied": 3528,
      "verre": 3529,
      "eding": 3530,
      "god": 3531,
      "losing": 3532,
      "local": 3533,
      "aul": 3534,
      "autu": 3535,
      "autor": 3536,
      "sucre": 3537,
      "rab": 3538,
      "rains": 3539,
      "peau": 3540,
      "peci": 3541,
      "iron": 3542,
      "mood": 3543,
      "hol": 3544,
      "hole": 3545,
      "holi": 3546,
      "tail": 3547,
      "tact": 3548,
      "cances": 3549,
      "improve": 3550,
      "add": 3551,
      "advant": 3552,
      "advert": 3553,
      "lying": 3554,
      "tray": 3555,
      "ably": 3556,
      "within": 3557,
      "soccer": 3558,
      "conten": 3559,
      "parked": 3560,
      "sident": 3561,
      "prê": 3562,
      "anywhere": 3563,
      "pleure": 3564,
      "cover": 3565,
      "hero": 3566,
      "vious": 3567,
      "cious": 3568,
      "bored": 3569,
      "boss": 3570,
      "peranto": 3571,
      "désol": 3572,
      "voit": 3573,
      "desk": 3574,
      "desp": 3575,
      "followed": 3576,
      "ounce": 3577,
      "ounded": 3578,
      "willing": 3579,
      "tradu": 3580,
      "illness": 3581,
      "everywhere": 3582,
      "useful": 3583,
      "tells": 3584,
      "disg": 3585,
      "cheese": 3586,
      "cting": 3587,
      "fired": 3588,
      "goods": 3589,
      "gie": 3590,
      "spell": 3591,
      "special": 3592,
      "helps": 3593,
      "stories": 3594,
      "stopping": 3595,
      "agement": 3596,
      "guard": 3597,
      "gotten": 3598,
      "puzz": 3599,
      "built": 3600,
      "icial": 3601,
      "pigg": 3602,
      "clever": 3603,
      "players": 3604,
      "caused": 3605,
      "vacances": 3606,
      "forever": 3607,
      "foreign": 3608,
      "friendly": 3609,
      "hiding": 3610,
      "minim": 3611,
      "chaus": 3612,
      "finite": 3613,
      "belief": 3614,
      "believed": 3615,
      "classe": 3616,
      "pond": 3617,
      "happens": 3618,
      "atives": 3619,
      "singing": 3620,
      "create": 3621,
      "huge": 3622,
      "standing": 3623,
      "devrions": 3624,
      "souci": 3625,
      "teaching": 3626,
      "paying": 3627,
      "waited": 3628,
      "direction": 3629,
      "sleepy": 3630,
      "truck": 3631,
      "ferai": 3632,
      "calling": 3633,
      "owes": 3634,
      "smaller": 3635,
      "drinks": 3636,
      "support": 3637,
      "kindness": 3638,
      "bedroom": 3639,
      "walks": 3640,
      "difficulty": 3641,
      "share": 3642,
      "occur": 3643,
      "itiz": 3644,
      "crimin": 3645,
      "brothers": 3646,
      "deny": 3647,
      "changing": 3648,
      "volun": 3649,
      "photos": 3650,
      "custo": 3651,
      "decide": 3652,
      "listened": 3653,
      "bird": 3654,
      "drop": 3655,
      "falling": 3656,
      "policeman": 3657,
      "judge": 3658,
      "proposal": 3659,
      "clearly": 3660,
      "harder": 3661,
      "dernier": 3662,
      "flower": 3663,
      "télévision": 3664,
      "excited": 3665,
      "danced": 3666,
      "erreur": 3667,
      "salt": 3668,
      "subject": 3669,
      "elected": 3670,
      "terribly": 3671,
      "traveling": 3672,
      "scientific": 3673,
      "camera": 3674,
      "engine": 3675,
      "conduire": 3676,
      "donnez": 3677,
      "fluent": 3678,
      "symbo": 3679,
      "commencé": 3680,
      "cards": 3681,
      "selling": 3682,
      "generation": 3683,
      "succeed": 3684,
      "Alger": 3685,
      "rarely": 3686,
      "welcome": 3687,
      "deserve": 3688,
      "pushed": 3689,
      "regular": 3690,
      "profession": 3691,
      "certains": 3692,
      "environment": 3693,
      "results": 3694,
      "determined": 3695,
      "smells": 3696,
      "amoureux": 3697,
      "contract": 3698,
      "candy": 3699,
      "equal": 3700,
      "smile": 3701,
      "delicious": 3702,
      "advance": 3703,
      "physical": 3704,
      "soldiers": 3705,
      "earthquake": 3706,
      "squirrels": 3707,
      "recognize": 3708,
      "absolutely": 3709,
      "chocolate": 3710,
      "British": 3711,
      "lonely": 3712,
      "escape": 3713,
      "copies": 3714,
      "exhausted": 3715,
      "benef": 3716,
      "evidence": 3717,
      "finger": 3718,
      "nonsense": 3719,
      "control": 3720,
      "appointment": 3721,
      "opportunity": 3722,
      "favourite": 3723,
      "convinced": 3724,
      "Esperanto": 3725,
      "endroit": 3726,
      "étiez": 3727,
      "polite": 3728,
      "Braz": 3729,
      "Italy": 3730,
      "Susan": 3731,
      "Thomas": 3732,
      "average": 3733,
      "firm": 3734,
      "schedu": 3735,
      "system": 3736,
      "autumn": 3737,
      "désolée": 3738,
      "piggy": 3739,
      "Amé": 3740,
      "Com": 3741,
      "Dieu": 3742,
      "Mo": 3743,
      "May": 3744,
      "Nor": 3745,
      "Pe": 3746,
      "Tur": 3747,
      "Terre": 3748,
      "Wh": 3749,
      "aine": 3750,
      "bâ": 3751,
      "gal": 3752,
      "ige": 3753,
      "mati": 3754,
      "oc": 3755,
      "ray": 3756,
      "sance": 3757,
      "tan": 3758,
      "équi": 3759,
      "ôle": 3760,
      "rem": 3761,
      "istes": 3762,
      "anx": 3763,
      "envoy": 3764,
      "ites": 3765,
      "arm": 3766,
      "veille": 3767,
      "oranges": 3768,
      "changer": 3769,
      "chats": 3770,
      "lier": 3771,
      "libre": 3772,
      "rique": 3773,
      "force": 3774,
      "tale": 3775,
      "ressemble": 3776,
      "rendu": 3777,
      "boire": 3778,
      "ateur": 3779,
      "somebody": 3780,
      "provi": 3781,
      "voici": 3782,
      "angles": 3783,
      "mons": 3784,
      "choix": 3785,
      "distribu": 3786,
      "chemise": 3787,
      "essaie": 3788,
      "surprise": 3789,
      "réunion": 3790,
      "visi": 3791,
      "personnes": 3792,
      "devant": 3793,
      "voulons": 3794,
      "japon": 3795,
      "blon": 3796,
      "hommes": 3797,
      "pouvais": 3798,
      "géné": 3799,
      "crime": 3800,
      "invité": 3801,
      "capable": 3802,
      "psy": 3803,
      "habitu": 3804,
      "curité": 3805,
      "dormi": 3806,
      "essayé": 3807,
      "culture": 3808,
      "bébé": 3809,
      "fond": 3810,
      "banan": 3811,
      "club": 3812,
      "cruel": 3813,
      "vendre": 3814,
      "hôtel": 3815,
      "cuisine": 3816,
      "utiliser": 3817,
      "décidé": 3818,
      "connaît": 3819,
      "cousin": 3820,
      "rapide": 3821,
      "origin": 3822,
      "expérience": 3823,
      "Cath": 3824,
      "Gre": 3825,
      "Je": 3826,
      "bun": 3827,
      "bone": 3828,
      "cô": 3829,
      "cing": 3830,
      "cil": 3831,
      "cure": 3832,
      "gas": 3833,
      "gment": 3834,
      "hen": 3835,
      "ker": 3836,
      "lou": 3837,
      "lin": 3838,
      "lune": 3839,
      "nage": 3840,
      "pous": 3841,
      "sse": 3842,
      "scar": 3843,
      "tat": 3844,
      "tres": 3845,
      "vons": 3846,
      "âmes": 3847,
      "âche": 3848,
      "èque": 3849,
      "ètement": 3850,
      "ël": 3851,
      "îte": 3852,
      "ître": 3853,
      "remar": 3854,
      "ina": 3855,
      "isme": 3856,
      "anci": 3857,
      "total": 3858,
      "orange": 3859,
      "quo": 3860,
      "quent": 3861,
      "serez": 3862,
      "stru": 3863,
      "ents": 3864,
      "entôt": 3865,
      "chou": 3866,
      "allait": 3867,
      "aurait": 3868,
      "tien": 3869,
      "ties": 3870,
      "tive": 3871,
      "irai": 3872,
      "moder": 3873,
      "abst": 3874,
      "absur": 3875,
      "reste": 3876,
      "convers": 3877,
      "parfois": 3878,
      "pru": 3879,
      "prête": 3880,
      "save": 3881,
      "savait": 3882,
      "ends": 3883,
      "cop": 3884,
      "cip": 3885,
      "boîte": 3886,
      "agit": 3887,
      "plant": 3888,
      "manque": 3889,
      "propre": 3890,
      "perdre": 3891,
      "descri": 3892,
      "travers": 3893,
      "ellement": 3894,
      "venge": 3895,
      "tés": 3896,
      "bientôt": 3897,
      "sert": 3898,
      "réal": 3899,
      "guil": 3900,
      "journal": 3901,
      "sorte": 3902,
      "pire": 3903,
      "nerve": 3904,
      "sécurité": 3905,
      "garage": 3906,
      "garçons": 3907,
      "corri": 3908,
      "green": 3909,
      "souha": 3910,
      "souviens": 3911,
      "cuter": 3912,
      "assist": 3913,
      "commence": 3914,
      "changes": 3915,
      "awa": 3916,
      "courant": 3917,
      "parer": 3918,
      "droit": 3919,
      "refus": 3920,
      "blessé": 3921,
      "intéress": 3922,
      "terminé": 3923,
      "objective": 3924,
      "considé": 3925,
      "fonction": 3926,
      "arrêté": 3927,
      "pauvre": 3928,
      "rencontré": 3929,
      "viendra": 3930,
      "destination": 3931,
      "épous": 3932,
      "étranger": 3933,
      "hôp": 3934,
      "différen": 3935,
      "pickpoc": 3936,
      "group": 3937,
      "confiance": 3938,
      "allemand": 3939,
      "gressive": 3940,
      "réflé": 3941,
      "baseball": 3942,
      "améli": 3943,
      "oublie": 3944,
      "pollu": 3945,
      "challen": 3946,
      "numéro": 3947,
      "équipe": 3948,
      "japonais": 3949,
      "conversation": 3950,
      "12": 3951,
      "200": 3952,
      "60": 3953,
      "Ar": 3954,
      "Kyo": 3955,
      "Nan": 3956,
      "Nations": 3957,
      "Pro": 3958,
      "President": 3959,
      "Paul": 3960,
      "Tan": 3961,
      "The": 3962,
      "You": 3963,
      "aille": 3964,
      "bru": 3965,
      "bath": 3966,
      "blow": 3967,
      "cred": 3968,
      "citiz": 3969,
      "drow": 3970,
      "dating": 3971,
      "emer": 3972,
      "evolution": 3973,
      "evil": 3974,
      "fend": 3975,
      "flies": 3976,
      "fleurs": 3977,
      "gth": 3978,
      "gay": 3979,
      "gif": 3980,
      "han": 3981,
      "ized": 3982,
      "jok": 3983,
      "nam": 3984,
      "nations": 3985,
      "pants": 3986,
      "rand": 3987,
      "rise": 3988,
      "range": 3989,
      "sir": 3990,
      "twent": 3991,
      "vaut": 3992,
      "wis": 3993,
      "wit": 3994,
      "wild": 3995,
      "âtre": 3996,
      "rele": 3997,
      "repe": 3998,
      "rely": 3999,
      "reac": 4000,
      "relie": 4001,
      "removed": 4002,
      "relax": 4003,
      "poe": 4004,
      "pota": 4005,
      "poem": 4006,
      "pose": 4007,
      "poste": 4008,
      "influ": 4009,
      "intended": 4010,
      "insurance": 4011,
      "iser": 4012,
      "ises": 4013,
      "ond": 4014,
      "ery": 4015,
      "eny": 4016,
      "enon": 4017,
      "enci": 4018,
      "esome": 4019,
      "esprit": 4020,
      "especi": 4021,
      "toy": 4022,
      "tomber": 4023,
      "atin": 4024,
      "ature": 4025,
      "atics": 4026,
      "leman": 4027,
      "level": 4028,
      "assure": 4029,
      "omb": 4030,
      "omenon": 4031,
      "heat": 4032,
      "arms": 4033,
      "arily": 4034,
      "veillé": 4035,
      "dear": 4036,
      "depar": 4037,
      "devenu": 4038,
      "definite": 4039,
      "seas": 4040,
      "nose": 4041,
      "noti": 4042,
      "tech": 4043,
      "tead": 4044,
      "tered": 4045,
      "cean": 4046,
      "ilable": 4047,
      "behave": 4048,
      "beating": 4049,
      "betray": 4050,
      "stren": 4051,
      "enter": 4052,
      "chie": 4053,
      "wealth": 4054,
      "weapon": 4055,
      "alous": 4056,
      "alco": 4057,
      "rire": 4058,
      "ests": 4059,
      "estim": 4060,
      "jealous": 4061,
      "unless": 4062,
      "dir": 4063,
      "diet": 4064,
      "diale": 4065,
      "edu": 4066,
      "lock": 4067,
      "locked": 4068,
      "aught": 4069,
      "sures": 4070,
      "suite": 4071,
      "wide": 4072,
      "timid": 4073,
      "washed": 4074,
      "racle": 4075,
      "pean": 4076,
      "peace": 4077,
      "mam": 4078,
      "mathem": 4079,
      "ushed": 4080,
      "comic": 4081,
      "mos": 4082,
      "hobby": 4083,
      "taille": 4084,
      "shelf": 4085,
      "terms": 4086,
      "teria": 4087,
      "impro": 4088,
      "impatient": 4089,
      "amment": 4090,
      "among": 4091,
      "ada": 4092,
      "addi": 4093,
      "adres": 4094,
      "adap": 4095,
      "ices": 4096,
      "iche": 4097,
      "ication": 4098,
      "acted": 4099,
      "accent": 4100,
      "action": 4101,
      "feed": 4102,
      "ference": 4103,
      "ables": 4104,
      "conque": 4105,
      "conclus": 4106,
      "parviens": 4107,
      "oko": 4108,
      "odd": 4109,
      "saved": 4110,
      "salad": 4111,
      "rentrer": 4112,
      "coin": 4113,
      "coward": 4114,
      "thered": 4115,
      "ette": 4116,
      "usting": 4117,
      "fron": 4118,
      "frank": 4119,
      "aven": 4120,
      "excus": 4121,
      "bow": 4122,
      "bois": 4123,
      "board": 4124,
      "aged": 4125,
      "aggressive": 4126,
      "désor": 4127,
      "ulent": 4128,
      "shit": 4129,
      "treat": 4130,
      "voice": 4131,
      "angers": 4132,
      "lumi": 4133,
      "hadn": 4134,
      "wered": 4135,
      "vented": 4136,
      "mess": 4137,
      "akes": 4138,
      "discount": 4139,
      "dishes": 4140,
      "mign": 4141,
      "miracle": 4142,
      "happi": 4143,
      "fie": 4144,
      "bio": 4145,
      "aired": 4146,
      "giant": 4147,
      "èrement": 4148,
      "servi": 4149,
      "marcher": 4150,
      "pregn": 4151,
      "prenez": 4152,
      "rights": 4153,
      "gues": 4154,
      "guests": 4155,
      "spread": 4156,
      "pull": 4157,
      "selfish": 4158,
      "valid": 4159,
      "phones": 4160,
      "eats": 4161,
      "afford": 4162,
      "visite": 4163,
      "champ": 4164,
      "furent": 4165,
      "rub": 4166,
      "rule": 4167,
      "rumor": 4168,
      "ruined": 4169,
      "igner": 4170,
      "beauty": 4171,
      "instead": 4172,
      "garde": 4173,
      "pressure": 4174,
      "believes": 4175,
      "clé": 4176,
      "breath": 4177,
      "grew": 4178,
      "personal": 4179,
      "created": 4180,
      "humor": 4181,
      "pyra": 4182,
      "brush": 4183,
      "mater": 4184,
      "match": 4185,
      "shoot": 4186,
      "showed": 4187,
      "airport": 4188,
      "boring": 4189,
      "crush": 4190,
      "plane": 4191,
      "keeping": 4192,
      "troubles": 4193,
      "winning": 4194,
      "options": 4195,
      "athle": 4196,
      "blind": 4197,
      "staying": 4198,
      "rained": 4199,
      "maged": 4200,
      "paint": 4201,
      "enseign": 4202,
      "committed": 4203,
      "effect": 4204,
      "badly": 4205,
      "gentleman": 4206,
      "opening": 4207,
      "genre": 4208,
      "gency": 4209,
      "younger": 4210,
      "appelé": 4211,
      "musician": 4212,
      "solved": 4213,
      "skirt": 4214,
      "shame": 4215,
      "charac": 4216,
      "charged": 4217,
      "picnic": 4218,
      "lights": 4219,
      "complex": 4220,
      "India": 4221,
      "pretend": 4222,
      "wondering": 4223,
      "higher": 4224,
      "highly": 4225,
      "denied": 4226,
      "changé": 4227,
      "spot": 4228,
      "headache": 4229,
      "awesome": 4230,
      "birds": 4231,
      "court": 4232,
      "faisons": 4233,
      "fallen": 4234,
      "captain": 4235,
      "passport": 4236,
      "password": 4237,
      "refle": 4238,
      "spending": 4239,
      "jump": 4240,
      "sunny": 4241,
      "sixty": 4242,
      "empê": 4243,
      "empty": 4244,
      "risk": 4245,
      "step": 4246,
      "futon": 4247,
      "kissing": 4248,
      "daughters": 4249,
      "curtain": 4250,
      "pleasure": 4251,
      "bicyc": 4252,
      "virus": 4253,
      "occupée": 4254,
      "washing": 4255,
      "burned": 4256,
      "horse": 4257,
      "object": 4258,
      "étudiants": 4259,
      "related": 4260,
      "postcard": 4261,
      "forgotten": 4262,
      "confis": 4263,
      "concerned": 4264,
      "scientists": 4265,
      "camp": 4266,
      "punished": 4267,
      "expli": 4268,
      "sensitive": 4269,
      "bottles": 4270,
      "cinema": 4271,
      "imagination": 4272,
      "princess": 4273,
      "dispose": 4274,
      "comprends": 4275,
      "facilement": 4276,
      "symp": 4277,
      "slowly": 4278,
      "préfère": 4279,
      "fucking": 4280,
      "middle": 4281,
      "China": 4282,
      "197": 4283,
      "198": 4284,
      "sofa": 4285,
      "slip": 4286,
      "slipped": 4287,
      "songs": 4288,
      "promised": 4289,
      "poisson": 4290,
      "European": 4291,
      "rieur": 4292,
      "mouth": 4293,
      "repair": 4294,
      "repaired": 4295,
      "political": 4296,
      "attacked": 4297,
      "surviv": 4298,
      "lève": 4299,
      "emploi": 4300,
      "knives": 4301,
      "sweat": 4302,
      "threat": 4303,
      "archite": 4304,
      "hanging": 4305,
      "statue": 4306,
      "contributor": 4307,
      "properly": 4308,
      "grosse": 4309,
      "espagno": 4310,
      "introduce": 4311,
      "introduced": 4312,
      "instructions": 4313,
      "entered": 4314,
      "hello": 4315,
      "ordinateur": 4316,
      "appearance": 4317,
      "neighbors": 4318,
      "Canada": 4319,
      "ugly": 4320,
      "society": 4321,
      "doubts": 4322,
      "construction": 4323,
      "possibility": 4324,
      "allows": 4325,
      "suddenly": 4326,
      "sharp": 4327,
      "crossed": 4328,
      "translations": 4329,
      "available": 4330,
      "sports": 4331,
      "complètement": 4332,
      "crowd": 4333,
      "gathered": 4334,
      "packed": 4335,
      "deeply": 4336,
      "ghosts": 4337,
      "probablement": 4338,
      "failure": 4339,
      "crisis": 4340,
      "temperature": 4341,
      "happiness": 4342,
      "London": 4343,
      "Russian": 4344,
      "gonna": 4345,
      "ability": 4346,
      "guitar": 4347,
      "pizza": 4348,
      "phenomenon": 4349,
      "2013": 4350,
      "philosophy": 4351,
      "economy": 4352,
      "tunnel": 4353,
      "tongue": 4354,
      "whale": 4355,
      "vegetables": 4356,
      "ceremony": 4357,
      "weird": 4358,
      "rabbit": 4359,
      "holiday": 4360,
      "advantage": 4361,
      "minimum": 4362,
      "engineers": 4363,
      "symbol": 4364,
      "Brazil": 4365,
      "schedule": 4366,
      "Jean": 4367,
      "guilty": 4368,
      "hôpital": 4369,
      "Kyoto": 4370,
      "Nancy": 4371,
      "twenty": 4372,
      "reached": 4373,
      "potatoes": 4374,
      "especially": 4375,
      "strength": 4376,
      "alcohol": 4377,
      "mathematics": 4378,
      "frankly": 4379,
      "espagnol": 4380,
      "Ho": 4381,
      "Res": 4382,
      "Tu": 4383,
      "Yu": 4384,
      "bres": 4385,
      "bais": 4386,
      "cta": 4387,
      "cter": 4388,
      "dan": 4389,
      "fasse": 4390,
      "glo": 4391,
      "gau": 4392,
      "grap": 4393,
      "ires": 4394,
      "iques": 4395,
      "kil": 4396,
      "mous": 4397,
      "mée": 4398,
      "pren": 4399,
      "page": 4400,
      "rons": 4401,
      "tit": 4402,
      "tte": 4403,
      "vain": 4404,
      "zi": 4405,
      "zar": 4406,
      "ède": 4407,
      "œil": 4408,
      "reli": 4409,
      "reuse": 4410,
      "revoir": 4411,
      "annivers": 4412,
      "ony": 4413,
      "heur": 4414,
      "arme": 4415,
      "velo": 4416,
      "veulent": 4417,
      "oro": 4418,
      "quant": 4419,
      "mel": 4420,
      "neige": 4421,
      "whis": 4422,
      "labor": 4423,
      "web": 4424,
      "rose": 4425,
      "allée": 4426,
      "supp": 4427,
      "tique": 4428,
      "rac": 4429,
      "race": 4430,
      "geons": 4431,
      "dons": 4432,
      "compos": 4433,
      "moindre": 4434,
      "moitié": 4435,
      "tré": 4436,
      "icon": 4437,
      "femmes": 4438,
      "social": 4439,
      "pardon": 4440,
      "parfait": 4441,
      "prome": 4442,
      "mention": 4443,
      "savent": 4444,
      "endure": 4445,
      "pleut": 4446,
      "ciel": 4447,
      "cible": 4448,
      "manche": 4449,
      "manteau": 4450,
      "déc": 4451,
      "déli": 4452,
      "dessus": 4453,
      "monta": 4454,
      "discuter": 4455,
      "bibli": 4456,
      "bizar": 4457,
      "marier": 4458,
      "rés": 4459,
      "résou": 4460,
      "réussi": 4461,
      "ieurs": 4462,
      "guide": 4463,
      "spir": 4464,
      "plusieurs": 4465,
      "dents": 4466,
      "bug": 4467,
      "isez": 4468,
      "série": 4469,
      "chapeau": 4470,
      "rug": 4471,
      "gars": 4472,
      "clés": 4473,
      "compag": 4474,
      "crat": 4475,
      "blin": 4476,
      "cents": 4477,
      "fera": 4478,
      "oblig": 4479,
      "somme": 4480,
      "cade": 4481,
      "musical": 4482,
      "Fran": 4483,
      "profit": 4484,
      "examen": 4485,
      "produit": 4486,
      "dort": 4487,
      "êtres": 4488,
      "étudier": 4489,
      "concern": 4490,
      "scientif": 4491,
      "Union": 4492,
      "taxes": 4493,
      "conseils": 4494,
      "artif": 4495,
      "théor": 4496,
      "selon": 4497,
      "magazines": 4498,
      "active": 4499,
      "Noël": 4500,
      "nombreux": 4501,
      "également": 4502,
      "certaine": 4503,
      "major": 4504,
      "intéressé": 4505,
      "continu": 4506,
      "alternative": 4507,
      "machine": 4508,
      "frapp": 4509,
      "soleil": 4510,
      "gâteau": 4511,
      "côté": 4512,
      "pollution": 4513,
      "YouTu": 4514,
      "techno": 4515,
      "sympath": 4516,
      "anniversaire": 4517,
      "Be": 4518,
      "Cap": 4519,
      "He": 4520,
      "King": 4521,
      "La": 4522,
      "Sal": 4523,
      "Unis": 4524,
      "bons": 4525,
      "cot": 4526,
      "chap": 4527,
      "ctement": 4528,
      "gin": 4529,
      "ivent": 4530,
      "ids": 4531,
      "image": 4532,
      "jack": 4533,
      "ls": 4534,
      "mul": 4535,
      "nais": 4536,
      "oil": 4537,
      "orer": 4538,
      "pti": 4539,
      "rase": 4540,
      "sno": 4541,
      "sang": 4542,
      "tats": 4543,
      "van": 4544,
      "vête": 4545,
      "yons": 4546,
      "États": 4547,
      "éto": 4548,
      "étions": 4549,
      "ût": 4550,
      "thod": 4551,
      "revenir": 4552,
      "popu": 4553,
      "iss": 4554,
      "espé": 4555,
      "atten": 4556,
      "levé": 4557,
      "ari": 4558,
      "del": 4559,
      "section": 4560,
      "noise": 4561,
      "bel": 4562,
      "chir": 4563,
      "chic": 4564,
      "laid": 4565,
      "aima": 4566,
      "rivi": 4567,
      "jeu": 4568,
      "jeans": 4569,
      "ayez": 4570,
      "loir": 4571,
      "augment": 4572,
      "tire": 4573,
      "timi": 4574,
      "pelle": 4575,
      "mobi": 4576,
      "motion": 4577,
      "amp": 4578,
      "tran": 4579,
      "solid": 4580,
      "paro": 4581,
      "parap": 4582,
      "ets": 4583,
      "appar": 4584,
      "vidé": 4585,
      "excell": 4586,
      "agent": 4587,
      "dési": 4588,
      "début": 4589,
      "décl": 4590,
      "dépend": 4591,
      "indust": 4592,
      "angle": 4593,
      "usement": 4594,
      "discours": 4595,
      "portait": 4596,
      "talent": 4597,
      "serve": 4598,
      "carte": 4599,
      "stock": 4600,
      "preu": 4601,
      "pied": 4602,
      "pieds": 4603,
      "phrase": 4604,
      "vieil": 4605,
      "président": 4606,
      "mature": 4607,
      "vouloir": 4608,
      "planning": 4609,
      "nées": 4610,
      "ferais": 4611,
      "obli": 4612,
      "gging": 4613,
      "appeler": 4614,
      "Inde": 4615,
      "faisait": 4616,
      "invit": 4617,
      "institu": 4618,
      "respons": 4619,
      "demander": 4620,
      "barbe": 4621,
      "virgin": 4622,
      "stupide": 4623,
      "embras": 4624,
      "boute": 4625,
      "affaire": 4626,
      "commencer": 4627,
      "pluie": 4628,
      "plupart": 4629,
      "succès": 4630,
      "théâtre": 4631,
      "circu": 4632,
      "écout": 4633,
      "écouter": 4634,
      "balle": 4635,
      "répondre": 4636,
      "suffis": 4637,
      "mauvaise": 4638,
      "impact": 4639,
      "préférée": 4640,
      "violent": 4641,
      "USA": 4642,
      "jambes": 4643,
      "assume": 4644,
      "sembles": 4645,
      "diplomat": 4646,
      "horrible": 4647,
      "sentiments": 4648,
      "othèque": 4649,
      "pêcher": 4650,
      "suicide": 4651,
      "dangereux": 4652,
      "pleurer": 4653,
      "voitures": 4654,
      "chaussures": 4655,
      "rapidement": 4656,
      "lunettes": 4657,
      "adresse": 4658,
      "désormais": 4659,
      "lumière": 4660,
      "enseignant": 4661,
      "bibliothèque": 4662,
      "bizarre": 4663,
      "sommeil": 4664,
      "théorie": 4665,
      "rivière": 4666,
      "mobile": 4667,
      "instituteur": 4668,
      "Ara": 4669,
      "Apr": 4670,
      "Ex": 4671,
      "Grand": 4672,
      "Latin": 4673,
      "Pr": 4674,
      "SM": 4675,
      "Su": 4676,
      "Sach": 4677,
      "This": 4678,
      "Tow": 4679,
      "adi": 4680,
      "aled": 4681,
      "aunt": 4682,
      "cen": 4683,
      "cit": 4684,
      "cash": 4685,
      "dut": 4686,
      "dried": 4687,
      "eigh": 4688,
      "fs": 4689,
      "fal": 4690,
      "fant": 4691,
      "gence": 4692,
      "gress": 4693,
      "hous": 4694,
      "hates": 4695,
      "jard": 4696,
      "ky": 4697,
      "lant": 4698,
      "link": 4699,
      "loud": 4700,
      "nap": 4701,
      "noun": 4702,
      "nête": 4703,
      "niture": 4704,
      "native": 4705,
      "nuts": 4706,
      "ore": 4707,
      "oise": 4708,
      "ocean": 4709,
      "pa": 4710,
      "path": 4711,
      "praised": 4712,
      "rm": 4713,
      "rup": 4714,
      "rough": 4715,
      "sin": 4716,
      "swear": 4717,
      "tas": 4718,
      "taught": 4719,
      "ually": 4720,
      "vont": 4721,
      "wre": 4722,
      "ware": 4723,
      "wais": 4724,
      "wound": 4725,
      "wers": 4726,
      "warri": 4727,
      "zen": 4728,
      "zero": 4729,
      "éri": 4730,
      "éche": 4731,
      "éner": 4732,
      "évit": 4733,
      "thy": 4734,
      "thie": 4735,
      "thunder": 4736,
      "reci": 4737,
      "redu": 4738,
      "rejo": 4739,
      "replace": 4740,
      "recomm": 4741,
      "pone": 4742,
      "pover": 4743,
      "poet": 4744,
      "poids": 4745,
      "income": 4746,
      "inqui": 4747,
      "independ": 4748,
      "ising": 4749,
      "island": 4750,
      "issors": 4751,
      "onne": 4752,
      "oncle": 4753,
      "online": 4754,
      "erve": 4755,
      "erai": 4756,
      "error": 4757,
      "ented": 4758,
      "ency": 4759,
      "encourage": 4760,
      "ennent": 4761,
      "atte": 4762,
      "attemp": 4763,
      "lequel": 4764,
      "asy": 4765,
      "asure": 4766,
      "aside": 4767,
      "itself": 4768,
      "veill": 4769,
      "ordered": 4770,
      "dete": 4771,
      "demi": 4772,
      "decor": 4773,
      "depri": 4774,
      "devenir": 4775,
      "decei": 4776,
      "delay": 4777,
      "quences": 4778,
      "meat": 4779,
      "meals": 4780,
      "mechan": 4781,
      "method": 4782,
      "sevent": 4783,
      "secur": 4784,
      "neu": 4785,
      "neare": 4786,
      "tear": 4787,
      "haut": 4788,
      "ceau": 4789,
      "ceiling": 4790,
      "bees": 4791,
      "beha": 4792,
      "becomes": 4793,
      "sty": 4794,
      "stone": 4795,
      "strai": 4796,
      "enti": 4797,
      "entra": 4798,
      "entrée": 4799,
      "chess": 4800,
      "whom": 4801,
      "whiche": 4802,
      "lack": 4803,
      "lady": 4804,
      "liking": 4805,
      "liber": 4806,
      "alp": 4807,
      "estab": 4808,
      "jelly": 4809,
      "unknown": 4810,
      "undance": 4811,
      "role": 4812,
      "roof": 4813,
      "rowed": 4814,
      "rocks": 4815,
      "ropes": 4816,
      "diam": 4817,
      "dimanche": 4818,
      "quelles": 4819,
      "forme": 4820,
      "forbi": 4821,
      "forms": 4822,
      "lover": 4823,
      "load": 4824,
      "loses": 4825,
      "allés": 4826,
      "tidi": 4827,
      "tight": 4828,
      "tiger": 4829,
      "wasting": 4830,
      "raw": 4831,
      "racon": 4832,
      "outons": 4833,
      "usion": 4834,
      "comman": 4835,
      "compla": 4836,
      "comporte": 4837,
      "ionaire": 4838,
      "tains": 4839,
      "cance": 4840,
      "term": 4841,
      "tery": 4842,
      "yourselves": 4843,
      "ambul": 4844,
      "ader": 4845,
      "admis": 4846,
      "added": 4847,
      "addressed": 4848,
      "trunk": 4849,
      "trusted": 4850,
      "icer": 4851,
      "acid": 4852,
      "fection": 4853,
      "feteria": 4854,
      "abor": 4855,
      "abundance": 4856,
      "respe": 4857,
      "rescu": 4858,
      "knowled": 4859,
      "urin": 4860,
      "siè": 4861,
      "silly": 4862,
      "prun": 4863,
      "prati": 4864,
      "thern": 4865,
      "sak": 4866,
      "sale": 4867,
      "saving": 4868,
      "endor": 4869,
      "rendez": 4870,
      "plein": 4871,
      "covered": 4872,
      "worn": 4873,
      "heroin": 4874,
      "apparen": 4875,
      "appetite": 4876,
      "approve": 4877,
      "avance": 4878,
      "answered": 4879,
      "extre": 4880,
      "explan": 4881,
      "exchange": 4882,
      "ague": 4883,
      "managed": 4884,
      "pencil": 4885,
      "proof": 4886,
      "projet": 4887,
      "persever": 4888,
      "shine": 4889,
      "dure": 4890,
      "duck": 4891,
      "voted": 4892,
      "desire": 4893,
      "dessert": 4894,
      "plais": 4895,
      "lumb": 4896,
      "luie": 4897,
      "traver": 4898,
      "trapped": 4899,
      "reads": 4900,
      "chosen": 4901,
      "letting": 4902,
      "everyday": 4903,
      "tées": 4904,
      "aka": 4905,
      "bye": 4906,
      "cheer": 4907,
      "cheating": 4908,
      "wherever": 4909,
      "asty": 4910,
      "mbers": 4911,
      "goodbye": 4912,
      "workers": 4913,
      "earlier": 4914,
      "series": 4915,
      "illegal": 4916,
      "tooth": 4917,
      "stolen": 4918,
      "storm": 4919,
      "mum": 4920,
      "predi": 4921,
      "prevented": 4922,
      "quelconque": 4923,
      "mercy": 4924,
      "mistook": 4925,
      "mistaken": 4926,
      "misunderstanding": 4927,
      "couver": 4928,
      "guer": 4929,
      "guerre": 4930,
      "gotta": 4931,
      "publi": 4932,
      "dentist": 4933,
      "joke": 4934,
      "liters": 4935,
      "pigeons": 4936,
      "lovely": 4937,
      "woke": 4938,
      "vingt": 4939,
      "forecast": 4940,
      "phras": 4941,
      "amies": 4942,
      "friendship": 4943,
      "tled": 4944,
      "feels": 4945,
      "stuff": 4946,
      "studied": 4947,
      "studies": 4948,
      "officer": 4949,
      "afin": 4950,
      "visage": 4951,
      "hiver": 4952,
      "minded": 4953,
      "fuel": 4954,
      "themselves": 4955,
      "garder": 4956,
      "backs": 4957,
      "correspond": 4958,
      "rooms": 4959,
      "vieille": 4960,
      "classes": 4961,
      "scholar": 4962,
      "cream": 4963,
      "huit": 4964,
      "humil": 4965,
      "toile": 4966,
      "carefully": 4967,
      "teachers": 4968,
      "bitter": 4969,
      "lately": 4970,
      "lifetime": 4971,
      "voudri": 4972,
      "shock": 4973,
      "shopping": 4974,
      "handsome": 4975,
      "easier": 4976,
      "intend": 4977,
      "border": 4978,
      "borrowed": 4979,
      "crashed": 4980,
      "jail": 4981,
      "private": 4982,
      "director": 4983,
      "counter": 4984,
      "opé": 4985,
      "oppos": 4986,
      "downtown": 4987,
      "autour": 4988,
      "century": 4989,
      "cross": 4990,
      "mettez": 4991,
      "painful": 4992,
      "besides": 4993,
      "calls": 4994,
      "obvious": 4995,
      "smiling": 4996,
      "aimed": 4997,
      "grandma": 4998,
      "walking": 4999,
      "appeared": 5000,
      "poured": 5001,
      "cafeteria": 5002,
      "lished": 5003,
      "stranger": 5004,
      "strangers": 5005,
      "crap": 5006,
      "begins": 5007,
      "sitting": 5008,
      "warn": 5009,
      "warming": 5010,
      "tickets": 5011,
      "shaking": 5012,
      "countryside": 5013,
      "picked": 5014,
      "writer": 5015,
      "bigger": 5016,
      "pretti": 5017,
      "larger": 5018,
      "medal": 5019,
      "sisters": 5020,
      "voyez": 5021,
      "faces": 5022,
      "pareil": 5023,
      "cookies": 5024,
      "drove": 5025,
      "dropped": 5026,
      "fallu": 5027,
      "international": 5028,
      "refuse": 5029,
      "spends": 5030,
      "responsibil": 5031,
      "proposed": 5032,
      "petition": 5033,
      "master": 5034,
      "regardé": 5035,
      "examination": 5036,
      "harm": 5037,
      "scary": 5038,
      "scissors": 5039,
      "stepped": 5040,
      "contrary": 5041,
      "product": 5042,
      "products": 5043,
      "correctly": 5044,
      "pleasant": 5045,
      "barking": 5046,
      "closely": 5047,
      "daily": 5048,
      "damaged": 5049,
      "Anne": 5050,
      "salary": 5051,
      "intérieur": 5052,
      "subway": 5053,
      "safety": 5054,
      "precious": 5055,
      "burn": 5056,
      "thesis": 5057,
      "reality": 5058,
      "postpone": 5059,
      "enjoys": 5060,
      "nearly": 5061,
      "necessarily": 5062,
      "ception": 5063,
      "heavily": 5064,
      "cleaned": 5065,
      "stronger": 5066,
      "bags": 5067,
      "faults": 5068,
      "engagement": 5069,
      "constant": 5070,
      "conduct": 5071,
      "shorter": 5072,
      "affaires": 5073,
      "printemps": 5074,
      "emprun": 5075,
      "grab": 5076,
      "gradu": 5077,
      "wheel": 5078,
      "ignored": 5079,
      "certainly": 5080,
      "dictionnaire": 5081,
      "apples": 5082,
      "battle": 5083,
      "silenci": 5084,
      "sauf": 5085,
      "third": 5086,
      "realized": 5087,
      "marié": 5088,
      "generally": 5089,
      "tiny": 5090,
      "Australian": 5091,
      "meilleure": 5092,
      "supermarket": 5093,
      "ification": 5094,
      "victi": 5095,
      "victory": 5096,
      "demanded": 5097,
      "teered": 5098,
      "explained": 5099,
      "attack": 5100,
      "survive": 5101,
      "ciné": 5102,
      "accepter": 5103,
      "accepted": 5104,
      "opera": 5105,
      "operate": 5106,
      "operation": 5107,
      "sweet": 5108,
      "tallest": 5109,
      "logist": 5110,
      "logical": 5111,
      "suffer": 5112,
      "deserves": 5113,
      "montrer": 5114,
      "rappeler": 5115,
      "viendrai": 5116,
      "prochaine": 5117,
      "professor": 5118,
      "flying": 5119,
      "égal": 5120,
      "status": 5121,
      "impli": 5122,
      "perfectly": 5123,
      "discover": 5124,
      "discovered": 5125,
      "fighting": 5126,
      "practical": 5127,
      "streets": 5128,
      "apologized": 5129,
      "target": 5130,
      "groupe": 5131,
      "connaître": 5132,
      "chanson": 5133,
      "spider": 5134,
      "Repetition": 5135,
      "events": 5136,
      "eventually": 5137,
      "further": 5138,
      "furniture": 5139,
      "result": 5140,
      "determination": 5141,
      "beaten": 5142,
      "complaining": 5143,
      "complaints": 5144,
      "blanket": 5145,
      "skinny": 5146,
      "amazing": 5147,
      "concentrate": 5148,
      "papier": 5149,
      "author": 5150,
      "authority": 5151,
      "société": 5152,
      "pronon": 5153,
      "complicated": 5154,
      "doubt": 5155,
      "apartment": 5156,
      "knock": 5157,
      "remained": 5158,
      "entirely": 5159,
      "hoping": 5160,
      "crossing": 5161,
      "faithful": 5162,
      "thousands": 5163,
      "Columb": 5164,
      "pills": 5165,
      "organized": 5166,
      "laptop": 5167,
      "majority": 5168,
      "requires": 5169,
      "Italian": 5170,
      "celebrate": 5171,
      "belongs": 5172,
      "resource": 5173,
      "resources": 5174,
      "resistance": 5175,
      "manual": 5176,
      "genius": 5177,
      "geniuses": 5178,
      "electri": 5179,
      "increased": 5180,
      "congratulations": 5181,
      "entrance": 5182,
      "discussed": 5183,
      "supported": 5184,
      "insul": 5185,
      "invention": 5186,
      "ambition": 5187,
      "persuade": 5188,
      "clouds": 5189,
      "activity": 5190,
      "hypothesis": 5191,
      "barely": 5192,
      "recently": 5193,
      "advertise": 5194,
      "prêter": 5195,
      "despise": 5196,
      "disgusting": 5197,
      "puzzle": 5198,
      "criminal": 5199,
      "volunteered": 5200,
      "customer": 5201,
      "Algeria": 5202,
      "regularly": 5203,
      "professional": 5204,
      "advanced": 5205,
      "bâti": 5206,
      "anxious": 5207,
      "psychic": 5208,
      "tattoo": 5209,
      "quotidi": 5210,
      "modern": 5211,
      "absurd": 5212,
      "pickpockets": 5213,
      "challenge": 5214,
      "credit": 5215,
      "citizens": 5216,
      "drowned": 5217,
      "gift": 5218,
      "handed": 5219,
      "wisdom": 5220,
      "witness": 5221,
      "repeat": 5222,
      "poems": 5223,
      "departure": 5224,
      "notice": 5225,
      "wealthy": 5226,
      "dirty": 5227,
      "peanuts": 5228,
      "mammal": 5229,
      "addicted": 5230,
      "avenir": 5231,
      "field": 5232,
      "pregnant": 5233,
      "guessed": 5234,
      "pyrami": 5235,
      "expliquer": 5236,
      "survivors": 5237,
      "architect": 5238,
      "rabbits": 5239,
      "global": 5240,
      "website": 5241,
      "montagne": 5242,
      "résoudre": 5243,
      "cadeau": 5244,
      "artificial": 5245,
      "pelled": 5246,
      "parapluie": 5247,
      "circum": 5248,
      "suffisamment": 5249,
      "April": 5250,
      "Tower": 5251,
      "duty": 5252,
      "eighteen": 5253,
      "false": 5254,
      "houses": 5255,
      "waist": 5256,
      "warrior": 5257,
      "thief": 5258,
      "recommend": 5259,
      "poverty": 5260,
      "independent": 5261,
      "deprived": 5262,
      "seventy": 5263,
      "security": 5264,
      "nearest": 5265,
      "straight": 5266,
      "whichever": 5267,
      "established": 5268,
      "forbidden": 5269,
      "rescued": 5270,
      "knowledge": 5271,
      "explanation": 5272,
      "perseverance": 5273,
      "phrases": 5274,
      "humili": 5275,
      "obviously": 5276,
      "responsibility": 5277,
      "Columbus": 5278,
      "18": 5279,
      "28": 5280,
      "40": 5281,
      "Ak": 5282,
      "Ato": 5283,
      "Alle": 5284,
      "Afri": 5285,
      "Ber": 5286,
      "Bar": 5287,
      "Chop": 5288,
      "Eif": 5289,
      "Hen": 5290,
      "Har": 5291,
      "Hel": 5292,
      "Is": 5293,
      "Ito": 5294,
      "Jack": 5295,
      "Jones": 5296,
      "Java": 5297,
      "Ke": 5298,
      "Ken": 5299,
      "Men": 5300,
      "Mat": 5301,
      "Mac": 5302,
      "Mars": 5303,
      "Mos": 5304,
      "Osak": 5305,
      "Py": 5306,
      "RI": 5307,
      "Ro": 5308,
      "Sh": 5309,
      "Sou": 5310,
      "Ste": 5311,
      "Tony": 5312,
      "Yoko": 5313,
      "bin": 5314,
      "cée": 5315,
      "cture": 5316,
      "dust": 5317,
      "fé": 5318,
      "fle": 5319,
      "fout": 5320,
      "fab": 5321,
      "gor": 5322,
      "gla": 5323,
      "gagne": 5324,
      "ième": 5325,
      "iko": 5326,
      "kin": 5327,
      "kara": 5328,
      "nad": 5329,
      "ois": 5330,
      "rête": 5331,
      "uti": 5332,
      "uko": 5333,
      "vine": 5334,
      "vage": 5335,
      "ément": 5336,
      "élu": 5337,
      "écr": 5338,
      "économ": 5339,
      "ouv": 5340,
      "ouvre": 5341,
      "ouvert": 5342,
      "reconnais": 5343,
      "retar": 5344,
      "relig": 5345,
      "recherche": 5346,
      "reçu": 5347,
      "pommes": 5348,
      "incible": 5349,
      "isions": 5350,
      "années": 5351,
      "leçon": 5352,
      "aspir": 5353,
      "itude": 5354,
      "arma": 5355,
      "arles": 5356,
      "artic": 5357,
      "veau": 5358,
      "quée": 5359,
      "quicon": 5360,
      "noy": 5361,
      "teaux": 5362,
      "hall": 5363,
      "hama": 5364,
      "habet": 5365,
      "ilà": 5366,
      "stan": 5367,
      "docu": 5368,
      "docteur": 5369,
      "chon": 5370,
      "lac": 5371,
      "laires": 5372,
      "lion": 5373,
      "alo": 5374,
      "aies": 5375,
      "aimé": 5376,
      "ailles": 5377,
      "rige": 5378,
      "jeux": 5379,
      "robe": 5380,
      "robot": 5381,
      "dig": 5382,
      "ares": 5383,
      "andra": 5384,
      "anti": 5385,
      "suspic": 5386,
      "pein": 5387,
      "mato": 5388,
      "male": 5389,
      "tué": 5390,
      "tuer": 5391,
      "moyen": 5392,
      "immor": 5393,
      "lymp": 5394,
      "fel": 5395,
      "aby": 5396,
      "absor": 5397,
      "soin": 5398,
      "conne": 5399,
      "connu": 5400,
      "conscience": 5401,
      "parc": 5402,
      "parlent": 5403,
      "signe": 5404,
      "sages": 5405,
      "cope": 5406,
      "ettes": 5407,
      "apparti": 5408,
      "avis": 5409,
      "vivent": 5410,
      "existe": 5411,
      "ciation": 5412,
      "agawa": 5413,
      "manquer": 5414,
      "ateurs": 5415,
      "proche": 5416,
      "propres": 5417,
      "progra": 5418,
      "perspe": 5419,
      "permit": 5420,
      "dés": 5421,
      "uler": 5422,
      "vote": 5423,
      "voilà": 5424,
      "desc": 5425,
      "choisir": 5426,
      "nique": 5427,
      "aki": 5428,
      "disting": 5429,
      "mienne": 5430,
      "porté": 5431,
      "portes": 5432,
      "surface": 5433,
      "danser": 5434,
      "servic": 5435,
      "résu": 5436,
      "morgue": 5437,
      "merveille": 5438,
      "coura": 5439,
      "coupe": 5440,
      "cesse": 5441,
      "arrives": 5442,
      "pharma": 5443,
      "ditions": 5444,
      "igne": 5445,
      "finalement": 5446,
      "raisons": 5447,
      "raient": 5448,
      "ponctu": 5449,
      "resté": 5450,
      "humour": 5451,
      "humeur": 5452,
      "vécu": 5453,
      "brû": 5454,
      "payé": 5455,
      "prior": 5456,
      "centre": 5457,
      "croit": 5458,
      "attitude": 5459,
      "ferme": 5460,
      "fermer": 5461,
      "fermé": 5462,
      "observe": 5463,
      "effort": 5464,
      "sommet": 5465,
      "Charles": 5466,
      "Maria": 5467,
      "musici": 5468,
      "arrête": 5469,
      "Invite": 5470,
      "sciences": 5471,
      "alibi": 5472,
      "volcan": 5473,
      "correctement": 5474,
      "voyager": 5475,
      "invincible": 5476,
      "atsApp": 5477,
      "capital": 5478,
      "internet": 5479,
      "passion": 5480,
      "proposition": 5481,
      "attends": 5482,
      "état": 5483,
      "honte": 5484,
      "honnête": 5485,
      "animaux": 5486,
      "lundi": 5487,
      "favorable": 5488,
      "erreurs": 5489,
      "cultures": 5490,
      "étudiant": 5491,
      "biles": 5492,
      "clair": 5493,
      "claire": 5494,
      "intelligence": 5495,
      "roscope": 5496,
      "Australie": 5497,
      "sacrif": 5498,
      "travaillé": 5499,
      "conseil": 5500,
      "satisfait": 5501,
      "jeunes": 5502,
      "mourir": 5503,
      "pause": 5504,
      "acceptable": 5505,
      "réponse": 5506,
      "rappelle": 5507,
      "ricain": 5508,
      "destin": 5509,
      "étrange": 5510,
      "attrapé": 5511,
      "arrogance": 5512,
      "explosion": 5513,
      "convain": 5514,
      "préféré": 5515,
      "piscine": 5516,
      "suivre": 5517,
      "USB": 5518,
      "Canadi": 5519,
      "découvert": 5520,
      "chanter": 5521,
      "microscope": 5522,
      "tombé": 5523,
      "Mike": 5524,
      "pleuvoir": 5525,
      "gagner": 5526,
      "ignorance": 5527,
      "expressions": 5528,
      "Christop": 5529,
      "150": 5530,
      "bateau": 5531,
      "curios": 5532,
      "œufs": 5533,
      "Mayuko": 5534,
      "Peter": 5535,
      "WhatsApp": 5536,
      "envoyé": 5537,
      "blonde": 5538,
      "souhaite": 5539,
      "intéressant": 5540,
      "épouser": 5541,
      "Arrête": 5542,
      "Tanaka": 5543,
      "conclusions": 5544,
      "baiser": 5545,
      "gauche": 5546,
      "décision": 5547,
      "YouTube": 5548,
      "vêtements": 5549,
      "étoiles": 5550,
      "aimait": 5551,
      "tranqu": 5552,
      "vidéo": 5553,
      "barbecue": 5554,
      "jardin": 5555,
      "alphabet": 5556,
      "ambulance": 5557,
      "voudriez": 5558,
      "bâtiment": 5559,
      "Chopin": 5560,
      "Eiffel": 5561,
      "Helen": 5562,
      "Isra": 5563,
      "Mennad": 5564,
      "Osaka": 5565,
      "Pyth": 5566,
      "Yokohama": 5567,
      "religion": 5568,
      "quiconque": 5569,
      "distingu": 5570,
      "services": 5571,
      "sacrifices": 5572,
      "Arrêtez": 5573,
      "17": 5574,
      "100": 5575,
      "300": 5576,
      "Ap": 5577,
      "At": 5578,
      "BC": 5579,
      "Cre": 5580,
      "Col": 5581,
      "Centr": 5582,
      "Di": 5583,
      "Hi": 5584,
      "Hop": 5585,
      "Kobe": 5586,
      "Lu": 5587,
      "My": 5588,
      "Mil": 5589,
      "Mag": 5590,
      "Per": 5591,
      "Por": 5592,
      "Qu": 5593,
      "Ti": 5594,
      "Univers": 5595,
      "Wi": 5596,
      "Way": 5597,
      "Where": 5598,
      "ah": 5599,
      "ax": 5600,
      "bis": 5601,
      "bass": 5602,
      "bars": 5603,
      "cuse": 5604,
      "cach": 5605,
      "fres": 5606,
      "gend": 5607,
      "gain": 5608,
      "gré": 5609,
      "gouver": 5610,
      "hâ": 5611,
      "ira": 5612,
      "idé": 5613,
      "ji": 5614,
      "jury": 5615,
      "las": 5616,
      "mne": 5617,
      "mbe": 5618,
      "mai": 5619,
      "mans": 5620,
      "mille": 5621,
      "mmed": 5622,
      "pâ": 5623,
      "pin": 5624,
      "pit": 5625,
      "pal": 5626,
      "ption": 5627,
      "pneu": 5628,
      "rè": 5629,
      "ril": 5630,
      "rus": 5631,
      "rue": 5632,
      "rhu": 5633,
      "rêt": 5634,
      "sis": 5635,
      "sions": 5636,
      "sache": 5637,
      "tiling": 5638,
      "tâche": 5639,
      "vest": 5640,
      "vital": 5641,
      "èle": 5642,
      "éte": 5643,
      "éro": 5644,
      "écou": 5645,
      "égl": 5646,
      "écl": 5647,
      "énor": 5648,
      "échou": 5649,
      "thro": 5650,
      "oul": 5651,
      "oux": 5652,
      "ouvrir": 5653,
      "repas": 5654,
      "refu": 5655,
      "revenu": 5656,
      "poir": 5657,
      "pomme": 5658,
      "poss": 5659,
      "inclu": 5660,
      "inspi": 5661,
      "anu": 5662,
      "err": 5663,
      "ert": 5664,
      "totale": 5665,
      "atti": 5666,
      "lever": 5667,
      "arbre": 5668,
      "ingé": 5669,
      "orable": 5670,
      "quali": 5671,
      "meu": 5672,
      "semain": 5673,
      "sept": 5674,
      "doivent": 5675,
      "chons": 5676,
      "chers": 5677,
      "chino": 5678,
      "laver": 5679,
      "liver": 5680,
      "lièrement": 5681,
      "keting": 5682,
      "aim": 5683,
      "aiment": 5684,
      "rieux": 5685,
      "diag": 5686,
      "quement": 5687,
      "anta": 5688,
      "loyal": 5689,
      "allais": 5690,
      "audi": 5691,
      "aupar": 5692,
      "auriez": 5693,
      "rable": 5694,
      "maman": 5695,
      "donna": 5696,
      "compar": 5697,
      "commer": 5698,
      "termine": 5699,
      "trous": 5700,
      "soif": 5701,
      "contact": 5702,
      "partout": 5703,
      "parlait": 5704,
      "urgent": 5705,
      "siez": 5706,
      "rences": 5707,
      "plement": 5708,
      "ustion": 5709,
      "songe": 5710,
      "vivant": 5711,
      "viennent": 5712,
      "extra": 5713,
      "expi": 5714,
      "civil": 5715,
      "agi": 5716,
      "hasard": 5717,
      "propri": 5718,
      "pers": 5719,
      "perte": 5720,
      "perman": 5721,
      "détru": 5722,
      "départ": 5723,
      "détermin": 5724,
      "détails": 5725,
      "design": 5726,
      "plage": 5727,
      "plaisir": 5728,
      "foo": 5729,
      "foss": 5730,
      "tenu": 5731,
      "nient": 5732,
      "venait": 5733,
      "ureu": 5734,
      "dise": 5735,
      "disent": 5736,
      "dispar": 5737,
      "specta": 5738,
      "serv": 5739,
      "seras": 5740,
      "seront": 5741,
      "marre": 5742,
      "marketing": 5743,
      "morceau": 5744,
      "étage": 5745,
      "liez": 5746,
      "spé": 5747,
      "jolie": 5748,
      "jogging": 5749,
      "glis": 5750,
      "arrière": 5751,
      "arrivée": 5752,
      "causes": 5753,
      "offen": 5754,
      "visions": 5755,
      "sérieux": 5756,
      "insis": 5757,
      "touche": 5758,
      "torture": 5759,
      "ension": 5760,
      "corps": 5761,
      "corpus": 5762,
      "turb": 5763,
      "clas": 5764,
      "prépar": 5765,
      "devint": 5766,
      "vés": 5767,
      "vénient": 5768,
      "cula": 5769,
      "légu": 5770,
      "métro": 5771,
      "crut": 5772,
      "criti": 5773,
      "ités": 5774,
      "bonnes": 5775,
      "calme": 5776,
      "vraie": 5777,
      "athy": 5778,
      "croy": 5779,
      "magne": 5780,
      "partial": 5781,
      "aimez": 5782,
      "craft": 5783,
      "joué": 5784,
      "anks": 5785,
      "miles": 5786,
      "larmes": 5787,
      "transpor": 5788,
      "capit": 5789,
      "interrup": 5790,
      "juge": 5791,
      "demanda": 5792,
      "rapport": 5793,
      "proposes": 5794,
      "opinions": 5795,
      "steak": 5796,
      "honor": 5797,
      "produire": 5798,
      "habits": 5799,
      "blog": 5800,
      "occuper": 5801,
      "Angle": 5802,
      "salle": 5803,
      "intérêt": 5804,
      "brill": 5805,
      "gypti": 5806,
      "ennemi": 5807,
      "disposez": 5808,
      "emporter": 5809,
      "sensible": 5810,
      "basket": 5811,
      "distant": 5812,
      "mariage": 5813,
      "patron": 5814,
      "cassé": 5815,
      "écureu": 5816,
      "International": 5817,
      "communication": 5818,
      "employ": 5819,
      "présenter": 5820,
      "cuisin": 5821,
      "différent": 5822,
      "espace": 5823,
      "coûte": 5824,
      "effet": 5825,
      "effective": 5826,
      "fenêtres": 5827,
      "amoureuse": 5828,
      "découvrir": 5829,
      "automobile": 5830,
      "automne": 5831,
      "retourner": 5832,
      "ennuis": 5833,
      "physi": 5834,
      "alternatives": 5835,
      "Christi": 5836,
      "roman": 5837,
      "strict": 5838,
      "divorce": 5839,
      "inconvénient": 5840,
      "contente": 5841,
      "Amérique": 5842,
      "visible": 5843,
      "vendredi": 5844,
      "original": 5845,
      "Green": 5846,
      "abstra": 5847,
      "copine": 5848,
      "assistant": 5849,
      "réfléchir": 5850,
      "améliorer": 5851,
      "influence": 5852,
      "champagne": 5853,
      "promet": 5854,
      "compagnie": 5855,
      "scientifique": 5856,
      "multiling": 5857,
      "timide": 5858,
      "preuve": 5859,
      "responsable": 5860,
      "embrasser": 5861,
      "bouteille": 5862,
      "Excuse": 5863,
      "Atomic": 5864,
      "Royal": 5865,
      "gorge": 5866,
      "utile": 5867,
      "digital": 5868,
      "appartient": 5869,
      "perspective": 5870,
      "résult": 5871,
      "tranquille": 5872,
      "Central": 5873,
      "Portu": 5874,
      "gouvernement": 5875,
      "refuge": 5876,
      "semaines": 5877,
      "auparavant": 5878,
      "Angleterre": 5879,
      "multilingu": 5880,
      "Excusez": 5881,
      "14": 5882,
      "2K": 5883,
      "AT": 5884,
      "Achie": 5885,
      "Bur": 5886,
      "Bye": 5887,
      "Cle": 5888,
      "Cai": 5889,
      "Chi": 5890,
      "Dé": 5891,
      "Dro": 5892,
      "Esp": 5893,
      "Egypti": 5894,
      "Fill": 5895,
      "Grou": 5896,
      "Hon": 5897,
      "Hun": 5898,
      "Hey": 5899,
      "Howe": 5900,
      "ID": 5901,
      "June": 5902,
      "LO": 5903,
      "Olymp": 5904,
      "Po": 5905,
      "Pre": 5906,
      "Pré": 5907,
      "Que": 5908,
      "Sa": 5909,
      "Sc": 5910,
      "Son": 5911,
      "Sat": 5912,
      "Tha": 5913,
      "Wor": 5914,
      "Who": 5915,
      "Year": 5916,
      "Y2K": 5917,
      "aj": 5918,
      "amy": 5919,
      "aked": 5920,
      "awoke": 5921,
      "bs": 5922,
      "bt": 5923,
      "bend": 5924,
      "bast": 5925,
      "bish": 5926,
      "bille": 5927,
      "bage": 5928,
      "barr": 5929,
      "bounce": 5930,
      "bomb": 5931,
      "cate": 5932,
      "cist": 5933,
      "cried": 5934,
      "cache": 5935,
      "cured": 5936,
      "cities": 5937,
      "dam": 5938,
      "dly": 5939,
      "dwell": 5940,
      "dwar": 5941,
      "ek": 5942,
      "eut": 5943,
      "eur": 5944,
      "eper": 5945,
      "euse": 5946,
      "eager": 5947,
      "eeny": 5948,
      "fto": 5949,
      "fed": 5950,
      "fate": 5951,
      "fif": 5952,
      "fright": 5953,
      "fence": 5954,
      "fried": 5955,
      "flight": 5956,
      "fash": 5957,
      "fries": 5958,
      "freed": 5959,
      "founded": 5960,
      "ging": 5961,
      "gri": 5962,
      "gles": 5963,
      "gate": 5964,
      "gang": 5965,
      "gones": 5966,
      "hated": 5967,
      "hits": 5968,
      "ive": 5969,
      "ior": 5970,
      "iest": 5971,
      "ians": 5972,
      "iers": 5973,
      "iled": 5974,
      "iety": 5975,
      "jac": 5976,
      "jong": 5977,
      "kne": 5978,
      "kward": 5979,
      "lour": 5980,
      "lings": 5981,
      "mall": 5982,
      "maid": 5983,
      "mpet": 5984,
      "mallows": 5985,
      "moutons": 5986,
      "nar": 5987,
      "nai": 5988,
      "nav": 5989,
      "nait": 5990,
      "nine": 5991,
      "nick": 5992,
      "napp": 5993,
      "nasty": 5994,
      "ode": 5995,
      "ote": 5996,
      "olic": 5997,
      "otic": 5998,
      "pure": 5999,
      "pound": 6000,
      "pint": 6001,
      "pstick": 6002,
      "ral": 6003,
      "rated": 6004,
      "rings": 6005,
      "rush": 6006,
      "rôle": 6007,
      "sest": 6008,
      "sam": 6009,
      "sink": 6010,
      "swee": 6011,
      "sits": 6012,
      "sante": 6013,
      "slight": 6014,
      "scri": 6015,
      "sank": 6016,
      "scol": 6017,
      "swing": 6018,
      "scrat": 6019,
      "tai": 6020,
      "tly": 6021,
      "tren": 6022,
      "tation": 6023,
      "tasse": 6024,
      "tili": 6025,
      "twel": 6026,
      "uine": 6027,
      "uable": 6028,
      "ums": 6029,
      "uits": 6030,
      "vy": 6031,
      "vated": 6032,
      "vague": 6033,
      "wall": 6034,
      "wra": 6035,
      "wave": 6036,
      "wars": 6037,
      "yond": 6038,
      "zone": 6039,
      "èse": 6040,
      "élo": 6041,
      "ôtre": 6042,
      "ômes": 6043,
      "thus": 6044,
      "thence": 6045,
      "remo": 6046,
      "refaire": 6047,
      "refer": 6048,
      "recher": 6049,
      "reward": 6050,
      "retired": 6051,
      "represent": 6052,
      "recommen": 6053,
      "remerci": 6054,
      "revolution": 6055,
      "revenge": 6056,
      "pox": 6057,
      "posted": 6058,
      "iné": 6059,
      "infor": 6060,
      "ised": 6061,
      "isure": 6062,
      "isée": 6063,
      "anity": 6064,
      "anions": 6065,
      "ancial": 6066,
      "annul": 6067,
      "announ": 6068,
      "onto": 6069,
      "erfuck": 6070,
      "enor": 6071,
      "eness": 6072,
      "enious": 6073,
      "encounter": 6074,
      "envy": 6075,
      "escap": 6076,
      "espoir": 6077,
      "theless": 6078,
      "toe": 6079,
      "tos": 6080,
      "tomed": 6081,
      "tocks": 6082,
      "toyer": 6083,
      "towel": 6084,
      "atra": 6085,
      "atic": 6086,
      "atists": 6087,
      "leap": 6088,
      "leaf": 6089,
      "leather": 6090,
      "lemons": 6091,
      "lefto": 6092,
      "leisure": 6093,
      "ased": 6094,
      "aster": 6095,
      "asts": 6096,
      "asking": 6097,
      "itate": 6098,
      "height": 6099,
      "heels": 6100,
      "headed": 6101,
      "arse": 6102,
      "arrest": 6103,
      "aries": 6104,
      "argue": 6105,
      "arian": 6106,
      "arbres": 6107,
      "ingenious": 6108,
      "veget": 6109,
      "vember": 6110,
      "ori": 6111,
      "oras": 6112,
      "lling": 6113,
      "deaf": 6114,
      "decl": 6115,
      "degre": 6116,
      "decent": 6117,
      "decep": 6118,
      "devient": 6119,
      "debate": 6120,
      "defend": 6121,
      "develo": 6122,
      "devoted": 6123,
      "debt": 6124,
      "detai": 6125,
      "mere": 6126,
      "mely": 6127,
      "meeny": 6128,
      "measure": 6129,
      "seld": 6130,
      "seeds": 6131,
      "nego": 6132,
      "neck": 6133,
      "nelle": 6134,
      "neither": 6135,
      "teering": 6136,
      "tetan": 6137,
      "bee": 6138,
      "bead": 6139,
      "beur": 6140,
      "beans": 6141,
      "beard": 6142,
      "behaving": 6143,
      "beyond": 6144,
      "ster": 6145,
      "stun": 6146,
      "stare": 6147,
      "stall": 6148,
      "stac": 6149,
      "stances": 6150,
      "stamp": 6151,
      "entré": 6152,
      "ential": 6153,
      "chun": 6154,
      "whites": 6155,
      "wet": 6156,
      "weld": 6157,
      "liar": 6158,
      "lict": 6159,
      "keeper": 6160,
      "alcool": 6161,
      "alert": 6162,
      "rier": 6163,
      "ridi": 6164,
      "riages": 6165,
      "uncomfortable": 6166,
      "unlikely": 6167,
      "unhealthy": 6168,
      "unciation": 6169,
      "rol": 6170,
      "root": 6171,
      "roast": 6172,
      "ropé": 6173,
      "diary": 6174,
      "divers": 6175,
      "eday": 6176,
      "areas": 6177,
      "forty": 6178,
      "forgetting": 6179,
      "forcé": 6180,
      "forgiven": 6181,
      "goo": 6182,
      "loi": 6183,
      "loan": 6184,
      "loving": 6185,
      "loop": 6186,
      "located": 6187,
      "loyed": 6188,
      "alliez": 6189,
      "aurions": 6190,
      "suy": 6191,
      "suffe": 6192,
      "wire": 6193,
      "wider": 6194,
      "wimp": 6195,
      "widow": 6196,
      "tip": 6197,
      "timate": 6198,
      "wasted": 6199,
      "rale": 6200,
      "racy": 6201,
      "passing": 6202,
      "passage": 6203,
      "map": 6204,
      "mathé": 6205,
      "ghted": 6206,
      "compon": 6207,
      "comfort": 6208,
      "compromise": 6209,
      "compelled": 6210,
      "irts": 6211,
      "irregular": 6212,
      "moe": 6213,
      "moves": 6214,
      "moving": 6215,
      "model": 6216,
      "mobiles": 6217,
      "tack": 6218,
      "shed": 6219,
      "sheer": 6220,
      "nowhere": 6221,
      "ims": 6222,
      "implement": 6223,
      "ambo": 6224,
      "amoun": 6225,
      "amused": 6226,
      "advent": 6227,
      "ically": 6228,
      "access": 6229,
      "accompli": 6230,
      "fellow": 6231,
      "female": 6232,
      "abdu": 6233,
      "abuse": 6234,
      "soi": 6235,
      "sow": 6236,
      "socks": 6237,
      "soix": 6238,
      "soyons": 6239,
      "respected": 6240,
      "rescue": 6241,
      "contain": 6242,
      "consac": 6243,
      "conclu": 6244,
      "conspi": 6245,
      "conference": 6246,
      "wanting": 6247,
      "parla": 6248,
      "parta": 6249,
      "parles": 6250,
      "urday": 6251,
      "urges": 6252,
      "urged": 6253,
      "okay": 6254,
      "prêtes": 6255,
      "sake": 6256,
      "saint": 6257,
      "endings": 6258,
      "rented": 6259,
      "rents": 6260,
      "anyway": 6261,
      "plets": 6262,
      "coins": 6263,
      "copy": 6264,
      "copain": 6265,
      "inkled": 6266,
      "hers": 6267,
      "herit": 6268,
      "usterfuck": 6269,
      "fré": 6270,
      "fray": 6271,
      "frères": 6272,
      "fruits": 6273,
      "appareil": 6274,
      "avo": 6275,
      "unemp": 6276,
      "uneasy": 6277,
      "vier": 6278,
      "vior": 6279,
      "villes": 6280,
      "answers": 6281,
      "exit": 6282,
      "exce": 6283,
      "except": 6284,
      "cieux": 6285,
      "boit": 6286,
      "bowed": 6287,
      "agers": 6288,
      "aggress": 6289,
      "agoras": 6290,
      "plash": 6291,
      "plural": 6292,
      "plément": 6293,
      "mani": 6294,
      "manqu": 6295,
      "manage": 6296,
      "manner": 6297,
      "management": 6298,
      "proté": 6299,
      "proved": 6300,
      "protest": 6301,
      "permis": 6302,
      "percent": 6303,
      "ulous": 6304,
      "ulate": 6305,
      "ultimate": 6306,
      "shin": 6307,
      "shout": 6308,
      "shmallows": 6309,
      "ifie": 6310,
      "tremb": 6311,
      "treats": 6312,
      "dumb": 6313,
      "dumber": 6314,
      "voie": 6315,
      "bleeding": 6316,
      "desig": 6317,
      "dessin": 6318,
      "places": 6319,
      "fog": 6320,
      "fol": 6321,
      "lugg": 6322,
      "tenez": 6323,
      "monkey": 6324,
      "trap": 6325,
      "trait": 6326,
      "trade": 6327,
      "traite": 6328,
      "tradition": 6329,
      "choo": 6330,
      "ills": 6331,
      "buttocks": 6332,
      "nies": 6333,
      "lette": 6334,
      "seemed": 6335,
      "venez": 6336,
      "fromage": 6337,
      "mesure": 6338,
      "messed": 6339,
      "aking": 6340,
      "cking": 6341,
      "dish": 6342,
      "disait": 6343,
      "diseas": 6344,
      "disagree": 6345,
      "discourage": 6346,
      "disliked": 6347,
      "disobe": 6348,
      "discharged": 6349,
      "disappeared": 6350,
      "disturb": 6351,
      "bygones": 6352,
      "cheated": 6353,
      "portable": 6354,
      "portée": 6355,
      "astated": 6356,
      "esses": 6357,
      "essential": 6358,
      "whenever": 6359,
      "bid": 6360,
      "biggest": 6361,
      "needn": 6362,
      "ishment": 6363,
      "quid": 6364,
      "mptions": 6365,
      "surger": 6366,
      "surround": 6367,
      "giants": 6368,
      "speed": 6369,
      "speci": 6370,
      "speeding": 6371,
      "shoulder": 6372,
      "earchers": 6373,
      "mark": 6374,
      "marvel": 6375,
      "marshmallows": 6376,
      "carried": 6377,
      "réus": 6378,
      "révé": 6379,
      "réjou": 6380,
      "réparer": 6381,
      "réveillé": 6382,
      "helpful": 6383,
      "tool": 6384,
      "stomach": 6385,
      "pretended": 6386,
      "previous": 6387,
      "ieux": 6388,
      "aching": 6389,
      "mists": 6390,
      "misery": 6391,
      "coucher": 6392,
      "courir": 6393,
      "spy": 6394,
      "span": 6395,
      "spare": 6396,
      "sphere": 6397,
      "spite": 6398,
      "spati": 6399,
      "pump": 6400,
      "ffle": 6401,
      "joy": 6402,
      "fake": 6403,
      "gling": 6404,
      "glance": 6405,
      "glory": 6406,
      "speaker": 6407,
      "sortes": 6408,
      "sorrow": 6409,
      "wrinkled": 6410,
      "arriving": 6411,
      "arrivent": 6412,
      "arrival": 6413,
      "icious": 6414,
      "pierre": 6415,
      "ctif": 6416,
      "player": 6417,
      "playground": 6418,
      "nerveux": 6419,
      "wolf": 6420,
      "wool": 6421,
      "forest": 6422,
      "forehead": 6423,
      "grass": 6424,
      "phon": 6425,
      "offended": 6426,
      "sépar": 6427,
      "hid": 6428,
      "hire": 6429,
      "hiking": 6430,
      "miny": 6431,
      "temptation": 6432,
      "chau": 6433,
      "chain": 6434,
      "fucked": 6435,
      "rum": 6436,
      "igation": 6437,
      "bush": 6438,
      "arently": 6439,
      "senti": 6440,
      "sentir": 6441,
      "insane": 6442,
      "garlic": 6443,
      "garian": 6444,
      "presence": 6445,
      "preserve": 6446,
      "financial": 6447,
      "toucher": 6448,
      "torrents": 6449,
      "believable": 6450,
      "trole": 6451,
      "backpack": 6452,
      "oldest": 6453,
      "rends": 6454,
      "corner": 6455,
      "viez": 6456,
      "cloud": 6457,
      "clusterfuck": 6458,
      "breast": 6459,
      "breathe": 6460,
      "breasts": 6461,
      "préparer": 6462,
      "restim": 6463,
      "numbers": 6464,
      "staring": 6465,
      "cares": 6466,
      "career": 6467,
      "standards": 6468,
      "devil": 6469,
      "devastated": 6470,
      "compter": 6471,
      "companions": 6472,
      "closet": 6473,
      "closest": 6474,
      "brand": 6475,
      "brings": 6476,
      "ideas": 6477,
      "ideal": 6478,
      "soup": 6479,
      "souvenir": 6480,
      "southern": 6481,
      "paycheck": 6482,
      "biting": 6483,
      "cupe": 6484,
      "hardest": 6485,
      "overlooked": 6486,
      "shoe": 6487,
      "shocked": 6488,
      "meets": 6489,
      "differs": 6490,
      "puts": 6491,
      "handful": 6492,
      "handled": 6493,
      "easiest": 6494,
      "wanna": 6495,
      "hearing": 6496,
      "crank": 6497,
      "mostly": 6498,
      "planète": 6499,
      "counting": 6500,
      "comments": 6501,
      "calcula": 6502,
      "jobs": 6503,
      "buying": 6504,
      "opatra": 6505,
      "downstairs": 6506,
      "bling": 6507,
      "bliss": 6508,
      "hurts": 6509,
      "center": 6510,
      "trumpet": 6511,
      "greatly": 6512,
      "nés": 6513,
      "rainbow": 6514,
      "magn": 6515,
      "fertili": 6516,
      "enseigner": 6517,
      "beside": 6518,
      "partially": 6519,
      "particip": 6520,
      "dynam": 6521,
      "smashed": 6522,
      "asks": 6523,
      "supper": 6524,
      "supplément": 6525,
      "beings": 6526,
      "effray": 6527,
      "someday": 6528,
      "gentil": 6529,
      "shows": 6530,
      "grandes": 6531,
      "ggle": 6532,
      "gged": 6533,
      "ggled": 6534,
      "genuine": 6535,
      "tained": 6536,
      "appel": 6537,
      "appears": 6538,
      "appealed": 6539,
      "farm": 6540,
      "licate": 6541,
      "poule": 6542,
      "dresses": 6543,
      "chercher": 6544,
      "liste": 6545,
      "asseoir": 6546,
      "breaks": 6547,
      "breaking": 6548,
      "musée": 6549,
      "turns": 6550,
      "cracy": 6551,
      "malheureuse": 6552,
      "gés": 6553,
      "gérer": 6554,
      "funds": 6555,
      "beggars": 6556,
      "difficulties": 6557,
      "difficultés": 6558,
      "skilled": 6559,
      "smooth": 6560,
      "arrêt": 6561,
      "balls": 6562,
      "nouvel": 6563,
      "shaken": 6564,
      "enfance": 6565,
      "charges": 6566,
      "hunch": 6567,
      "jouets": 6568,
      "italism": 6569,
      "vues": 6570,
      "settled": 6571,
      "setbacks": 6572,
      "uniforms": 6573,
      "profon": 6574,
      "baked": 6575,
      "dente": 6576,
      "importantes": 6577,
      "gnes": 6578,
      "chanceux": 6579,
      "corrected": 6580,
      "tourists": 6581,
      "deciding": 6582,
      "douche": 6583,
      "aware": 6584,
      "awkward": 6585,
      "factory": 6586,
      "chiens": 6587,
      "throne": 6588,
      "droite": 6589,
      "droits": 6590,
      "pulses": 6591,
      "capture": 6592,
      "differences": 6593,
      "surprising": 6594,
      "entrer": 6595,
      "passée": 6596,
      "north": 6597,
      "Germans": 6598,
      "classroom": 6599,
      "colours": 6600,
      "visiter": 6601,
      "jud": 6602,
      "petites": 6603,
      "mastered": 6604,
      "sunscre": 6605,
      "blackboard": 6606,
      "regarded": 6607,
      "example": 6608,
      "examined": 6609,
      "harvest": 6610,
      "risked": 6611,
      "risks": 6612,
      "steal": 6613,
      "steps": 6614,
      "steering": 6615,
      "contrat": 6616,
      "orders": 6617,
      "ordering": 6618,
      "seuls": 6619,
      "produced": 6620,
      "productive": 6621,
      "artist": 6622,
      "ilized": 6623,
      "bloody": 6624,
      "blocked": 6625,
      "current": 6626,
      "decla": 6627,
      "nail": 6628,
      "naked": 6629,
      "nails": 6630,
      "sounding": 6631,
      "pleasures": 6632,
      "barks": 6633,
      "pianist": 6634,
      "secretary": 6635,
      "damage": 6636,
      "entends": 6637,
      "And": 6638,
      "salon": 6639,
      "salted": 6640,
      "laughter": 6641,
      "subje": 6642,
      "interests": 6643,
      "brief": 6644,
      "bridge": 6645,
      "nettoyer": 6646,
      "horror": 6647,
      "objects": 6648,
      "étudie": 6649,
      "drawing": 6650,
      "eleph": 6651,
      "relation": 6652,
      "rers": 6653,
      "confess": 6654,
      "follows": 6655,
      "experiences": 6656,
      "seconds": 6657,
      "durant": 6658,
      "value": 6659,
      "valuable": 6660,
      "heavens": 6661,
      "halfway": 6662,
      "travels": 6663,
      "scientist": 6664,
      "faute": 6665,
      "punishment": 6666,
      "pieces": 6667,
      "dolls": 6668,
      "critic": 6669,
      "critical": 6670,
      "clap": 6671,
      "claims": 6672,
      "quitter": 6673,
      "experienced": 6674,
      "affairs": 6675,
      "imaginer": 6676,
      "points": 6677,
      "printed": 6678,
      "prints": 6679,
      "disposes": 6680,
      "Mondays": 6681,
      "meaning": 6682,
      "meanings": 6683,
      "certaines": 6684,
      "commença": 6685,
      "beginners": 6686,
      "enjoyed": 6687,
      "Unbelievable": 6688,
      "sacred": 6689,
      "suitable": 6690,
      "suitcase": 6691,
      "applic": 6692,
      "applying": 6693,
      "battre": 6694,
      "climb": 6695,
      "sprang": 6696,
      "based": 6697,
      "sends": 6698,
      "thirteen": 6699,
      "immediate": 6700,
      "expenses": 6701,
      "expecting": 6702,
      "expectations": 6703,
      "consequences": 6704,
      "vacations": 6705,
      "midnight": 6706,
      "mountains": 6707,
      "praise": 6708,
      "slid": 6709,
      "smarter": 6710,
      "admired": 6711,
      "adviser": 6712,
      "ressour": 6713,
      "joined": 6714,
      "general": 6715,
      "dreams": 6716,
      "dreaming": 6717,
      "université": 6718,
      "circus": 6719,
      "patent": 6720,
      "casser": 6721,
      "gunshot": 6722,
      "teenager": 6723,
      "teenagers": 6724,
      "trusting": 6725,
      "carrying": 6726,
      "views": 6727,
      "paused": 6728,
      "square": 6729,
      "politique": 6730,
      "politician": 6731,
      "survival": 6732,
      "embarrass": 6733,
      "soldering": 6734,
      "community": 6735,
      "communism": 6736,
      "rarement": 6737,
      "sweep": 6738,
      "recovery": 6739,
      "receive": 6740,
      "movement": 6741,
      "montrez": 6742,
      "countless": 6743,
      "November": 6744,
      "ancestors": 6745,
      "maladie": 6746,
      "aboard": 6747,
      "rencontrée": 6748,
      "college": 6749,
      "collected": 6750,
      "nombreuses": 6751,
      "destro": 6752,
      "attracted": 6753,
      "absolument": 6754,
      "sandwiches": 6755,
      "gambling": 6756,
      "tends": 6757,
      "tendency": 6758,
      "injury": 6759,
      "contribute": 6760,
      "property": 6761,
      "discovery": 6762,
      "cuisiner": 6763,
      "paintings": 6764,
      "instantly": 6765,
      "explode": 6766,
      "practice": 6767,
      "practicing": 6768,
      "brave": 6769,
      "issues": 6770,
      "feuilles": 6771,
      "décider": 6772,
      "décida": 6773,
      "embarrassing": 6774,
      "suivant": 6775,
      "coût": 6776,
      "violin": 6777,
      "eighty": 6778,
      "yellow": 6779,
      "theatre": 6780,
      "ordinary": 6781,
      "memorize": 6782,
      "confidence": 6783,
      "grounds": 6784,
      "blanc": 6785,
      "blankets": 6786,
      "effects": 6787,
      "honesty": 6788,
      "softly": 6789,
      "software": 6790,
      "neighborhood": 6791,
      "bullet": 6792,
      "papa": 6793,
      "slain": 6794,
      "pocket": 6795,
      "pronounce": 6796,
      "pronunciation": 6797,
      "chairs": 6798,
      "chairperson": 6799,
      "skip": 6800,
      "skiing": 6801,
      "skipped": 6802,
      "poisonous": 6803,
      "flavor": 6804,
      "flags": 6805,
      "knocked": 6806,
      "smiled": 6807,
      "assumptions": 6808,
      "textbook": 6809,
      "bearing": 6810,
      "laxy": 6811,
      "madness": 6812,
      "advise": 6813,
      "accusé": 6814,
      "accustomed": 6815,
      "sharpen": 6816,
      "presidential": 6817,
      "soldier": 6818,
      "translation": 6819,
      "earthquakes": 6820,
      "recognized": 6821,
      "ouverte": 6822,
      "Apparently": 6823,
      "gagné": 6824,
      "millionaire": 6825,
      "obey": 6826,
      "rational": 6827,
      "required": 6828,
      "abandoned": 6829,
      "castle": 6830,
      "crowded": 6831,
      "pacif": 6832,
      "swam": 6833,
      "winds": 6834,
      "leader": 6835,
      "arguing": 6836,
      "separate": 6837,
      "separatists": 6838,
      "rifle": 6839,
      "residential": 6840,
      "woods": 6841,
      "horrified": 6842,
      "drawings": 6843,
      "increasing": 6844,
      "congratulate": 6845,
      "See": 6846,
      "discuss": 6847,
      "spicy": 6848,
      "supportive": 6849,
      "flash": 6850,
      "fridge": 6851,
      "murder": 6852,
      "nulle": 6853,
      "purpose": 6854,
      "devoirs": 6855,
      "quarter": 6856,
      "notebook": 6857,
      "divorced": 6858,
      "mystery": 6859,
      "ambitious": 6860,
      "cloudy": 6861,
      "curious": 6862,
      "prisoner": 6863,
      "freak": 6864,
      "fairly": 6865,
      "hilltop": 6866,
      "honeymoon": 6867,
      "kidding": 6868,
      "rêve": 6869,
      "scream": 6870,
      "various": 6871,
      "towards": 6872,
      "defeat": 6873,
      "defeated": 6874,
      "searching": 6875,
      "texting": 6876,
      "weighs": 6877,
      "ironed": 6878,
      "advertising": 6879,
      "contented": 6880,
      "occurred": 6881,
      "customs": 6882,
      "fluently": 6883,
      "environmental": 6884,
      "benefit": 6885,
      "benefits": 6886,
      "Turkey": 6887,
      "White": 6888,
      "matiques": 6889,
      "occupe": 6890,
      "rays": 6891,
      "providing": 6892,
      "distributed": 6893,
      "banana": 6894,
      "bananas": 6895,
      "Catholic": 6896,
      "bunch": 6897,
      "scarf": 6898,
      "remark": 6899,
      "prudent": 6900,
      "describe": 6901,
      "réaliser": 6902,
      "corriger": 6903,
      "blowing": 6904,
      "emergency": 6905,
      "jokes": 6906,
      "joking": 6907,
      "relevant": 6908,
      "relief": 6909,
      "relieved": 6910,
      "relaxed": 6911,
      "season": 6912,
      "seasons": 6913,
      "betrayed": 6914,
      "dieting": 6915,
      "dialect": 6916,
      "educated": 6917,
      "education": 6918,
      "peaceful": 6919,
      "improved": 6920,
      "improving": 6921,
      "adapt": 6922,
      "excuses": 6923,
      "happier": 6924,
      "happiest": 6925,
      "rubbish": 6926,
      "personality": 6927,
      "material": 6928,
      "shooting": 6929,
      "athlete": 6930,
      "athletic": 6931,
      "character": 6932,
      "characters": 6933,
      "pretending": 6934,
      "jumped": 6935,
      "empêcher": 6936,
      "bicycles": 6937,
      "confiscated": 6938,
      "sweaty": 6939,
      "threatened": 6940,
      "Researchers": 6941,
      "grapes": 6942,
      "reliable": 6943,
      "supplies": 6944,
      "composed": 6945,
      "parfaite": 6946,
      "spiration": 6947,
      "technology": 6948,
      "sympathize": 6949,
      "Capitalism": 6950,
      "Salut": 6951,
      "chapter": 6952,
      "obliged": 6953,
      "Indeed": 6954,
      "Arabic": 6955,
      "SMS": 6956,
      "Suck": 6957,
      "taste": 6958,
      "wreck": 6959,
      "échec": 6960,
      "énergie": 6961,
      "éviter": 6962,
      "recipe": 6963,
      "reduced": 6964,
      "inquiète": 6965,
      "delayed": 6966,
      "behavior": 6967,
      "jellyfish": 6968,
      "diamond": 6969,
      "commande": 6970,
      "complaint": 6971,
      "cancel": 6972,
      "urinating": 6973,
      "endormi": 6974,
      "extremely": 6975,
      "toothache": 6976,
      "opposite": 6977,
      "prettiest": 6978,
      "constantly": 6979,
      "victim": 6980,
      "cinéma": 6981,
      "resourceful": 6982,
      "electricity": 6983,
      "insulting": 6984,
      "advertisements": 6985,
      "customers": 6986,
      "pyramids": 6987,
      "circumstances": 6988,
      "humiliated": 6989,
      "Allemagne": 6990,
      "Africa": 6991,
      "Moscow": 6992,
      "écras": 6993,
      "retarded": 6994,
      "immortal": 6995,
      "volcano": 6996,
      "clairement": 6997,
      "Christopher": 6998,
      "curiosity": 6999,
      "Israel": 7000,
      "Pythagoras": 7001,
      "distinguish": 7002,
      "Magic": 7003,
      "University": 7004,
      "fresh": 7005,
      "pâle": 7006,
      "règles": 7007,
      "rhume": 7008,
      "église": 7009,
      "inspired": 7010,
      "errors": 7011,
      "audience": 7012,
      "permanent": 7013,
      "spectators": 7014,
      "crutches": 7015,
      "transported": 7016,
      "abstract": 7017,
      "multilingual": 7018,
      "Achieving": 7019,
      "Cleopatra": 7020,
      "Cairo": 7021,
      "Chile": 7022,
      "Droplets": 7023,
      "Espagne": 7024,
      "Egyptian": 7025,
      "Group": 7026,
      "Hungarian": 7027,
      "However": 7028,
      "Olympic": 7029,
      "Scots": 7030,
      "Saturday": 7031,
      "World": 7032,
      "Whoever": 7033,
      "bastard": 7034,
      "frightened": 7035,
      "fashion": 7036,
      "freedom": 7037,
      "jacket": 7038,
      "knees": 7039,
      "narrow": 7040,
      "naive": 7041,
      "nickname": 7042,
      "scolded": 7043,
      "swinging": 7044,
      "scratching": 7045,
      "trente": 7046,
      "twelve": 7047,
      "wrapped": 7048,
      "recommended": 7049,
      "enormous": 7050,
      "escaped": 7051,
      "leaped": 7052,
      "leftovers": 7053,
      "degrees": 7054,
      "deceptive": 7055,
      "developed": 7056,
      "detailed": 7057,
      "seldom": 7058,
      "negoti": 7059,
      "tetanus": 7060,
      "stalling": 7061,
      "stacked": 7062,
      "chunks": 7063,
      "suffered": 7064,
      "components": 7065,
      "amount": 7066,
      "abducted": 7067,
      "soixante": 7068,
      "conspiracy": 7069,
      "unemployed": 7070,
      "aggression": 7071,
      "luggage": 7072,
      "diseases": 7073,
      "disobeyed": 7074,
      "surgery": 7075,
      "marvelous": 7076,
      "réjouis": 7077,
      "fertiliz": 7078,
      "malheureusement": 7079,
      "sunscreen": 7080,
      "4000": 7081,
      "50": 7082,
      "All": 7083,
      "Con": 7084,
      "Cor": 7085,
      "Cel": 7086,
      "Cont": 7087,
      "Dis": 7088,
      "Goo": 7089,
      "His": 7090,
      "Pa": 7091,
      "Pat": 7092,
      "Sole": 7093,
      "Tra": 7094,
      "Ven": 7095,
      "ail": 7096,
      "bour": 7097,
      "bac": 7098,
      "cun": 7099,
      "cac": 7100,
      "cils": 7101,
      "dant": 7102,
      "dus": 7103,
      "dèle": 7104,
      "eus": 7105,
      "fain": 7106,
      "frais": 7107,
      "gant": 7108,
      "gée": 7109,
      "ima": 7110,
      "pil": 7111,
      "pli": 7112,
      "pai": 7113,
      "rant": 7114,
      "sout": 7115,
      "sins": 7116,
      "tons": 7117,
      "vus": 7118,
      "vach": 7119,
      "xim": 7120,
      "yenne": 7121,
      "âce": 7122,
      "èce": 7123,
      "ètes": 7124,
      "èvre": 7125,
      "épuis": 7126,
      "érence": 7127,
      "élè": 7128,
      "écris": 7129,
      "éveillé": 7130,
      "étoile": 7131,
      "îne": 7132,
      "îtr": 7133,
      "reur": 7134,
      "rement": 7135,
      "repro": 7136,
      "rerais": 7137,
      "reporter": 7138,
      "remettre": 7139,
      "recommand": 7140,
      "poche": 7141,
      "poster": 7142,
      "incorri": 7143,
      "inspiration": 7144,
      "issez": 7145,
      "onté": 7146,
      "erais": 7147,
      "enver": 7148,
      "enfu": 7149,
      "enfin": 7150,
      "ennes": 7151,
      "omi": 7152,
      "vement": 7153,
      "quin": 7154,
      "qués": 7155,
      "neuf": 7156,
      "habill": 7157,
      "cement": 7158,
      "entière": 7159,
      "dos": 7160,
      "lamp": 7161,
      "ligne": 7162,
      "alent": 7163,
      "esti": 7164,
      "jean": 7165,
      "dirai": 7166,
      "dirait": 7167,
      "diagno": 7168,
      "dirige": 7169,
      "forte": 7170,
      "forces": 7171,
      "goû": 7172,
      "allu": 7173,
      "aurai": 7174,
      "sugg": 7175,
      "tiens": 7176,
      "comb": 7177,
      "irré": 7178,
      "tue": 7179,
      "notes": 7180,
      "tais": 7181,
      "amer": 7182,
      "ament": 7183,
      "addition": 7184,
      "tron": 7185,
      "acide": 7186,
      "parie": 7187,
      "urgence": 7188,
      "sius": 7189,
      "sienne": 7190,
      "prouve": 7191,
      "menti": 7192,
      "salaire": 7193,
      "savons": 7194,
      "rentr": 7195,
      "colo": 7196,
      "cochon": 7197,
      "frust": 7198,
      "apprend": 7199,
      "apporter": 7200,
      "apprends": 7201,
      "avaient": 7202,
      "vienne": 7203,
      "exig": 7204,
      "exem": 7205,
      "exclus": 7206,
      "cigare": 7207,
      "agé": 7208,
      "agres": 7209,
      "pens": 7210,
      "prop": 7211,
      "proje": 7212,
      "progres": 7213,
      "déla": 7214,
      "décé": 7215,
      "déçu": 7216,
      "dérange": 7217,
      "tremble": 7218,
      "volé": 7219,
      "bleu": 7220,
      "plait": 7221,
      "foi": 7222,
      "folle": 7223,
      "monte": 7224,
      "monie": 7225,
      "traité": 7226,
      "chois": 7227,
      "choir": 7228,
      "illa": 7229,
      "iller": 7230,
      "niveau": 7231,
      "lettres": 7232,
      "cheval": 7233,
      "mien": 7234,
      "mbres": 7235,
      "surveill": 7236,
      "sermon": 7237,
      "marteau": 7238,
      "cartes": 7239,
      "caract": 7240,
      "rép": 7241,
      "répar": 7242,
      "rédu": 7243,
      "répé": 7244,
      "réellement": 7245,
      "types": 7246,
      "mises": 7247,
      "couteau": 7248,
      "joli": 7249,
      "longues": 7250,
      "moire": 7251,
      "pier": 7252,
      "grâce": 7253,
      "phé": 7254,
      "offre": 7255,
      "chait": 7256,
      "chaude": 7257,
      "chacun": 7258,
      "fume": 7259,
      "futur": 7260,
      "rumeur": 7261,
      "touché": 7262,
      "tort": 7263,
      "raisins": 7264,
      "corde": 7265,
      "clar": 7266,
      "prévenu": 7267,
      "restée": 7268,
      "bran": 7269,
      "bras": 7270,
      "soutien": 7271,
      "saisir": 7272,
      "assis": 7273,
      "voulu": 7274,
      "lég": 7275,
      "crise": 7276,
      "bonjour": 7277,
      "bonheur": 7278,
      "calcul": 7279,
      "coupé": 7280,
      "croyez": 7281,
      "croient": 7282,
      "feriez": 7283,
      "version": 7284,
      "obsc": 7285,
      "petits": 7286,
      "gentilles": 7287,
      "promesse": 7288,
      "promesses": 7289,
      "grands": 7290,
      "appelez": 7291,
      "peuple": 7292,
      "cravate": 7293,
      "tableau": 7294,
      "importante": 7295,
      "milit": 7296,
      "unique": 7297,
      "alien": 7298,
      "aliments": 7299,
      "riches": 7300,
      "gnée": 7301,
      "volont": 7302,
      "volonté": 7303,
      "atomic": 7304,
      "douleur": 7305,
      "autrefois": 7306,
      "capac": 7307,
      "célè": 7308,
      "mener": 7309,
      "mensonge": 7310,
      "simul": 7311,
      "interdit": 7312,
      "jug": 7313,
      "attendu": 7314,
      "étend": 7315,
      "étang": 7316,
      "regardez": 7317,
      "connaisse": 7318,
      "connaissait": 7319,
      "connaissez": 7320,
      "occupés": 7321,
      "brio": 7322,
      "objection": 7323,
      "objectif": 7324,
      "confir": 7325,
      "soirée": 7326,
      "semblez": 7327,
      "bandes": 7328,
      "probabil": 7329,
      "constitu": 7330,
      "quitté": 7331,
      "conduis": 7332,
      "conduit": 7333,
      "patients": 7334,
      "sente": 7335,
      "sentez": 7336,
      "client": 7337,
      "climat": 7338,
      "froide": 7339,
      "ranto": 7340,
      "sortie": 7341,
      "adop": 7342,
      "tempor": 7343,
      "conseillé": 7344,
      "signifie": 7345,
      "vérit": 7346,
      "passez": 7347,
      "mariés": 7348,
      "nationale": 7349,
      "soldats": 7350,
      "répondu": 7351,
      "suffit": 7352,
      "rencontrés": 7353,
      "collection": 7354,
      "voisins": 7355,
      "vendu": 7356,
      "épais": 7357,
      "attrape": 7358,
      "différence": 7359,
      "Japonais": 7360,
      "pisto": 7361,
      "suivi": 7362,
      "coûts": 7363,
      "environnement": 7364,
      "ordinaire": 7365,
      "Devine": 7366,
      "bouton": 7367,
      "collabor": 7368,
      "jambe": 7369,
      "indiquer": 7370,
      "foule": 7371,
      "possibilité": 7372,
      "tombée": 7373,
      "voudrait": 7374,
      "chocolat": 7375,
      "abandonner": 7376,
      "continue": 7377,
      "Italie": 7378,
      "héros": 7379,
      "suicidé": 7380,
      "amuser": 7381,
      "amusant": 7382,
      "prêts": 7383,
      "traduire": 7384,
      "Américain": 7385,
      "matière": 7386,
      "remède": 7387,
      "envoyer": 7388,
      "génération": 7389,
      "vengeance": 7390,
      "fonctionne": 7391,
      "réfléchi": 7392,
      "amélior": 7393,
      "oubliez": 7394,
      "mignonne": 7395,
      "serviettes": 7396,
      "bicyclette": 7397,
      "campagne": 7398,
      "Jeanne": 7399,
      "kilos": 7400,
      "velopp": 7401,
      "obligations": 7402,
      "certainement": 7403,
      "populaire": 7404,
      "populaires": 7405,
      "espéranto": 7406,
      "excellent": 7407,
      "censé": 7408,
      "oiseau": 7409,
      "rejoindre": 7410,
      "stylo": 7411,
      "respecter": 7412,
      "silencieux": 7413,
      "quotidienne": 7414,
      "Jackson": 7415,
      "félic": 7416,
      "ouvrit": 7417,
      "ouvrez": 7418,
      "articles": 7419,
      "programme": 7420,
      "descend": 7421,
      "Quels": 7422,
      "hâte": 7423,
      "énorme": 7424,
      "totalement": 7425,
      "ingénie": 7426,
      "meubles": 7427,
      "commerce": 7428,
      "détruit": 7429,
      "spécial": 7430,
      "écureuils": 7431,
      "physique": 7432,
      "promettre": 7433,
      "résultats": 7434,
      "remercier": 7435,
      "beurre": 7436,
      "ralement": 7437,
      "mathématiques": 7438,
      "avocat": 7439,
      "spatial": 7440,
      "ressources": 7441,
      "Celsius": 7442,
      "Google": 7443,
      "Soleil": 7444,
      "Venus": 7445,
      "vaches": 7446,
      "élèves": 7447,
      "incorrigi": 7448,
      "célèbre": 7449,
      "25": 7450,
      "26": 7451,
      "27": 7452,
      "2000": 7453,
      "32": 7454,
      "42": 7455,
      "83": 7456,
      "88": 7457,
      "89": 7458,
      "AM": 7459,
      "Av": 7460,
      "Ale": 7461,
      "Ala": 7462,
      "Asi": 7463,
      "Alf": 7464,
      "Aki": 7465,
      "Alla": 7466,
      "Amn": 7467,
      "Apoll": 7468,
      "Adéla": 7469,
      "Bre": 7470,
      "Ban": 7471,
      "Bay": 7472,
      "But": 7473,
      "Bel": 7474,
      "Bré": 7475,
      "Bask": 7476,
      "Bride": 7477,
      "Bras": 7478,
      "Bama": 7479,
      "BRI": 7480,
      "Baby": 7481,
      "BBC": 7482,
      "CD": 7483,
      "Car": 7484,
      "Cong": 7485,
      "Cali": 7486,
      "Cart": 7487,
      "Crist": 7488,
      "CRI": 7489,
      "Du": 7490,
      "Dall": 7491,
      "Dav": 7492,
      "Dard": 7493,
      "Dame": 7494,
      "Emil": 7495,
      "Eric": 7496,
      "Euler": 7497,
      "Fad": 7498,
      "Fred": 7499,
      "Face": 7500,
      "Fanta": 7501,
      "Gand": 7502,
      "Gold": 7503,
      "Gaz": 7504,
      "Gables": 7505,
      "Goro": 7506,
      "Hu": 7507,
      "Han": 7508,
      "Hit": 7509,
      "Hall": 7510,
      "Hend": 7511,
      "Ir": 7512,
      "Istan": 7513,
      "Jou": 7514,
      "Jen": 7515,
      "Jor": 7516,
      "Jup": 7517,
      "Kas": 7518,
      "Kak": 7519,
      "Kaz": 7520,
      "Kathy": 7521,
      "LS": 7522,
      "Le": 7523,
      "Lé": 7524,
      "Lin": 7525,
      "Len": 7526,
      "Lux": 7527,
      "Lang": 7528,
      "Loun": 7529,
      "Mer": 7530,
      "Mus": 7531,
      "Mic": 7532,
      "Mod": 7533,
      "Mish": 7534,
      "Mage": 7535,
      "Matt": 7536,
      "Mali": 7537,
      "Mande": 7538,
      "Max": 7539,
      "Na": 7540,
      "Nel": 7541,
      "Nap": 7542,
      "Nag": 7543,
      "Nak": 7544,
      "Ney": 7545,
      "Nash": 7546,
      "Nara": 7547,
      "Ox": 7548,
      "Oba": 7549,
      "Oscar": 7550,
      "Okin": 7551,
      "Oliver": 7552,
      "PT": 7553,
      "Ph": 7554,
      "Pic": 7555,
      "Pac": 7556,
      "Phar": 7557,
      "Pader": 7558,
      "Rh": 7559,
      "Rome": 7560,
      "Rick": 7561,
      "Reven": 7562,
      "Rob": 7563,
      "Roc": 7564,
      "RAM": 7565,
      "Sy": 7566,
      "Sha": 7567,
      "Say": 7568,
      "Sta": 7569,
      "Sam": 7570,
      "Sab": 7571,
      "Sally": 7572,
      "Sato": 7573,
      "Simp": 7574,
      "Scand": 7575,
      "Sara": 7576,
      "Spot": 7577,
      "Sandra": 7578,
      "SCRI": 7579,
      "Th": 7580,
      "Tar": 7581,
      "Ted": 7582,
      "Tim": 7583,
      "Tick": 7584,
      "Tuf": 7585,
      "Trang": 7586,
      "Uk": 7587,
      "Uran": 7588,
      "Ubun": 7589,
      "Vince": 7590,
      "ao": 7591,
      "aî": 7592,
      "abe": 7593,
      "ator": 7594,
      "aéro": 7595,
      "bain": 7596,
      "barri": 7597,
      "bless": 7598,
      "bale": 7599,
      "bœuf": 7600,
      "cis": 7601,
      "cles": 7602,
      "cté": 7603,
      "crai": 7604,
      "cath": 7605,
      "ckey": 7606,
      "ctori": 7607,
      "dne": 7608,
      "dout": 7609,
      "dhis": 7610,
      "dais": 7611,
      "eBay": 7612,
      "fû": 7613,
      "fis": 7614,
      "fan": 7615,
      "fes": 7616,
      "fous": 7617,
      "fare": 7618,
      "fans": 7619,
      "faux": 7620,
      "fleur": 7621,
      "festi": 7622,
      "gest": 7623,
      "gro": 7624,
      "gout": 7625,
      "gons": 7626,
      "hro": 7627,
      "hstan": 7628,
      "iant": 7629,
      "ible": 7630,
      "igu": 7631,
      "jal": 7632,
      "jure": 7633,
      "jban": 7634,
      "jandra": 7635,
      "kins": 7636,
      "kile": 7637,
      "kilt": 7638,
      "kawa": 7639,
      "lux": 7640,
      "lton": 7641,
      "lâche": 7642,
      "mm": 7643,
      "mè": 7644,
      "mant": 7645,
      "mouve": 7646,
      "mété": 7647,
      "mass": 7648,
      "mène": 7649,
      "mension": 7650,
      "nard": 7651,
      "nue": 7652,
      "naise": 7653,
      "nôtre": 7654,
      "ox": 7655,
      "och": 7656,
      "ores": 7657,
      "ocre": 7658,
      "olives": 7659,
      "océ": 7660,
      "oween": 7661,
      "pse": 7662,
      "pam": 7663,
      "ples": 7664,
      "pach": 7665,
      "pair": 7666,
      "pture": 7667,
      "pages": 7668,
      "puni": 7669,
      "pago": 7670,
      "rho": 7671,
      "ruse": 7672,
      "rite": 7673,
      "ront": 7674,
      "rasse": 7675,
      "rural": 7676,
      "san": 7677,
      "taire": 7678,
      "ttez": 7679,
      "uan": 7680,
      "uch": 7681,
      "vions": 7682,
      "vince": 7683,
      "wright": 7684,
      "yait": 7685,
      "yser": 7686,
      "yach": 7687,
      "yaz": 7688,
      "yuan": 7689,
      "zart": 7690,
      "âme": 7691,
      "âché": 7692,
      "çois": 7693,
      "év": 7694,
      "épo": 7695,
      "égo": 7696,
      "éter": 7697,
      "écar": 7698,
      "ío": 7699,
      "îmes": 7700,
      "ïde": 7701,
      "ôme": 7702,
      "œurs": 7703,
      "thme": 7704,
      "repos": 7705,
      "requ": 7706,
      "rece": 7707,
      "remp": 7708,
      "reconn": 7709,
      "reprise": 7710,
      "recharge": 7711,
      "représent": 7712,
      "reconstru": 7713,
      "poème": 7714,
      "poker": 7715,
      "positive": 7716,
      "postale": 7717,
      "inse": 7718,
      "inent": 7719,
      "incom": 7720,
      "intu": 7721,
      "infe": 7722,
      "inson": 7723,
      "inav": 7724,
      "inspe": 7725,
      "inner": 7726,
      "inable": 7727,
      "incess": 7728,
      "insol": 7729,
      "incident": 7730,
      "inclus": 7731,
      "injustice": 7732,
      "intact": 7733,
      "infant": 7734,
      "istr": 7735,
      "isman": 7736,
      "isation": 7737,
      "issait": 7738,
      "issage": 7739,
      "anus": 7740,
      "anmar": 7741,
      "annu": 7742,
      "ancé": 7743,
      "analo": 7744,
      "anthro": 7745,
      "ongo": 7746,
      "onies": 7747,
      "onnaise": 7748,
      "eria": 7749,
      "ervilles": 7750,
      "enrich": 7751,
      "envisage": 7752,
      "encoura": 7753,
      "escha": 7754,
      "escor": 7755,
      "tox": 7756,
      "toit": 7757,
      "tomi": 7758,
      "tower": 7759,
      "tombe": 7760,
      "atar": 7761,
      "atmo": 7762,
      "lection": 7763,
      "lecture": 7764,
      "asc": 7765,
      "asi": 7766,
      "asli": 7767,
      "asso": 7768,
      "asol": 7769,
      "assurance": 7770,
      "asaki": 7771,
      "itz": 7772,
      "ombi": 7773,
      "ordres": 7774,
      "ordre": 7775,
      "ories": 7776,
      "debout": 7777,
      "devenus": 7778,
      "quis": 7779,
      "mez": 7780,
      "mecs": 7781,
      "sec": 7782,
      "semi": 7783,
      "seille": 7784,
      "seize": 7785,
      "teurs": 7786,
      "hael": 7787,
      "hamb": 7788,
      "hammed": 7789,
      "celet": 7790,
      "celles": 7791,
      "bec": 7792,
      "bell": 7793,
      "stim": 7794,
      "stable": 7795,
      "stème": 7796,
      "enten": 7797,
      "entit": 7798,
      "entier": 7799,
      "dop": 7800,
      "dotes": 7801,
      "chent": 7802,
      "chard": 7803,
      "chée": 7804,
      "chland": 7805,
      "lave": 7806,
      "lade": 7807,
      "lien": 7808,
      "lide": 7809,
      "limit": 7810,
      "libat": 7811,
      "limous": 7812,
      "lignes": 7813,
      "alas": 7814,
      "alph": 7815,
      "altru": 7816,
      "aig": 7817,
      "aimée": 7818,
      "rix": 7819,
      "riz": 7820,
      "rial": 7821,
      "riot": 7822,
      "rici": 7823,
      "rival": 7824,
      "esty": 7825,
      "estin": 7826,
      "verte": 7827,
      "verdi": 7828,
      "verrou": 7829,
      "unes": 7830,
      "unami": 7831,
      "ayant": 7832,
      "ropho": 7833,
      "dira": 7834,
      "diable": 7835,
      "dicta": 7836,
      "dimension": 7837,
      "queue": 7838,
      "former": 7839,
      "forcer": 7840,
      "forêt": 7841,
      "gov": 7842,
      "golf": 7843,
      "gosla": 7844,
      "goût": 7845,
      "antal": 7846,
      "antici": 7847,
      "loge": 7848,
      "location": 7849,
      "auté": 7850,
      "auteur": 7851,
      "sulf": 7852,
      "ticip": 7853,
      "raine": 7854,
      "races": 7855,
      "geyser": 7856,
      "passes": 7857,
      "peare": 7858,
      "peint": 7859,
      "pects": 7860,
      "ourg": 7861,
      "mah": 7862,
      "donnent": 7863,
      "outrage": 7864,
      "user": 7865,
      "usions": 7866,
      "commission": 7867,
      "tuber": 7868,
      "motel": 7869,
      "mocrat": 7870,
      "moyenne": 7871,
      "hoop": 7872,
      "hockey": 7873,
      "canap": 7874,
      "terie": 7875,
      "terbro": 7876,
      "terror": 7877,
      "impatience": 7878,
      "impartial": 7879,
      "amic": 7880,
      "amend": 7881,
      "amical": 7882,
      "adul": 7883,
      "admin": 7884,
      "advers": 7885,
      "lycée": 7886,
      "triste": 7887,
      "ichel": 7888,
      "accro": 7889,
      "acron": 7890,
      "acasli": 7891,
      "abon": 7892,
      "abat": 7893,
      "lesquelles": 7894,
      "restez": 7895,
      "otine": 7896,
      "condo": 7897,
      "conver": 7898,
      "conven": 7899,
      "contri": 7900,
      "congé": 7901,
      "consci": 7902,
      "conform": 7903,
      "conscient": 7904,
      "confection": 7905,
      "conditions": 7906,
      "conserv": 7907,
      "conjug": 7908,
      "pars": 7909,
      "paran": 7910,
      "parmi": 7911,
      "parach": 7912,
      "parlons": 7913,
      "parole": 7914,
      "parasol": 7915,
      "histori": 7916,
      "uré": 7917,
      "urger": 7918,
      "sire": 7919,
      "sies": 7920,
      "sieur": 7921,
      "oker": 7922,
      "prou": 7923,
      "prince": 7924,
      "prude": 7925,
      "thermo": 7926,
      "thermost": 7927,
      "mentir": 7928,
      "sain": 7929,
      "salade": 7930,
      "endom": 7931,
      "rennent": 7932,
      "omettez": 7933,
      "pleine": 7934,
      "code": 7935,
      "cock": 7936,
      "inko": 7937,
      "ustropho": 7938,
      "appla": 7939,
      "apporte": 7940,
      "appé": 7941,
      "aphro": 7942,
      "avion": 7943,
      "avions": 7944,
      "viole": 7945,
      "expos": 7946,
      "exor": 7947,
      "extr": 7948,
      "expri": 7949,
      "exception": 7950,
      "civ": 7951,
      "cice": 7952,
      "agan": 7953,
      "agir": 7954,
      "plas": 7955,
      "plorable": 7956,
      "manus": 7957,
      "pensent": 7958,
      "pourvu": 7959,
      "prose": 7960,
      "proven": 7961,
      "permet": 7962,
      "permettre": 7963,
      "persion": 7964,
      "perfection": 7965,
      "perception": 7966,
      "déte": 7967,
      "démé": 7968,
      "détend": 7969,
      "défini": 7970,
      "dépêcher": 7971,
      "ulpture": 7972,
      "iff": 7973,
      "duo": 7974,
      "dures": 7975,
      "aisé": 7976,
      "voleur": 7977,
      "voix": 7978,
      "indis": 7979,
      "folie": 7980,
      "ounan": 7981,
      "lude": 7982,
      "tente": 7983,
      "tenait": 7984,
      "tensions": 7985,
      "mont": 7986,
      "mondi": 7987,
      "monot": 7988,
      "monade": 7989,
      "traiter": 7990,
      "traditions": 7991,
      "tsunami": 7992,
      "illard": 7993,
      "illusion": 7994,
      "illusions": 7995,
      "nia": 7996,
      "nier": 7997,
      "lettes": 7998,
      "venons": 7999,
      "veniez": 8000,
      "ténu": 8001,
      "messages": 8002,
      "ako": 8003,
      "aks": 8004,
      "akhstan": 8005,
      "dissu": 8006,
      "discrimin": 8007,
      "dispersion": 8008,
      "chement": 8009,
      "chewing": 8010,
      "mique": 8011,
      "ports": 8012,
      "portion": 8013,
      "astes": 8014,
      "astro": 8015,
      "fié": 8016,
      "file": 8017,
      "fidèle": 8018,
      "bigot": 8019,
      "mpa": 8020,
      "gies": 8021,
      "gigant": 8022,
      "talisman": 8023,
      "server": 8024,
      "servant": 8025,
      "march": 8026,
      "marath": 8027,
      "marron": 8028,
      "carrière": 8029,
      "régl": 8030,
      "récol": 8031,
      "résolu": 8032,
      "mug": 8033,
      "achète": 8034,
      "tyran": 8035,
      "couper": 8036,
      "couleur": 8037,
      "couteaux": 8038,
      "gum": 8039,
      "guim": 8040,
      "guides": 8041,
      "purif": 8042,
      "faits": 8043,
      "selfie": 8044,
      "joie": 8045,
      "longs": 8046,
      "longue": 8047,
      "sortez": 8048,
      "pique": 8049,
      "causé": 8050,
      "gran": 8051,
      "phie": 8052,
      "offense": 8053,
      "séché": 8054,
      "minor": 8055,
      "minus": 8056,
      "minine": 8057,
      "chaleur": 8058,
      "rumin": 8059,
      "bussy": 8060,
      "beauté": 8061,
      "insist": 8062,
      "triangle": 8063,
      "final": 8064,
      "finir": 8065,
      "kespeare": 8066,
      "cates": 8067,
      "catalo": 8068,
      "correspon": 8069,
      "mayonnaise": 8070,
      "clut": 8071,
      "portent": 8072,
      "préc": 8073,
      "prévu": 8074,
      "préoccup": 8075,
      "prévois": 8076,
      "restes": 8077,
      "atiques": 8078,
      "hula": 8079,
      "humaine": 8080,
      "nuis": 8081,
      "null": 8082,
      "devin": 8083,
      "devait": 8084,
      "devraient": 8085,
      "brun": 8086,
      "brune": 8087,
      "soula": 8088,
      "souri": 8089,
      "souda": 8090,
      "sourire": 8091,
      "cule": 8092,
      "matins": 8093,
      "vouliez": 8094,
      "putation": 8095,
      "handball": 8096,
      "mérit": 8097,
      "mémoire": 8098,
      "mérite": 8099,
      "bordel": 8100,
      "boracasli": 8101,
      "cray": 8102,
      "crue": 8103,
      "jazz": 8104,
      "privé": 8105,
      "prises": 8106,
      "directeur": 8107,
      "trouvent": 8108,
      "trouvait": 8109,
      "calories": 8110,
      "irez": 8111,
      "rentissage": 8112,
      "couples": 8113,
      "coupable": 8114,
      "opti": 8115,
      "truc": 8116,
      "attent": 8117,
      "magnit": 8118,
      "enseig": 8119,
      "partis": 8120,
      "partici": 8121,
      "particu": 8122,
      "particul": 8123,
      "allergies": 8124,
      "aska": 8125,
      "supporter": 8126,
      "puissance": 8127,
      "puissiez": 8128,
      "prendra": 8129,
      "prendrai": 8130,
      "sombre": 8131,
      "promen": 8132,
      "Chine": 8133,
      "Chart": 8134,
      "genoux": 8135,
      "appell": 8136,
      "mêmes": 8137,
      "tropical": 8138,
      "heureuses": 8139,
      "Marty": 8140,
      "Martin": 8141,
      "Marseille": 8142,
      "drian": 8143,
      "cram": 8144,
      "malgré": 8145,
      "génie": 8146,
      "questionnaire": 8147,
      "deuxième": 8148,
      "Frances": 8149,
      "Fritz": 8150,
      "accidents": 8151,
      "boycot": 8152,
      "phosp": 8153,
      "drew": 8154,
      "jouent": 8155,
      "péné": 8156,
      "complet": 8157,
      "Inns": 8158,
      "euros": 8159,
      "europé": 8160,
      "uniqu": 8161,
      "nomène": 8162,
      "chanceuse": 8163,
      "volant": 8164,
      "correcte": 8165,
      "photosy": 8166,
      "photograp": 8167,
      "cymb": 8168,
      "tourner": 8169,
      "doué": 8170,
      "doute": 8171,
      "patio": 8172,
      "factures": 8173,
      "faisais": 8174,
      "paresse": 8175,
      "translu": 8176,
      "transfus": 8177,
      "fallait": 8178,
      "cuté": 8179,
      "captu": 8180,
      "célibat": 8181,
      "menu": 8182,
      "intercep": 8183,
      "interrom": 8184,
      "interaction": 8185,
      "intersection": 8186,
      "aimerait": 8187,
      "blesser": 8188,
      "coln": 8189,
      "colonies": 8190,
      "masoch": 8191,
      "francs": 8192,
      "franchement": 8193,
      "attendais": 8194,
      "étant": 8195,
      "examine": 8196,
      "faible": 8197,
      "risque": 8198,
      "risques": 8199,
      "scand": 8200,
      "sculpture": 8201,
      "contraire": 8202,
      "contrôle": 8203,
      "hono": 8204,
      "produits": 8205,
      "étude": 8206,
      "animation": 8207,
      "ilia": 8208,
      "ilip": 8209,
      "connaissais": 8210,
      "connaissance": 8211,
      "Park": 8212,
      "curry": 8213,
      "expert": 8214,
      "bara": 8215,
      "Anna": 8216,
      "Anki": 8217,
      "Ankara": 8218,
      "Anticip": 8219,
      "Andrew": 8220,
      "embourg": 8221,
      "salons": 8222,
      "culti": 8223,
      "culation": 8224,
      "soluble": 8225,
      "horreur": 8226,
      "thesda": 8227,
      "terminer": 8228,
      "objets": 8229,
      "étudiante": 8230,
      "confusion": 8231,
      "conférence": 8232,
      "seconde": 8233,
      "troisième": 8234,
      "identif": 8235,
      "kio": 8236,
      "tenté": 8237,
      "camion": 8238,
      "campus": 8239,
      "fautes": 8240,
      "explic": 8241,
      "Joe": 8242,
      "fectants": 8243,
      "travailles": 8244,
      "billet": 8245,
      "claustropho": 8246,
      "quitte": 8247,
      "intelligente": 8248,
      "films": 8249,
      "princi": 8250,
      "princesse": 8251,
      "Mongo": 8252,
      "Mondrian": 8253,
      "fluctu": 8254,
      "fluores": 8255,
      "système": 8256,
      "sacré": 8257,
      "actuar": 8258,
      "actual": 8259,
      "apprentissage": 8260,
      "climato": 8261,
      "clipse": 8262,
      "sprint": 8263,
      "seller": 8264,
      "adoles": 8265,
      "sauce": 8266,
      "sauver": 8267,
      "distances": 8268,
      "banque": 8269,
      "vitam": 8270,
      "logie": 8271,
      "logiques": 8272,
      "utilise": 8273,
      "utilisez": 8274,
      "signific": 8275,
      "trouveras": 8276,
      "Johnson": 8277,
      "idiom": 8278,
      "vacu": 8279,
      "passeport": 8280,
      "1920": 8281,
      "1912": 8282,
      "1914": 8283,
      "jette": 8284,
      "perdue": 8285,
      "bert": 8286,
      "rideau": 8287,
      "2030": 8288,
      "circonst": 8289,
      "cirrho": 8290,
      "circulation": 8291,
      "patriot": 8292,
      "superflu": 8293,
      "pièces": 8294,
      "casino": 8295,
      "échap": 8296,
      "Albi": 8297,
      "Alaska": 8298,
      "balcon": 8299,
      "radium": 8300,
      "fatal": 8301,
      "réponds": 8302,
      "communic": 8303,
      "Newton": 8304,
      "données": 8305,
      "rappelez": 8306,
      "terriblement": 8307,
      "Nobel": 8308,
      "aboie": 8309,
      "mauvaises": 8310,
      "professions": 8311,
      "naturel": 8312,
      "hydro": 8313,
      "tendin": 8314,
      "tendance": 8315,
      "veuilles": 8316,
      "contributeur": 8317,
      "médicam": 8318,
      "utilisé": 8319,
      "bracelet": 8320,
      "espèce": 8321,
      "préférerais": 8322,
      "bluff": 8323,
      "fascin": 8324,
      "chansons": 8325,
      "coûté": 8326,
      "violence": 8327,
      "instruments": 8328,
      "Jimi": 8329,
      "Jimmy": 8330,
      "Reichel": 8331,
      "Reagan": 8332,
      "exercice": 8333,
      "Deuts": 8334,
      "Debussy": 8335,
      "source": 8336,
      "sources": 8337,
      "contradiction": 8338,
      "concentrer": 8339,
      "contents": 8340,
      "collisions": 8341,
      "regrettable": 8342,
      "indication": 8343,
      "protection": 8344,
      "crédit": 8345,
      "dommage": 8346,
      "fatigu": 8347,
      "lentement": 8348,
      "semblait": 8349,
      "semblant": 8350,
      "Cola": 8351,
      "Coca": 8352,
      "Mira": 8353,
      "Miho": 8354,
      "Miyaz": 8355,
      "cousins": 8356,
      "pirate": 8357,
      "Warcraft": 8358,
      "chanteur": 8359,
      "chanteuse": 8360,
      "suggestions": 8361,
      "trombone": 8362,
      "sûrement": 8363,
      "Itali": 8364,
      "Julie": 8365,
      "Juba": 8366,
      "nicotine": 8367,
      "Secon": 8368,
      "frame": 8369,
      "robin": 8370,
      "Londres": 8371,
      "ratif": 8372,
      "inobu": 8373,
      "insult": 8374,
      "abilité": 8375,
      "guitare": 8376,
      "pizzeria": 8377,
      "2016": 8378,
      "philosophie": 8379,
      "torial": 8380,
      "texte": 8381,
      "traduction": 8382,
      "traductions": 8383,
      "chausset": 8384,
      "soucier": 8385,
      "Comm": 8386,
      "Commons": 8387,
      "Mozart": 8388,
      "Mohammed": 8389,
      "Noriko": 8390,
      "blondes": 8391,
      "général": 8392,
      "généralement": 8393,
      "invités": 8394,
      "invitées": 8395,
      "psycho": 8396,
      "habitué": 8397,
      "Cathy": 8398,
      "structure": 8399,
      "prudente": 8400,
      "description": 8401,
      "réalité": 8402,
      "assistance": 8403,
      "différents": 8404,
      "différences": 8405,
      "pickpocket": 8406,
      "challenger": 8407,
      "2001": 8408,
      "2003": 8409,
      "604": 8410,
      "Argent": 8411,
      "Tanigu": 8412,
      "bruit": 8413,
      "bruck": 8414,
      "influences": 8415,
      "conclusion": 8416,
      "fronti": 8417,
      "mignons": 8418,
      "empêché": 8419,
      "1970": 8420,
      "1972": 8421,
      "1974": 8422,
      "1980": 8423,
      "1981": 8424,
      "1985": 8425,
      "Jeanette": 8426,
      "Hooker": 8427,
      "Resnais": 8428,
      "Yukawa": 8429,
      "Yukio": 8430,
      "prennent": 8431,
      "melon": 8432,
      "promets": 8433,
      "sérieusement": 8434,
      "Franz": 8435,
      "François": 8436,
      "scientifiques": 8437,
      "Bethesda": 8438,
      "Here": 8439,
      "Salz": 8440,
      "naissance": 8441,
      "snob": 8442,
      "attendons": 8443,
      "augmenté": 8444,
      "parov": 8445,
      "excellence": 8446,
      "déclar": 8447,
      "industrial": 8448,
      "invitation": 8449,
      "Princess": 8450,
      "Promettez": 8451,
      "Sachs": 8452,
      "Sachiko": 8453,
      "fantômes": 8454,
      "oiseaux": 8455,
      "atteint": 8456,
      "atteindre": 8457,
      "style": 8458,
      "raconter": 8459,
      "comportement": 8460,
      "abord": 8461,
      "plaisante": 8462,
      "traverser": 8463,
      "couverture": 8464,
      "publique": 8465,
      "emprunter": 8466,
      "impliqué": 8467,
      "prononcer": 8468,
      "1860": 8469,
      "1888": 8470,
      "Akagawa": 8471,
      "Akagi": 8472,
      "Berlin": 8473,
      "Bernard": 8474,
      "Barack": 8475,
      "Barbara": 8476,
      "Henan": 8477,
      "Henry": 8478,
      "Harry": 8479,
      "Harbin": 8480,
      "JavaSCRI": 8481,
      "Kevin": 8482,
      "Keller": 8483,
      "Matoub": 8484,
      "Matsuy": 8485,
      "Shounan": 8486,
      "Shinobu": 8487,
      "Steve": 8488,
      "Stephen": 8489,
      "économie": 8490,
      "reconnaissante": 8491,
      "noyé": 8492,
      "document": 8493,
      "documents": 8494,
      "suspicion": 8495,
      "peinture": 8496,
      "abyle": 8497,
      "merveilleux": 8498,
      "couramment": 8499,
      "ponctuel": 8500,
      "brûlé": 8501,
      "musicien": 8502,
      "1789": 8503,
      "Atlant": 8504,
      "Creative": 8505,
      "Colbert": 8506,
      "Hitomi": 8507,
      "Hopkins": 8508,
      "Luther": 8509,
      "Myanmar": 8510,
      "Milan": 8511,
      "Tibet": 8512,
      "Wikile": 8513,
      "Wayne": 8514,
      "biscu": 8515,
      "cacher": 8516,
      "russe": 8517,
      "éclata": 8518,
      "possède": 8519,
      "chinois": 8520,
      "diagon": 8521,
      "designers": 8522,
      "légumes": 8523,
      "critique": 8524,
      "anksgiving": 8525,
      "capitaine": 8526,
      "brillante": 8527,
      "Portugal": 8528,
      "Sonia": 8529,
      "ajout": 8530,
      "billets": 8531,
      "ridicul": 8532,
      "fréquent": 8533,
      "protéger": 8534,
      "dessinées": 8535,
      "appelée": 8536,
      "profonde": 8537,
      "applications": 8538,
      "parfaitement": 8539,
      "Display": 8540,
      "Palais": 8541,
      "Patrici": 8542,
      "souten": 8543,
      "quinze": 8544,
      "suggère": 8545,
      "combustion": 8546,
      "cigarettes": 8547,
      "agressi": 8548,
      "surveillance": 8549,
      "caractère": 8550,
      "répand": 8551,
      "phénomène": 8552,
      "clarification": 8553,
      "gentillesse": 8554,
      "volontaire": 8555,
      "simulation": 8556,
      "brioche": 8557,
      "constituent": 8558,
      "véritable": 8559,
      "collaborative": 8560,
      "Américains": 8561,
      "ingénieurs": 8562,
      "incorrigible": 8563,
      "Avatar": 8564,
      "Alejandra": 8565,
      "Alain": 8566,
      "Alfred": 8567,
      "Akiko": 8568,
      "Allah": 8569,
      "Amnesty": 8570,
      "Apollo": 8571,
      "Adélaïde": 8572,
      "Breand": 8573,
      "Banque": 8574,
      "Butterbro": 8575,
      "Belfast": 8576,
      "Brésil": 8577,
      "Baskervilles": 8578,
      "Brasilia": 8579,
      "Bamako": 8580,
      "BRIC": 8581,
      "Carlton": 8582,
      "Califor": 8583,
      "Cartwright": 8584,
      "Cristina": 8585,
      "Dublin": 8586,
      "Dallas": 8587,
      "David": 8588,
      "Dardanus": 8589,
      "Emilia": 8590,
      "Fadil": 8591,
      "Facebook": 8592,
      "Gandrange": 8593,
      "Goldman": 8594,
      "Gaza": 8595,
      "Hummer": 8596,
      "Hanako": 8597,
      "Hitler": 8598,
      "Halloween": 8599,
      "Hendrix": 8600,
      "Istanbul": 8601,
      "Jouons": 8602,
      "Jenny": 8603,
      "Jordan": 8604,
      "Jupiter": 8605,
      "Kasparov": 8606,
      "Kakongo": 8607,
      "Kazakhstan": 8608,
      "LSD": 8609,
      "Léa": 8610,
      "Lincoln": 8611,
      "Lennon": 8612,
      "Luxembourg": 8613,
      "Lounes": 8614,
      "Michael": 8615,
      "Mishima": 8616,
      "Mandela": 8617,
      "Naomi": 8618,
      "Nelson": 8619,
      "Naples": 8620,
      "Nagasaki": 8621,
      "Nakagawa": 8622,
      "Neymar": 8623,
      "Oxford": 8624,
      "Obama": 8625,
      "Philip": 8626,
      "Picasso": 8627,
      "Pharamp": 8628,
      "Paderborn": 8629,
      "Robinson": 8630,
      "Rocío": 8631,
      "Sydne": 8632,
      "Shakespeare": 8633,
      "Sayoko": 8634,
      "Stampa": 8635,
      "Sabah": 8636,
      "Simpsons": 8637,
      "Scandinav": 8638,
      "Sarah": 8639,
      "Thanksgiving": 8640,
      "Taro": 8641,
      "TickDisplay": 8642,
      "Tufts": 8643,
      "Ukraine": 8644,
      "Uranus": 8645,
      "Ubuntu": 8646,
      "aéroport": 8647,
      "blessée": 8648,
      "baleine": 8649,
      "festival": 8650,
      "mouvement": 8651,
      "météoro": 8652,
      "oxy": 8653,
      "océan": 8654,
      "pachinko": 8655,
      "yachts": 8656,
      "époque": 8657,
      "égoï": 8658,
      "rempli": 8659,
      "inspection": 8660,
      "insolent": 8661,
      "inclusion": 8662,
      "infantile": 8663,
      "istration": 8664,
      "anthropo": 8665,
      "eschato": 8666,
      "hamburger": 8667,
      "stimul": 8668,
      "limousines": 8669,
      "alphanu": 8670,
      "verdict": 8671,
      "dictatorial": 8672,
      "anticip": 8673,
      "sulfu": 8674,
      "tubercu": 8675,
      "canapé": 8676,
      "administration": 8677,
      "acrony": 8678,
      "parachute": 8679,
      "thermostat": 8680,
      "cocktail": 8681,
      "applau": 8682,
      "appétit": 8683,
      "aphrodis": 8684,
      "marathon": 8685,
      "purification": 8686,
      "soudaine": 8687,
      "magnitude": 8688,
      "particular": 8689,
      "Chartres": 8690,
      "Francesco": 8691,
      "Innsbruck": 8692,
      "photosyn": 8693,
      "transfusions": 8694,
      "célibataire": 8695,
      "fluorescent": 8696,
      "Reichelt": 8697,
      "Deutschland": 8698,
      "Miyazaki": 8699,
      "Taniguchi": 8700,
      "JavaSCRIPT": 8701,
      "Matsuyama": 8702,
      "Wikileaks": 8703,
      "Patricia": 8704,
      "Butterbrot": 8705,
      "Sydney": 8706,
      "400": 8707,
      "5th": 8708,
      "500": 8709,
      "Af": 8710,
      "As": 8711,
      "Act": 8712,
      "Along": 8713,
      "Aaw": 8714,
      "Allow": 8715,
      "Ages": 8716,
      "Amuse": 8717,
      "Aug": 8718,
      "Aero": 8719,
      "Arab": 8720,
      "Agency": 8721,
      "AID": 8722,
      "Bat": 8723,
      "Bri": 8724,
      "Brow": 8725,
      "Big": 8726,
      "Bats": 8727,
      "Bew": 8728,
      "Bud": 8729,
      "Black": 8730,
      "Banks": 8731,
      "Ce": 8732,
      "Cy": 8733,
      "Cla": 8734,
      "Cro": 8735,
      "Care": 8736,
      "Cot": 8737,
      "Coun": 8738,
      "Crow": 8739,
      "City": 8740,
      "Cold": 8741,
      "Chur": 8742,
      "Cesse": 8743,
      "Cathe": 8744,
      "Center": 8745,
      "Cambo": 8746,
      "Dr": 8747,
      "Dent": 8748,
      "Day": 8749,
      "Dad": 8750,
      "Dise": 8751,
      "Dist": 8752,
      "Def": 8753,
      "Dude": 8754,
      "Dép": 8755,
      "Dég": 8756,
      "Data": 8757,
      "Diner": 8758,
      "Dying": 8759,
      "Ener": 8760,
      "FO": 8761,
      "Fa": 8762,
      "Fe": 8763,
      "Fo": 8764,
      "Flo": 8765,
      "Fam": 8766,
      "Fur": 8767,
      "Fry": 8768,
      "Flu": 8769,
      "First": 8770,
      "Father": 8771,
      "Fasc": 8772,
      "Ga": 8773,
      "Gar": 8774,
      "Gil": 8775,
      "Gam": 8776,
      "Gave": 8777,
      "Gree": 8778,
      "Gira": 8779,
      "Hack": 8780,
      "Hence": 8781,
      "How": 8782,
      "Hum": 8783,
      "Hero": 8784,
      "Irel": 8785,
      "Isla": 8786,
      "Iasi": 8787,
      "Jr": 8788,
      "Jud": 8789,
      "Jug": 8790,
      "Janu": 8791,
      "Kur": 8792,
      "Kore": 8793,
      "Kabyle": 8794,
      "Lo": 8795,
      "Lic": 8796,
      "Lavez": 8797,
      "Lets": 8798,
      "Me": 8799,
      "Mt": 8800,
      "Min": 8801,
      "Med": 8802,
      "Muse": 8803,
      "Marri": 8804,
      "Mid": 8805,
      "Mothers": 8806,
      "Miss": 8807,
      "Notre": 8808,
      "Now": 8809,
      "Native": 8810,
      "Oc": 8811,
      "Of": 8812,
      "Ow": 8813,
      "One": 8814,
      "Orien": 8815,
      "Ocean": 8816,
      "Opti": 8817,
      "Ouch": 8818,
      "PM": 8819,
      "Pen": 8820,
      "Pal": 8821,
      "Pri": 8822,
      "Pine": 8823,
      "Pol": 8824,
      "Peas": 8825,
      "Plan": 8826,
      "Pray": 8827,
      "Pension": 8828,
      "QL": 8829,
      "RD": 8830,
      "Ri": 8831,
      "Rus": 8832,
      "Rep": 8833,
      "Rear": 8834,
      "Right": 8835,
      "Raise": 8836,
      "SW": 8837,
      "So": 8838,
      "Squ": 8839,
      "Str": 8840,
      "Sep": 8841,
      "Swed": 8842,
      "Shar": 8843,
      "Ski": 8844,
      "Spir": 8845,
      "Select": 8846,
      "Snit": 8847,
      "Speci": 8848,
      "Santa": 8849,
      "Small": 8850,
      "SQL": 8851,
      "Tro": 8852,
      "There": 8853,
      "That": 8854,
      "Tao": 8855,
      "UK": 8856,
      "Unies": 8857,
      "UFO": 8858,
      "Vo": 8859,
      "Ver": 8860,
      "Vain": 8861,
      "Vowe": 8862,
      "We": 8863,
      "Wat": 8864,
      "Wed": 8865,
      "Wel": 8866,
      "Will": 8867,
      "Wow": 8868,
      "Wester": 8869,
      "What": 8870,
      "Wax": 8871,
      "Ze": 8872,
      "awe": 8873,
      "apar": 8874,
      "aard": 8875,
      "ails": 8876,
      "ahu": 8877,
      "await": 8878,
      "avers": 8879,
      "adow": 8880,
      "awaiting": 8881,
      "bû": 8882,
      "bing": 8883,
      "bent": 8884,
      "bait": 8885,
      "bree": 8886,
      "blast": 8887,
      "bough": 8888,
      "bbon": 8889,
      "bours": 8890,
      "bages": 8891,
      "bene": 8892,
      "bambo": 8893,
      "baking": 8894,
      "cout": 8895,
      "cod": 8896,
      "cally": 8897,
      "cence": 8898,
      "cused": 8899,
      "cass": 8900,
      "cket": 8901,
      "cakes": 8902,
      "ctron": 8903,
      "coffre": 8904,
      "dai": 8905,
      "dun": 8906,
      "dare": 8907,
      "dand": 8908,
      "dite": 8909,
      "dded": 8910,
      "dès": 8911,
      "dler": 8912,
      "dors": 8913,
      "dense": 8914,
      "dness": 8915,
      "dates": 8916,
      "dges": 8917,
      "ddies": 8918,
      "drained": 8919,
      "drug": 8920,
      "ddly": 8921,
      "eing": 8922,
      "eve": 8923,
      "ethere": 8924,
      "eble": 8925,
      "echo": 8926,
      "ease": 8927,
      "equi": 8928,
      "eff": 8929,
      "eva": 8930,
      "etern": 8931,
      "eared": 8932,
      "eût": 8933,
      "emotion": 8934,
      "eusement": 8935,
      "eclipse": 8936,
      "fom": 8937,
      "foun": 8938,
      "fuse": 8939,
      "fty": 8940,
      "frow": 8941,
      "fers": 8942,
      "french": 8943,
      "fits": 8944,
      "fences": 8945,
      "fasses": 8946,
      "frappe": 8947,
      "fury": 8948,
      "fling": 8949,
      "fanci": 8950,
      "ffron": 8951,
      "fâché": 8952,
      "gê": 8953,
      "gge": 8954,
      "gic": 8955,
      "gur": 8956,
      "gait": 8957,
      "gère": 8958,
      "glove": 8959,
      "gner": 8960,
      "gated": 8961,
      "gather": 8962,
      "gative": 8963,
      "gène": 8964,
      "gills": 8965,
      "hend": 8966,
      "hance": 8967,
      "hens": 8968,
      "hés": 8969,
      "hats": 8970,
      "ij": 8971,
      "io": 8972,
      "iz": 8973,
      "ime": 8974,
      "iac": 8975,
      "idu": 8976,
      "ielle": 8977,
      "ired": 8978,
      "ived": 8979,
      "ided": 8980,
      "iens": 8981,
      "ivre": 8982,
      "irait": 8983,
      "ials": 8984,
      "jer": 8985,
      "jar": 8986,
      "jans": 8987,
      "kan": 8988,
      "knot": 8989,
      "kic": 8990,
      "kwor": 8991,
      "kite": 8992,
      "kish": 8993,
      "ktal": 8994,
      "kers": 8995,
      "kens": 8996,
      "knit": 8997,
      "knapp": 8998,
      "lon": 8999,
      "lest": 9000,
      "lut": 9001,
      "lves": 9002,
      "lens": 9003,
      "lking": 9004,
      "lasse": 9005,
      "lences": 9006,
      "leng": 9007,
      "lash": 9008,
      "liness": 9009,
      "lusting": 9010,
      "mend": 9011,
      "mome": 9012,
      "mif": 9013,
      "mally": 9014,
      "mity": 9015,
      "mask": 9016,
      "mbed": 9017,
      "mming": 9018,
      "mical": 9019,
      "mured": 9020,
      "mmit": 9021,
      "nin": 9022,
      "nest": 9023,
      "nun": 9024,
      "nir": 9025,
      "nought": 9026,
      "naie": 9027,
      "naught": 9028,
      "nakes": 9029,
      "oy": 9030,
      "othe": 9031,
      "oat": 9032,
      "ove": 9033,
      "oli": 9034,
      "oke": 9035,
      "opar": 9036,
      "obo": 9037,
      "oted": 9038,
      "oven": 9039,
      "oves": 9040,
      "olive": 9041,
      "oze": 9042,
      "obes": 9043,
      "osen": 9044,
      "ophys": 9045,
      "orem": 9046,
      "ozi": 9047,
      "pad": 9048,
      "phere": 9049,
      "pink": 9050,
      "pity": 9051,
      "pcor": 9052,
      "plow": 9053,
      "pitted": 9054,
      "pèse": 9055,
      "pantal": 9056,
      "rink": 9057,
      "rust": 9058,
      "rily": 9059,
      "rating": 9060,
      "rates": 9061,
      "rash": 9062,
      "rhy": 9063,
      "rounded": 9064,
      "rushed": 9065,
      "ruler": 9066,
      "ske": 9067,
      "sai": 9068,
      "slo": 9069,
      "shave": 9070,
      "shap": 9071,
      "swat": 9072,
      "sence": 9073,
      "spon": 9074,
      "swell": 9075,
      "sass": 9076,
      "swan": 9077,
      "scold": 9078,
      "scra": 9079,
      "swar": 9080,
      "sword": 9081,
      "smatter": 9082,
      "smith": 9083,
      "swore": 9084,
      "ssus": 9085,
      "sounded": 9086,
      "sworn": 9087,
      "scrap": 9088,
      "swarming": 9089,
      "snapp": 9090,
      "splash": 9091,
      "squid": 9092,
      "sœurs": 9093,
      "snakes": 9094,
      "twe": 9095,
      "tand": 9096,
      "tone": 9097,
      "tink": 9098,
      "tten": 9099,
      "tally": 9100,
      "tough": 9101,
      "trench": 9102,
      "twin": 9103,
      "tante": 9104,
      "tank": 9105,
      "tched": 9106,
      "taill": 9107,
      "tition": 9108,
      "tissue": 9109,
      "twis": 9110,
      "tasty": 9111,
      "tares": 9112,
      "tastes": 9113,
      "uno": 9114,
      "uous": 9115,
      "umb": 9116,
      "ump": 9117,
      "uvre": 9118,
      "uages": 9119,
      "uries": 9120,
      "uffle": 9121,
      "vra": 9122,
      "vint": 9123,
      "vité": 9124,
      "vours": 9125,
      "vately": 9126,
      "vatives": 9127,
      "vâmes": 9128,
      "vicious": 9129,
      "wand": 9130,
      "wav": 9131,
      "wag": 9132,
      "wate": 9133,
      "wder": 9134,
      "wol": 9135,
      "wins": 9136,
      "wages": 9137,
      "willed": 9138,
      "wrap": 9139,
      "waff": 9140,
      "witted": 9141,
      "wounded": 9142,
      "waking": 9143,
      "xion": 9144,
      "yard": 9145,
      "yol": 9146,
      "yens": 9147,
      "zes": 9148,
      "zant": 9149,
      "zation": 9150,
      "zards": 9151,
      "zéro": 9152,
      "zombi": 9153,
      "án": 9154,
      "ètre": 9155,
      "én": 9156,
      "évi": 9157,
      "édu": 9158,
      "éton": 9159,
      "épic": 9160,
      "échange": 9161,
      "égard": 9162,
      "évolution": 9163,
      "érat": 9164,
      "élève": 9165,
      "éprouve": 9166,
      "ême": 9167,
      "ïne": 9168,
      "ône": 9169,
      "œuvre": 9170,
      "thm": 9171,
      "ths": 9172,
      "thin": 9173,
      "thest": 9174,
      "thouse": 9175,
      "thless": 9176,
      "threads": 9177,
      "thèse": 9178,
      "oute": 9179,
      "outed": 9180,
      "ouilles": 9181,
      "reç": 9182,
      "rees": 9183,
      "reno": 9184,
      "reha": 9185,
      "reje": 9186,
      "rever": 9187,
      "redi": 9188,
      "renow": 9189,
      "recon": 9190,
      "reap": 9191,
      "rebo": 9192,
      "reup": 9193,
      "repor": 9194,
      "renew": 9195,
      "reins": 9196,
      "recor": 9197,
      "retur": 9198,
      "repay": 9199,
      "reques": 9200,
      "recess": 9201,
      "rewar": 9202,
      "reprendre": 9203,
      "recalled": 9204,
      "releg": 9205,
      "reject": 9206,
      "retrouvé": 9207,
      "reconsider": 9208,
      "remove": 9209,
      "reconsidered": 9210,
      "repasser": 9211,
      "remise": 9212,
      "revenue": 9213,
      "research": 9214,
      "relied": 9215,
      "recreate": 9216,
      "reviendra": 9217,
      "reference": 9218,
      "rematch": 9219,
      "rebel": 9220,
      "resembles": 9221,
      "redecor": 9222,
      "reminded": 9223,
      "rediscover": 9224,
      "reshed": 9225,
      "redesig": 9226,
      "reviews": 9227,
      "reputation": 9228,
      "pole": 9229,
      "pots": 9230,
      "poni": 9231,
      "pomp": 9232,
      "poig": 9233,
      "poop": 9234,
      "potent": 9235,
      "poète": 9236,
      "powered": 9237,
      "poorer": 9238,
      "powers": 9239,
      "popcor": 9240,
      "powder": 9241,
      "posé": 9242,
      "poses": 9243,
      "possi": 9244,
      "inha": 9245,
      "inver": 9246,
      "intime": 9247,
      "inach": 9248,
      "innu": 9249,
      "inction": 9250,
      "indoor": 9251,
      "inconn": 9252,
      "insuff": 9253,
      "inmate": 9254,
      "inching": 9255,
      "infinite": 9256,
      "indefinite": 9257,
      "intimid": 9258,
      "invented": 9259,
      "incen": 9260,
      "inadmis": 9261,
      "insuffer": 9262,
      "inherit": 9263,
      "incalcula": 9264,
      "inquis": 9265,
      "infectants": 9266,
      "isa": 9267,
      "isse": 9268,
      "isés": 9269,
      "issant": 9270,
      "anç": 9271,
      "anne": 9272,
      "anno": 9273,
      "aned": 9274,
      "ancho": 9275,
      "annel": 9276,
      "annoy": 9277,
      "onz": 9278,
      "onous": 9279,
      "onnes": 9280,
      "eras": 9281,
      "erion": 9282,
      "erup": 9283,
      "eration": 9284,
      "erase": 9285,
      "erie": 9286,
      "erable": 9287,
      "erious": 9288,
      "errat": 9289,
      "ervatives": 9290,
      "ench": 9291,
      "enest": 9292,
      "enra": 9293,
      "enva": 9294,
      "enable": 9295,
      "ensed": 9296,
      "ensure": 9297,
      "envers": 9298,
      "enreg": 9299,
      "enlève": 9300,
      "enhance": 9301,
      "enmity": 9302,
      "esus": 9303,
      "thed": 9304,
      "theid": 9305,
      "thetic": 9306,
      "theart": 9307,
      "theTro": 9308,
      "theorem": 9309,
      "tore": 9310,
      "toed": 9311,
      "toise": 9312,
      "topp": 9313,
      "topic": 9314,
      "tories": 9315,
      "tober": 9316,
      "toric": 9317,
      "tomato": 9318,
      "tokens": 9319,
      "totally": 9320,
      "youth": 9321,
      "até": 9322,
      "atis": 9323,
      "atif": 9324,
      "attic": 9325,
      "attended": 9326,
      "attained": 9327,
      "ley": 9328,
      "lete": 9329,
      "ledi": 9330,
      "lectu": 9331,
      "lehill": 9332,
      "lemonade": 9333,
      "leaned": 9334,
      "asp": 9335,
      "assi": 9336,
      "astre": 9337,
      "asures": 9338,
      "asiment": 9339,
      "astrous": 9340,
      "itis": 9341,
      "itan": 9342,
      "iting": 9343,
      "itif": 9344,
      "itation": 9345,
      "itches": 9346,
      "ittee": 9347,
      "itulate": 9348,
      "oming": 9349,
      "omitted": 9350,
      "heli": 9351,
      "hemis": 9352,
      "hecti": 9353,
      "hecy": 9354,
      "arai": 9355,
      "army": 9356,
      "arose": 9357,
      "armed": 9358,
      "arched": 9359,
      "arthed": 9360,
      "ingness": 9361,
      "ingredi": 9362,
      "veled": 9363,
      "veller": 9364,
      "verely": 9365,
      "verers": 9366,
      "orte": 9367,
      "orus": 9368,
      "orph": 9369,
      "orbit": 9370,
      "ordeal": 9371,
      "orns": 9372,
      "lls": 9373,
      "llas": 9374,
      "llut": 9375,
      "llers": 9376,
      "llably": 9377,
      "lliant": 9378,
      "dedi": 9379,
      "deed": 9380,
      "demo": 9381,
      "dement": 9382,
      "delu": 9383,
      "demon": 9384,
      "dedans": 9385,
      "debit": 9386,
      "deler": 9387,
      "defect": 9388,
      "defied": 9389,
      "define": 9390,
      "degener": 9391,
      "depression": 9392,
      "depressed": 9393,
      "devenue": 9394,
      "delin": 9395,
      "determine": 9396,
      "defence": 9397,
      "derestim": 9398,
      "delicate": 9399,
      "deplorable": 9400,
      "delete": 9401,
      "qua": 9402,
      "quir": 9403,
      "quarti": 9404,
      "quasiment": 9405,
      "mec": 9406,
[...]
