{
  "version": "1.0",
  "truncation": null,
  "padding": null,
  "added_tokens": [
    {
      "id": 0,
      "content": "<s>",
      "single_word": false,
      "lstrip": false,
      "rstrip": false,
      "normalized": false,
      "special": true
    },
    {
      "id": 1,
      "content": "<pad>",
      "single_word": false,
      "lstrip": false,
      "rstrip": false,
      "normalized": false,
      "special": true
    },
    {
      "id": 2,
      "content": "</s>",
      "single_word": false,
      "lstrip": false,
      "rstrip": false,
      "normalized": false,
      "special": true
    },
    {
      "id": 3,
      "content": "<unk>",
      "single_word": false,
      "lstrip": false,
      "rstrip": false,
      "normalized": false,
      "special": true
    }
  ],
  "normalizer": null,
  "pre_tokenizer": {
    "type": "Whitespace"
  },
  "post_processor": null,
  "decoder": null,
  "model": {
    "type": "BPE",
    "dropout": null,
    "unk_token": "<unk>",
    "continuing_subword_prefix": null,
    "end_of_word_suffix": null,
    "fuse_unk": false,
    "byte_fallback": false,
    "ignore_merges": false,
    "vocab": {
      "<s>": 0,
      "<pad>": 1,
      "</s>": 2,
      "<unk>": 3,
      "!": 4,
      "$": 5,
      "&": 6,
      "(": 7,
      ")": 8,
      ",": 9,
      "-": 10,
      ".": 11,
      "/": 12,
      "0": 13,
      "1": 14,
      "2": 15,
      "3": 16,
      "4": 17,
      "5": 18,
      "6": 19,
      "7": 20,
      "8": 21,
      "9": 22,
      ":": 23,
      ";": 24,
      "?": 25,
      "@": 26,
      "A": 27,
      "B": 28,
      "C": 29,
      "D": 30,
      "E": 31,
      "F": 32,
      "G": 33,
      "H": 34,
      "I": 35,
      "J": 36,
      "K": 37,
      "L": 38,
      "M": 39,
      "N": 40,
      "O": 41,
      "P": 42,
      "Q": 43,
      "R": 44,
      "S": 45,
      "T": 46,
      "U": 47,
      "V": 48,
      "W": 49,
      "X": 50,
      "Y": 51,
      "Z": 52,
      "a": 53,
      "b": 54,
      "c": 55,
      "d": 56,
      "e": 57,
      "f": 58,
      "g": 59,
      "h": 60,
      "i": 61,
      "j": 62,
      "k": 63,
      "l": 64,
      "m": 65,
      "n": 66,
      "o": 67,
      "p": 68,
      "q": 69,
      "r": 70,
      "s": 71,
      "t": 72,
      "u": 73,
      "v": 74,
      "w": 75,
      "x": 76,
      "y": 77,
      "z": 78,
      "©": 79,
      "À": 80,
      "Â": 81,
      "Ã": 82,
      "É": 83,
      "Ô": 84,
      "à": 85,
      "á": 86,
      "â": 87,
      "ç": 88,
      "è": 89,
      "é": 90,
      "ê": 91,
      "ë": 92,
      "í": 93,
      "î": 94,
      "ï": 95,
      "ô": 96,
      "ù": 97,
      "û": 98,
      "œ": 99,
      "​": 100,
      "‽": 101,
      "⊂": 102,
      "po": 103,
      "ou": 104,
      "re": 105,
      "pos": 106,
      "apos": 107,
      "es": 108,
      "he": 109,
      "on": 110,
      "is": 111,
      "en": 112,
      "in": 113,
      "an": 114,
      "le": 115,
      "er": 116,
      "it": 117,
      "qu": 118,
      "as": 119,
      "de": 120,
      "om": 121,
      "at": 122,
      "the": 123,
      "ar": 124,
      "il": 125,
      "to": 126,
      "ne": 127,
      "you": 128,
      "ve": 129,
      "th": 130,
      "la": 131,
      "te": 132,
      "je": 133,
      "me": 134,
      "se": 135,
      "ent": 136,
      "ce": 137,
      "or": 138,
      "ous": 139,
      "ai": 140,
      "est": 141,
      "que": 142,
      "al": 143,
      "ing": 144,
      "ur": 145,
      "-@": 146,
      "@-@": 147,
      "pas": 148,
      "ch": 149,
      "au": 150,
      "un": 151,
      "tr": 152,
      "ot": 153,
      "Tom": 154,
      "ais": 155,
      "us": 156,
      "li": 157,
      "tu": 158,
      "be": 159,
      "pr": 160,
      "vous": 161,
      "do": 162,
      "ave": 163,
      "pe": 164,
      "les": 165,
      "ir": 166,
      "of": 167,
      "ait": 168,
      "ant": 169,
      "di": 170,
      "ri": 171,
      "we": 172,
      "ver": 173,
      "ion": 174,
      "ow": 175,
      "av": 176,
      "am": 177,
      "and": 178,
      "el": 179,
      "et": 180,
      "com": 181,
      "su": 182,
      "wh": 183,
      "ay": 184,
      "ed": 185,
      "out": 186,
      "ment": 187,
      "res": 188,
      "par": 189,
      "that": 190,
      "are": 191,
      "ac": 192,
      "ag": 193,
      "for": 194,
      "mo": 195,
      "une": 196,
      "our": 197,
      "im": 198,
      "ét": 199,
      "ux": 200,
      "con": 201,
      "ap": 202,
      "ut": 203,
      "all": 204,
      "ad": 205,
      "ie": 206,
      "ain": 207,
      "ke": 208,
      "ic": 209,
      "don": 210,
      "st": 211,
      "son": 212,
      "ld": 213,
      "pour": 214,
      "lo": 215,
      "ter": 216,
      "ab": 217,
      "nous": 218,
      "si": 219,
      "ren": 220,
      "was": 221,
      "dé": 222,
      "ans": 223,
      "have": 224,
      "so": 225,
      "tre": 226,
      "this": 227,
      "go": 228,
      "du": 229,
      "gh": 230,
      "ro": 231,
      "my": 232,
      "not": 233,
      "pl": 234,
      "her": 235,
      "elle": 236,
      "mon": 237,
      "ll": 238,
      "vo": 239,
      "des": 240,
      "ang": 241,
      "pen": 242,
      "she": 243,
      "co": 244,
      "can": 245,
      "your": 246,
      "ien": 247,
      "what": 248,
      "now": 249,
      "no": 250,
      "ons": 251,
      "ti": 252,
      "cou": 253,
      "ma": 254,
      "suis": 255,
      "fe": 256,
      "aire": 257,
      "ght": 258,
      "ère": 259,
      "one": 260,
      "dans": 261,
      "ple": 262,
      "ith": 263,
      "quot": 264,
      "fr": 265,
      "ly": 266,
      "per": 267,
      "ée": 268,
      "ill": 269,
      "pro": 270,
      "qui": 271,
      "with": 272,
      "did": 273,
      "very": 274,
      "lu": 275,
      "ci": 276,
      "ex": 277,
      "ten": 278,
      "ille": 279,
      "his": 280,
      "ok": 281,
      "ure": 282,
      "bo": 283,
      "quel": 284,
      "che": 285,
      "man": 286,
      "sh": 287,
      "want": 288,
      "der": 289,
      "ta": 290,
      "know": 291,
      "thing": 292,
      "som": 293,
      "tes": 294,
      "ré": 295,
      "here": 296,
      "ation": 297,
      "tout": 298,
      "mes": 299,
      "ça": 300,
      "plus": 301,
      "fait": 302,
      "ul": 303,
      "cho": 304,
      "sur": 305,
      "por": 306,
      "mp": 307,
      "ser": 308,
      "like": 309,
      "Mar": 310,
      "faire": 311,
      "sa": 312,
      "ven": 313,
      "ould": 314,
      "ink": 315,
      "moi": 316,
      "wor": 317,
      "they": 318,
      "pla": 319,
      "there": 320,
      "té": 321,
      "ard": 322,
      "ès": 323,
      "ble": 324,
      "était": 325,
      "fo": 326,
      "him": 327,
      "jour": 328,
      "ni": 329,
      "dis": 330,
      "dre": 331,
      "ils": 332,
      "age": 333,
      "avec": 334,
      "ust": 335,
      "ler": 336,
      "day": 337,
      "ig": 338,
      "ate": 339,
      "if": 340,
      "vi": 341,
      "get": 342,
      "ct": 343,
      "any": 344,
      "vr": 345,
      "ite": 346,
      "être": 347,
      "up": 348,
      "ine": 349,
      "has": 350,
      "od": 351,
      "how": 352,
      "sé": 353,
      "ance": 354,
      "ted": 355,
      "think": 356,
      "ses": 357,
      "ont": 358,
      "arri": 359,
      "end": 360,
      "ire": 361,
      "use": 362,
      "mais": 363,
      "veux": 364,
      "gr": 365,
      "cet": 366,
      "sont": 367,
      "ts": 368,
      "oi": 369,
      "temp": 370,
      "ici": 371,
      "main": 372,
      "ge": 373,
      "mer": 374,
      "pu": 375,
      "ther": 376,
      "let": 377,
      "Mary": 378,
      "ces": 379,
      "op": 380,
      "ong": 381,
      "lui": 382,
      "some": 383,
      "temps": 384,
      "quoi": 385,
      "dit": 386,
      "time": 387,
      "cr": 388,
      "ue": 389,
      "pré": 390,
      "bien": 391,
      "able": 392,
      "ind": 393,
      "lé": 394,
      "who": 395,
      "ff": 396,
      "hom": 397,
      "part": 398,
      "lais": 399,
      "way": 400,
      "will": 401,
      "had": 402,
      "mar": 403,
      "pren": 404,
      "vé": 405,
      "but": 406,
      "pre": 407,
      "ph": 408,
      "avez": 409,
      "été": 410,
      "ak": 411,
      "sais": 412,
      "très": 413,
      "ck": 414,
      "tou": 415,
      "dr": 416,
      "were": 417,
      "ez": 418,
      "lle": 419,
      "vou": 420,
      "êtes": 421,
      "cette": 422,
      "bre": 423,
      "sou": 424,
      "every": 425,
      "about": 426,
      "aut": 427,
      "ner": 428,
      "from": 429,
      "see": 430,
      "gar": 431,
      "mis": 432,
      "mi": 433,
      "read": 434,
      "ry": 435,
      "beau": 436,
      "car": 437,
      "would": 438,
      "las": 439,
      "otre": 440,
      "sor": 441,
      "pi": 442,
      "votre": 443,
      "mé": 444,
      "whe": 445,
      "ité": 446,
      "trou": 447,
      "ions": 448,
      "ally": 449,
      "dent": 450,
      "vie": 451,
      "voir": 452,
      "vrai": 453,
      "ase": 454,
      "pris": 455,
      "by": 456,
      "jam": 457,
      "work": 458,
      "ive": 459,
      "does": 460,
      "didn": 461,
      "tal": 462,
      "where": 463,
      "ava": 464,
      "more": 465,
      "look": 466,
      "bon": 467,
      "sent": 468,
      "ami": 469,
      "just": 470,
      "coup": 471,
      "br": 472,
      "où": 473,
      "toi": 474,
      "come": 475,
      "why": 476,
      "pense": 477,
      "oir": 478,
      "ess": 479,
      "tell": 480,
      "trava": 481,
      "good": 482,
      "ds": 483,
      "ton": 484,
      "need": 485,
      "comment": 486,
      "when": 487,
      "pou": 488,
      "pourquoi": 489,
      "nu": 490,
      "ish": 491,
      "person": 492,
      "hu": 493,
      "hap": 494,
      "ame": 495,
      "min": 496,
      "né": 497,
      "ob": 498,
      "ol": 499,
      "pon": 500,
      "ins": 501,
      "peux": 502,
      "dire": 503,
      "avoir": 504,
      "port": 505,
      "vis": 506,
      "lie": 507,
      "going": 508,
      "jamais": 509,
      "should": 510,
      "hel": 511,
      "ear": 512,
      "gu": 513,
      "than": 514,
      "lf": 515,
      "long": 516,
      "mat": 517,
      "aux": 518,
      "could": 519,
      "mb": 520,
      "chose": 521,
      "ep": 522,
      "fin": 523,
      "spe": 524,
      "ors": 525,
      "lit": 526,
      "liv": 527,
      "dy": 528,
      "mu": 529,
      "cor": 530,
      "fi": 531,
      "mor": 532,
      "oun": 533,
      "puis": 534,
      "cour": 535,
      "gent": 536,
      "hi": 537,
      "sto": 538,
      "cer": 539,
      "air": 540,
      "comme": 541,
      "cro": 542,
      "tous": 543,
      "ret": 544,
      "too": 545,
      "new": 546,
      "never": 547,
      "appe": 548,
      "cela": 549,
      "avons": 550,
      "help": 551,
      "stu": 552,
      "vent": 553,
      "been": 554,
      "avait": 555,
      "pare": 556,
      "vais": 557,
      "red": 558,
      "af": 559,
      "aime": 560,
      "rien": 561,
      "pres": 562,
      "va": 563,
      "peut": 564,
      "bu": 565,
      "bes": 566,
      "ey": 567,
      "dev": 568,
      "aid": 569,
      "anger": 570,
      "fu": 571,
      "gen": 572,
      "ho": 573,
      "ack": 574,
      "take": 575,
      "jours": 576,
      "beaucoup": 577,
      "talk": 578,
      "much": 579,
      "fer": 580,
      "oin": 581,
      "right": 582,
      "vraiment": 583,
      "got": 584,
      "ouve": 585,
      "please": 586,
      "mê": 587,
      "trop": 588,
      "cher": 589,
      "heure": 590,
      "peu": 591,
      "ants": 592,
      "rent": 593,
      "ête": 594,
      "only": 595,
      "self": 596,
      "avais": 597,
      "pay": 598,
      "train": 599,
      "diff": 600,
      "bl": 601,
      "lot": 602,
      "really": 603,
      "pet": 604,
      "ise": 605,
      "quest": 606,
      "aus": 607,
      "ange": 608,
      "Sami": 609,
      "try": 610,
      "prendre": 611,
      "ng": 612,
      "ques": 613,
      "ded": 614,
      "quelque": 615,
      "porte": 616,
      "même": 617,
      "ought": 618,
      "lez": 619,
      "leur": 620,
      "avant": 621,
      "comp": 622,
      "cu": 623,
      "int": 624,
      "iture": 625,
      "conn": 626,
      "love": 627,
      "cau": 628,
      "fri": 629,
      "ide": 630,
      "men": 631,
      "oc": 632,
      "itu": 633,
      "ather": 634,
      "vers": 635,
      "elles": 636,
      "ache": 637,
      "jus": 638,
      "other": 639,
      "quand": 640,
      "deux": 641,
      "tri": 642,
      "book": 643,
      "mand": 644,
      "wat": 645,
      "aller": 646,
      "speak": 647,
      "ante": 648,
      "parler": 649,
      "core": 650,
      "bus": 651,
      "ile": 652,
      "nouve": 653,
      "ty": 654,
      "tom": 655,
      "wr": 656,
      "ree": 657,
      "asse": 658,
      "met": 659,
      "monde": 660,
      "arrive": 661,
      "personne": 662,
      "encore": 663,
      "ild": 664,
      "tru": 665,
      "fois": 666,
      "vien": 667,
      "ers": 668,
      "ask": 669,
      "ick": 670,
      "besoin": 671,
      "rais": 672,
      "enf": 673,
      "ity": 674,
      "art": 675,
      "là": 676,
      "lang": 677,
      "say": 678,
      "cle": 679,
      "jou": 680,
      "mal": 681,
      "won": 682,
      "és": 683,
      "ction": 684,
      "grand": 685,
      "ound": 686,
      "ale": 687,
      "ique": 688,
      "vu": 689,
      "ist": 690,
      "sommes": 691,
      "play": 692,
      "ach": 693,
      "père": 694,
      "ese": 695,
      "étais": 696,
      "must": 697,
      "sen": 698,
      "off": 699,
      "homme": 700,
      "ready": 701,
      "fam": 702,
      "tle": 703,
      "ule": 704,
      "tor": 705,
      "body": 706,
      "last": 707,
      "eat": 708,
      "nom": 709,
      "wo": 710,
      "bet": 711,
      "act": 712,
      "feel": 713,
      "toujours": 714,
      "friend": 715,
      "bi": 716,
      "mble": 717,
      "sp": 718,
      "lait": 719,
      "under": 720,
      "make": 721,
      "fore": 722,
      "arr": 723,
      "something": 724,
      "cent": 725,
      "hab": 726,
      "ves": 727,
      "aient": 728,
      "près": 729,
      "home": 730,
      "travail": 731,
      "cat": 732,
      "argent": 733,
      "dois": 734,
      "quelle": 735,
      "chez": 736,
      "tent": 737,
      "tain": 738,
      "ît": 739,
      "venir": 740,
      "aur": 741,
      "ful": 742,
      "ning": 743,
      "went": 744,
      "ough": 745,
      "dow": 746,
      "maison": 747,
      "aussi": 748,
      "bli": 749,
      "give": 750,
      "autre": 751,
      "tro": 752,
      "live": 753,
      "plan": 754,
      "money": 755,
      "Marie": 756,
      "doesn": 757,
      "ople": 758,
      "sed": 759,
      "child": 760,
      "belie": 761,
      "people": 762,
      "back": 763,
      "fais": 764,
      "gé": 765,
      "old": 766,
      "inte": 767,
      "semble": 768,
      "ture": 769,
      "soit": 770,
      "voy": 771,
      "ich": 772,
      "kes": 773,
      "vre": 774,
      "vez": 775,
      "seule": 776,
      "again": 777,
      "ieux": 778,
      "eu": 779,
      "may": 780,
      "ting": 781,
      "year": 782,
      "its": 783,
      "them": 784,
      "sure": 785,
      "contr": 786,
      "iez": 787,
      "room": 788,
      "voiture": 789,
      "pend": 790,
      "née": 791,
      "pé": 792,
      "put": 793,
      "row": 794,
      "illes": 795,
      "notre": 796,
      "sing": 797,
      "scho": 798,
      "ures": 799,
      "ôt": 800,
      "atten": 801,
      "night": 802,
      "mber": 803,
      "entre": 804,
      "aimer": 805,
      "urs": 806,
      "sup": 807,
      "tenant": 808,
      "anything": 809,
      "happen": 810,
      "paren": 811,
      "ace": 812,
      "cre": 813,
      "clo": 814,
      "find": 815,
      "pat": 816,
      "said": 817,
      "éc": 818,
      "told": 819,
      "ned": 820,
      "prom": 821,
      "maintenant": 822,
      "cause": 823,
      "cé": 824,
      "py": 825,
      "sans": 826,
      "fran": 827,
      "little": 828,
      "bor": 829,
      "jà": 830,
      "ms": 831,
      "sle": 832,
      "ouse": 833,
      "leave": 834,
      "today": 835,
      "stand": 836,
      "still": 837,
      "déjà": 838,
      "school": 839,
      "cal": 840,
      "gre": 841,
      "gir": 842,
      "pt": 843,
      "ast": 844,
      "devr": 845,
      "pri": 846,
      "wee": 847,
      "well": 848,
      "many": 849,
      "occ": 850,
      "care": 851,
      "lis": 852,
      "two": 853,
      "demand": 854,
      "aujour": 855,
      "before": 856,
      "sible": 857,
      "used": 858,
      "hui": 859,
      "believe": 860,
      "aujourd": 861,
      "faut": 862,
      "gi": 863,
      "ra": 864,
      "ys": 865,
      "dog": 866,
      "ways": 867,
      "fut": 868,
      "house": 869,
      "hed": 870,
      "thought": 871,
      "seul": 872,
      "always": 873,
      "eux": 874,
      "fir": 875,
      "fac": 876,
      "father": 877,
      "hard": 878,
      "king": 879,
      "vit": 880,
      "étu": 881,
      "combien": 882,
      "sol": 883,
      "everything": 884,
      "connais": 885,
      "non": 886,
      "ème": 887,
      "regar": 888,
      "meet": 889,
      "col": 890,
      "place": 891,
      "plaît": 892,
      "petit": 893,
      "langu": 894,
      "parents": 895,
      "week": 896,
      "hav": 897,
      "lors": 898,
      "pain": 899,
      "heures": 900,
      "chien": 901,
      "rench": 902,
      "made": 903,
      "télé": 904,
      "sort": 905,
      "after": 906,
      "Eng": 907,
      "dor": 908,
      "dét": 909,
      "hand": 910,
      "over": 911,
      "tur": 912,
      "life": 913,
      "nothing": 914,
      "derni": 915,
      "toutes": 916,
      "happy": 917,
      "Engl": 918,
      "French": 919,
      "came": 920,
      "ef": 921,
      "eas": 922,
      "mag": 923,
      "sim": 924,
      "wan": 925,
      "êt": 926,
      "erre": 927,
      "ily": 928,
      "auc": 929,
      "most": 930,
      "ations": 931,
      "enfants": 932,
      "Ch": 933,
      "mus": 934,
      "wait": 935,
      "ze": 936,
      "çais": 937,
      "éco": 938,
      "into": 939,
      "inté": 940,
      "tement": 941,
      "aide": 942,
      "vol": 943,
      "fem": 944,
      "essay": 945,
      "stop": 946,
      "école": 947,
      "cin": 948,
      "id": 949,
      "oto": 950,
      "sait": 951,
      "sion": 952,
      "ées": 953,
      "isn": 954,
      "led": 955,
      "ars": 956,
      "took": 957,
      "aider": 958,
      "prof": 959,
      "keep": 960,
      "coun": 961,
      "cess": 962,
      "travaille": 963,
      "livre": 964,
      "question": 965,
      "aimerais": 966,
      "bro": 967,
      "late": 968,
      "çon": 969,
      "lear": 970,
      "ats": 971,
      "passé": 972,
      "tra": 973,
      "commen": 974,
      "which": 975,
      "probl": 976,
      "toute": 977,
      "sleep": 978,
      "étudi": 979,
      "wanted": 980,
      "après": 981,
      "even": 982,
      "ru": 983,
      "rou": 984,
      "demain": 985,
      "ary": 986,
      "alone": 987,
      "riez": 988,
      "ages": 989,
      "bonne": 990,
      "hier": 991,
      "français": 992,
      "first": 993,
      "away": 994,
      "bé": 995,
      "fille": 996,
      "hur": 997,
      "jo": 998,
      "job": 999,
      "nes": 1000,
      "win": 1001,
      "these": 1002,
      "ager": 1003,
      "soir": 1004,
      "certain": 1005,
      "buy": 1006,
      "better": 1007,
      "trois": 1008,
      "English": 1009,
      "Fr": 1010,
      "ever": 1011,
      "emp": 1012,
      "ier": 1013,
      "idé": 1014,
      "mil": 1015,
      "sû": 1016,
      "ence": 1017,
      "their": 1018,
      "orrow": 1019,
      "already": 1020,
      "cha": 1021,
      "ments": 1022,
      "fort": 1023,
      "anglais": 1024,
      "cident": 1025,
      "premi": 1026,
      "phone": 1027,
      "juste": 1028,
      "tomorrow": 1029,
      "down": 1030,
      "simple": 1031,
      "dou": 1032,
      "din": 1033,
      "mot": 1034,
      "mind": 1035,
      "ost": 1036,
      "ated": 1037,
      "stay": 1038,
      "ros": 1039,
      "venu": 1040,
      "viens": 1041,
      "ient": 1042,
      "mom": 1043,
      "mieux": 1044,
      "rain": 1045,
      "str": 1046,
      "rer": 1047,
      "possible": 1048,
      "enough": 1049,
      "ass": 1050,
      "three": 1051,
      "ché": 1052,
      "chance": 1053,
      "because": 1054,
      "ress": 1055,
      "acher": 1056,
      "import": 1057,
      "contre": 1058,
      "without": 1059,
      "photo": 1060,
      "great": 1061,
      "girl": 1062,
      "az": 1063,
      "em": 1064,
      "ger": 1065,
      "lar": 1066,
      "lef": 1067,
      "teur": 1068,
      "enten": 1069,
      "accident": 1070,
      "done": 1071,
      "pouvez": 1072,
      "nuit": 1073,
      "watch": 1074,
      "assez": 1075,
      "occup": 1076,
      "best": 1077,
      "dro": 1078,
      "sw": 1079,
      "tim": 1080,
      "point": 1081,
      "peur": 1082,
      "parle": 1083,
      "pouv": 1084,
      "understand": 1085,
      "apon": 1086,
      "bou": 1087,
      "call": 1088,
      "dû": 1089,
      "fel": 1090,
      "low": 1091,
      "xt": 1092,
      "ath": 1093,
      "tez": 1094,
      "char": 1095,
      "ped": 1096,
      "donne": 1097,
      "gens": 1098,
      "left": 1099,
      "In": 1100,
      "clas": 1101,
      "name": 1102,
      "ose": 1103,
      "sc": 1104,
      "ince": 1105,
      "teacher": 1106,
      "seen": 1107,
      "semain": 1108,
      "cham": 1109,
      "door": 1110,
      "moins": 1111,
      "icul": 1112,
      "partir": 1113,
      "questions": 1114,
      "asked": 1115,
      "children": 1116,
      "facile": 1117,
      "femme": 1118,
      "Bost": 1119,
      "ca": 1120,
      "cap": 1121,
      "œur": 1122,
      "poli": 1123,
      "reg": 1124,
      "pose": 1125,
      "ense": 1126,
      "jet": 1127,
      "side": 1128,
      "things": 1129,
      "choses": 1130,
      "laisse": 1131,
      "drink": 1132,
      "sorry": 1133,
      "crois": 1134,
      "idée": 1135,
      "Boston": 1136,
      "..": 1137,
      "bles": 1138,
      "fé": 1139,
      "kind": 1140,
      "mère": 1141,
      "nor": 1142,
      "open": 1143,
      "tour": 1144,
      "ég": 1145,
      "depuis": 1146,
      "ato": 1147,
      "veut": 1148,
      "ali": 1149,
      "being": 1150,
      "ience": 1151,
      "quelqu": 1152,
      "crit": 1153,
      "dra": 1154,
      "trouve": 1155,
      "idea": 1156,
      "water": 1157,
      "nouveau": 1158,
      "Jap": 1159,
      "ball": 1160,
      "bad": 1161,
      "cur": 1162,
      "cut": 1163,
      "mine": 1164,
      "manger": 1165,
      "sm": 1166,
      "savoir": 1167,
      "ital": 1168,
      "attent": 1169,
      "member": 1170,
      "ceci": 1171,
      "ches": 1172,
      "lire": 1173,
      "doc": 1174,
      "doit": 1175,
      "vos": 1176,
      "pensais": 1177,
      "propos": 1178,
      "proble": 1179,
      "exc": 1180,
      "histo": 1181,
      "quelques": 1182,
      "show": 1183,
      "saw": 1184,
      "voulais": 1185,
      "voulez": 1186,
      "looking": 1187,
      "years": 1188,
      "important": 1189,
      "Japan": 1190,
      "bit": 1191,
      "eau": 1192,
      "lat": 1193,
      "nat": 1194,
      "rez": 1195,
      "ester": 1196,
      "uni": 1197,
      "lic": 1198,
      "bed": 1199,
      "doing": 1200,
      "often": 1201,
      "ely": 1202,
      "util": 1203,
      "surpris": 1204,
      "difficul": 1205,
      "busy": 1206,
      "moment": 1207,
      "00": 1208,
      "ado": 1209,
      "ba": 1210,
      "far": 1211,
      "mit": 1212,
      "ving": 1213,
      "wal": 1214,
      "inter": 1215,
      "pect": 1216,
      "produ": 1217,
      "letter": 1218,
      "vér": 1219,
      "trouver": 1220,
      "visit": 1221,
      "heureux": 1222,
      "sens": 1223,
      "arrê": 1224,
      "pendant": 1225,
      "afr": 1226,
      "ref": 1227,
      "ved": 1228,
      "tel": 1229,
      "telle": 1230,
      "aim": 1231,
      "passe": 1232,
      "form": 1233,
      "mother": 1234,
      "condu": 1235,
      "lost": 1236,
      "cold": 1237,
      "world": 1238,
      "cours": 1239,
      "aurais": 1240,
      "demandé": 1241,
      "France": 1242,
      "simplement": 1243,
      "afraid": 1244,
      "Dan": 1245,
      "found": 1246,
      "ight": 1247,
      "yester": 1248,
      "remember": 1249,
      "next": 1250,
      "young": 1251,
      "chang": 1252,
      "uses": 1253,
      "perdu": 1254,
      "exp": 1255,
      "wants": 1256,
      "mari": 1257,
      "autres": 1258,
      "habitu": 1259,
      "devrais": 1260,
      "semaine": 1261,
      "yesterday": 1262,
      "den": 1263,
      "ding": 1264,
      "dur": 1265,
      "dri": 1266,
      "fon": 1267,
      "fro": 1268,
      "hour": 1269,
      "knew": 1270,
      "nis": 1271,
      "um": 1272,
      "wom": 1273,
      "ande": 1274,
      "teau": 1275,
      "jeun": 1276,
      "ical": 1277,
      "prob": 1278,
      "faites": 1279,
      "break": 1280,
      "souvent": 1281,
      "corre": 1282,
      "acheter": 1283,
      "interes": 1284,
      "dernière": 1285,
      "swim": 1286,
      "big": 1287,
      "fast": 1288,
      "gg": 1289,
      "hon": 1290,
      "ice": 1291,
      "mir": 1292,
      "sk": 1293,
      "inst": 1294,
      "quer": 1295,
      "meille": 1296,
      "alle": 1297,
      "accor": 1298,
      "conse": 1299,
      "allé": 1300,
      "arried": 1301,
      "everyone": 1302,
      "piè": 1303,
      "pays": 1304,
      "jusqu": 1305,
      "problème": 1306,
      "attention": 1307,
      "walk": 1308,
      "fun": 1309,
      "ière": 1310,
      "ken": 1311,
      "run": 1312,
      "sau": 1313,
      "savais": 1314,
      "oubli": 1315,
      "hear": 1316,
      "ister": 1317,
      "net": 1318,
      "change": 1319,
      "beg": 1320,
      "less": 1321,
      "rie": 1322,
      "comple": 1323,
      "suc": 1324,
      "respon": 1325,
      "agne": 1326,
      "star": 1327,
      "few": 1328,
      "illé": 1329,
      "porter": 1330,
      "vient": 1331,
      "opin": 1332,
      "trouvé": 1333,
      "retard": 1334,
      "study": 1335,
      "truth": 1336,
      "easy": 1337,
      "bla": 1338,
      "cas": 1339,
      "cla": 1340,
      "cted": 1341,
      "fat": 1342,
      "fil": 1343,
      "ffe": 1344,
      "ies": 1345,
      "ju": 1346,
      "married": 1347,
      "pap": 1348,
      "sus": 1349,
      "smo": 1350,
      "yez": 1351,
      "quit": 1352,
      "trans": 1353,
      "rire": 1354,
      "wed": 1355,
      "coming": 1356,
      "étaient": 1357,
      "appré": 1358,
      "sig": 1359,
      "rencontr": 1360,
      "exam": 1361,
      "word": 1362,
      "arrivé": 1363,
      "lettre": 1364,
      "early": 1365,
      "mort": 1366,
      "student": 1367,
      "devons": 1368,
      "wrong": 1369,
      "chambre": 1370,
      "police": 1371,
      "doctor": 1372,
      "fall": 1373,
      "lè": 1374,
      "lles": 1375,
      "pul": 1376,
      "sac": 1377,
      "wer": 1378,
      "yet": 1379,
      "esse": 1380,
      "another": 1381,
      "ition": 1382,
      "around": 1383,
      "illa": 1384,
      "those": 1385,
      "sec": 1386,
      "ings": 1387,
      "own": 1388,
      "parti": 1389,
      "aren": 1390,
      "log": 1391,
      "plu": 1392,
      "nos": 1393,
      "mala": 1394,
      "boy": 1395,
      "mande": 1396,
      "knows": 1397,
      "répon": 1398,
      "prends": 1399,
      "petite": 1400,
      "books": 1401,
      "mettre": 1402,
      "famille": 1403,
      "sortir": 1404,
      "small": 1405,
      "utilis": 1406,
      "Par": 1407,
      "Tato": 1408,
      "aw": 1409,
      "ber": 1410,
      "bat": 1411,
      "cl": 1412,
      "eba": 1413,
      "hors": 1414,
      "ious": 1415,
      "mau": 1416,
      "na": 1417,
      "pic": 1418,
      "ris": 1419,
      "rap": 1420,
      "since": 1421,
      "tôt": 1422,
      "val": 1423,
      "vir": 1424,
      "ville": 1425,
      "vite": 1426,
      "war": 1427,
      "yeux": 1428,
      "iste": 1429,
      "ank": 1430,
      "anim": 1431,
      "ances": 1432,
      "set": 1433,
      "pass": 1434,
      "utes": 1435,
      "donné": 1436,
      "montre": 1437,
      "cient": 1438,
      "sera": 1439,
      "présent": 1440,
      "everybody": 1441,
      "prise": 1442,
      "talking": 1443,
      "leurs": 1444,
      "raison": 1445,
      "country": 1446,
      "vérité": 1447,
      "Tatoeba": 1448,
      "cri": 1449,
      "cam": 1450,
      "cie": 1451,
      "cul": 1452,
      "danger": 1453,
      "face": 1454,
      "gros": 1455,
      "hun": 1456,
      "idi": 1457,
      "nent": 1458,
      "pau": 1459,
      "sil": 1460,
      "sous": 1461,
      "tard": 1462,
      "èrent": 1463,
      "once": 1464,
      "enne": 1465,
      "true": 1466,
      "light": 1467,
      "acc": 1468,
      "pourr": 1469,
      "six": 1470,
      "soon": 1471,
      "myself": 1472,
      "vois": 1473,
      "penses": 1474,
      "tive": 1475,
      "sho": 1476,
      "plain": 1477,
      "vice": 1478,
      "party": 1479,
      "matter": 1480,
      "morning": 1481,
      "hope": 1482,
      "writ": 1483,
      "nombre": 1484,
      "having": 1485,
      "aucun": 1486,
      "mauvais": 1487,
      "bar": 1488,
      "fa": 1489,
      "fav": 1490,
      "sy": 1491,
      "til": 1492,
      "table": 1493,
      "vac": 1494,
      "étr": 1495,
      "pous": 1496,
      "ouver": 1497,
      "reux": 1498,
      "thé": 1499,
      "jeune": 1500,
      "allez": 1501,
      "urant": 1502,
      "prin": 1503,
      "rest": 1504,
      "ourr": 1505,
      "imag": 1506,
      "apprendre": 1507,
      "aine": 1508,
      "pensé": 1509,
      "tired": 1510,
      "same": 1511,
      "nice": 1512,
      "dispos": 1513,
      "anymore": 1514,
      "icile": 1515,
      "publi": 1516,
      "pian": 1517,
      "vision": 1518,
      "matin": 1519,
      "lives": 1520,
      "croire": 1521,
      "difficile": 1522,
      "joue": 1523,
      "happened": 1524,
      "brother": 1525,
      "learn": 1526,
      "aff": 1527,
      "bout": 1528,
      "cis": 1529,
      "caf": 1530,
      "dir": 1531,
      "hô": 1532,
      "hor": 1533,
      "lli": 1534,
      "vas": 1535,
      "vant": 1536,
      "vue": 1537,
      "ères": 1538,
      "esp": 1539,
      "inform": 1540,
      "veu": 1541,
      "chat": 1542,
      "chau": 1543,
      "lig": 1544,
      "ets": 1545,
      "while": 1546,
      "resta": 1547,
      "acce": 1548,
      "pourrais": 1549,
      "loin": 1550,
      "termin": 1551,
      "proch": 1552,
      "food": 1553,
      "vivre": 1554,
      "médi": 1555,
      "couldn": 1556,
      "appelle": 1557,
      "stupi": 1558,
      "diffé": 1559,
      "cuis": 1560,
      "wonder": 1561,
      "family": 1562,
      "intelli": 1563,
      "voyage": 1564,
      "seulement": 1565,
      "lorsque": 1566,
      "sûr": 1567,
      "problem": 1568,
      "histoire": 1569,
      "Japon": 1570,
      "bir": 1571,
      "dance": 1572,
      "fen": 1573,
      "fau": 1574,
      "four": 1575,
      "free": 1576,
      "gla": 1577,
      "gave": 1578,
      "ix": 1579,
      "lun": 1580,
      "ming": 1581,
      "mang": 1582,
      "sant": 1583,
      "situ": 1584,
      "sister": 1585,
      "scient": 1586,
      "este": 1587,
      "ished": 1588,
      "anc": 1589,
      "qué": 1590,
      "atis": 1591,
      "alth": 1592,
      "likes": 1593,
      "such": 1594,
      "parce": 1595,
      "app": 1596,
      "icy": 1597,
      "dont": 1598,
      "rence": 1599,
      "rencontre": 1600,
      "déso": 1601,
      "déci": 1602,
      "déjeun": 1603,
      "sois": 1604,
      "yourself": 1605,
      "feu": 1606,
      "himself": 1607,
      "journée": 1608,
      "days": 1609,
      "ign": 1610,
      "igno": 1611,
      "préfé": 1612,
      "autant": 1613,
      "garçon": 1614,
      "looks": 1615,
      "minutes": 1616,
      "livres": 1617,
      "conna": 1618,
      "acheté": 1619,
      "langue": 1620,
      "alement": 1621,
      "listen": 1622,
      "turn": 1623,
      "aucune": 1624,
      "pièce": 1625,
      "opinion": 1626,
      "secret": 1627,
      "pourrait": 1628,
      "restaurant": 1629,
      "situation": 1630,
      "fête": 1631,
      "filles": 1632,
      "har": 1633,
      "nourr": 1634,
      "oh": 1635,
      "spo": 1636,
      "tant": 1637,
      "tête": 1638,
      "uit": 1639,
      "wi": 1640,
      "îner": 1641,
      "head": 1642,
      "dez": 1643,
      "deci": 1644,
      "toge": 1645,
      "nez": 1646,
      "medi": 1647,
      "celui": 1648,
      "rich": 1649,
      "sui": 1650,
      "sul": 1651,
      "consi": 1652,
      "ution": 1653,
      "coû": 1654,
      "makes": 1655,
      "miss": 1656,
      "might": 1657,
      "beauti": 1658,
      "méde": 1659,
      "senti": 1660,
      "obje": 1661,
      "write": 1662,
      "friends": 1663,
      "language": 1664,
      "haven": 1665,
      "essayer": 1666,
      "emplo": 1667,
      "entendu": 1668,
      "adore": 1669,
      "arrêter": 1670,
      "froid": 1671,
      "together": 1672,
      "10": 1673,
      "bas": 1674,
      "bought": 1675,
      "ctu": 1676,
      "fish": 1677,
      "glas": 1678,
      "iques": 1679,
      "rée": 1680,
      "vin": 1681,
      "yer": 1682,
      "ète": 1683,
      "iti": 1684,
      "demande": 1685,
      "thr": 1686,
      "sel": 1687,
      "secon": 1688,
      "aires": 1689,
      "ustr": 1690,
      "comprendre": 1691,
      "cont": 1692,
      "sons": 1693,
      "cook": 1694,
      "nobody": 1695,
      "luck": 1696,
      "ured": 1697,
      "ige": 1698,
      "igu": 1699,
      "getting": 1700,
      "merci": 1701,
      "someone": 1702,
      "nouvelle": 1703,
      "enfant": 1704,
      "called": 1705,
      "turned": 1706,
      "travailler": 1707,
      "chaque": 1708,
      "times": 1709,
      "started": 1710,
      "Paris": 1711,
      "piano": 1712,
      "désolé": 1713,
      "An": 1714,
      "bag": 1715,
      "bicy": 1716,
      "clé": 1717,
      "dress": 1718,
      "fou": 1719,
      "fit": 1720,
      "hé": 1721,
      "ia": 1722,
      "mour": 1723,
      "sick": 1724,
      "uf": 1725,
      "ward": 1726,
      "écrit": 1727,
      "pois": 1728,
      "ensemble": 1729,
      "leg": 1730,
      "until": 1731,
      "prie": 1732,
      "peine": 1733,
      "dix": 1734,
      "diffe": 1735,
      "wear": 1736,
      "amou": 1737,
      "comm": 1738,
      "resse": 1739,
      "rester": 1740,
      "concer": 1741,
      "wasn": 1742,
      "soyez": 1743,
      "ghter": 1744,
      "cost": 1745,
      "cannot": 1746,
      "couver": 1747,
      "frère": 1748,
      "anyone": 1749,
      "arriver": 1750,
      "grande": 1751,
      "dites": 1752,
      "laisser": 1753,
      "pret": 1754,
      "voudr": 1755,
      "voulait": 1756,
      "seems": 1757,
      "reading": 1758,
      "thank": 1759,
      "longtemps": 1760,
      "fini": 1761,
      "fice": 1762,
      "high": 1763,
      "heureuse": 1764,
      "devrait": 1765,
      "meeting": 1766,
      "lorsqu": 1767,
      "téléphone": 1768,
      "window": 1769,
      "premier": 1770,
      "difficult": 1771,
      "woman": 1772,
      "accord": 1773,
      "déjeuner": 1774,
      "nourriture": 1775,
      "beautiful": 1776,
      "médecin": 1777,
      "Ger": 1778,
      "cine": 1779,
      "each": 1780,
      "fire": 1781,
      "hot": 1782,
      "hair": 1783,
      "ked": 1784,
      "mas": 1785,
      "ness": 1786,
      "os": 1787,
      "ron": 1788,
      "ste": 1789,
      "sal": 1790,
      "sage": 1791,
      "savez": 1792,
      "popul": 1793,
      "heard": 1794,
      "heart": 1795,
      "health": 1796,
      "ences": 1797,
      "ines": 1798,
      "aie": 1799,
      "passer": 1800,
      "chant": 1801,
      "trait": 1802,
      "trad": 1803,
      "doll": 1804,
      "offe": 1805,
      "ago": 1806,
      "mois": 1807,
      "station": 1808,
      "noir": 1809,
      "tennis": 1810,
      "illed": 1811,
      "working": 1812,
      "presque": 1813,
      "patient": 1814,
      "colère": 1815,
      "déteste": 1816,
      "waiting": 1817,
      "première": 1818,
      "dinner": 1819,
      "pouvons": 1820,
      "habitude": 1821,
      "hours": 1822,
      "complete": 1823,
      "favor": 1824,
      "information": 1825,
      "Austr": 1826,
      "ake": 1827,
      "bure": 1828,
      "coffe": 1829,
      "dau": 1830,
      "dîner": 1831,
      "emb": 1832,
      "gag": 1833,
      "hate": 1834,
      "ids": 1835,
      "join": 1836,
      "lons": 1837,
      "ps": 1838,
      "sun": 1839,
      "sœur": 1840,
      "uel": 1841,
      "vité": 1842,
      "indre": 1843,
      "ates": 1844,
      "ating": 1845,
      "then": 1846,
      "prit": 1847,
      "office": 1848,
      "die": 1849,
      "died": 1850,
      "diction": 1851,
      "amie": 1852,
      "suff": 1853,
      "sujet": 1854,
      "forget": 1855,
      "impres": 1856,
      "utôt": 1857,
      "allons": 1858,
      "start": 1859,
      "terre": 1860,
      "terri": 1861,
      "sive": 1862,
      "rend": 1863,
      "solu": 1864,
      "plutôt": 1865,
      "exact": 1866,
      "illez": 1867,
      "cheveux": 1868,
      "tax": 1869,
      "mise": 1870,
      "finished": 1871,
      "courage": 1872,
      "story": 1873,
      "eyes": 1874,
      "trying": 1875,
      "clear": 1876,
      "jouer": 1877,
      "attend": 1878,
      "écout": 1879,
      "music": 1880,
      "rouge": 1881,
      "girls": 1882,
      "class": 1883,
      "univers": 1884,
      "correct": 1885,
      "meilleur": 1886,
      "black": 1887,
      "illage": 1888,
      "café": 1889,
      "ignore": 1890,
      "bureau": 1891,
      "coffee": 1892,
      "Lay": 1893,
      "Oh": 1894,
      "bil": 1895,
      "bri": 1896,
      "cir": 1897,
      "five": 1898,
      "kis": 1899,
      "nager": 1900,
      "rom": 1901,
      "sit": 1902,
      "sav": 1903,
      "wish": 1904,
      "èmes": 1905,
      "espère": 1906,
      "ens": 1907,
      "iner": 1908,
      "leav": 1909,
      "att": 1910,
      "ately": 1911,
      "top": 1912,
      "thir": 1913,
      "order": 1914,
      "ordin": 1915,
      "almost": 1916,
      "belle": 1917,
      "prêt": 1918,
      "else": 1919,
      "sub": 1920,
      "forts": 1921,
      "key": 1922,
      "answer": 1923,
      "month": 1924,
      "exac": 1925,
      "exper": 1926,
      "both": 1927,
      "chemin": 1928,
      "serait": 1929,
      "vide": 1930,
      "drai": 1931,
      "soun": 1932,
      "pied": 1933,
      "pouvoir": 1934,
      "number": 1935,
      "living": 1936,
      "avantage": 1937,
      "trip": 1938,
      "tried": 1939,
      "tribu": 1940,
      "lived": 1941,
      "suppose": 1942,
      "close": 1943,
      "born": 1944,
      "occupé": 1945,
      "...": 1946,
      "Japanese": 1947,
      "tellement": 1948,
      "fatigu": 1949,
      "glad": 1950,
      "wife": 1951,
      "pretty": 1952,
      "daughter": 1953,
      "Layla": 1954,
      "Joh": 1955,
      "TV": 1956,
      "ban": 1957,
      "bur": 1958,
      "band": 1959,
      "cli": 1960,
      "cœur": 1961,
      "eded": 1962,
      "fus": 1963,
      "fils": 1964,
      "flow": 1965,
      "hind": 1966,
      "ident": 1967,
      "mange": 1968,
      "nie": 1969,
      "pê": 1970,
      "pan": 1971,
      "stru": 1972,
      "spend": 1973,
      "oui": 1974,
      "rel": 1975,
      "ennu": 1976,
      "invit": 1977,
      "quat": 1978,
      "dehors": 1979,
      "iles": 1980,
      "laire": 1981,
      "alis": 1982,
      "chante": 1983,
      "aise": 1984,
      "ween": 1985,
      "weather": 1986,
      "actu": 1987,
      "immédi": 1988,
      "advice": 1989,
      "ables": 1990,
      "ably": 1991,
      "soci": 1992,
      "tif": 1993,
      "fect": 1994,
      "pleas": 1995,
      "takes": 1996,
      "known": 1997,
      "thinking": 1998,
      "partie": 1999,
      "vélo": 2000,
      "phr": 2001,
      "lieu": 2002,
      "retour": 2003,
      "appeler": 2004,
      "fumer": 2005,
      "future": 2006,
      "cherche": 2007,
      "compte": 2008,
      "company": 2009,
      "habite": 2010,
      "écrire": 2011,
      "regarde": 2012,
      "regarder": 2013,
      "dormir": 2014,
      "hurt": 2015,
      "milk": 2016,
      "sûre": 2017,
      "felt": 2018,
      "instant": 2019,
      "oublié": 2020,
      "film": 2021,
      "malade": 2022,
      "public": 2023,
      "intelligent": 2024,
      "santé": 2025,
      "through": 2026,
      "dollars": 2027,
      "19": 2028,
      "Amer": 2029,
      "Eur": 2030,
      "No": 2031,
      "blo": 2032,
      "ctive": 2033,
      "davantage": 2034,
      "flu": 2035,
      "fig": 2036,
      "gue": 2037,
      "igh": 2038,
      "ny": 2039,
      "ran": 2040,
      "satis": 2041,
      "village": 2042,
      "ying": 2043,
      "indi": 2044,
      "ane": 2045,
      "année": 2046,
      "devez": 2047,
      "nel": 2048,
      "thes": 2049,
      "lau": 2050,
      "laquelle": 2051,
      "semb": 2052,
      "alors": 2053,
      "usu": 2054,
      "tures": 2055,
      "become": 2056,
      "behind": 2057,
      "irt": 2058,
      "rions": 2059,
      "amé": 2060,
      "amour": 2061,
      "compl": 2062,
      "super": 2063,
      "importe": 2064,
      "conque": 2065,
      "const": 2066,
      "confi": 2067,
      "aper": 2068,
      "appris": 2069,
      "ainsi": 2070,
      "aby": 2071,
      "rendre": 2072,
      "wash": 2073,
      "road": 2074,
      "llow": 2075,
      "angry": 2076,
      "iens": 2077,
      "tenir": 2078,
      "manière": 2079,
      "venus": 2080,
      "ateur": 2081,
      "mains": 2082,
      "dition": 2083,
      "laissé": 2084,
      "mark": 2085,
      "prend": 2086,
      "preci": 2087,
      "vieux": 2088,
      "puisse": 2089,
      "full": 2090,
      "payer": 2091,
      "arrived": 2092,
      "entreprise": 2093,
      "promise": 2094,
      "prix": 2095,
      "careful": 2096,
      "langues": 2097,
      "magas": 2098,
      "professe": 2099,
      "problèmes": 2100,
      "large": 2101,
      "fell": 2102,
      "nature": 2103,
      "probable": 2104,
      "swimming": 2105,
      "animal": 2106,
      "veuillez": 2107,
      "decided": 2108,
      "John": 2109,
      "Americ": 2110,
      "bot": 2111,
      "cy": 2112,
      "dar": 2113,
      "dres": 2114,
      "ele": 2115,
      "font": 2116,
      "gy": 2117,
      "game": 2118,
      "hal": 2119,
      "killed": 2120,
      "nit": 2121,
      "nation": 2122,
      "pun": 2123,
      "pus": 2124,
      "pire": 2125,
      "rac": 2126,
      "ss": 2127,
      "vic": 2128,
      "wn": 2129,
      "wine": 2130,
      "yo": 2131,
      "çu": 2132,
      "ène": 2133,
      "poin": 2134,
      "polit": 2135,
      "reas": 2136,
      "real": 2137,
      "post": 2138,
      "isir": 2139,
      "eng": 2140,
      "envie": 2141,
      "enjo": 2142,
      "quite": 2143,
      "ash": 2144,
      "death": 2145,
      "arro": 2146,
      "near": 2147,
      "necess": 2148,
      "veille": 2149,
      "teach": 2150,
      "meur": 2151,
      "ention": 2152,
      "ced": 2153,
      "aimes": 2154,
      "allait": 2155,
      "past": 2156,
      "chan": 2157,
      "trom": 2158,
      "trave": 2159,
      "rière": 2160,
      "riche": 2161,
      "amis": 2162,
      "comes": 2163,
      "parlez": 2164,
      "agree": 2165,
      "forgot": 2166,
      "imp": 2167,
      "imes": 2168,
      "content": 2169,
      "donc": 2170,
      "donner": 2171,
      "pourriez": 2172,
      "expé": 2173,
      "derrière": 2174,
      "réus": 2175,
      "venue": 2176,
      "worry": 2177,
      "words": 2178,
      "follow": 2179,
      "endro": 2180,
      "whole": 2181,
      "marche": 2182,
      "marché": 2183,
      "cked": 2184,
      "wouldn": 2185,
      "méri": 2186,
      "works": 2187,
      "pensez": 2188,
      "tonight": 2189,
      "nécess": 2190,
      "guess": 2191,
      "store": 2192,
      "news": 2193,
      "devriez": 2194,
      "peuvent": 2195,
      "others": 2196,
      "nouvelles": 2197,
      "between": 2198,
      "against": 2199,
      "attendre": 2200,
      "cinq": 2201,
      "hurry": 2202,
      "mots": 2203,
      "entendre": 2204,
      "Inter": 2205,
      "regard": 2206,
      "surprised": 2207,
      "interested": 2208,
      "students": 2209,
      "mangé": 2210,
      "rencontrer": 2211,
      "commun": 2212,
      "exactly": 2213,
      "quatre": 2214,
      "immédiate": 2215,
      "20": 2216,
      "30": 2217,
      "Ap": 2218,
      "Mr": 2219,
      "cré": 2220,
      "da": 2221,
      "dest": 2222,
      "faim": 2223,
      "ip": 2224,
      "lou": 2225,
      "lent": 2226,
      "land": 2227,
      "ope": 2228,
      "pis": 2229,
      "pie": 2230,
      "tick": 2231,
      "ute": 2232,
      "vée": 2233,
      "zed": 2234,
      "çons": 2235,
      "pom": 2236,
      "poor": 2237,
      "poser": 2238,
      "heav": 2239,
      "ones": 2240,
      "ination": 2241,
      "leil": 2242,
      "era": 2243,
      "devoir": 2244,
      "town": 2245,
      "nement": 2246,
      "union": 2247,
      "became": 2248,
      "pru": 2249,
      "amus": 2250,
      "amment": 2251,
      "sum": 2252,
      "parlé": 2253,
      "appro": 2254,
      "ieu": 2255,
      "dés": 2256,
      "mont": 2257,
      "penser": 2258,
      "yours": 2259,
      "couple": 2260,
      "pleu": 2261,
      "shot": 2262,
      "serai": 2263,
      "serais": 2264,
      "foot": 2265,
      "grou": 2266,
      "craz": 2267,
      "midi": 2268,
      "trouble": 2269,
      "bras": 2270,
      "earth": 2271,
      "longer": 2272,
      "intention": 2273,
      "clean": 2274,
      "bière": 2275,
      "suppos": 2276,
      "radi": 2277,
      "hands": 2278,
      "efforts": 2279,
      "musique": 2280,
      "strong": 2281,
      "watching": 2282,
      "pouvait": 2283,
      "boulot": 2284,
      "charge": 2285,
      "laissez": 2286,
      "smoking": 2287,
      "apprécie": 2288,
      "façon": 2289,
      "étranger": 2290,
      "chaud": 2291,
      "accep": 2292,
      "prochain": 2293,
      "fenêtre": 2294,
      "scientif": 2295,
      "itié": 2296,
      "second": 2297,
      "voudrais": 2298,
      "exactement": 2299,
      "fatigué": 2300,
      "magasin": 2301,
      "professeur": 2302,
      "dark": 2303,
      "half": 2304,
      "nécessaire": 2305,
      "immédiatement": 2306,
      "Ital": 2307,
      "Mon": 2308,
      "Tok": 2309,
      "ade": 2310,
      "bres": 2311,
      "cte": 2312,
      "clu": 2313,
      "card": 2314,
      "city": 2315,
      "date": 2316,
      "ew": 2317,
      "fic": 2318,
      "gâ": 2319,
      "gare": 2320,
      "ling": 2321,
      "mou": 2322,
      "mire": 2323,
      "nul": 2324,
      "ping": 2325,
      "pir": 2326,
      "rê": 2327,
      "rare": 2328,
      "ration": 2329,
      "sand": 2330,
      "ttes": 2331,
      "tats": 2332,
      "vain": 2333,
      "yes": 2334,
      "âge": 2335,
      "éle": 2336,
      "écr": 2337,
      "œuf": 2338,
      "ouvr": 2339,
      "envir": 2340,
      "anni": 2341,
      "attr": 2342,
      "arch": 2343,
      "tem": 2344,
      "tele": 2345,
      "med": 2346,
      "mets": 2347,
      "ceux": 2348,
      "chaus": 2349,
      "autor": 2350,
      "unk": 2351,
      "lies": 2352,
      "beer": 2353,
      "prê": 2354,
      "peau": 2355,
      "irai": 2356,
      "ride": 2357,
      "riend": 2358,
      "verre": 2359,
      "verse": 2360,
      "andon": 2361,
      "etimes": 2362,
      "compris": 2363,
      "suit": 2364,
      "sucre": 2365,
      "agno": 2366,
      "étiez": 2367,
      "appreci": 2368,
      "uter": 2369,
      "admire": 2370,
      "sty": 2371,
      "song": 2372,
      "lose": 2373,
      "sident": 2374,
      "rendu": 2375,
      "désol": 2376,
      "sold": 2377,
      "ienne": 2378,
      "noon": 2379,
      "making": 2380,
      "pleure": 2381,
      "ched": 2382,
      "shor": 2383,
      "sometimes": 2384,
      "réf": 2385,
      "serious": 2386,
      "dist": 2387,
      "discut": 2388,
      "anybody": 2389,
      "grow": 2390,
      "opé": 2391,
      "préf": 2392,
      "mission": 2393,
      "looked": 2394,
      "telling": 2395,
      "lfriend": 2396,
      "airs": 2397,
      "devrions": 2398,
      "hosp": 2399,
      "ferai": 2400,
      "artic": 2401,
      "cats": 2402,
      "maybe": 2403,
      "girlfriend": 2404,
      "languages": 2405,
      "télévision": 2406,
      "dernier": 2407,
      "magaz": 2408,
      "erreur": 2409,
      "intéres": 2410,
      "commencé": 2411,
      "route": 2412,
      "certains": 2413,
      "droit": 2414,
      "donnez": 2415,
      "classe": 2416,
      "conduire": 2417,
      "explo": 2418,
      "idiot": 2419,
      "vacances": 2420,
      "cision": 2421,
      "lucky": 2422,
      "bicycle": 2423,
      "amoureux": 2424,
      "experience": 2425,
      "Europe": 2426,
      "expérien": 2427,
      "endroit": 2428,
      "summer": 2429,
      "crazy": 2430,
      "Tokyo": 2431,
      "environ": 2432,
      "désolée": 2433,
      "hospital": 2434,
      "Ah": 2435,
      "Al": 2436,
      "Ar": 2437,
      "Dieu": 2438,
      "Ear": 2439,
      "God": 2440,
      "New": 2441,
      "Terre": 2442,
      "bâ": 2443,
      "baby": 2444,
      "dom": 2445,
      "fine": 2446,
      "ial": 2447,
      "japon": 2448,
      "naire": 2449,
      "nage": 2450,
      "oy": 2451,
      "pick": 2452,
      "rather": 2453,
      "rist": 2454,
      "spr": 2455,
      "sance": 2456,
      "slow": 2457,
      "éch": 2458,
      "équi": 2459,
      "ôle": 2460,
      "rece": 2461,
      "ene": 2462,
      "envoy": 2463,
      "invité": 2464,
      "ither": 2465,
      "ative": 2466,
      "vel": 2467,
      "ject": 2468,
      "mean": 2469,
      "celle": 2470,
      "ory": 2471,
      "aig": 2472,
      "also": 2473,
      "alité": 2474,
      "chats": 2475,
      "liez": 2476,
      "libre": 2477,
      "pron": 2478,
      "dipl": 2479,
      "command": 2480,
      "ressemble": 2481,
      "respect": 2482,
      "movie": 2483,
      "impossible": 2484,
      "conf": 2485,
      "constru": 2486,
      "advis": 2487,
      "absolu": 2488,
      "sibil": 2489,
      "rentre": 2490,
      "voici": 2491,
      "colle": 2492,
      "cier": 2493,
      "expect": 2494,
      "boire": 2495,
      "chemise": 2496,
      "shirt": 2497,
      "taken": 2498,
      "réunion": 2499,
      "choix": 2500,
      "safe": 2501,
      "vendre": 2502,
      "viv": 2503,
      "sécur": 2504,
      "thinks": 2505,
      "gry": 2506,
      "grat": 2507,
      "hommes": 2508,
      "prefer": 2509,
      "touch": 2510,
      "voulons": 2511,
      "essaie": 2512,
      "pouvais": 2513,
      "personnes": 2514,
      "fix": 2515,
      "fied": 2516,
      "retur": 2517,
      "parer": 2518,
      "present": 2519,
      "devant": 2520,
      "hotel": 2521,
      "compli": 2522,
      "caught": 2523,
      "type": 2524,
      "saying": 2525,
      "playing": 2526,
      "sense": 2527,
      "géné": 2528,
      "patience": 2529,
      "promis": 2530,
      "easily": 2531,
      "essayé": 2532,
      "sleeping": 2533,
      "bébé": 2534,
      "cake": 2535,
      "capable": 2536,
      "opened": 2537,
      "later": 2538,
      "probably": 2539,
      "begin": 2540,
      "utiliser": 2541,
      "rapide": 2542,
      "hungry": 2543,
      "written": 2544,
      "hôtel": 2545,
      "cuisine": 2546,
      "birth": 2547,
      "lunch": 2548,
      "décidé": 2549,
      "connaît": 2550,
      "different": 2551,
      "tradu": 2552,
      "favorite": 2553,
      "embarr": 2554,
      "impression": 2555,
      "terrible": 2556,
      "leaving": 2557,
      "enjoy": 2558,
      "sandw": 2559,
      "expérience": 2560,
      "sécurité": 2561,
      "Améri": 2562,
      "De": 2563,
      "Jane": 2564,
      "Sm": 2565,
      "Sun": 2566,
      "cs": 2567,
      "cô": 2568,
      "cit": 2569,
      "dange": 2570,
      "eff": 2571,
      "flo": 2572,
      "hy": 2573,
      "hat": 2574,
      "hait": 2575,
      "len": 2576,
      "lune": 2577,
      "mam": 2578,
      "oo": 2579,
      "oth": 2580,
      "pped": 2581,
      "rit": 2582,
      "sour": 2583,
      "send": 2584,
      "savait": 2585,
      "test": 2586,
      "ues": 2587,
      "zz": 2588,
      "âche": 2589,
      "âmes": 2590,
      "èque": 2591,
      "ètement": 2592,
      "épous": 2593,
      "ël": 2594,
      "îte": 2595,
      "ître": 2596,
      "reali": 2597,
      "ina": 2598,
      "incon": 2599,
      "iness": 2600,
      "least": 2601,
      "dead": 2602,
      "ili": 2603,
      "law": 2604,
      "team": 2605,
      "sez": 2606,
      "serez": 2607,
      "entend": 2608,
      "entôt": 2609,
      "changer": 2610,
      "prête": 2611,
      "ried": 2612,
      "sugar": 2613,
      "reste": 2614,
      "parfois": 2615,
      "agit": 2616,
      "moy": 2617,
      "immedi": 2618,
      "conom": 2619,
      "concent": 2620,
      "contribu": 2621,
      "kept": 2622,
      "logi": 2623,
      "absent": 2624,
      "abandon": 2625,
      "rock": 2626,
      "ellement": 2627,
      "coat": 2628,
      "cool": 2629,
      "tient": 2630,
      "fruit": 2631,
      "perdre": 2632,
      "propre": 2633,
      "exce": 2634,
      "boys": 2635,
      "boîte": 2636,
      "manque": 2637,
      "shop": 2638,
      "taille": 2639,
      "taking": 2640,
      "choice": 2641,
      "dream": 2642,
      "igner": 2643,
      "ignor": 2644,
      "viol": 2645,
      "hasn": 2646,
      "léch": 2647,
      "whose": 2648,
      "souviens": 2649,
      "souhait": 2650,
      "garçons": 2651,
      "mistake": 2652,
      "sorte": 2653,
      "méro": 2654,
      "numéro": 2655,
      "instru": 2656,
      "courant": 2657,
      "stood": 2658,
      "press": 2659,
      "fuck": 2660,
      "computer": 2661,
      "occu": 2662,
      "speaking": 2663,
      "feeling": 2664,
      "bientôt": 2665,
      "aurait": 2666,
      "clock": 2667,
      "clothes": 2668,
      "intéress": 2669,
      "learned": 2670,
      "travers": 2671,
      "commence": 2672,
      "stayed": 2673,
      "regret": 2674,
      "blessé": 2675,
      "problems": 2676,
      "arrêté": 2677,
      "refus": 2678,
      "fonction": 2679,
      "breakfast": 2680,
      "allemand": 2681,
      "rencontré": 2682,
      "pauvre": 2683,
      "accus": 2684,
      "hôp": 2685,
      "différen": 2686,
      "considé": 2687,
      "German": 2688,
      "completely": 2689,
      "taxi": 2690,
      "améli": 2691,
      "confiance": 2692,
      "arrog": 2693,
      "Internet": 2694,
      "ticket": 2695,
      "radio": 2696,
      "appreciate": 2697,
      "réfléch": 2698,
      "Earth": 2699,
      "japonais": 2700,
      "équipe": 2701,
      "sandwich": 2702,
      "côté": 2703,
      "Jim": 2704,
      "Re": 2705,
      "Span": 2706,
      "US": 2707,
      "aille": 2708,
      "bate": 2709,
      "cès": 2710,
      "case": 2711,
      "dge": 2712,
      "egg": 2713,
      "either": 2714,
      "fas": 2715,
      "fai": 2716,
      "fleurs": 2717,
      "gone": 2718,
      "hit": 2719,
      "kill": 2720,
      "moun": 2721,
      "nal": 2722,
      "owe": 2723,
      "oise": 2724,
      "pes": 2725,
      "rat": 2726,
      "squ": 2727,
      "sli": 2728,
      "sof": 2729,
      "sout": 2730,
      "snow": 2731,
      "smar": 2732,
      "vaut": 2733,
      "wro": 2734,
      "âtre": 2735,
      "éri": 2736,
      "poste": 2737,
      "esprit": 2738,
      "ener": 2739,
      "inside": 2740,
      "deal": 2741,
      "devenu": 2742,
      "needed": 2743,
      "veillé": 2744,
      "sea": 2745,
      "sell": 2746,
      "libr": 2747,
      "liked": 2748,
      "tune": 2749,
      "ira": 2750,
      "comprends": 2751,
      "sures": 2752,
      "suite": 2753,
      "parviens": 2754,
      "agent": 2755,
      "ours": 2756,
      "condition": 2757,
      "apé": 2758,
      "allo": 2759,
      "keys": 2760,
      "stat": 2761,
      "abo": 2762,
      "abil": 2763,
      "désor": 2764,
      "dure": 2765,
      "costu": 2766,
      "whatever": 2767,
      "èrement": 2768,
      "front": 2769,
      "lumi": 2770,
      "exer": 2771,
      "exist": 2772,
      "box": 2773,
      "bois": 2774,
      "check": 2775,
      "tale": 2776,
      "message": 2777,
      "ulent": 2778,
      "dispose": 2779,
      "ctions": 2780,
      "cru": 2781,
      "marry": 2782,
      "marcher": 2783,
      "prepare": 2784,
      "prenez": 2785,
      "autom": 2786,
      "garde": 2787,
      "ived": 2788,
      "sentence": 2789,
      "human": 2790,
      "minute": 2791,
      "visite": 2792,
      "shouldn": 2793,
      "appel": 2794,
      "appelé": 2795,
      "eye": 2796,
      "furent": 2797,
      "genre": 2798,
      "gener": 2799,
      "tomber": 2800,
      "viendra": 2801,
      "catch": 2802,
      "cated": 2803,
      "faisons": 2804,
      "afternoon": 2805,
      "volution": 2806,
      "broke": 2807,
      "étudiants": 2808,
      "empê": 2809,
      "occupée": 2810,
      "science": 2811,
      "facilement": 2812,
      "enseign": 2813,
      "produit": 2814,
      "changé": 2815,
      "changed": 2816,
      "expli": 2817,
      "drive": 2818,
      "women": 2819,
      "institu": 2820,
      "began": 2821,
      "rieur": 2822,
      "succe": 2823,
      "paper": 2824,
      "smoke": 2825,
      "lève": 2826,
      "picture": 2827,
      "dangerous": 2828,
      "grosse": 2829,
      "espagno": 2830,
      "stupid": 2831,
      "emploi": 2832,
      "glasses": 2833,
      "poisson": 2834,
      "legs": 2835,
      "ordinateur": 2836,
      "flowers": 2837,
      "invited": 2838,
      "complètement": 2839,
      "market": 2840,
      "probablement": 2841,
      "necessary": 2842,
      "préfère": 2843,
      "article": 2844,
      "rentrer": 2845,
      "birthday": 2846,
      "Smith": 2847,
      "floor": 2848,
      "hôpital": 2849,
      "Spanish": 2850,
      "mountain": 2851,
      "wrote": 2852,
      "costume": 2853,
      "espagnol": 2854,
      "Can": 2855,
      "Yor": 2856,
      "bal": 2857,
      "bais": 2858,
      "bill": 2859,
      "cen": 2860,
      "cus": 2861,
      "dence": 2862,
      "dden": 2863,
      "fre": 2864,
      "fasse": 2865,
      "fact": 2866,
      "ges": 2867,
      "gan": 2868,
      "gau": 2869,
      "gun": 2870,
      "gie": 2871,
      "hus": 2872,
      "ires": 2873,
      "ko": 2874,
      "kids": 2875,
      "line": 2876,
      "mment": 2877,
      "pack": 2878,
      "swe": 2879,
      "site": 2880,
      "tw": 2881,
      "tar": 2882,
      "zar": 2883,
      "ède": 2884,
      "œil": 2885,
      "pot": 2886,
      "reuse": 2887,
      "revoir": 2888,
      "possibil": 2889,
      "hen": 2890,
      "heur": 2891,
      "ism": 2892,
      "isé": 2893,
      "isme": 2894,
      "ists": 2895,
      "inno": 2896,
      "invol": 2897,
      "quar": 2898,
      "asion": 2899,
      "arme": 2900,
      "neige": 2901,
      "veulent": 2902,
      "lap": 2903,
      "tee": 2904,
      "teen": 2905,
      "ural": 2906,
      "tré": 2907,
      "trust": 2908,
      "ush": 2909,
      "pected": 2910,
      "river": 2911,
      "weren": 2912,
      "ows": 2913,
      "ety": 2914,
      "sugg": 2915,
      "park": 2916,
      "parfait": 2917,
      "acti": 2918,
      "forward": 2919,
      "moindre": 2920,
      "moitié": 2921,
      "conten": 2922,
      "allée": 2923,
      "ieurs": 2924,
      "ication": 2925,
      "stre": 2926,
      "stars": 2927,
      "découver": 2928,
      "soleil": 2929,
      "dessus": 2930,
      "pends": 2931,
      "pensive": 2932,
      "pleut": 2933,
      "cial": 2934,
      "ciel": 2935,
      "explain": 2936,
      "expensive": 2937,
      "manche": 2938,
      "manteau": 2939,
      "somme": 2940,
      "résou": 2941,
      "plusieurs": 2942,
      "vidé": 2943,
      "série": 2944,
      "arrière": 2945,
      "marier": 2946,
      "seem": 2947,
      "carry": 2948,
      "whether": 2949,
      "dents": 2950,
      "view": 2951,
      "sentences": 2952,
      "bring": 2953,
      "needs": 2954,
      "corri": 2955,
      "course": 2956,
      "build": 2957,
      "gence": 2958,
      "hold": 2959,
      "talked": 2960,
      "fera": 2961,
      "compag": 2962,
      "cute": 2963,
      "loved": 2964,
      "versaire": 2965,
      "played": 2966,
      "famous": 2967,
      "eaten": 2968,
      "eating": 2969,
      "feelings": 2970,
      "bibli": 2971,
      "bizar": 2972,
      "slept": 2973,
      "occasion": 2974,
      "given": 2975,
      "dort": 2976,
      "dormi": 2977,
      "êtres": 2978,
      "Christ": 2979,
      "femmes": 2980,
      "learning": 2981,
      "étudier": 2982,
      "evening": 2983,
      "certaine": 2984,
      "milli": 2985,
      "chapeau": 2986,
      "double": 2987,
      "cade": 2988,
      "également": 2989,
      "excuse": 2990,
      "interesting": 2991,
      "conseils": 2992,
      "walked": 2993,
      "running": 2994,
      "examen": 2995,
      "shoes": 2996,
      "nombreux": 2997,
      "théor": 2998,
      "accept": 2999,
      "terminé": 3000,
      "spoke": 3001,
      "consider": 3002,
      "glass": 3003,
      "selon": 3004,
      "contin": 3005,
      "clés": 3006,
      "wearing": 3007,
      "popular": 3008,
      "Australi": 3009,
      "savent": 3010,
      "Noël": 3011,
      "blood": 3012,
      "pointed": 3013,
      "reason": 3014,
      "heavy": 3015,
      "supposed": 3016,
      "gâteau": 3017,
      "anniversaire": 3018,
      "short": 3019,
      "discuter": 3020,
      "intéressé": 3021,
      "immediately": 3022,
      "York": 3023,
      "husband": 3024,
      "biblioth": 3025,
      "Ju": 3026,
      "Unis": 3027,
      "apo": 3028,
      "bons": 3029,
      "bul": 3030,
      "base": 3031,
      "balle": 3032,
      "cous": 3033,
      "cation": 3034,
      "cue": 3035,
      "cieux": 3036,
      "ctement": 3037,
      "dd": 3038,
      "driez": 3039,
      "fur": 3040,
      "gres": 3041,
      "ian": 3042,
      "ivent": 3043,
      "ième": 3044,
      "kni": 3045,
      "lon": 3046,
      "lan": 3047,
      "mur": 3048,
      "muse": 3049,
      "none": 3050,
      "oper": 3051,
      "pur": 3052,
      "ral": 3053,
      "ram": 3054,
      "rang": 3055,
      "sang": 3056,
      "sport": 3057,
      "tall": 3058,
      "ug": 3059,
      "vor": 3060,
      "vait": 3061,
      "vête": 3062,
      "zoo": 3063,
      "États": 3064,
      "éto": 3065,
      "ément": 3066,
      "éner": 3067,
      "ût": 3068,
      "popu": 3069,
      "oub": 3070,
      "rem": 3071,
      "reco": 3072,
      "revenir": 3073,
      "espé": 3074,
      "issu": 3075,
      "istes": 3076,
      "inqui": 3077,
      "invent": 3078,
      "intro": 3079,
      "levé": 3080,
      "itive": 3081,
      "quick": 3082,
      "ases": 3083,
      "theory": 3084,
      "ara": 3085,
      "arm": 3086,
      "neigh": 3087,
      "thre": 3088,
      "tears": 3089,
      "jeu": 3090,
      "ents": 3091,
      "orig": 3092,
      "organ": 3093,
      "aug": 3094,
      "tran": 3095,
      "using": 3096,
      "prou": 3097,
      "rivi": 3098,
      "wel": 3099,
      "aven": 3100,
      "eter": 3101,
      "ette": 3102,
      "comfort": 3103,
      "suici": 3104,
      "ayez": 3105,
      "outside": 3106,
      "paro": 3107,
      "parap": 3108,
      "forme": 3109,
      "force": 3110,
      "fortune": 3111,
      "move": 3112,
      "étions": 3113,
      "appar": 3114,
      "appointed": 3115,
      "address": 3116,
      "adresse": 3117,
      "ics": 3118,
      "dons": 3119,
      "stairs": 3120,
      "loir": 3121,
      "décou": 3122,
      "début": 3123,
      "dépend": 3124,
      "tree": 3125,
      "goes": 3126,
      "voitu": 3127,
      "deser": 3128,
      "coin": 3129,
      "iller": 3130,
      "shall": 3131,
      "rép": 3132,
      "rés": 3133,
      "chocol": 3134,
      "porté": 3135,
      "servi": 3136,
      "service": 3137,
      "ards": 3138,
      "journal": 3139,
      "discours": 3140,
      "igne": 3141,
      "vies": 3142,
      "gets": 3143,
      "usement": 3144,
      "crying": 3145,
      "président": 3146,
      "ffic": 3147,
      "preu": 3148,
      "phy": 3149,
      "drunk": 3150,
      "vouloir": 3151,
      "seeing": 3152,
      "carte": 3153,
      "sors": 3154,
      "vieil": 3155,
      "vieille": 3156,
      "prison": 3157,
      "jambes": 3158,
      "worked": 3159,
      "amed": 3160,
      "nées": 3161,
      "oblig": 3162,
      "portait": 3163,
      "guys": 3164,
      "finish": 3165,
      "moral": 3166,
      "affaire": 3167,
      "hood": 3168,
      "ferais": 3169,
      "speaks": 3170,
      "plays": 3171,
      "arrêt": 3172,
      "habit": 3173,
      "faisait": 3174,
      "closed": 3175,
      "demander": 3176,
      "déta": 3177,
      "déter": 3178,
      "count": 3179,
      "broken": 3180,
      "commencer": 3181,
      "ross": 3182,
      "strange": 3183,
      "embras": 3184,
      "boute": 3185,
      "history": 3186,
      "mitted": 3187,
      "umbre": 3188,
      "succès": 3189,
      "respond": 3190,
      "respons": 3191,
      "studying": 3192,
      "signi": 3193,
      "pluie": 3194,
      "plupart": 3195,
      "répondre": 3196,
      "clus": 3197,
      "writing": 3198,
      "mauvaise": 3199,
      "théâtre": 3200,
      "imagine": 3201,
      "horri": 3202,
      "stupide": 3203,
      "préférée": 3204,
      "sentiments": 3205,
      "poison": 3206,
      "concert": 3207,
      "Austral": 3208,
      "suffis": 3209,
      "écouter": 3210,
      "sound": 3211,
      "pieds": 3212,
      "pêcher": 3213,
      "phrase": 3214,
      "laugh": 3215,
      "travel": 3216,
      "football": 3217,
      "chaussures": 3218,
      "pleurer": 3219,
      "distance": 3220,
      "magazine": 3221,
      "bâti": 3222,
      "diplom": 3223,
      "rapidement": 3224,
      "dangereux": 3225,
      "lunettes": 3226,
      "realize": 3227,
      "smart": 3228,
      "library": 3229,
      "désormais": 3230,
      "lumière": 3231,
      "enseignant": 3232,
      "instituteur": 3233,
      "innocent": 3234,
      "sommeil": 3235,
      "building": 3236,
      "bizarre": 3237,
      "Christmas": 3238,
      "théorie": 3239,
      "bibliothèque": 3240,
      "introdu": 3241,
      "quickly": 3242,
      "rivière": 3243,
      "voitures": 3244,
      "Dé": 3245,
      "OK": 3246,
      "St": 3247,
      "Thom": 3248,
      "afin": 3249,
      "blu": 3250,
      "cup": 3251,
      "cise": 3252,
      "eur": 3253,
      "ech": 3254,
      "fly": 3255,
      "gam": 3256,
      "ged": 3257,
      "gard": 3258,
      "ham": 3259,
      "hang": 3260,
      "haut": 3261,
      "ives": 3262,
      "jard": 3263,
      "kil": 3264,
      "lla": 3265,
      "mn": 3266,
      "mig": 3267,
      "nête": 3268,
      "ois": 3269,
      "rappeler": 3270,
      "sme": 3271,
      "save": 3272,
      "tat": 3273,
      "tres": 3274,
      "tien": 3275,
      "vil": 3276,
      "vont": 3277,
      "yons": 3278,
      "éche": 3279,
      "évit": 3280,
      "pool": 3281,
      "poids": 3282,
      "oux": 3283,
      "rep": 3284,
      "recherche": 3285,
      "position": 3286,
      "oncle": 3287,
      "isten": 3288,
      "inj": 3289,
      "ined": 3290,
      "lequel": 3291,
      "ering": 3292,
      "quent": 3293,
      "assu": 3294,
      "assure": 3295,
      "devenir": 3296,
      "ater": 3297,
      "atte": 3298,
      "ilo": 3299,
      "ilà": 3300,
      "lax": 3301,
      "laires": 3302,
      "tex": 3303,
      "sever": 3304,
      "secre": 3305,
      "entra": 3306,
      "entrée": 3307,
      "ceau": 3308,
      "ority": 3309,
      "aies": 3310,
      "alter": 3311,
      "ury": 3312,
      "uncle": 3313,
      "tric": 3314,
      "prat": 3315,
      "prun": 3316,
      "prot": 3317,
      "dies": 3318,
      "dimanche": 3319,
      "avis": 3320,
      "avance": 3321,
      "avoi": 3322,
      "ama": 3323,
      "comporte": 3324,
      "respe": 3325,
      "resté": 3326,
      "impro": 3327,
      "apple": 3328,
      "allés": 3329,
      "ader": 3330,
      "ains": 3331,
      "abroad": 3332,
      "siè": 3333,
      "sight": 3334,
      "rendez": 3335,
      "gover": 3336,
      "ply": 3337,
      "herself": 3338,
      "mons": 3339,
      "anges": 3340,
      "cop": 3341,
      "coll": 3342,
      "copi": 3343,
      "cancer": 3344,
      "plein": 3345,
      "quotidi": 3346,
      "fron": 3347,
      "perfect": 3348,
      "proper": 3349,
      "projet": 3350,
      "quiet": 3351,
      "luie": 3352,
      "cip": 3353,
      "existen": 3354,
      "quelles": 3355,
      "quelconque": 3356,
      "chen": 3357,
      "manquer": 3358,
      "sert": 3359,
      "worth": 3360,
      "plais": 3361,
      "tés": 3362,
      "disco": 3363,
      "endor": 3364,
      "somewhere": 3365,
      "cks": 3366,
      "autour": 3367,
      "nervous": 3368,
      "garder": 3369,
      "amies": 3370,
      "huit": 3371,
      "direction": 3372,
      "visage": 3373,
      "guerre": 3374,
      "speech": 3375,
      "fight": 3376,
      "hiver": 3377,
      "appelez": 3378,
      "pareil": 3379,
      "cherch": 3380,
      "mettez": 3381,
      "istance": 3382,
      "bike": 3383,
      "space": 3384,
      "understood": 3385,
      "cents": 3386,
      "older": 3387,
      "voyez": 3388,
      "single": 3389,
      "price": 3390,
      "gives": 3391,
      "dogs": 3392,
      "solve": 3393,
      "regardé": 3394,
      "weekend": 3395,
      "painting": 3396,
      "Chin": 3397,
      "intérieur": 3398,
      "ciné": 3399,
      "profess": 3400,
      "traver": 3401,
      "traffic": 3402,
      "winter": 3403,
      "fortun": 3404,
      "photos": 3405,
      "emprun": 3406,
      "000": 3407,
      "vingt": 3408,
      "marié": 3409,
      "driving": 3410,
      "fond": 3411,
      "meilleure": 3412,
      "sauf": 3413,
      "netto": 3414,
      "success": 3415,
      "papier": 3416,
      "signe": 3417,
      "fallu": 3418,
      "montrer": 3419,
      "silen": 3420,
      "sooner": 3421,
      "printemps": 3422,
      "affaires": 3423,
      "prochaine": 3424,
      "faul": 3425,
      "connaître": 3426,
      "population": 3427,
      "chanter": 3428,
      "uels": 3429,
      "dictionary": 3430,
      "dictionnaire": 3431,
      "kiss": 3432,
      "video": 3433,
      "actually": 3434,
      "société": 3435,
      "pleased": 3436,
      "phrases": 3437,
      "figure": 3438,
      "figured": 3439,
      "usual": 3440,
      "usually": 3441,
      "racon": 3442,
      "chanson": 3443,
      "impli": 3444,
      "réussi": 3445,
      "montagne": 3446,
      "groupe": 3447,
      "accepter": 3448,
      "television": 3449,
      "prêter": 3450,
      "spring": 3451,
      "pronon": 3452,
      "advised": 3453,
      "épouser": 3454,
      "allowed": 3455,
      "expliquer": 3456,
      "résoudre": 3457,
      "cadeau": 3458,
      "continu": 3459,
      "apologi": 3460,
      "avenir": 3461,
      "parapluie": 3462,
      "détermin": 3463,
      "umbrella": 3464,
      "suffisamment": 3465,
      "Thomas": 3466,
      "secrets": 3467,
      "existence": 3468,
      "11": 3469,
      "15": 3470,
      "Alle": 3471,
      "Bob": 3472,
      "Ex": 3473,
      "Je": 3474,
      "Kate": 3475,
      "Lon": 3476,
      "Lind": 3477,
      "Mi": 3478,
      "Mo": 3479,
      "Sal": 3480,
      "Unit": 3481,
      "Wh": 3482,
      "ail": 3483,
      "ben": 3484,
      "bly": 3485,
      "bille": 3486,
      "cand": 3487,
      "cter": 3488,
      "clar": 3489,
      "cteur": 3490,
      "ctif": 3491,
      "event": 3492,
      "eight": 3493,
      "fla": 3494,
      "fie": 3495,
      "flat": 3496,
      "gni": 3497,
      "glis": 3498,
      "gagne": 3499,
      "ime": 3500,
      "ides": 3501,
      "ize": 3502,
      "kit": 3503,
      "lin": 3504,
      "lise": 3505,
      "mienne": 3506,
      "nais": 3507,
      "nant": 3508,
      "nment": 3509,
      "nons": 3510,
      "ore": 3511,
      "orer": 3512,
      "pa": 3513,
      "pagne": 3514,
      "ril": 3515,
      "ror": 3516,
      "rai": 3517,
      "ring": 3518,
      "rus": 3519,
      "ray": 3520,
      "rons": 3521,
      "rête": 3522,
      "range": 3523,
      "rappelle": 3524,
      "sin": 3525,
      "sla": 3526,
      "sain": 3527,
      "spor": 3528,
      "scar": 3529,
      "scare": 3530,
      "tions": 3531,
      "vase": 3532,
      "vince": 3533,
      "ép": 3534,
      "économ": 3535,
      "poir": 3536,
      "pock": 3537,
      "power": 3538,
      "ouvre": 3539,
      "remon": 3540,
      "report": 3541,
      "reconnais": 3542,
      "resul": 3543,
      "reçu": 3544,
      "esca": 3545,
      "hero": 3546,
      "onde": 3547,
      "ente": 3548,
      "inten": 3549,
      "incre": 3550,
      "insul": 3551,
      "années": 3552,
      "leep": 3553,
      "leçon": 3554,
      "qual": 3555,
      "quée": 3556,
      "asleep": 3557,
      "determin": 3558,
      "omb": 3559,
      "atta": 3560,
      "veau": 3561,
      "thous": 3562,
      "lac": 3563,
      "lay": 3564,
      "labor": 3565,
      "teaux": 3566,
      "jeux": 3567,
      "meal": 3568,
      "memor": 3569,
      "sex": 3570,
      "seat": 3571,
      "aimé": 3572,
      "along": 3573,
      "chon": 3574,
      "aul": 3575,
      "ots": 3576,
      "lier": 3577,
      "tué": 3578,
      "tuer": 3579,
      "beat": 3580,
      "prim": 3581,
      "pract": 3582,
      "pein": 3583,
      "lesson": 3584,
      "iré": 3585,
      "diale": 3586,
      "divor": 3587,
      "ries": 3588,
      "ambit": 3589,
      "compren": 3590,
      "complain": 3591,
      "parc": 3592,
      "parlent": 3593,
      "acter": 3594,
      "across": 3595,
      "agé": 3596,
      "aged": 3597,
      "moved": 3598,
      "ources": 3599,
      "éter": 3600,
      "état": 3601,
      "connu": 3602,
      "conside": 3603,
      "convain": 3604,
      "appren": 3605,
      "uts": 3606,
      "ices": 3607,
      "local": 3608,
      "décision": 3609,
      "soin": 3610,
      "gold": 3611,
      "robe": 3612,
      "myst": 3613,
      "voilà": 3614,
      "note": 3615,
      "tice": 3616,
      "coupe": 3617,
      "maj": 3618,
      "danser": 3619,
      "frapp": 3620,
      "persu": 3621,
      "permission": 3622,
      "prote": 3623,
      "proche": 3624,
      "propres": 3625,
      "quiconque": 3626,
      "existe": 3627,
      "express": 3628,
      "expected": 3629,
      "shut": 3630,
      "tails": 3631,
      "sommet": 3632,
      "rég": 3633,
      "réalis": 3634,
      "ular": 3635,
      "choisir": 3636,
      "surance": 3637,
      "portes": 3638,
      "sala": 3639,
      "worse": 3640,
      "tées": 3641,
      "disappointed": 3642,
      "ateurs": 3643,
      "vive": 3644,
      "vivent": 3645,
      "cts": 3646,
      "vrir": 3647,
      "merveille": 3648,
      "lette": 3649,
      "cesse": 3650,
      "opport": 3651,
      "cry": 3652,
      "vécu": 3653,
      "philo": 3654,
      "voudriez": 3655,
      "bread": 3656,
      "missed": 3657,
      "mistakes": 3658,
      "cars": 3659,
      "pizz": 3660,
      "brû": 3661,
      "travaillé": 3662,
      "humeur": 3663,
      "ponctu": 3664,
      "guy": 3665,
      "guit": 3666,
      "math": 3667,
      "finally": 3668,
      "finalement": 3669,
      "court": 3670,
      "croit": 3671,
      "apped": 3672,
      "appear": 3673,
      "ferme": 3674,
      "fermer": 3675,
      "fermé": 3676,
      "payé": 3677,
      "blanc": 3678,
      "lots": 3679,
      "justice": 3680,
      "tries": 3681,
      "business": 3682,
      "tomb": 3683,
      "tombé": 3684,
      "viendrai": 3685,
      "raisons": 3686,
      "arrête": 3687,
      "voyager": 3688,
      "attends": 3689,
      "ption": 3690,
      "hardly": 3691,
      "solution": 3692,
      "erreurs": 3693,
      "Chris": 3694,
      "étudiant": 3695,
      "doub": 3696,
      "draw": 3697,
      "docteur": 3698,
      "proposition": 3699,
      "native": 3700,
      "surprise": 3701,
      "aimait": 3702,
      "during": 3703,
      "jeunes": 3704,
      "correctement": 3705,
      "honte": 3706,
      "honest": 3707,
      "honnête": 3708,
      "skin": 3709,
      "conseil": 3710,
      "claire": 3711,
      "sign": 3712,
      "réponse": 3713,
      "clou": 3714,
      "animaux": 3715,
      "présenter": 3716,
      "crime": 3717,
      "culture": 3718,
      "pause": 3719,
      "accused": 3720,
      "vacation": 3721,
      "étrange": 3722,
      "ouvert": 3723,
      "lundi": 3724,
      "préféré": 3725,
      "spoken": 3726,
      "suivre": 3727,
      "cooking": 3728,
      "bicyc": 3729,
      "mourir": 3730,
      "gagner": 3731,
      "joindre": 3732,
      "thirty": 3733,
      "satisfait": 3734,
      "satisfied": 3735,
      "fully": 3736,
      "America": 3737,
      "punctu": 3738,
      "ashamed": 3739,
      "201": 3740,
      "piscine": 3741,
      "piece": 3742,
      "pommes": 3743,
      "pleuvoir": 3744,
      "Monday": 3745,
      "œufs": 3746,
      "attrapé": 3747,
      "Arrête": 3748,
      "envoyé": 3749,
      "return": 3750,
      "Sunday": 3751,
      "hypo": 3752,
      "moyen": 3753,
      "intéressant": 3754,
      "bateau": 3755,
      "eggs": 3756,
      "prepared": 3757,
      "baiser": 3758,
      "gauche": 3759,
      "twice": 3760,
      "involved": 3761,
      "découvert": 3762,
      "vidéo": 3763,
      "Australia": 3764,
      "vêtements": 3765,
      "étoiles": 3766,
      "oublie": 3767,
      "origin": 3768,
      "augment": 3769,
      "tranqu": 3770,
      "comfortable": 3771,
      "Australie": 3772,
      "bâtiment": 3773,
      "jardin": 3774,
      "mignon": 3775,
      "smell": 3776,
      "government": 3777,
      "Chinese": 3778,
      "Linda": 3779,
      "United": 3780,
      "kitchen": 3781,
      "considered": 3782,
      "opportun": 3783,
      "philoso": 3784,
      "Arrêtez": 3785,
      "Ang": 3786,
      "Brit": 3787,
      "Con": 3788,
      "Com": 3789,
      "Es": 3790,
      "Fri": 3791,
      "Pré": 3792,
      "Rus": 3793,
      "Se": 3794,
      "Sus": 3795,
      "Un": 3796,
      "Uni": 3797,
      "War": 3798,
      "aver": 3799,
      "apart": 3800,
      "bin": 3801,
      "bun": 3802,
      "bite": 3803,
      "cée": 3804,
      "cuse": 3805,
      "dam": 3806,
      "dad": 3807,
      "fant": 3808,
      "gas": 3809,
      "gouver": 3810,
      "ha": 3811,
      "hâ": 3812,
      "hes": 3813,
      "hau": 3814,
      "io": 3815,
      "iers": 3816,
      "jout": 3817,
      "ks": 3818,
      "kno": 3819,
      "kely": 3820,
      "lant": 3821,
      "lour": 3822,
      "llo": 3823,
      "lend": 3824,
      "mad": 3825,
      "mille": 3826,
      "mbo": 3827,
      "ns": 3828,
      "nt": 3829,
      "nait": 3830,
      "nic": 3831,
      "obe": 3832,
      "olog": 3833,
      "pâ": 3834,
      "page": 3835,
      "paid": 3836,
      "pale": 3837,
      "rè": 3838,
      "rue": 3839,
      "rhu": 3840,
      "rêt": 3841,
      "sée": 3842,
      "smi": 3843,
      "sache": 3844,
      "salle": 3845,
      "tis": 3846,
      "tas": 3847,
      "tte": 3848,
      "tun": 3849,
      "task": 3850,
      "tâche": 3851,
      "var": 3852,
      "vable": 3853,
      "wise": 3854,
      "yé": 3855,
      "èle": 3856,
      "éte": 3857,
      "éro": 3858,
      "élu": 3859,
      "énor": 3860,
      "poll": 3861,
      "repas": 3862,
      "requi": 3863,
      "remp": 3864,
      "remain": 3865,
      "reach": 3866,
      "revenu": 3867,
      "held": 3868,
      "infor": 3869,
      "lever": 3870,
      "leterre": 3871,
      "iter": 3872,
      "ited": 3873,
      "deli": 3874,
      "demi": 3875,
      "decision": 3876,
      "depends": 3877,
      "details": 3878,
      "ata": 3879,
      "ator": 3880,
      "arbre": 3881,
      "totale": 3882,
      "velo": 3883,
      "veget": 3884,
      "laver": 3885,
      "tea": 3886,
      "text": 3887,
      "meu": 3888,
      "means": 3889,
      "sept": 3890,
      "enty": 3891,
      "entire": 3892,
      "ord": 3893,
      "orange": 3894,
      "aiment": 3895,
      "allais": 3896,
      "ingé": 3897,
      "urch": 3898,
      "passed": 3899,
      "chin": 3900,
      "auth": 3901,
      "aupar": 3902,
      "unfortun": 3903,
      "lièrement": 3904,
      "likely": 3905,
      "bear": 3906,
      "beach": 3907,
      "prouve": 3908,
      "doivent": 3909,
      "irait": 3910,
      "irrel": 3911,
      "offer": 3912,
      "dig": 3913,
      "ric": 3914,
      "rieux": 3915,
      "weight": 3916,
      "compos": 3917,
      "common": 3918,
      "sudden": 3919,
      "white": 3920,
      "outons": 3921,
      "partout": 3922,
      "parlait": 3923,
      "area": 3924,
      "ared": 3925,
      "acle": 3926,
      "agre": 3927,
      "forgive": 3928,
      "moder": 3929,
      "imum": 3930,
      "étage": 3931,
      "convers": 3932,
      "apparen": 3933,
      "appoint": 3934,
      "apparti": 3935,
      "utile": 3936,
      "admis": 3937,
      "donna": 3938,
      "songe": 3939,
      "loves": 3940,
      "loss": 3941,
      "absur": 3942,
      "dési": 3943,
      "départ": 3944,
      "détru": 3945,
      "déçu": 3946,
      "soli": 3947,
      "soif": 3948,
      "tremble": 3949,
      "plant": 3950,
      "plenty": 3951,
      "novel": 3952,
      "tire": 3953,
      "mail": 3954,
      "feet": 3955,
      "fection": 3956,
      "perte": 3957,
      "cible": 3958,
      "ureu": 3959,
      "bother": 3960,
      "manager": 3961,
      "shy": 3962,
      "shar": 3963,
      "ship": 3964,
      "résul": 3965,
      "réparer": 3966,
      "faith": 3967,
      "choose": 3968,
      "seras": 3969,
      "seront": 3970,
      "venait": 3971,
      "venge": 3972,
      "plage": 3973,
      "plaisir": 3974,
      "nient": 3975,
      "disent": 3976,
      "dispar": 3977,
      "disput": 3978,
      "distribu": 3979,
      "discus": 3980,
      "ustom": 3981,
      "vivant": 3982,
      "vidence": 3983,
      "upstairs": 3984,
      "hasard": 3985,
      "sérieux": 3986,
      "arrivée": 3987,
      "ician": 3988,
      "gez": 3989,
      "cruel": 3990,
      "prépar": 3991,
      "légu": 3992,
      "marre": 3993,
      "vés": 3994,
      "vénient": 3995,
      "butter": 3996,
      "touche": 3997,
      "ners": 3998,
      "gars": 3999,
      "garage": 4000,
      "vraie": 4001,
      "bonnes": 4002,
      "sentir": 4003,
      "brought": 4004,
      "brown": 4005,
      "toile": 4006,
      "toilet": 4007,
      "direct": 4008,
      "portable": 4009,
      "helped": 4010,
      "gues": 4011,
      "guer": 4012,
      "longs": 4013,
      "matiques": 4014,
      "corps": 4015,
      "correspond": 4016,
      "morceau": 4017,
      "hide": 4018,
      "cros": 4019,
      "croy": 4020,
      "newsp": 4021,
      "aimez": 4022,
      "president": 4023,
      "devint": 4024,
      "holi": 4025,
      "acked": 4026,
      "viennent": 4027,
      "joué": 4028,
      "offen": 4029,
      "famili": 4030,
      "wore": 4031,
      "spent": 4032,
      "auriez": 4033,
      "planet": 4034,
      "géni": 4035,
      "patron": 4036,
      "écureu": 4037,
      "promet": 4038,
      "borrow": 4039,
      "calme": 4040,
      "demanda": 4041,
      "soldi": 4042,
      "painted": 4043,
      "magne": 4044,
      "intérêt": 4045,
      "rude": 4046,
      "filled": 4047,
      "hurried": 4048,
      "jolie": 4049,
      "Fran": 4050,
      "raining": 4051,
      "greatest": 4052,
      "emporter": 4053,
      "larmes": 4054,
      "droite": 4055,
      "timide": 4056,
      "semaines": 4057,
      "capit": 4058,
      "normal": 4059,
      "shower": 4060,
      "natural": 4061,
      "universe": 4062,
      "produire": 4063,
      "letters": 4064,
      "visiter": 4065,
      "visited": 4066,
      "mariage": 4067,
      "sky": 4068,
      "according": 4069,
      "funny": 4070,
      "responsible": 4071,
      "cassé": 4072,
      "suspect": 4073,
      "transl": 4074,
      "appréci": 4075,
      "parties": 4076,
      "boyfriend": 4077,
      "awa": 4078,
      "awake": 4079,
      "rapport": 4080,
      "warm": 4081,
      "warned": 4082,
      "crimin": 4083,
      "hundre": 4084,
      "silent": 4085,
      "ennemi": 4086,
      "symbo": 4087,
      "disposez": 4088,
      "bouton": 4089,
      "espace": 4090,
      "différent": 4091,
      "cuisin": 4092,
      "fenêtres": 4093,
      "ancy": 4094,
      "listening": 4095,
      "medicine": 4096,
      "coûte": 4097,
      "fishing": 4098,
      "difference": 4099,
      "amoureuse": 4100,
      "costs": 4101,
      "thanks": 4102,
      "windows": 4103,
      "roman": 4104,
      "thirsty": 4105,
      "sounds": 4106,
      "burst": 4107,
      "ennuis": 4108,
      "retourner": 4109,
      "sembles": 4110,
      "animals": 4111,
      "bottle": 4112,
      "dressed": 4113,
      "national": 4114,
      "following": 4115,
      "destination": 4116,
      "pomme": 4117,
      "earthqu": 4118,
      "scientifique": 4119,
      "ouvrir": 4120,
      "seriously": 4121,
      "échou": 4122,
      "received": 4123,
      "enemy": 4124,
      "absolute": 4125,
      "vendredi": 4126,
      "beginning": 4127,
      "Amérique": 4128,
      "effet": 4129,
      "maman": 4130,
      "inconvénient": 4131,
      "occuper": 4132,
      "améliorer": 4133,
      "réfléchir": 4134,
      "squirrel": 4135,
      "energy": 4136,
      "abilité": 4137,
      "automne": 4138,
      "succeeded": 4139,
      "teeth": 4140,
      "suggest": 4141,
      "contente": 4142,
      "compagnie": 4143,
      "recogni": 4144,
      "issue": 4145,
      "découvrir": 4146,
      "preuve": 4147,
      "détails": 4148,
      "embrasser": 4149,
      "bouteille": 4150,
      "responsable": 4151,
      "laughing": 4152,
      "blue": 4153,
      "garden": 4154,
      "injured": 4155,
      "avoid": 4156,
      "copine": 4157,
      "copies": 4158,
      "profession": 4159,
      "Excuse": 4160,
      "Jean": 4161,
      "scared": 4162,
      "thousand": 4163,
      "punctual": 4164,
      "tranquille": 4165,
      "Angleterre": 4166,
      "Friday": 4167,
      "Susan": 4168,
      "gouvernement": 4169,
      "règ": 4170,
      "auparavant": 4171,
      "unfortunately": 4172,
      "conversation": 4173,
      "appartient": 4174,
      "newspaper": 4175,
      "familiar": 4176,
      "Excusez": 4177,
      "12": 4178,
      "200": 4179,
      "60": 4180,
      "Ak": 4181,
      "As": 4182,
      "Esp": 4183,
      "Gre": 4184,
      "Ky": 4185,
      "La": 4186,
      "May": 4187,
      "Nations": 4188,
      "Nancy": 4189,
      "Paul": 4190,
      "Sh": 4191,
      "So": 4192,
      "Su": 4193,
      "Spain": 4194,
      "Tan": 4195,
      "Tur": 4196,
      "You": 4197,
      "ajout": 4198,
      "bright": 4199,
      "barr": 4200,
      "cure": 4201,
      "cend": 4202,
      "cache": 4203,
      "cows": 4204,
      "dot": 4205,
      "dus": 4206,
      "data": 4207,
      "eut": 4208,
      "fle": 4209,
      "fing": 4210,
      "fout": 4211,
      "gat": 4212,
      "ghed": 4213,
      "hol": 4214,
      "ié": 4215,
      "ible": 4216,
      "ized": 4217,
      "iko": 4218,
      "ka": 4219,
      "list": 4220,
      "lines": 4221,
      "mous": 4222,
      "mée": 4223,
      "mage": 4224,
      "mbre": 4225,
      "moutons": 4226,
      "nations": 4227,
      "ode": 4228,
      "phe": 4229,
      "pill": 4230,
      "pig": 4231,
      "psy": 4232,
      "rami": 4233,
      "round": 4234,
      "rôle": 4235,
      "sante": 4236,
      "sages": 4237,
      "tin": 4238,
      "tren": 4239,
      "tly": 4240,
      "tasse": 4241,
      "uis": 4242,
      "uits": 4243,
      "van": 4244,
      "vres": 4245,
      "vons": 4246,
      "vine": 4247,
      "wind": 4248,
      "wake": 4249,
      "zy": 4250,
      "èse": 4251,
      "ér": 4252,
      "épo": 4253,
      "écou": 4254,
      "ôtre": 4255,
      "ômes": 4256,
      "refaire": 4257,
      "poss": 4258,
      "espe": 4259,
      "esses": 4260,
      "espoir": 4261,
      "isée": 4262,
      "endu": 4263,
      "iné": 4264,
      "influ": 4265,
      "anx": 4266,
      "leman": 4267,
      "lebr": 4268,
      "quant": 4269,
      "del": 4270,
      "dered": 4271,
      "devient": 4272,
      "ome": 4273,
      "theater": 4274,
      "arbres": 4275,
      "toys": 4276,
      "neu": 4277,
      "neur": 4278,
      "nelle": 4279,
      "vered": 4280,
      "throw": 4281,
      "lake": 4282,
      "lable": 4283,
      "lazy": 4284,
      "tech": 4285,
      "meant": 4286,
      "separ": 4287,
      "entré": 4288,
      "celebr": 4289,
      "oro": 4290,
      "orge": 4291,
      "oranges": 4292,
      "estim": 4293,
      "alph": 4294,
      "alive": 4295,
      "alliez": 4296,
      "alcool": 4297,
      "chall": 4298,
      "chair": 4299,
      "chick": 4300,
      "church": 4301,
      "unique": 4302,
      "lion": 4303,
      "lied": 4304,
      "bel": 4305,
      "beur": 4306,
      "prêtes": 4307,
      "prices": 4308,
      "irré": 4309,
      "dia": 4310,
      "dict": 4311,
      "rice": 4312,
      "ridi": 4313,
      "riches": 4314,
      "weak": 4315,
      "avoc": 4316,
      "amp": 4317,
      "ettes": 4318,
      "commande": 4319,
      "resident": 4320,
      "parla": 4321,
      "parles": 4322,
      "acy": 4323,
      "acif": 4324,
      "acted": 4325,
      "accent": 4326,
      "active": 4327,
      "aggres": 4328,
      "ford": 4329,
      "forcé": 4330,
      "forced": 4331,
      "moon": 4332,
      "movies": 4333,
      "image": 4334,
      "impatient": 4335,
      "conne": 4336,
      "consu": 4337,
      "consac": 4338,
      "congrat": 4339,
      "conscience": 4340,
      "conclus": 4341,
      "convince": 4342,
      "appareil": 4343,
      "allu": 4344,
      "ada": 4345,
      "adap": 4346,
      "admitted": 4347,
      "iche": 4348,
      "loi": 4349,
      "loy": 4350,
      "ters": 4351,
      "sique": 4352,
      "size": 4353,
      "rends": 4354,
      "waste": 4355,
      "dée": 4356,
      "déli": 4357,
      "soi": 4358,
      "soix": 4359,
      "soyons": 4360,
      "trees": 4361,
      "treated": 4362,
      "due": 4363,
      "dule": 4364,
      "ghost": 4365,
      "plans": 4366,
      "plément": 4367,
      "voie": 4368,
      "dessin": 4369,
      "angle": 4370,
      "angles": 4371,
      "sheep": 4372,
      "copain": 4373,
      "iences": 4374,
      "tirer": 4375,
      "coucher": 4376,
      "mach": 4377,
      "fear": 4378,
      "fré": 4379,
      "fray": 4380,
      "frères": 4381,
      "fruits": 4382,
      "permis": 4383,
      "perhap": 4384,
      "project": 4385,
      "cious": 4386,
      "exh": 4387,
      "tenu": 4388,
      "boit": 4389,
      "boat": 4390,
      "manu": 4391,
      "tail": 4392,
      "révé": 4393,
      "réjou": 4394,
      "réveillé": 4395,
      "mesure": 4396,
      "surviv": 4397,
      "serv": 4398,
      "serve": 4399,
      "served": 4400,
      "sale": 4401,
      "venez": 4402,
      "worst": 4403,
      "worried": 4404,
      "fool": 4405,
      "disait": 4406,
      "ification": 4407,
      "vier": 4408,
      "upset": 4409,
      "sépar": 4410,
      "arrivent": 4411,
      "gram": 4412,
      "grap": 4413,
      "ground": 4414,
      "gement": 4415,
      "options": 4416,
      "crow": 4417,
      "préparer": 4418,
      "partici": 4419,
      "button": 4420,
      "preten": 4421,
      "phys": 4422,
      "phones": 4423,
      "aked": 4424,
      "toucher": 4425,
      "touched": 4426,
      "drank": 4427,
      "soul": 4428,
      "souci": 4429,
      "souvenir": 4430,
      "nerve": 4431,
      "nerveux": 4432,
      "fromage": 4433,
      "sortes": 4434,
      "pier": 4435,
      "pierre": 4436,
      "talent": 4437,
      "taller": 4438,
      "brain": 4439,
      "brill": 4440,
      "poule": 4441,
      "humour": 4442,
      "minimum": 4443,
      "nés": 4444,
      "portée": 4445,
      "mater": 4446,
      "match": 4447,
      "mathé": 4448,
      "courir": 4449,
      "gentil": 4450,
      "gentleman": 4451,
      "buil": 4452,
      "geni": 4453,
      "talks": 4454,
      "chercher": 4455,
      "blank": 4456,
      "compter": 4457,
      "itude": 4458,
      "watched": 4459,
      "nouvel": 4460,
      "assed": 4461,
      "asseoir": 4462,
      "enfance": 4463,
      "says": 4464,
      "jouets": 4465,
      "malheureuse": 4466,
      "grandes": 4467,
      "grandfather": 4468,
      "grandmother": 4469,
      "vues": 4470,
      "wood": 4471,
      "action": 4472,
      "spé": 4473,
      "spir": 4474,
      "centre": 4475,
      "homework": 4476,
      "aurions": 4477,
      "planète": 4478,
      "childhood": 4479,
      "gérer": 4480,
      "contrat": 4481,
      "control": 4482,
      "sings": 4483,
      "singer": 4484,
      "entrer": 4485,
      "support": 4486,
      "supplément": 4487,
      "happening": 4488,
      "éclat": 4489,
      "pyrami": 4490,
      "calm": 4491,
      "liste": 4492,
      "giving": 4493,
      "futon": 4494,
      "seuls": 4495,
      "color": 4496,
      "petites": 4497,
      "weeks": 4498,
      "chiens": 4499,
      "handle": 4500,
      "England": 4501,
      "effe": 4502,
      "effect": 4503,
      "effray": 4504,
      "musée": 4505,
      "volun": 4506,
      "stopped": 4507,
      "keeps": 4508,
      "countries": 4509,
      "commença": 4510,
      "étudie": 4511,
      "rules": 4512,
      "certaines": 4513,
      "douche": 4514,
      "stranger": 4515,
      "chanceux": 4516,
      "drop": 4517,
      "droits": 4518,
      "understanding": 4519,
      "Inde": 4520,
      "scene": 4521,
      "enseigner": 4522,
      "drinking": 4523,
      "kinds": 4524,
      "égal": 4525,
      "église": 4526,
      "excus": 4527,
      "excuses": 4528,
      "importantes": 4529,
      "license": 4530,
      "difficultés": 4531,
      "refused": 4532,
      "conduis": 4533,
      "dente": 4534,
      "durant": 4535,
      "driver": 4536,
      "miracle": 4537,
      "runs": 4538,
      "complex": 4539,
      "blame": 4540,
      "casser": 4541,
      "clair": 4542,
      "papa": 4543,
      "quitter": 4544,
      "translate": 4545,
      "wedding": 4546,
      "rencontrée": 4547,
      "maladie": 4548,
      "battre": 4549,
      "pictures": 4550,
      "virus": 4551,
      "passée": 4552,
      "montrez": 4553,
      "matters": 4554,
      "nombreuses": 4555,
      "barbe": 4556,
      "fail": 4557,
      "favour": 4558,
      "symp": 4559,
      "ouverte": 4560,
      "princip": 4561,
      "imaginer": 4562,
      "imagination": 4563,
      "foods": 4564,
      "cuisiner": 4565,
      "wonderful": 4566,
      "faute": 4567,
      "décider": 4568,
      "décida": 4569,
      "feuilles": 4570,
      "suivant": 4571,
      "coût": 4572,
      "selves": 4573,
      "Germany": 4574,
      "healthy": 4575,
      "gagné": 4576,
      "impressed": 4577,
      "starting": 4578,
      "université": 4579,
      "university": 4580,
      "kissed": 4581,
      "leaves": 4582,
      "subject": 4583,
      "months": 4584,
      "banan": 4585,
      "197": 4586,
      "198": 4587,
      "laughed": 4588,
      "Americans": 4589,
      "victo": 4590,
      "politique": 4591,
      "reasons": 4592,
      "destin": 4593,
      "devoirs": 4594,
      "prudent": 4595,
      "club": 4596,
      "nulle": 4597,
      "rêve": 4598,
      "rarement": 4599,
      "élec": 4600,
      "écras": 4601,
      "archite": 4602,
      "temper": 4603,
      "telephone": 4604,
      "growing": 4605,
      "confis": 4606,
      "construction": 4607,
      "absolument": 4608,
      "promises": 4609,
      "embarrassed": 4610,
      "Améric": 4611,
      "lawyer": 4612,
      "entends": 4613,
      "excell": 4614,
      "instructions": 4615,
      "occupe": 4616,
      "accusé": 4617,
      "arrogant": 4618,
      "USA": 4619,
      "faster": 4620,
      "failed": 4621,
      "statue": 4622,
      "above": 4623,
      "exercise": 4624,
      "empêcher": 4625,
      "Canada": 4626,
      "possibilité": 4627,
      "parfaite": 4628,
      "street": 4629,
      "corriger": 4630,
      "cousin": 4631,
      "ddle": 4632,
      "knife": 4633,
      "museum": 4634,
      "énergie": 4635,
      "inquiète": 4636,
      "threw": 4637,
      "proud": 4638,
      "horrible": 4639,
      "States": 4640,
      "games": 4641,
      "échec": 4642,
      "éviter": 4643,
      "several": 4644,
      "pratique": 4645,
      "cinéma": 4646,
      "nettoyer": 4647,
      "fault": 4648,
      "apologize": 4649,
      "Allemagne": 4650,
      "Salut": 4651,
      "memory": 4652,
      "protect": 4653,
      "réaliser": 4654,
      "pizza": 4655,
      "clairement": 4656,
      "2013": 4657,
      "pâle": 4658,
      "rhume": 4659,
      "tunnel": 4660,
      "agreed": 4661,
      "hundred": 4662,
      "règles": 4663,
      "Espagne": 4664,
      "Kyoto": 4665,
      "trente": 4666,
      "chicken": 4667,
      "congratul": 4668,
      "soixante": 4669,
      "perhaps": 4670,
      "réjouis": 4671,
      "malheureusement": 4672,
      "Bra": 4673,
      "Ce": 4674,
      "Co": 4675,
      "Cor": 4676,
      "Col": 4677,
      "En": 4678,
      "Ho": 4679,
      "Jack": 4680,
      "MS": 4681,
      "Nor": 4682,
      "Per": 4683,
      "Pro": 4684,
      "Quels": 4685,
      "Res": 4686,
      "Sach": 4687,
      "Tr": 4688,
      "Tu": 4689,
      "Yu": 4690,
      "aî": 4691,
      "adi": 4692,
      "aded": 4693,
      "abet": 4694,
      "ahead": 4695,
      "bare": 4696,
      "bour": 4697,
      "bone": 4698,
      "bank": 4699,
      "cil": 4700,
      "cot": 4701,
      "cab": 4702,
      "ccer": 4703,
      "cach": 4704,
      "custom": 4705,
      "dout": 4706,
      "dèle": 4707,
      "eus": 4708,
      "econom": 4709,
      "equal": 4710,
      "evidence": 4711,
      "fair": 4712,
      "gs": 4713,
      "gon": 4714,
      "gle": 4715,
      "gal": 4716,
      "glo": 4717,
      "gré": 4718,
      "gorge": 4719,
      "hone": 4720,
      "hill": 4721,
      "hob": 4722,
      "ied": 4723,
      "iment": 4724,
      "jack": 4725,
      "ky": 4726,
      "ker": 4727,
      "kid": 4728,
      "mie": 4729,
      "mic": 4730,
      "mien": 4731,
      "pit": 4732,
      "pai": 4733,
      "pal": 4734,
      "pige": 4735,
      "pneu": 4736,
      "rab": 4737,
      "rate": 4738,
      "race": 4739,
      "rank": 4740,
      "sat": 4741,
      "sir": 4742,
      "sad": 4743,
      "sche": 4744,
      "scr": 4745,
      "sions": 4746,
      "savons": 4747,
      "siez": 4748,
      "scre": 4749,
      "sys": 4750,
      "tit": 4751,
      "tles": 4752,
      "tie": 4753,
      "tong": 4754,
      "tiens": 4755,
      "upon": 4756,
      "vus": 4757,
      "vage": 4758,
      "vance": 4759,
      "wit": 4760,
      "wing": 4761,
      "âce": 4762,
      "èce": 4763,
      "ètes": 4764,
      "èvre": 4765,
      "élo": 4766,
      "épuis": 4767,
      "élè": 4768,
      "éveillé": 4769,
      "étoile": 4770,
      "îtr": 4771,
      "poche": 4772,
      "oul": 4773,
      "reur": 4774,
      "request": 4775,
      "rerais": 4776,
      "recent": 4777,
      "remind": 4778,
      "remettre": 4779,
      "relig": 4780,
      "remerci": 4781,
      "retrait": 4782,
      "recommand": 4783,
      "rejoindre": 4784,
      "posé": 4785,
      "poster": 4786,
      "essenti": 4787,
      "ond": 4788,
      "ony": 4789,
      "onté": 4790,
      "issez": 4791,
      "enver": 4792,
      "enfin": 4793,
      "enfu": 4794,
      "encourage": 4795,
      "anto": 4796,
      "annul": 4797,
      "ero": 4798,
      "ites": 4799,
      "quin": 4800,
      "qués": 4801,
      "quences": 4802,
      "ased": 4803,
      "assé": 4804,
      "ashed": 4805,
      "dece": 4806,
      "defe": 4807,
      "omi": 4808,
      "arres": 4809,
      "argu": 4810,
      "arms": 4811,
      "artif": 4812,
      "iling": 4813,
      "total": 4814,
      "toward": 4815,
      "neuf": 4816,
      "thick": 4817,
      "though": 4818,
      "seven": 4819,
      "secr": 4820,
      "search": 4821,
      "entière": 4822,
      "ceremon": 4823,
      "oré": 4824,
      "orable": 4825,
      "ests": 4826,
      "alent": 4827,
      "urgence": 4828,
      "ching": 4829,
      "chac": 4830,
      "autu": 4831,
      "tron": 4832,
      "tray": 4833,
      "liber": 4834,
      "beef": 4835,
      "becoming": 4836,
      "dos": 4837,
      "doors": 4838,
      "iron": 4839,
      "diam": 4840,
      "rid": 4841,
      "rier": 4842,
      "web": 4843,
      "weir": 4844,
      "wears": 4845,
      "weigh": 4846,
      "owes": 4847,
      "oward": 4848,
      "owned": 4849,
      "avate": 4850,
      "avaient": 4851,
      "ambul": 4852,
      "els": 4853,
      "eding": 4854,
      "mention": 4855,
      "parie": 4856,
      "pardon": 4857,
      "parked": 4858,
      "acide": 4859,
      "agres": 4860,
      "ague": 4861,
      "forte": 4862,
      "mos": 4863,
      "mood": 4864,
      "étang": 4865,
      "étend": 4866,
      "confé": 4867,
      "appé": 4868,
      "apporter": 4869,
      "apprends": 4870,
      "add": 4871,
      "adver": 4872,
      "admir": 4873,
      "advant": 4874,
      "addition": 4875,
      "advance": 4876,
      "icu": 4877,
      "state": 4878,
      "stick": 4879,
      "losing": 4880,
      "abri": 4881,
      "sian": 4882,
      "sienne": 4883,
      "rentr": 4884,
      "décé": 4885,
      "délic": 4886,
      "décl": 4887,
      "déclar": 4888,
      "dérange": 4889,
      "soccer": 4890,
      "goû": 4891,
      "rob": 4892,
      "rose": 4893,
      "monte": 4894,
      "monie": 4895,
      "lly": 4896,
      "voit": 4897,
      "volé": 4898,
      "desk": 4899,
      "desp": 4900,
      "descri": 4901,
      "dessert": 4902,
      "cover": 4903,
      "cochon": 4904,
      "tier": 4905,
      "tique": 4906,
      "couteau": 4907,
      "pleur": 4908,
      "frais": 4909,
      "peranto": 4910,
      "illée": 4911,
      "illard": 4912,
      "illness": 4913,
      "proje": 4914,
      "propri": 4915,
      "within": 4916,
      "exig": 4917,
      "tenez": 4918,
      "bored": 4919,
      "boss": 4920,
      "cheese": 4921,
      "cheval": 4922,
      "manqu": 4923,
      "share": 4924,
      "shak": 4925,
      "répar": 4926,
      "rédu": 4927,
      "résil": 4928,
      "réveille": 4929,
      "réellement": 4930,
      "hered": 4931,
      "chois": 4932,
      "ported": 4933,
      "salaire": 4934,
      "vendu": 4935,
      "moire": 4936,
      "plait": 4937,
      "bleu": 4938,
      "foi": 4939,
      "folle": 4940,
      "follo": 4941,
      "nique": 4942,
      "niveau": 4943,
      "dise": 4944,
      "disg": 4945,
      "agement": 4946,
      "vious": 4947,
      "anywhere": 4948,
      "useful": 4949,
      "grâce": 4950,
      "icial": 4951,
      "pull": 4952,
      "puzz": 4953,
      "lettres": 4954,
      "somebody": 4955,
      "crise": 4956,
      "cravate": 4957,
      "prévenu": 4958,
      "lég": 4959,
      "willing": 4960,
      "march": 4961,
      "marteau": 4962,
      "phon": 4963,
      "aka": 4964,
      "saisir": 4965,
      "drais": 4966,
      "voulu": 4967,
      "soud": 4968,
      "souff": 4969,
      "everywhere": 4970,
      "cartes": 4971,
      "caract": 4972,
      "mér": 4973,
      "métro": 4974,
      "vraient": 4975,
      "jambe": 4976,
      "bonjour": 4977,
      "bonheur": 4978,
      "coupé": 4979,
      "tells": 4980,
      "goods": 4981,
      "humain": 4982,
      "huge": 4983,
      "humil": 4984,
      "happ": 4985,
      "pond": 4986,
      "visions": 4987,
      "guil": 4988,
      "guard": 4989,
      "guide": 4990,
      "longues": 4991,
      "matière": 4992,
      "finan": 4993,
      "finir": 4994,
      "finite": 4995,
      "spell": 4996,
      "spect": 4997,
      "special": 4998,
      "corde": 4999,
      "ounce": 5000,
      "gentilles": 5001,
      "hiding": 5002,
      "stories": 5003,
      "croient": 5004,
      "croyez": 5005,
      "helps": 5006,
      "pression": 5007,
      "vaches": 5008,
      "bug": 5009,
      "fume": 5010,
      "hole": 5011,
      "feriez": 5012,
      "gotten": 5013,
      "cherches": 5014,
      "peuple": 5015,
      "paying": 5016,
      "petits": 5017,
      "austed": 5018,
      "caused": 5019,
      "mensonge": 5020,
      "ached": 5021,
      "truck": 5022,
      "vienne": 5023,
      "clever": 5024,
      "grands": 5025,
      "players": 5026,
      "sente": 5027,
      "sensible": 5028,
      "sentez": 5029,
      "offre": 5030,
      "famil": 5031,
      "tors": 5032,
      "tort": 5033,
      "friendly": 5034,
      "forever": 5035,
      "aurai": 5036,
      "autrefois": 5037,
      "belief": 5038,
      "semblez": 5039,
      "contract": 5040,
      "singing": 5041,
      "attendu": 5042,
      "happens": 5043,
      "create": 5044,
      "promesse": 5045,
      "promesses": 5046,
      "célè": 5047,
      "standing": 5048,
      "occur": 5049,
      "believed": 5050,
      "futur": 5051,
      "firm": 5052,
      "connaisse": 5053,
      "connaissait": 5054,
      "connaissez": 5055,
      "regardez": 5056,
      "sortie": 5057,
      "musical": 5058,
      "waited": 5059,
      "intéresse": 5060,
      "volont": 5061,
      "volonté": 5062,
      "stopping": 5063,
      "profit": 5064,
      "trape": 5065,
      "sleepy": 5066,
      "rumeur": 5067,
      "joli": 5068,
      "soirée": 5069,
      "douleur": 5070,
      "rains": 5071,
      "stric": 5072,
      "assis": 5073,
      "assée": 5074,
      "assist": 5075,
      "ressources": 5076,
      "importante": 5077,
      "occupés": 5078,
      "calling": 5079,
      "athy": 5080,
      "champ": 5081,
      "regular": 5082,
      "drinks": 5083,
      "félic": 5084,
      "kindness": 5085,
      "aliments": 5086,
      "smaller": 5087,
      "proposal": 5088,
      "excited": 5089,
      "lication": 5090,
      "bedroom": 5091,
      "difficulty": 5092,
      "interdit": 5093,
      "vérit": 5094,
      "refuse": 5095,
      "passez": 5096,
      "conduit": 5097,
      "changes": 5098,
      "changing": 5099,
      "mariés": 5100,
      "deny": 5101,
      "froide": 5102,
      "interest": 5103,
      "conseillé": 5104,
      "walks": 5105,
      "oubliez": 5106,
      "judge": 5107,
      "quitté": 5108,
      "rencontrés": 5109,
      "policeman": 5110,
      "falling": 5111,
      "répondu": 5112,
      "camera": 5113,
      "campagne": 5114,
      "cieuse": 5115,
      "voisins": 5116,
      "tableau": 5117,
      "restée": 5118,
      "brothers": 5119,
      "dirai": 5120,
      "dirait": 5121,
      "dirige": 5122,
      "chaude": 5123,
      "différence": 5124,
      "Japonais": 5125,
      "bird": 5126,
      "danced": 5127,
      "listened": 5128,
      "harder": 5129,
      "decide": 5130,
      "suivi": 5131,
      "coûts": 5132,
      "sentiment": 5133,
      "objective": 5134,
      "objectif": 5135,
      "employ": 5136,
      "itiz": 5137,
      "contact": 5138,
      "Anne": 5139,
      "foule": 5140,
      "héros": 5141,
      "voudrait": 5142,
      "fired": 5143,
      "salt": 5144,
      "suffit": 5145,
      "terribly": 5146,
      "taxes": 5147,
      "clearly": 5148,
      "ordinaire": 5149,
      "bandes": 5150,
      "climat": 5151,
      "flower": 5152,
      "social": 5153,
      "fluent": 5154,
      "ranto": 5155,
      "indiquer": 5156,
      "constitu": 5157,
      "elected": 5158,
      "nationale": 5159,
      "push": 5160,
      "pushed": 5161,
      "engine": 5162,
      "teaching": 5163,
      "traveling": 5164,
      "amuser": 5165,
      "amusant": 5166,
      "group": 5167,
      "scientific": 5168,
      "Italy": 5169,
      "Italie": 5170,
      "cards": 5171,
      "fices": 5172,
      "rarely": 5173,
      "écris": 5174,
      "ouvrit": 5175,
      "prêts": 5176,
      "stylo": 5177,
      "soldats": 5178,
      "magazines": 5179,
      "environment": 5180,
      "environnement": 5181,
      "Alger": 5182,
      "pickpock": 5183,
      "envoyer": 5184,
      "returned": 5185,
      "génération": 5186,
      "traduire": 5187,
      "Devine": 5188,
      "abandonner": 5189,
      "souhaite": 5190,
      "fonctionne": 5191,
      "réfléchi": 5192,
      "oiseau": 5193,
      "soutien": 5194,
      "selling": 5195,
      "automob": 5196,
      "appeller": 5197,
      "generation": 5198,
      "succeed": 5199,
      "censé": 5200,
      "certainement": 5201,
      "baseball": 5202,
      "lonely": 5203,
      "populaire": 5204,
      "populaires": 5205,
      "remède": 5206,
      "espéranto": 5207,
      "invention": 5208,
      "neighb": 5209,
      "welcome": 5210,
      "suicidé": 5211,
      "deserve": 5212,
      "chocolat": 5213,
      "chocolate": 5214,
      "physique": 5215,
      "signific": 5216,
      "signifie": 5217,
      "diplomat": 5218,
      "hammer": 5219,
      "alternative": 5220,
      "proté": 5221,
      "respecter": 5222,
      "improve": 5223,
      "quotidienne": 5224,
      "silencieux": 5225,
      "benef": 5226,
      "candy": 5227,
      "nonsense": 5228,
      "épais": 5229,
      "ouvrez": 5230,
      "results": 5231,
      "escape": 5232,
      "determined": 5233,
      "ambition": 5234,
      "major": 5235,
      "tombée": 5236,
      "bicyclette": 5237,
      "mignonne": 5238,
      "smells": 5239,
      "opportunity": 5240,
      "British": 5241,
      "Esperanto": 5242,
      "Union": 5243,
      "average": 5244,
      "hâte": 5245,
      "smile": 5246,
      "énorme": 5247,
      "pollution": 5248,
      "delicious": 5249,
      "totalement": 5250,
      "velop": 5251,
      "meubles": 5252,
      "ingénie": 5253,
      "appointment": 5254,
      "détruit": 5255,
      "résultats": 5256,
      "écureuils": 5257,
      "promettre": 5258,
      "soldiers": 5259,
      "earthquake": 5260,
      "absolutely": 5261,
      "squirrels": 5262,
      "recognize": 5263,
      "Soleil": 5264,
      "YouTu": 5265,
      "finger": 5266,
      "piggy": 5267,
      "techno": 5268,
      "challen": 5269,
      "beurre": 5270,
      "avocat": 5271,
      "convinced": 5272,
      "machine": 5273,
      "exhausted": 5274,
      "physical": 5275,
      "mathématiques": 5276,
      "built": 5277,
      "favourite": 5278,
      "Braz": 5279,
      "honey": 5280,
      "pigeons": 5281,
      "system": 5282,
      "élèves": 5283,
      "remercier": 5284,
      "arrested": 5285,
      "chacun": 5286,
      "autumn": 5287,
      "followed": 5288,
      "célèbre": 5289,
      "14": 5290,
      "18": 5291,
      "28": 5292,
      "40": 5293,
      "Afri": 5294,
      "Atom": 5295,
      "Be": 5296,
      "Ber": 5297,
      "Bar": 5298,
      "Brésil": 5299,
      "Cent": 5300,
      "Cap": 5301,
      "Cont": 5302,
      "Di": 5303,
      "Eif": 5304,
      "Ha": 5305,
      "Hon": 5306,
      "Hen": 5307,
      "Hit": 5308,
      "Har": 5309,
      "Hel": 5310,
      "Is": 5311,
      "Ito": 5312,
      "Jou": 5313,
      "Java": 5314,
      "Jones": 5315,
      "Ken": 5316,
      "King": 5317,
      "Men": 5318,
      "Mat": 5319,
      "Mil": 5320,
      "Mac": 5321,
      "Osa": 5322,
      "Pr": 5323,
      "Py": 5324,
      "Prom": 5325,
      "Peter": 5326,
      "President": 5327,
      "RI": 5328,
      "Roy": 5329,
      "Sou": 5330,
      "Son": 5331,
      "Ste": 5332,
      "SMS": 5333,
      "The": 5334,
      "Tony": 5335,
      "Yok": 5336,
      "abe": 5337,
      "aped": 5338,
      "alax": 5339,
      "aéro": 5340,
      "bis": 5341,
      "bow": 5342,
      "bound": 5343,
      "bale": 5344,
      "bath": 5345,
      "bœuf": 5346,
      "cles": 5347,
      "cté": 5348,
      "ctor": 5349,
      "cture": 5350,
      "cast": 5351,
      "cacher": 5352,
      "carrière": 5353,
      "coward": 5354,
      "citiz": 5355,
      "dut": 5356,
      "dors": 5357,
      "dating": 5358,
      "emer": 5359,
      "evolution": 5360,
      "evil": 5361,
      "eply": 5362,
      "fû": 5363,
      "fis": 5364,
      "fous": 5365,
      "fend": 5366,
      "faux": 5367,
      "fleur": 5368,
      "fallait": 5369,
      "flies": 5370,
      "gl": 5371,
      "gin": 5372,
      "gth": 5373,
      "gest": 5374,
      "gri": 5375,
      "gay": 5376,
      "gout": 5377,
      "gif": 5378,
      "han": 5379,
      "hig": 5380,
      "hop": 5381,
      "hés": 5382,
      "ior": 5383,
      "iel": 5384,
      "ians": 5385,
      "ios": 5386,
      "jal": 5387,
      "jok": 5388,
      "jure": 5389,
      "jong": 5390,
      "kin": 5391,
      "kly": 5392,
      "kara": 5393,
      "lite": 5394,
      "lâche": 5395,
      "mè": 5396,
      "mant": 5397,
      "mét": 5398,
      "mul": 5399,
      "mété": 5400,
      "mouve": 5401,
      "mign": 5402,
      "nav": 5403,
      "nam": 5404,
      "nad": 5405,
      "nue": 5406,
      "nôtre": 5407,
      "ote": 5408,
      "pli": 5409,
      "pant": 5410,
      "pure": 5411,
      "pants": 5412,
      "puni": 5413,
      "pacif": 5414,
      "ras": 5415,
      "rant": 5416,
      "rav": 5417,
      "rand": 5418,
      "rag": 5419,
      "rage": 5420,
      "rup": 5421,
      "rappe": 5422,
      "rise": 5423,
      "rule": 5424,
      "ralement": 5425,
      "rappelez": 5426,
      "sse": 5427,
      "sno": 5428,
      "spre": 5429,
      "spi": 5430,
      "smil": 5431,
      "tan": 5432,
      "tais": 5433,
      "tap": 5434,
      "twent": 5435,
      "uko": 5436,
      "vest": 5437,
      "villes": 5438,
      "vague": 5439,
      "wide": 5440,
      "wild": 5441,
      "xim": 5442,
      "yel": 5443,
      "zone": 5444,
      "âme": 5445,
      "âché": 5446,
      "év": 5447,
      "éan": 5448,
      "égo": 5449,
      "écar": 5450,
      "énom": 5451,
      "éprouve": 5452,
      "îne": 5453,
      "îmes": 5454,
      "ôme": 5455,
      "œu": 5456,
      "œurs": 5457,
      "poe": 5458,
      "poème": 5459,
      "poem": 5460,
      "polite": 5461,
      "ouilles": 5462,
      "repos": 5463,
      "rele": 5464,
      "requ": 5465,
      "reli": 5466,
      "repe": 5467,
      "rely": 5468,
      "repro": 5469,
      "remar": 5470,
      "relie": 5471,
      "reconn": 5472,
      "représent": 5473,
      "relax": 5474,
      "removed": 5475,
      "reached": 5476,
      "postale": 5477,
      "esome": 5478,
      "heat": 5479,
      "hell": 5480,
      "hemat": 5481,
      "onz": 5482,
      "ondé": 5483,
      "onné": 5484,
      "ises": 5485,
      "isis": 5486,
      "iser": 5487,
      "enu": 5488,
      "eny": 5489,
      "enon": 5490,
      "ened": 5491,
      "envisage": 5492,
      "inde": 5493,
      "indé": 5494,
      "invin": 5495,
      "insurance": 5496,
      "ancé": 5497,
      "annon": 5498,
      "lead": 5499,
      "level": 5500,
      "ery": 5501,
      "erai": 5502,
      "ities": 5503,
      "aspir": 5504,
      "assurance": 5505,
      "dear": 5506,
      "depar": 5507,
      "debout": 5508,
      "devenus": 5509,
      "devraient": 5510,
      "deeply": 5511,
      "atin": 5512,
      "atom": 5513,
      "ature": 5514,
      "athi": 5515,
      "attrape": 5516,
      "arles": 5517,
      "ilable": 5518,
      "toit": 5519,
      "lave": 5520,
      "laid": 5521,
      "laient": 5522,
      "tead": 5523,
      "tered": 5524,
      "teurs": 5525,
      "jean": 5526,
      "jeal": 5527,
      "jeans": 5528,
      "mez": 5529,
      "mecs": 5530,
      "seas": 5531,
      "section": 5532,
      "entr": 5533,
      "entier": 5534,
      "cean": 5535,
      "celles": 5536,
      "ordre": 5537,
      "ordres": 5538,
      "queue": 5539,
      "alo": 5540,
      "ales": 5541,
      "alco": 5542,
      "passion": 5543,
      "chi": 5544,
      "chou": 5545,
      "chie": 5546,
      "chic": 5547,
      "chons": 5548,
      "aught": 5549,
      "auté": 5550,
      "auteur": 5551,
      "unless": 5552,
      "triste": 5553,
      "aisé": 5554,
      "usted": 5555,
      "lif": 5556,
      "ligé": 5557,
      "libat": 5558,
      "behave": 5559,
      "beaut": 5560,
      "beating": 5561,
      "betray": 5562,
      "docu": 5563,
      "pean": 5564,
      "pelle": 5565,
      "peint": 5566,
      "peace": 5567,
      "lesquelles": 5568,
      "diet": 5569,
      "diable": 5570,
      "divers": 5571,
      "riz": 5572,
      "rifices": 5573,
      "weapon": 5574,
      "wealth": 5575,
      "verrou": 5576,
      "avion": 5577,
      "avions": 5578,
      "amen": 5579,
      "among": 5580,
      "amaz": 5581,
      "amical": 5582,
      "andra": 5583,
      "ettez": 5584,
      "comic": 5585,
      "committed": 5586,
      "whis": 5587,
      "whale": 5588,
      "ayant": 5589,
      "eds": 5590,
      "edu": 5591,
      "menti": 5592,
      "mentir": 5593,
      "restes": 5594,
      "restez": 5595,
      "pars": 5596,
      "parmi": 5597,
      "parlons": 5598,
      "accro": 5599,
      "accompli": 5600,
      "agi": 5601,
      "agon": 5602,
      "agir": 5603,
      "agawa": 5604,
      "forcer": 5605,
      "forêt": 5606,
      "mocr": 5607,
      "ource": 5608,
      "immor": 5609,
      "impatience": 5610,
      "étit": 5611,
      "étant": 5612,
      "étab": 5613,
      "étaire": 5614,
      "congé": 5615,
      "conscient": 5616,
      "confus": 5617,
      "conclu": 5618,
      "confection": 5619,
      "apper": 5620,
      "apporte": 5621,
      "apprend": 5622,
      "allows": 5623,
      "ieur": 5624,
      "ically": 5625,
      "donnent": 5626,
      "stan": 5627,
      "stren": 5628,
      "stème": 5629,
      "pourvu": 5630,
      "lover": 5631,
      "lock": 5632,
      "locked": 5633,
      "terms": 5634,
      "termine": 5635,
      "abat": 5636,
      "absor": 5637,
      "abstr": 5638,
      "abord": 5639,
      "washed": 5640,
      "déte": 5641,
      "démé": 5642,
      "dépêcher": 5643,
      "sole": 5644,
      "treat": 5645,
      "god": 5646,
      "roy": 5647,
      "robot": 5648,
      "notice": 5649,
      "mondi": 5650,
      "vote": 5651,
      "voleur": 5652,
      "voice": 5653,
      "voix": 5654,
      "desire": 5655,
      "descend": 5656,
      "pensent": 5657,
      "shelf": 5658,
      "cope": 5659,
      "canapé": 5660,
      "nose": 5661,
      "noise": 5662,
      "noyé": 5663,
      "tian": 5664,
      "couper": 5665,
      "couleur": 5666,
      "couteaux": 5667,
      "male": 5668,
      "feed": 5669,
      "ference": 5670,
      "aired": 5671,
      "pleine": 5672,
      "lymp": 5673,
      "lycée": 5674,
      "perd": 5675,
      "perspe": 5676,
      "permet": 5677,
      "permit": 5678,
      "permettre": 5679,
      "illus": 5680,
      "illons": 5681,
      "prove": 5682,
      "provi": 5683,
      "progres": 5684,
      "program": 5685,
      "cice": 5686,
      "ciation": 5687,
      "cially": 5688,
      "extr": 5689,
      "exemp": 5690,
      "tente": 5691,
      "tenait": 5692,
      "tendance": 5693,
      "board": 5694,
      "chement": 5695,
      "mani": 5696,
      "manded": 5697,
      "shit": 5698,
      "shame": 5699,
      "sombre": 5700,
      "réce": 5701,
      "récol": 5702,
      "résolu": 5703,
      "réalité": 5704,
      "mess": 5705,
      "faits": 5706,
      "survi": 5707,
      "surface": 5708,
      "server": 5709,
      "servic": 5710,
      "Mars": 5711,
      "Maria": 5712,
      "saf": 5713,
      "venons": 5714,
      "vented": 5715,
      "veniez": 5716,
      "ténu": 5717,
      "folie": 5718,
      "nier": 5719,
      "disting": 5720,
      "discount": 5721,
      "dishes": 5722,
      "usting": 5723,
      "odd": 5724,
      "séché": 5725,
      "arrives": 5726,
      "endom": 5727,
      "irez": 5728,
      "grad": 5729,
      "lettes": 5730,
      "cray": 5731,
      "crain": 5732,
      "craf": 5733,
      "craig": 5734,
      "crush": 5735,
      "crisis": 5736,
      "prévu": 5737,
      "préoccup": 5738,
      "prévois": 5739,
      "précis": 5740,
      "ablement": 5741,
      "indus": 5742,
      "partis": 5743,
      "particu": 5744,
      "hadn": 5745,
      "marron": 5746,
      "prendra": 5747,
      "prennent": 5748,
      "prendrai": 5749,
      "preg": 5750,
      "phie": 5751,
      "pharm": 5752,
      "phénom": 5753,
      "aki": 5754,
      "ako": 5755,
      "akes": 5756,
      "touché": 5757,
      "dry": 5758,
      "wered": 5759,
      "vouliez": 5760,
      "breath": 5761,
      "soup": 5762,
      "soula": 5763,
      "souri": 5764,
      "sourire": 5765,
      "soucier": 5766,
      "mid": 5767,
      "middle": 5768,
      "beauté": 5769,
      "sortez": 5770,
      "pique": 5771,
      "mérit": 5772,
      "mémoire": 5773,
      "ités": 5774,
      "trouvent": 5775,
      "troubles": 5776,
      "trouvait": 5777,
      "viez": 5778,
      "prises": 5779,
      "available": 5780,
      "coupable": 5781,
      "brun": 5782,
      "bruit": 5783,
      "brush": 5784,
      "personal": 5785,
      "humor": 5786,
      "observe": 5787,
      "inspir": 5788,
      "instead": 5789,
      "directeur": 5790,
      "portent": 5791,
      "hello": 5792,
      "guim": 5793,
      "guests": 5794,
      "longue": 5795,
      "mature": 5796,
      "matins": 5797,
      "matique": 5798,
      "mathemat": 5799,
      "fidèle": 5800,
      "morgue": 5801,
      "ounds": 5802,
      "ounded": 5803,
      "puissance": 5804,
      "puissiez": 5805,
      "couramment": 5806,
      "stock": 5807,
      "airport": 5808,
      "retar": 5809,
      "afford": 5810,
      "pressure": 5811,
      "devin": 5812,
      "devait": 5813,
      "devien": 5814,
      "gente": 5815,
      "gency": 5816,
      "genoux": 5817,
      "rights": 5818,
      "mêmes": 5819,
      "heureuses": 5820,
      "selfish": 5821,
      "blow": 5822,
      "blind": 5823,
      "blonde": 5824,
      "intim": 5825,
      "causé": 5826,
      "mener": 5827,
      "océan": 5828,
      "deuxième": 5829,
      "trice": 5830,
      "tombe": 5831,
      "truc": 5832,
      "raised": 5833,
      "jouent": 5834,
      "malgré": 5835,
      "aled": 5836,
      "istic": 5837,
      "achète": 5838,
      "eats": 5839,
      "nomenon": 5840,
      "biolog": 5841,
      "spat": 5842,
      "foreign": 5843,
      "travailles": 5844,
      "tenté": 5845,
      "trole": 5846,
      "plane": 5847,
      "planning": 5848,
      "believes": 5849,
      "faisais": 5850,
      "génie": 5851,
      "contrar": 5852,
      "contraire": 5853,
      "contrôle": 5854,
      "pén": 5855,
      "attendons": 5856,
      "aimerait": 5857,
      "supporter": 5858,
      "created": 5859,
      "écri": 5860,
      "promen": 5861,
      "promets": 5862,
      "célibat": 5863,
      "frankly": 5864,
      "franchement": 5865,
      "boring": 5866,
      "bordel": 5867,
      "calcu": 5868,
      "grew": 5869,
      "green": 5870,
      "priv": 5871,
      "prior": 5872,
      "privé": 5873,
      "giant": 5874,
      "étude": 5875,
      "solved": 5876,
      "connaissais": 5877,
      "connaissance": 5878,
      "paint": 5879,
      "effort": 5880,
      "magni": 5881,
      "Chine": 5882,
      "Chopin": 5883,
      "China": 5884,
      "Charles": 5885,
      "musician": 5886,
      "volant": 5887,
      "profonde": 5888,
      "keeping": 5889,
      "atsAp": 5890,
      "étudiante": 5891,
      "rumor": 5892,
      "ruined": 5893,
      "joie": 5894,
      "winning": 5895,
      "troisième": 5896,
      "empty": 5897,
      "chaleur": 5898,
      "doué": 5899,
      "doute": 5900,
      "motion": 5901,
      "staying": 5902,
      "roscope": 5903,
      "chanceuse": 5904,
      "charged": 5905,
      "character": 5906,
      "Invite": 5907,
      "India": 5908,
      "sciences": 5909,
      "captain": 5910,
      "capital": 5911,
      "enseig": 5912,
      "jette": 5913,
      "blesser": 5914,
      "blessée": 5915,
      "opening": 5916,
      "tourner": 5917,
      "atoes": 5918,
      "alibi": 5919,
      "critique": 5920,
      "badly": 5921,
      "curtain": 5922,
      "curios": 5923,
      "utilise": 5924,
      "adoles": 5925,
      "internet": 5926,
      "interrom": 5927,
      "produits": 5928,
      "trouveras": 5929,
      "sensitive": 5930,
      "refle": 5931,
      "aimée": 5932,
      "passeport": 5933,
      "younger": 5934,
      "perdue": 5935,
      "habitué": 5936,
      "denied": 5937,
      "correcte": 5938,
      "gging": 5939,
      "ski": 5940,
      "skirt": 5941,
      "skip": 5942,
      "pièces": 5943,
      "sauver": 5944,
      "complet": 5945,
      "films": 5946,
      "suspic": 5947,
      "quitte": 5948,
      "apprécier": 5949,
      "fallen": 5950,
      "sacré": 5951,
      "sacrifices": 5952,
      "logy": 5953,
      "réponds": 5954,
      "utilisé": 5955,
      "utilisez": 5956,
      "awesome": 5957,
      "picnic": 5958,
      "risk": 5959,
      "risque": 5960,
      "risques": 5961,
      "valid": 5962,
      "virgin": 5963,
      "passage": 5964,
      "passport": 5965,
      "password": 5966,
      "données": 5967,
      "camion": 5968,
      "culation": 5969,
      "cultures": 5970,
      "lights": 5971,
      "sixty": 5972,
      "shoot": 5973,
      "showed": 5974,
      "mauvaises": 5975,
      "système": 5976,
      "princess": 5977,
      "princesse": 5978,
      "disposes": 5979,
      "publique": 5980,
      "dira": 5981,
      "horse": 5982,
      "horreur": 5983,
      "espèce": 5984,
      "veuilles": 5985,
      "lignes": 5986,
      "terminer": 5987,
      "médicam": 5988,
      "wondering": 5989,
      "intelligence": 5990,
      "intelligente": 5991,
      "birds": 5992,
      "fautes": 5993,
      "scientists": 5994,
      "appétit": 5995,
      "préférerais": 5996,
      "ohama": 5997,
      "spot": 5998,
      "headache": 5999,
      "coûté": 6000,
      "object": 6001,
      "objets": 6002,
      "seconde": 6003,
      "concerned": 6004,
      "couverture": 6005,
      "highly": 6006,
      "cinema": 6007,
      "step": 6008,
      "salon": 6009,
      "traité": 6010,
      "traiter": 6011,
      "tradition": 6012,
      "favorable": 6013,
      "sunny": 6014,
      "attendais": 6015,
      "musicien": 6016,
      "brio": 6017,
      "circu": 6018,
      "circonst": 6019,
      "circulation": 6020,
      "kissing": 6021,
      "attacked": 6022,
      "attitude": 6023,
      "daughters": 6024,
      "banque": 6025,
      "burned": 6026,
      "pêche": 6027,
      "spending": 6028,
      "related": 6029,
      "ennuy": 6030,
      "chanteur": 6031,
      "chanteuse": 6032,
      "society": 6033,
      "pleasure": 6034,
      "sûrement": 6035,
      "semblait": 6036,
      "semblant": 6037,
      "washing": 6038,
      "naturel": 6039,
      "American": 6040,
      "bottles": 6041,
      "punished": 6042,
      "points": 6043,
      "political": 6044,
      "postcard": 6045,
      "chansons": 6046,
      "forgotten": 6047,
      "impact": 6048,
      "crédit": 6049,
      "prudente": 6050,
      "désir": 6051,
      "scientifiques": 6052,
      "mouth": 6053,
      "chausset": 6054,
      "rideau": 6055,
      "songs": 6056,
      "opéenne": 6057,
      "explosion": 6058,
      "European": 6059,
      "dommage": 6060,
      "slowly": 6061,
      "invités": 6062,
      "invitées": 6063,
      "général": 6064,
      "généralement": 6065,
      "promised": 6066,
      "traduction": 6067,
      "traductions": 6068,
      "terriblement": 6069,
      "citoy": 6070,
      "lentement": 6071,
      "moyenne": 6072,
      "concentrer": 6073,
      "contributor": 6074,
      "contributeur": 6075,
      "logiques": 6076,
      "ignorance": 6077,
      "violent": 6078,
      "fucking": 6079,
      "différents": 6080,
      "différences": 6081,
      "arrogance": 6082,
      "USB": 6083,
      "faible": 6084,
      "oiseaux": 6085,
      "slip": 6086,
      "slipped": 6087,
      "sofa": 6088,
      "soft": 6089,
      "aboie": 6090,
      "ability": 6091,
      "exercice": 6092,
      "appelée": 6093,
      "empêché": 6094,
      "Canadi": 6095,
      "packed": 6096,
      "potatoes": 6097,
      "possibility": 6098,
      "suggère": 6099,
      "activité": 6100,
      "sérieusement": 6101,
      "million": 6102,
      "acceptable": 6103,
      "knives": 6104,
      "ugly": 6105,
      "neighbor": 6106,
      "threat": 6107,
      "suicide": 6108,
      "parole": 6109,
      "répand": 6110,
      "introduce": 6111,
      "introduced": 6112,
      "hanging": 6113,
      "kilom": 6114,
      "saved": 6115,
      "repair": 6116,
      "repaired": 6117,
      "assume": 6118,
      "atteint": 6119,
      "atteindre": 6120,
      "texte": 6121,
      "comportement": 6122,
      "quotidien": 6123,
      "fronti": 6124,
      "properly": 6125,
      "plaisante": 6126,
      "endormi": 6127,
      "traverser": 6128,
      "emprunter": 6129,
      "raconter": 6130,
      "impliqué": 6131,
      "prononcer": 6132,
      "150": 6133,
      "London": 6134,
      "Londres": 6135,
      "Mike": 6136,
      "White": 6137,
      "WhatsAp": 6138,
      "billet": 6139,
      "billets": 6140,
      "naissance": 6141,
      "paresse": 6142,
      "russe": 6143,
      "sports": 6144,
      "économie": 6145,
      "reconnaissante": 6146,
      "entered": 6147,
      "intended": 6148,
      "peinture": 6149,
      "apprentis": 6150,
      "expressions": 6151,
      "salad": 6152,
      "salade": 6153,
      "merveilleux": 6154,
      "brûlé": 6155,
      "ponctuel": 6156,
      "guitar": 6157,
      "guitare": 6158,
      "appearance": 6159,
      "Christop": 6160,
      "doubts": 6161,
      "augmenté": 6162,
      "philosophy": 6163,
      "philosophie": 6164,
      "Russian": 6165,
      "fantômes": 6166,
      "gasp": 6167,
      "obey": 6168,
      "rempli": 6169,
      "vegetables": 6170,
      "chinois": 6171,
      "suddenly": 6172,
      "solid": 6173,
      "légumes": 6174,
      "crossed": 6175,
      "holiday": 6176,
      "capitaine": 6177,
      "translations": 6178,
      "symbol": 6179,
      "Green": 6180,
      "Mayuko": 6181,
      "Tanaka": 6182,
      "gathered": 6183,
      "phenomenon": 6184,
      "époque": 6185,
      "possède": 6186,
      "especially": 6187,
      "alphabet": 6188,
      "ridicul": 6189,
      "aggressive": 6190,
      "conclusions": 6191,
      "ghosts": 6192,
      "dessinées": 6193,
      "fréquent": 6194,
      "crowd": 6195,
      "brillante": 6196,
      "éclata": 6197,
      "barbecue": 6198,
      "failure": 6199,
      "sympathi": 6200,
      "temperature": 6201,
      "Américains": 6202,
      "parfaitement": 6203,
      "Yuk": 6204,
      "economy": 6205,
      "gonna": 6206,
      "hobby": 6207,
      "microscope": 6208,
      "schedule": 6209,
      "tongue": 6210,
      "religion": 6211,
      "quinze": 6212,
      "ceremony": 6213,
      "weird": 6214,
      "ambulance": 6215,
      "agressi": 6216,
      "conférence": 6217,
      "advantage": 6218,
      "soudaine": 6219,
      "caractère": 6220,
      "mérite": 6221,
      "humaine": 6222,
      "humili": 6223,
      "happiness": 6224,
      "guilty": 6225,
      "gentillesse": 6226,
      "volontaire": 6227,
      "véritable": 6228,
      "constituent": 6229,
      "engineers": 6230,
      "neighbors": 6231,
      "protéger": 6232,
      "ingénieurs": 6233,
      "YouTube": 6234,
      "Brazil": 6235,
      "Contin": 6236,
      "Eiffel": 6237,
      "Helen": 6238,
      "Isra": 6239,
      "Jouons": 6240,
      "Mennad": 6241,
      "Osaka": 6242,
      "Pyth": 6243,
      "Promettez": 6244,
      "Yokohama": 6245,
      "aéroport": 6246,
      "biscu": 6247,
      "baleine": 6248,
      "higher": 6249,
      "météoro": 6250,
      "mouvement": 6251,
      "mignons": 6252,
      "spread": 6253,
      "twenty": 6254,
      "égoï": 6255,
      "invincible": 6256,
      "jealous": 6257,
      "alcohol": 6258,
      "beauty": 6259,
      "strength": 6260,
      "services": 6261,
      "distingu": 6262,
      "phénomène": 6263,
      "mathematics": 6264,
      "célibataire": 6265,
      "WhatsApp": 6266,
      "apprentissage": 6267,
      "17": 6268,
      "100": 6269,
      "300": 6270,
      "4000": 6271,
      "50": 6272,
      "At": 6273,
      "Apr": 6274,
      "All": 6275,
      "Amuse": 6276,
      "BC": 6277,
      "Bou": 6278,
      "Bill": 6279,
      "Bats": 6280,
      "Cre": 6281,
      "Cat": 6282,
      "Cel": 6283,
      "Cesse": 6284,
      "Du": 6285,
      "Dis": 6286,
      "Dég": 6287,
      "Gar": 6288,
      "Goo": 6289,
      "Grand": 6290,
      "His": 6291,
      "Hop": 6292,
      "Hum": 6293,
      "Jo": 6294,
      "Kobe": 6295,
      "Lu": 6296,
      "Lavez": 6297,
      "Latin": 6298,
      "Ma": 6299,
      "My": 6300,
      "Mis": 6301,
      "Mus": 6302,
      "Mag": 6303,
      "Mons": 6304,
      "Pa": 6305,
      "Por": 6306,
      "Th": 6307,
      "Tow": 6308,
      "This": 6309,
      "Ver": 6310,
      "Wi": 6311,
      "Way": 6312,
      "ah": 6313,
      "ahu": 6314,
      "arest": 6315,
      "bû": 6316,
      "bain": 6317,
      "bish": 6318,
      "bask": 6319,
      "bits": 6320,
      "bars": 6321,
      "bass": 6322,
      "bande": 6323,
      "blog": 6324,
      "cto": 6325,
      "cac": 6326,
      "cils": 6327,
      "cale": 6328,
      "coffre": 6329,
      "cassée": 6330,
      "dès": 6331,
      "dite": 6332,
      "ee": 6333,
      "eigh": 6334,
      "eût": 6335,
      "fs": 6336,
      "fan": 6337,
      "fal": 6338,
      "fres": 6339,
      "fain": 6340,
      "ffr": 6341,
      "flas": 6342,
      "faus": 6343,
      "fabri": 6344,
      "fâché": 6345,
      "gê": 6346,
      "gel": 6347,
      "gét": 6348,
      "gain": 6349,
      "gée": 6350,
      "gig": 6351,
      "gène": 6352,
      "galax": 6353,
      "hous": 6354,
      "hall": 6355,
      "hates": 6356,
      "iz": 6357,
      "iest": 6358,
      "ielle": 6359,
      "ivre": 6360,
      "ji": 6361,
      "jau": 6362,
      "jury": 6363,
      "jail": 6364,
      "lus": 6365,
      "lut": 6366,
      "link": 6367,
      "mun": 6368,
      "mans": 6369,
      "mate": 6370,
      "mif": 6371,
      "mène": 6372,
      "nir": 6373,
      "nap": 6374,
      "noun": 6375,
      "niture": 6376,
      "naie": 6377,
      "nuts": 6378,
      "ole": 6379,
      "oil": 6380,
      "och": 6381,
      "overs": 6382,
      "ocean": 6383,
      "pil": 6384,
      "pag": 6385,
      "pèse": 6386,
      "rm": 6387,
      "rough": 6388,
      "san": 6389,
      "sins": 6390,
      "swear": 6391,
      "saig": 6392,
      "spends": 6393,
      "sœurs": 6394,
      "tir": 6395,
      "tait": 6396,
      "tand": 6397,
      "tons": 6398,
      "tation": 6399,
      "tite": 6400,
      "tise": 6401,
      "tante": 6402,
      "taught": 6403,
      "ué": 6404,
      "ually": 6405,
      "vat": 6406,
      "vint": 6407,
      "vity": 6408,
      "vâmes": 6409,
      "wre": 6410,
      "wis": 6411,
      "wais": 6412,
      "warri": 6413,
      "wol": 6414,
      "wers": 6415,
      "xion": 6416,
      "ya": 6417,
      "ye": 6418,
      "zéro": 6419,
      "zero": 6420,
      "ètre": 6421,
      "én": 6422,
      "édu": 6423,
      "échange": 6424,
      "épic": 6425,
      "éping": 6426,
      "érat": 6427,
      "évolution": 6428,
      "élève": 6429,
      "ême": 6430,
      "ïne": 6431,
      "ône": 6432,
      "pone": 6433,
      "pover": 6434,
      "poet": 6435,
      "poni": 6436,
      "poig": 6437,
      "poup": 6438,
      "poète": 6439,
      "poured": 6440,
      "oute": 6441,
      "outr": 6442,
      "reç": 6443,
      "rever": 6444,
      "redu": 6445,
      "reci": 6446,
      "refu": 6447,
      "reprendre": 6448,
      "replace": 6449,
      "rejo": 6450,
      "reporter": 6451,
      "retrouvé": 6452,
      "recomm": 6453,
      "repasser": 6454,
      "remise": 6455,
      "remark": 6456,
      "reviendra": 6457,
      "essor": 6458,
      "escal": 6459,
      "ondance": 6460,
      "online": 6461,
      "isa": 6462,
      "isés": 6463,
      "issait": 6464,
      "island": 6465,
      "issors": 6466,
      "encour": 6467,
      "enva": 6468,
      "ended": 6469,
      "envers": 6470,
      "enreg": 6471,
      "endure": 6472,
      "enlève": 6473,
      "ino": 6474,
      "intime": 6475,
      "income": 6476,
      "inconn": 6477,
      "incl": 6478,
      "infect": 6479,
      "inclu": 6480,
      "incen": 6481,
      "incorri": 6482,
      "incalcu": 6483,
      "anu": 6484,
      "anne": 6485,
      "andi": 6486,
      "ança": 6487,
      "annu": 6488,
      "lete": 6489,
      "erve": 6490,
      "erais": 6491,
      "erie": 6492,
      "error": 6493,
      "itaire": 6494,
      "itation": 6495,
      "itif": 6496,
      "itions": 6497,
      "itself": 6498,
      "itanni": 6499,
      "qua": 6500,
      "quas": 6501,
      "asy": 6502,
      "assi": 6503,
      "astre": 6504,
      "asure": 6505,
      "aside": 6506,
      "aspect": 6507,
      "dete": 6508,
      "depr": 6509,
      "dement": 6510,
      "dedans": 6511,
      "decor": 6512,
      "devais": 6513,
      "devenue": 6514,
      "delay": 6515,
      "definite": 6516,
      "demanded": 6517,
      "attemp": 6518,
      "attirer": 6519,
      "arily": 6520,
      "araig": 6521,
      "tool": 6522,
      "neig": 6523,
      "nearest": 6524,
      "thie": 6525,
      "thro": 6526,
      "thod": 6527,
      "thunder": 6528,
      "thèse": 6529,
      "lair": 6530,
      "lamp": 6531,
      "lack": 6532,
      "lady": 6533,
      "tear": 6534,
      "jeta": 6535,
      "jetez": 6536,
      "jelly": 6537,
      "mec": 6538,
      "mel": 6539,
      "meat": 6540,
      "mechan": 6541,
      "membre": 6542,
      "method": 6543,
      "seau": 6544,
      "sevent": 6545,
      "secur": 6546,
      "secours": 6547,
      "enter": 6548,
      "entit": 6549,
      "cel": 6550,
      "cement": 6551,
      "ceiling": 6552,
      "orte": 6553,
      "ories": 6554,
      "ordered": 6555,
      "aides": 6556,
      "aight": 6557,
      "aimais": 6558,
      "aimons": 6559,
      "estab": 6560,
      "quez": 6561,
      "als": 6562,
      "alon": 6563,
      "ingu": 6564,
      "uré": 6565,
      "urin": 6566,
      "urgent": 6567,
      "passa": 6568,
      "châ": 6569,
      "chap": 6570,
      "chée": 6571,
      "chess": 6572,
      "chaise": 6573,
      "auto": 6574,
      "auprès": 6575,
      "aurez": 6576,
      "aunt": 6577,
      "unes": 6578,
      "undance": 6579,
      "unknown": 6580,
      "trous": 6581,
      "trap": 6582,
      "trunk": 6583,
      "trapped": 6584,
      "trusted": 6585,
      "ottes": 6586,
      "aised": 6587,
      "ushed": 6588,
      "lir": 6589,
      "lien": 6590,
      "liver": 6591,
      "lions": 6592,
      "liqui": 6593,
      "liking": 6594,
      "tue": 6595,
      "tut": 6596,
      "bees": 6597,
      "belong": 6598,
      "behav": 6599,
      "becomes": 6600,
      "belongs": 6601,
      "prouver": 6602,
      "praised": 6603,
      "doig": 6604,
      "aveug": 6605,
      "peaux": 6606,
      "peindre": 6607,
      "pecte": 6608,
      "irur": 6609,
      "anta": 6610,
      "anti": 6611,
      "antes": 6612,
      "diez": 6613,
      "dirent": 6614,
      "dieu": 6615,
      "dicted": 6616,
      "diagno": 6617,
      "rigo": 6618,
      "rifi": 6619,
      "riode": 6620,
      "verres": 6621,
      "avé": 6622,
      "avou": 6623,
      "avril": 6624,
      "avancé": 6625,
      "amer": 6626,
      "ament": 6627,
      "ample": 6628,
      "ambo": 6629,
      "amitié": 6630,
      "eld": 6631,
      "etime": 6632,
      "compar": 6633,
      "compla": 6634,
      "commer": 6635,
      "commerci": 6636,
      "comprend": 6637,
      "sud": 6638,
      "whom": 6639,
      "whiche": 6640,
      "rescu": 6641,
      "resist": 6642,
      "resistance": 6643,
      "resources": 6644,
      "resource": 6645,
      "parte": 6646,
      "pardonner": 6647,
      "parliez": 6648,
      "acer": 6649,
      "acid": 6650,
      "actif": 6651,
      "agère": 6652,
      "forces": 6653,
      "formu": 6654,
      "forbi": 6655,
      "forms": 6656,
      "moin": 6657,
      "moteur": 6658,
      "moquer": 6659,
      "impul": 6660,
      "imprim": 6661,
      "étique": 6662,
      "étrer": 6663,
      "étition": 6664,
      "étagère": 6665,
      "cons": 6666,
      "consom": 6667,
      "consé": 6668,
      "contain": 6669,
      "confir": 6670,
      "convient": 6671,
      "contient": 6672,
      "conserv": 6673,
      "conspir": 6674,
      "allow": 6675,
      "allées": 6676,
      "ades": 6677,
      "added": 6678,
      "admit": 6679,
      "addressed": 6680,
      "adorable": 6681,
      "addicted": 6682,
      "icer": 6683,
      "icing": 6684,
      "iciles": 6685,
      "donnée": 6686,
      "stone": 6687,
      "load": 6688,
      "loses": 6689,
      "loge": 6690,
      "loyer": 6691,
      "term": 6692,
      "tery": 6693,
      "terme": 6694,
      "terres": 6695,
      "terie": 6696,
      "abst": 6697,
      "abondance": 6698,
      "abundance": 6699,
      "sius": 6700,
      "sière": 6701,
      "sieste": 6702,
      "renom": 6703,
      "rences": 6704,
      "renvoy": 6705,
      "rentré": 6706,
      "wasting": 6707,
      "déla": 6708,
      "déce": 6709,
      "déch": 6710,
      "défait": 6711,
      "dénu": 6712,
      "décor": 6713,
      "défi": 6714,
      "défil": 6715,
      "débat": 6716,
      "dépensé": 6717,
      "dépasser": 6718,
      "dépê": 6719,
      "débarr": 6720,
      "déconne": 6721,
      "dégoû": 6722,
      "dévelop": 6723,
      "dépourvu": 6724,
      "answered": 6725,
      "solaire": 6726,
      "goût": 6727,
      "duck": 6728,
      "roi": 6729,
      "role": 6730,
      "rope": 6731,
      "roof": 6732,
      "rowed": 6733,
      "ropes": 6734,
      "roïne": 6735,
      "notes": 6736,
      "plat": 6737,
      "plur": 6738,
      "monter": 6739,
      "mondiale": 6740,
      "monnaie": 6741,
      "volu": 6742,
      "voler": 6743,
      "voted": 6744,
      "descen": 6745,
      "pendu": 6746,
      "pendent": 6747,
      "pensait": 6748,
      "pencil": 6749,
      "covered": 6750,
      "yourselves": 6751,
      "iennes": 6752,
      "noire": 6753,
      "ties": 6754,
      "tight": 6755,
      "tiger": 6756,
      "coule": 6757,
      "couché": 6758,
      "maje": 6759,
      "maître": 6760,
      "maîtr": 6761,
      "plex": 6762,
      "frappe": 6763,
      "frappé": 6764,
      "lying": 6765,
      "perman": 6766,
      "persé": 6767,
      "persever": 6768,
      "illon": 6769,
      "proof": 6770,
      "lumb": 6771,
      "cia": 6772,
      "cies": 6773,
      "cigare": 6774,
      "civil": 6775,
      "extre": 6776,
      "explan": 6777,
      "extra": 6778,
      "exem": 6779,
      "exchange": 6780,
      "exige": 6781,
      "exprim": 6782,
      "illegal": 6783,
      "histoi": 6784,
      "boivent": 6785,
      "cheer": 6786,
      "cheating": 6787,
      "manif": 6788,
      "manques": 6789,
      "manqué": 6790,
      "manuel": 6791,
      "manquent": 6792,
      "managed": 6793,
      "shi": 6794,
      "shine": 6795,
      "knowled": 6796,
      "récon": 6797,
      "régu": 6798,
      "réput": 6799,
      "récla": 6800,
      "résident": 6801,
      "révolution": 6802,
      "rémonie": 6803,
      "choc": 6804,
      "choir": 6805,
      "chosen": 6806,
      "survive": 6807,
      "sermon": 6808,
      "serré": 6809,
      "seriez": 6810,
      "series": 6811,
      "saches": 6812,
      "saoul": 6813,
      "worn": 6814,
      "plafond": 6815,
      "témoin": 6816,
      "foo": 6817,
      "fos": 6818,
      "dises": 6819,
      "distant": 6820,
      "disponi": 6821,
      "vivez": 6822,
      "viande": 6823,
      "cting": 6824,
      "vra": 6825,
      "séjour": 6826,
      "arrivait": 6827,
      "ends": 6828,
      "maisons": 6829,
      "grais": 6830,
      "grab": 6831,
      "grandi": 6832,
      "tempête": 6833,
      "températ": 6834,
      "iciel": 6835,
      "merde": 6836,
      "mercy": 6837,
      "thern": 6838,
      "letting": 6839,
      "oppos": 6840,
      "crut": 6841,
      "crée": 6842,
      "crème": 6843,
      "crashed": 6844,
      "prévenue": 6845,
      "précieux": 6846,
      "précip": 6847,
      "prévoyez": 6848,
      "prévisions": 6849,
      "présente": 6850,
      "léger": 6851,
      "ffer": 6852,
      "vécut": 6853,
      "vérifi": 6854,
      "prevented": 6855,
      "phère": 6856,
      "étéri": 6857,
      "drait": 6858,
      "drôle": 6859,
      "drowned": 6860,
      "llement": 6861,
      "voulaient": 6862,
      "voulut": 6863,
      "soucie": 6864,
      "souffr": 6865,
      "everyday": 6866,
      "gardé": 6867,
      "mises": 6868,
      "mistook": 6869,
      "mistaken": 6870,
      "miséri": 6871,
      "misunderstanding": 6872,
      "miel": 6873,
      "reads": 6874,
      "sorti": 6875,
      "méth": 6876,
      "méda": 6877,
      "wheel": 6878,
      "itées": 6879,
      "dentist": 6880,
      "dentiste": 6881,
      "bye": 6882,
      "workers": 6883,
      "wherever": 6884,
      "sentit": 6885,
      "sentait": 6886,
      "coupa": 6887,
      "coups": 6888,
      "bran": 6889,
      "bronz": 6890,
      "britanni": 6891,
      "travaillons": 6892,
      "goodbye": 6893,
      "tonner": 6894,
      "commentaire": 6895,
      "commentaires": 6896,
      "nuage": 6897,
      "nuages": 6898,
      "numéri": 6899,
      "personn": 6900,
      "humains": 6901,
      "minded": 6902,
      "minuit": 6903,
      "obsc": 6904,
      "objet": 6905,
      "obvious": 6906,
      "obligé": 6907,
      "pondu": 6908,
      "inspire": 6909,
      "director": 6910,
      "visible": 6911,
      "earlier": 6912,
      "guère": 6913,
      "guéri": 6914,
      "matéri": 6915,
      "mblé": 6916,
      "mbers": 6917,
      "litres": 6918,
      "liters": 6919,
      "mum": 6920,
      "cordes": 6921,
      "corpus": 6922,
      "fié": 6923,
      "file": 6924,
      "fière": 6925,
      "fiable": 6926,
      "fiança": 6927,
      "field": 6928,
      "morte": 6929,
      "courte": 6930,
      "gentille": 6931,
      "stolen": 6932,
      "storm": 6933,
      "cerveau": 6934,
      "cross": 6935,
      "retir": 6936,
      "tooth": 6937,
      "appelons": 6938,
      "appeared": 6939,
      "appetite": 6940,
      "stuff": 6941,
      "studied": 6942,
      "studies": 6943,
      "aimed": 6944,
      "presse": 6945,
      "pressé": 6946,
      "valeur": 6947,
      "besides": 6948,
      "deviner": 6949,
      "fuel": 6950,
      "ferions": 6951,
      "gotta": 6952,
      "chers": 6953,
      "diffère": 6954,
      "difficiles": 6955,
      "blon": 6956,
      "blin": 6957,
      "portez": 6958,
      "compét": 6959,
      "compatis": 6960,
      "lovely": 6961,
      "causes": 6962,
      "mente": 6963,
      "version": 6964,
      "tribut": 6965,
      "tribun": 6966,
      "buste": 6967,
      "nouveaux": 6968,
      "tomba": 6969,
      "mettr": 6970,
      "personnel": 6971,
      "raisins": 6972,
      "langage": 6973,
      "grandma": 6974,
      "achè": 6975,
      "sence": 6976,
      "sensé": 6977,
      "officer": 6978,
      "tled": 6979,
      "torture": 6980,
      "woke": 6981,
      "feels": 6982,
      "friendship": 6983,
      "forecast": 6984,
      "century": 6985,
      "habits": 6986,
      "travaillais": 6987,
      "tentation": 6988,
      "aura": 6989,
      "backs": 6990,
      "gér": 6991,
      "géante": 6992,
      "gérie": 6993,
      "themselves": 6994,
      "contrary": 6995,
      "rooms": 6996,
      "péril": 6997,
      "pétrole": 6998,
      "période": 6999,
      "putain": 7000,
      "scholar": 7001,
      "entretenir": 7002,
      "aimerions": 7003,
      "supp": 7004,
      "supported": 7005,
      "cream": 7006,
      "credit": 7007,
      "path": 7008,
      "éclair": 7009,
      "promener": 7010,
      "cérémonie": 7011,
      "bord": 7012,
      "border": 7013,
      "borrowed": 7014,
      "calcul": 7015,
      "prime": 7016,
      "prirent": 7017,
      "carefully": 7018,
      "lished": 7019,
      "raw": 7020,
      "faces": 7021,
      "facture": 7022,
      "vital": 7023,
      "vitesse": 7024,
      "études": 7025,
      "connaissent": 7026,
      "regardes": 7027,
      "colon": 7028,
      "collabor": 7029,
      "petition": 7030,
      "painful": 7031,
      "téléphones": 7032,
      "sortis": 7033,
      "sortons": 7034,
      "dorment": 7035,
      "handsome": 7036,
      "turb": 7037,
      "dernières": 7038,
      "easier": 7039,
      "simul": 7040,
      "volcan": 7041,
      "essaya": 7042,
      "essayez": 7043,
      "aidera": 7044,
      "professor": 7045,
      "counter": 7046,
      "commenç": 7047,
      "étudié": 7048,
      "étudient": 7049,
      "rub": 7050,
      "rug": 7051,
      "rues": 7052,
      "béné": 7053,
      "joke": 7054,
      "jogging": 7055,
      "certainly": 7056,
      "idées": 7057,
      "miles": 7058,
      "sûres": 7059,
      "premiers": 7060,
      "downtown": 7061,
      "venues": 7062,
      "raine": 7063,
      "rained": 7064,
      "straight": 7065,
      "assise": 7066,
      "embr": 7067,
      "emmène": 7068,
      "larger": 7069,
      "drove": 7070,
      "dropped": 7071,
      "timate": 7072,
      "timid": 7073,
      "pouvaient": 7074,
      "bouil": 7075,
      "bouche": 7076,
      "calls": 7077,
      "charger": 7078,
      "classes": 7079,
      "scène": 7080,
      "scissors": 7081,
      "teachers": 7082,
      "chambres": 7083,
      "champagne": 7084,
      "partira": 7085,
      "capac": 7086,
      "touristes": 7087,
      "égard": 7088,
      "égalité": 7089,
      "critiques": 7090,
      "trouverez": 7091,
      "proposes": 7092,
      "proposed": 7093,
      "excès": 7094,
      "exclus": 7095,
      "bitter": 7096,
      "latin": 7097,
      "lately": 7098,
      "natives": 7099,
      "lications": 7100,
      "utiles": 7101,
      "difficulté": 7102,
      "adorent": 7103,
      "walking": 7104,
      "international": 7105,
      "internationale": 7106,
      "interrup": 7107,
      "product": 7108,
      "products": 7109,
      "vérance": 7110,
      "aimaient": 7111,
      "conduct": 7112,
      "explication": 7113,
      "mariée": 7114,
      "habituer": 7115,
      "habituellement": 7116,
      "dingue": 7117,
      "dried": 7118,
      "bigger": 7119,
      "honneur": 7120,
      "conseille": 7121,
      "conseilla": 7122,
      "sauter": 7123,
      "oublier": 7124,
      "changements": 7125,
      "begins": 7126,
      "responsibil": 7127,
      "opinions": 7128,
      "cash": 7129,
      "jug": 7130,
      "jupe": 7131,
      "juge": 7132,
      "suspecte": 7133,
      "transpire": 7134,
      "apprécient": 7135,
      "rencontrons": 7136,
      "examination": 7137,
      "arrivés": 7138,
      "fallut": 7139,
      "logique": 7140,
      "logical": 7141,
      "maladies": 7142,
      "Pardonnez": 7143,
      "battle": 7144,
      "rapporte": 7145,
      "warn": 7146,
      "anks": 7147,
      "présenté": 7148,
      "countryside": 7149,
      "camp": 7150,
      "hung": 7151,
      "idiote": 7152,
      "pauvres": 7153,
      "silly": 7154,
      "accue": 7155,
      "shock": 7156,
      "plaintes": 7157,
      "writer": 7158,
      "barre": 7159,
      "barking": 7160,
      "tilingu": 7161,
      "étrang": 7162,
      "pousse": 7163,
      "pousser": 7164,
      "poussé": 7165,
      "ouvertes": 7166,
      "imagin": 7167,
      "pensées": 7168,
      "disposer": 7169,
      "disposent": 7170,
      "disposais": 7171,
      "publié": 7172,
      "matinée": 7173,
      "joueurs": 7174,
      "affir": 7175,
      "boutique": 7176,
      "cafeter": 7177,
      "dirty": 7178,
      "informations": 7179,
      "chauffe": 7180,
      "ligne": 7181,
      "stupides": 7182,
      "sûrs": 7183,
      "fournit": 7184,
      "fournir": 7185,
      "glace": 7186,
      "mangent": 7187,
      "mangez": 7188,
      "sisters": 7189,
      "apples": 7190,
      "déjeuné": 7191,
      "feuille": 7192,
      "ignit": 7193,
      "ignored": 7194,
      "harm": 7195,
      "coûter": 7196,
      "objection": 7197,
      "employer": 7198,
      "contacter": 7199,
      "cookies": 7200,
      "bags": 7201,
      "bagages": 7202,
      "héroïne": 7203,
      "mourut": 7204,
      "concern": 7205,
      "concerne": 7206,
      "couvert": 7207,
      "arriverait": 7208,
      "master": 7209,
      "steak": 7210,
      "salary": 7211,
      "patients": 7212,
      "suffer": 7213,
      "courageux": 7214,
      "écouté": 7215,
      "écoutes": 7216,
      "correctly": 7217,
      "situe": 7218,
      "sitting": 7219,
      "saving": 7220,
      "attack": 7221,
      "third": 7222,
      "subway": 7223,
      "closely": 7224,
      "fatiguée": 7225,
      "client": 7226,
      "panne": 7227,
      "ennuyeux": 7228,
      "invitée": 7229,
      "actuelle": 7230,
      "actuellement": 7231,
      "pleasant": 7232,
      "publicité": 7233,
      "intelligents": 7234,
      "gueule": 7235,
      "indique": 7236,
      "thesis": 7237,
      "semblent": 7238,
      "améric": 7239,
      "supermarché": 7240,
      "supermarket": 7241,
      "constant": 7242,
      "constamment": 7243,
      "precious": 7244,
      "elec": 7245,
      "elect": 7246,
      "gyp": 7247,
      "victim": 7248,
      "reality": 7249,
      "postpone": 7250,
      "engager": 7251,
      "engagement": 7252,
      "enjoys": 7253,
      "arrose": 7254,
      "nearly": 7255,
      "necessarily": 7256,
      "trompe": 7257,
      "tromper": 7258,
      "trompet": 7259,
      "réussir": 7260,
      "International": 7261,
      "regarda": 7262,
      "regardant": 7263,
      "communication": 7264,
      "Apportez": 7265,
      "créé": 7266,
      "daily": 7267,
      "loud": 7268,
      "pisto": 7269,
      "tickets": 7270,
      "heavily": 7271,
      "prudents": 7272,
      "amusante": 7273,
      "approve": 7274,
      "approche": 7275,
      "désastre": 7276,
      "montrent": 7277,
      "cleaned": 7278,
      "supposés": 7279,
      "stronger": 7280,
      "étrangers": 7281,
      "accepté": 7282,
      "accepted": 7283,
      "Italian": 7284,
      "rêves": 7285,
      "élevés": 7286,
      "attraper": 7287,
      "tempor": 7288,
      "medal": 7289,
      "autorité": 7290,
      "autorisé": 7291,
      "style": 7292,
      "shorter": 7293,
      "discuté": 7294,
      "opération": 7295,
      "préfères": 7296,
      "articles": 7297,
      "Algérie": 7298,
      "Arab": 7299,
      "domaine": 7300,
      "picked": 7301,
      "construit": 7302,
      "collection": 7303,
      "vivait": 7304,
      "gratuit": 7305,
      "compliqué": 7306,
      "complicated": 7307,
      "embarras": 7308,
      "mammal": 7309,
      "mammif": 7310,
      "épousé": 7311,
      "realized": 7312,
      "concentrate": 7313,
      "rocks": 7314,
      "manquez": 7315,
      "shopping": 7316,
      "igners": 7317,
      "souhaiter": 7318,
      "souhaitez": 7319,
      "regrette": 7320,
      "refusé": 7321,
      "fonctionné": 7322,
      "pauvreté": 7323,
      "différente": 7324,
      "amélioré": 7325,
      "arrogants": 7326,
      "Repetition": 7327,
      "fasses": 7328,
      "soutenu": 7329,
      "status": 7330,
      "generally": 7331,
      "marketing": 7332,
      "sweat": 7333,
      "sweet": 7334,
      "tarte": 7335,
      "target": 7336,
      "heurté": 7337,
      "quarante": 7338,
      "quartier": 7339,
      "lapins": 7340,
      "laptop": 7341,
      "teered": 7342,
      "activity": 7343,
      "streets": 7344,
      "découverte": 7345,
      "explained": 7346,
      "sérieuse": 7347,
      "milliers": 7348,
      "Australian": 7349,
      "intéressés": 7350,
      "further": 7351,
      "furniture": 7352,
      "operation": 7353,
      "operate": 7354,
      "ramassé": 7355,
      "rangé": 7356,
      "tallest": 7357,
      "organized": 7358,
      "apparu": 7359,
      "appartement": 7360,
      "deserves": 7361,
      "répétition": 7362,
      "résistance": 7363,
      "serviettes": 7364,
      "preuves": 7365,
      "obligée": 7366,
      "obligations": 7367,
      "arrêtée": 7368,
      "habitait": 7369,
      "bouteilles": 7370,
      "responsabilité": 7371,
      "bizarrement": 7372,
      "Débarr": 7373,
      "ciseaux": 7374,
      "européenne": 7375,
      "flying": 7376,
      "kilos": 7377,
      "tatou": 7378,
      "tattoo": 7379,
      "tiendra": 7380,
      "échecs": 7381,
      "assurer": 7382,
      "entraîner": 7383,
      "alternatives": 7384,
      "prati": 7385,
      "siège": 7386,
      "siècle": 7387,
      "siècles": 7388,
      "collis": 7389,
      "colline": 7390,
      "perfectly": 7391,
      "discover": 7392,
      "discovered": 7393,
      "garderai": 7394,
      "fighting": 7395,
      "cherchait": 7396,
      "cherchons": 7397,
      "emprunte": 7398,
      "silencieuse": 7399,
      "faults": 7400,
      "continué": 7401,
      "continuer": 7402,
      "apologized": 7403,
      "détermination": 7404,
      "events": 7405,
      "eventually": 7406,
      "sportif": 7407,
      "scary": 7408,
      "remonter": 7409,
      "result": 7410,
      "heroin": 7411,
      "intend": 7412,
      "increased": 7413,
      "qualif": 7414,
      "determination": 7415,
      "attaqués": 7416,
      "meals": 7417,
      "beaten": 7418,
      "practical": 7419,
      "divorce": 7420,
      "comprennent": 7421,
      "complaining": 7422,
      "complaints": 7423,
      "convaincu": 7424,
      "majority": 7425,
      "frappa": 7426,
      "persuade": 7427,
      "persuader": 7428,
      "maths": 7429,
      "doubt": 7430,
      "skinny": 7431,
      "clouds": 7432,
      "hypothèse": 7433,
      "hypothesis": 7434,
      "original": 7435,
      "opportunité": 7436,
      "Prépare": 7437,
      "Unies": 7438,
      "Univers": 7439,
      "apartment": 7440,
      "damaged": 7441,
      "haute": 7442,
      "knock": 7443,
      "éteindre": 7444,
      "requires": 7445,
      "rempla": 7446,
      "remained": 7447,
      "entirely": 7448,
      "chinoise": 7449,
      "author": 7450,
      "authority": 7451,
      "digne": 7452,
      "digital": 7453,
      "modern": 7454,
      "apparence": 7455,
      "absurde": 7456,
      "désire": 7457,
      "tremblement": 7458,
      "sharp": 7459,
      "faithful": 7460,
      "vengeance": 7461,
      "disparu": 7462,
      "disputer": 7463,
      "discussed": 7464,
      "guessed": 7465,
      "guerrier": 7466,
      "crossing": 7467,
      "génies": 7468,
      "Français": 7469,
      "criminal": 7470,
      "symbole": 7471,
      "cuisinier": 7472,
      "cuisinière": 7473,
      "échoué": 7474,
      "professional": 7475,
      "professionnel": 7476,
      "Jeanne": 7477,
      "thousands": 7478,
      "foutre": 7479,
      "pills": 7480,
      "psychic": 7481,
      "sagesse": 7482,
      "tiny": 7483,
      "écoute": 7484,
      "écoutez": 7485,
      "influence": 7486,
      "anxious": 7487,
      "celebrate": 7488,
      "allumer": 7489,
      "loyal": 7490,
      "manual": 7491,
      "survivors": 7492,
      "survivants": 7493,
      "material": 7494,
      "genius": 7495,
      "geniuses": 7496,
      "blanket": 7497,
      "spéci": 7498,
      "spécial": 7499,
      "supplémentaire": 7500,
      "effectu": 7501,
      "effective": 7502,
      "effrayé": 7503,
      "volunteered": 7504,
      "strangers": 7505,
      "excuser": 7506,
      "victoire": 7507,
      "victory": 7508,
      "électron": 7509,
      "architect": 7510,
      "architecte": 7511,
      "excellent": 7512,
      "pratiquement": 7513,
      "congratulations": 7514,
      "Columb": 7515,
      "Corri": 7516,
      "Colomb": 7517,
      "Jackson": 7518,
      "Permettez": 7519,
      "barely": 7520,
      "doutes": 7521,
      "global": 7522,
      "rabbits": 7523,
      "titre": 7524,
      "épuisé": 7525,
      "recently": 7526,
      "enverrai": 7527,
      "annulée": 7528,
      "artificial": 7529,
      "alentours": 7530,
      "liberté": 7531,
      "website": 7532,
      "advertise": 7533,
      "advanced": 7534,
      "rentrée": 7535,
      "décédé": 7536,
      "délicieux": 7537,
      "déclaré": 7538,
      "despise": 7539,
      "pleurait": 7540,
      "projets": 7541,
      "exigé": 7542,
      "manquait": 7543,
      "shaking": 7544,
      "choisi": 7545,
      "disgusting": 7546,
      "puzzle": 7547,
      "marchand": 7548,
      "souffle": 7549,
      "assistant": 7550,
      "regularly": 7551,
      "Algeria": 7552,
      "pickpockets": 7553,
      "automobile": 7554,
      "signification": 7555,
      "challenge": 7556,
      "Atomic": 7557,
      "Central": 7558,
      "Diable": 7559,
      "Royal": 7560,
      "abeilles": 7561,
      "citizens": 7562,
      "duty": 7563,
      "fûmes": 7564,
      "goutte": 7565,
      "gift": 7566,
      "handed": 7567,
      "hoping": 7568,
      "hésite": 7569,
      "jaloux": 7570,
      "multilingu": 7571,
      "pantalon": 7572,
      "ravi": 7573,
      "rappelles": 7574,
      "spider": 7575,
      "smiling": 7576,
      "tapis": 7577,
      "évène": 7578,
      "œuvre": 7579,
      "poems": 7580,
      "repeat": 7581,
      "independent": 7582,
      "departure": 7583,
      "atomique": 7584,
      "entrance": 7585,
      "chouette": 7586,
      "lifetime": 7587,
      "peanuts": 7588,
      "pelled": 7589,
      "wealthy": 7590,
      "amazing": 7591,
      "mondial": 7592,
      "perspective": 7593,
      "programme": 7594,
      "extrême": 7595,
      "récemment": 7596,
      "récolte": 7597,
      "safety": 7598,
      "endommag": 7599,
      "gradu": 7600,
      "crayon": 7601,
      "craft": 7602,
      "particulièrement": 7603,
      "pregnant": 7604,
      "pharmac": 7605,
      "inspiration": 7606,
      "spatial": 7607,
      "pénétrer": 7608,
      "promenade": 7609,
      "private": 7610,
      "magnifi": 7611,
      "enseigné": 7612,
      "circum": 7613,
      "circonstances": 7614,
      "chaussettes": 7615,
      "citoyens": 7616,
      "frontière": 7617,
      "soudainement": 7618,
      "Continue": 7619,
      "biscuits": 7620,
      "météorologiques": 7621,
      "égoïste": 7622,
      "April": 7623,
      "Celsius": 7624,
      "Cessez": 7625,
      "Dégage": 7626,
      "Google": 7627,
      "Monsieur": 7628,
      "Portu": 7629,
      "Tower": 7630,
      "ahuètes": 7631,
      "basket": 7632,
      "cacahuètes": 7633,
      "eighteen": 7634,
      "false": 7635,
      "fausse": 7636,
      "houses": 7637,
      "tandis": 7638,
      "wisdom": 7639,
      "waist": 7640,
      "warrior": 7641,
      "poverty": 7642,
      "poignée": 7643,
      "refuge": 7644,
      "recommend": 7645,
      "enregis": 7646,
      "incorrigi": 7647,
      "incalculable": 7648,
      "quasiment": 7649,
      "deprived": 7650,
      "araignée": 7651,
      "thief": 7652,
      "seventy": 7653,
      "security": 7654,
      "established": 7655,
      "doigt": 7656,
      "commerce": 7657,
      "whichever": 7658,
      "rescued": 7659,
      "forbidden": 7660,
      "conséquences": 7661,
      "dépêché": 7662,
      "débarras": 7663,
      "persévérance": 7664,
      "perseverance": 7665,
      "explanation": 7666,
      "exemple": 7667,
      "histoires": 7668,
      "manifest": 7669,
      "régulièrement": 7670,
      "température": 7671,
      "médaille": 7672,
      "obviously": 7673,
      "tribunal": 7674,
      "responsibility": 7675,
      "cafeteria": 7676,
      "mammifère": 7677,
      "électronique": 7678,
      "Columbus": 7679,
      "extrêmement": 7680,
      "25": 7681,
      "26": 7682,
      "27": 7683,
      "2K": 7684,
      "2000": 7685,
      "32": 7686,
      "42": 7687,
      "83": 7688,
      "88": 7689,
      "89": 7690,
      "AM": 7691,
      "AT": 7692,
      "Ac": 7693,
      "Aï": 7694,
      "Apo": 7695,
      "Ale": 7696,
      "Ala": 7697,
      "Alas": 7698,
      "Alf": 7699,
      "Ajou": 7700,
      "Amn": 7701,
      "Achie": 7702,
      "Avat": 7703,
      "Adéla": 7704,
      "Bu": 7705,
      "Bre": 7706,
      "Ban": 7707,
      "Bur": 7708,
      "Bam": 7709,
      "Bel": 7710,
      "Bay": 7711,
      "But": 7712,
      "Bask": 7713,
      "Brow": 7714,
      "Baby": 7715,
      "Bride": 7716,
      "BRI": 7717,
      "Bras": 7718,
      "BBC": 7719,
      "Bye": 7720,
      "CD": 7721,
      "Cle": 7722,
      "Car": 7723,
      "Cai": 7724,
      "Cher": 7725,
      "Caire": 7726,
      "Cop": 7727,
      "Clé": 7728,
      "Chi": 7729,
      "Coc": 7730,
      "Cart": 7731,
      "Cali": 7732,
      "Crist": 7733,
      "Cathy": 7734,
      "CRI": 7735,
      "Cambo": 7736,
      "Dav": 7737,
      "Dall": 7738,
      "Dro": 7739,
      "Dard": 7740,
      "Dame": 7741,
      "Ef": 7742,
      "Eu": 7743,
      "Emil": 7744,
      "Eric": 7745,
      "Egyp": 7746,
      "Fé": 7747,
      "Fin": 7748,
      "Fad": 7749,
      "Fill": 7750,
      "Fred": 7751,
      "Face": 7752,
      "Fanta": 7753,
      "Gu": 7754,
      "Gand": 7755,
      "Gold": 7756,
      "Grou": 7757,
      "Gaz": 7758,
      "Gables": 7759,
      "Goro": 7760,
      "He": 7761,
      "Han": 7762,
      "Hun": 7763,
      "Hend": 7764,
      "Hey": 7765,
      "Howe": 7766,
      "Hallo": 7767,
      "ID": 7768,
      "Ir": 7769,
      "Istan": 7770,
      "Jen": 7771,
      "June": 7772,
      "Jup": 7773,
      "Jord": 7774,
      "Ke": 7775,
      "Kas": 7776,
      "Kelle": 7777,
      "Kak": 7778,
      "Kaz": 7779,
      "Kathy": 7780,
      "LO": 7781,
      "LS": 7782,
      "Li": 7783,
      "Lé": 7784,
      "Len": 7785,
      "Lin": 7786,
      "Lune": 7787,
      "Lux": 7788,
      "Lang": 7789,
      "Loun": 7790,
      "Mer": 7791,
      "Mme": 7792,
      "Mir": 7793,
      "Mage": 7794,
      "Mich": 7795,
      "Mali": 7796,
      "Mande": 7797,
      "Moh": 7798,
      "Mos": 7799,
      "Matt": 7800,
      "Moy": 7801,
      "Na": 7802,
      "Nel": 7803,
      "Nag": 7804,
      "Nap": 7805,
      "Nak": 7806,
      "Notre": 7807,
      "Ney": 7808,
      "Nouve": 7809,
      "Nash": 7810,
      "Nara": 7811,
      "Ob": 7812,
      "Ox": 7813,
      "Oscar": 7814,
      "Okin": 7815,
      "Olymp": 7816,
      "Oliver": 7817,
      "PT": 7818,
      "Ph": 7819,
      "Pre": 7820,
      "Pis": 7821,
      "Pen": 7822,
      "Pat": 7823,
      "Pic": 7824,
      "Phar": 7825,
      "Pader": 7826,
      "Pacif": 7827,
      "Que": 7828,
      "Rh": 7829,
      "Rob": 7830,
      "Roc": 7831,
      "Rick": 7832,
      "Reven": 7833,
      "Rome": 7834,
      "RAM": 7835,
      "Sc": 7836,
      "Sy": 7837,
      "Sat": 7838,
      "Sur": 7839,
      "Sam": 7840,
      "Say": 7841,
      "Sab": 7842,
      "Sally": 7843,
      "Sato": 7844,
      "Simp": 7845,
      "Spot": 7846,
      "Sara": 7847,
      "Scand": 7848,
      "Sandra": 7849,
      "SCRI": 7850,
      "Ti": 7851,
      "Tar": 7852,
      "Ted": 7853,
      "Tim": 7854,
      "Tick": 7855,
      "Tuf": 7856,
      "Trang": 7857,
      "Uk": 7858,
      "Uran": 7859,
      "Ubun": 7860,
      "Vo": 7861,
      "Ven": 7862,
      "Vince": 7863,
      "Voy": 7864,
      "Wor": 7865,
      "Who": 7866,
      "Year": 7867,
      "Y2K": 7868,
      "ao": 7869,
      "aque": 7870,
      "ape": 7871,
      "ael": 7872,
      "ares": 7873,
      "aler": 7874,
      "aît": 7875,
      "apeur": 7876,
      "adiction": 7877,
      "awoke": 7878,
      "bs": 7879,
      "bt": 7880,
      "bom": 7881,
      "bous": 7882,
      "bac": 7883,
      "bage": 7884,
      "bust": 7885,
      "barri": 7886,
      "basse": 7887,
      "bast": 7888,
      "bêt": 7889,
      "banc": 7890,
      "bomb": 7891,
      "baked": 7892,
      "bounce": 7893,
      "câ": 7894,
      "cing": 7895,
      "cais": 7896,
      "cad": 7897,
      "cti": 7898,
      "cate": 7899,
      "carri": 7900,
      "cable": 7901,
      "ciez": 7902,
      "carried": 7903,
      "cured": 7904,
      "ckey": 7905,
      "dg": 7906,
      "dne": 7907,
      "dant": 7908,
      "dder": 7909,
      "dust": 7910,
      "dame": 7911,
      "dwell": 7912,
      "duses": 7913,
      "dwar": 7914,
      "dresse": 7915,
      "eh": 7916,
      "equ": 7917,
      "eper": 7918,
      "eager": 7919,
      "eeny": 7920,
      "eBay": 7921,
      "fl": 7922,
      "fê": 7923,
      "fest": 7924,
      "fed": 7925,
      "fare": 7926,
      "fans": 7927,
      "fate": 7928,
      "fif": 7929,
      "fêtes": 7930,
      "fins": 7931,
      "fright": 7932,
      "flot": 7933,
      "fence": 7934,
      "fass": 7935,
      "fense": 7936,
      "flic": 7937,
      "flight": 7938,
      "fash": 7939,
      "fâche": 7940,
      "founded": 7941,
      "git": 7942,
      "gne": 7943,
      "gme": 7944,
      "gang": 7945,
      "gien": 7946,
      "gaire": 7947,
      "gate": 7948,
      "gones": 7949,
      "grés": 7950,
      "hro": 7951,
      "hire": 7952,
      "hong": 7953,
      "hits": 7954,
      "hated": 7955,
      "hstan": 7956,
      "ival": 7957,
      "iety": 7958,
      "jaz": 7959,
      "jum": 7960,
      "jban": 7961,
      "jandra": 7962,
      "ki": 7963,
      "kne": 7964,
      "kins": 7965,
      "kile": 7966,
      "kward": 7967,
      "ls": 7968,
      "lux": 7969,
      "ller": 7970,
      "lton": 7971,
      "lins": 7972,
      "lande": 7973,
      "mm": 7974,
      "mai": 7975,
      "map": 7976,
      "mation": 7977,
      "mite": 7978,
      "maux": 7979,
      "maid": 7980,
      "mpet": 7981,
      "mass": 7982,
      "mourr": 7983,
      "miens": 7984,
      "maig": 7985,
      "mallows": 7986,
      "nas": 7987,
      "nai": 7988,
      "nmes": 7989,
      "nard": 7990,
      "nine": 7991,
      "nable": 7992,
      "nité": 7993,
      "nami": 7994,
      "nick": 7995,
      "narr": 7996,
      "nôt": 7997,
      "naise": 7998,
      "nagent": 7999,
      "naked": 8000,
      "nitude": 8001,
      "ox": 8002,
      "oï": 8003,
      "oes": 8004,
      "ores": 8005,
      "olé": 8006,
      "oins": 8007,
      "olives": 8008,
      "ograp": 8009,
      "olymp": 8010,
      "pin": 8011,
      "pse": 8012,
      "ples": 8013,
      "pée": 8014,
      "pted": 8015,
      "pair": 8016,
      "pint": 8017,
      "pés": 8018,
      "pach": 8019,
      "pinte": 8020,
      "pture": 8021,
      "pages": 8022,
      "ptive": 8023,
      "pitié": 8024,
      "phen": 8025,
      "pstick": 8026,
      "rô": 8027,
      "rir": 8028,
      "rét": 8029,
      "rine": 8030,
      "ruse": 8031,
      "rors": 8032,
      "ranger": 8033,
      "rho": 8034,
      "rack": 8035,
      "rasse": 8036,
      "rings": 8037,
      "randon": 8038,
      "rural": 8039,
      "rush": 8040,
      "rablement": 8041,
      "sn": 8042,
      "sè": 8043,
      "sis": 8044,
      "sest": 8045,
      "sow": 8046,
      "sco": 8047,
      "sink": 8048,
      "ssais": 8049,
      "spare": 8050,
      "sits": 8051,
      "scol": 8052,
      "sank": 8053,
      "slight": 8054,
      "strip": 8055,
      "saper": 8056,
      "sira": 8057,
      "tai": 8058,
      "tion": 8059,
      "tét": 8060,
      "tic": 8061,
      "tab": 8062,
      "ttre": 8063,
      "taire": 8064,
      "tici": 8065,
      "taux": 8066,
      "tack": 8067,
      "tact": 8068,
      "tester": 8069,
      "tables": 8070,
      "tira": 8071,
      "twel": 8072,
      "tiré": 8073,
      "uan": 8074,
      "uch": 8075,
      "ules": 8076,
      "uite": 8077,
      "uine": 8078,
      "uable": 8079,
      "uck": 8080,
      "vy": 8081,
      "vê": 8082,
      "vai": 8083,
      "vul": 8084,
      "vins": 8085,
      "vache": 8086,
      "vages": 8087,
      "vated": 8088,
      "vôtre": 8089,
      "wave": 8090,
      "wall": 8091,
      "wire": 8092,
      "wright": 8093,
      "wound": 8094,
      "wars": 8095,
      "yen": 8096,
      "yait": 8097,
      "yser": 8098,
      "yaux": 8099,
      "yach": 8100,
      "yaz": 8101,
      "yens": 8102,
      "yama": 8103,
      "yond": 8104,
      "yuan": 8105,
      "zen": 8106,
      "zart": 8107,
      "zaine": 8108,
      "zones": 8109,
      "Éter": 8110,
      "Éco": 8111,
      "âgé": 8112,
      "çant": 8113,
      "çois": 8114,
      "ève": 8115,
      "èdes": 8116,
      "ètres": 8117,
      "équ": 8118,
      "épe": 8119,
      "éni": 8120,
      "élé": 8121,
      "éru": 8122,
      "échar": 8123,
      "élire": 8124,
      "évite": 8125,
      "épau": 8126,
      "échant": 8127,
      "éreuse": 8128,
      "évidence": 8129,
      "épreuve": 8130,
      "évan": 8131,
      "êle": 8132,
      "êpes": 8133,
      "ío": 8134,
      "île": 8135,
      "înmes": 8136,
      "ïs": 8137,
      "ïde": 8138,
      "ôta": 8139,
      "ûte": 8140,
      "pox": 8141,
      "poit": 8142,
      "poil": 8143,
      "poun": 8144,
      "pointe": 8145,
      "poches": 8146,
      "polog": 8147,
      "poèmes": 8148,
      "poker": 8149,
      "ouille": 8150,
      "ouillard": 8151,
      "remo": 8152,
      "redé": 8153,
      "reti": 8154,
      "recette": 8155,
      "repris": 8156,
      "remb": 8157,
      "refer": 8158,
      "revien": 8159,
      "repassé": 8160,
      "recommen": 8161,
      "reriez": 8162,
      "repose": 8163,
      "reuses": 8164,
      "reprise": 8165,
      "retired": 8166,
      "reward": 8167,
      "retenir": 8168,
      "revenus": 8169,
      "recharge": 8170,
      "reconstru": 8171,
      "represent": 8172,
      "revolution": 8173,
      "revenge": 8174,
      "retirer": 8175,
      "recherches": 8176,
      "recherchons": 8177,
      "posted": 8178,
      "posture": 8179,
      "posées": 8180,
      "positive": 8181,
      "esch": 8182,
      "essu": 8183,
      "escor": 8184,
      "height": 8185,
      "headed": 8186,
      "heels": 8187,
      "onto": 8188,
      "ongo": 8189,
      "onze": 8190,
      "onnement": 8191,
      "onnaise": 8192,
      "onéreuse": 8193,
      "iss": 8194,
      "istr": 8195,
      "isure": 8196,
      "isman": 8197,
      "isation": 8198,
      "isez": 8199,
      "issons": 8200,
      "enr": 8201,
      "enor": 8202,
      "envo": 8203,
      "endis": 8204,
      "ented": 8205,
      "enez": 8206,
      "eness": 8207,
      "envis": 8208,
      "encre": 8209,
      "enious": 8210,
      "enrich": 8211,
      "engag": 8212,
      "ensuite": 8213,
      "envoie": 8214,
      "envelop": 8215,
      "ensole": 8216,
      "engrais": 8217,
      "encounter": 8218,
      "envy": 8219,
      "inent": 8220,
      "intu": 8221,
      "inav": 8222,
      "incom": 8223,
      "inson": 8224,
      "inven": 8225,
      "inob": 8226,
      "insol": 8227,
      "incess": 8228,
      "incident": 8229,
      "insec": 8230,
      "initi": 8231,
      "inverse": 8232,
      "indépend": 8233,
      "inclus": 8234,
      "injustice": 8235,
      "infant": 8236,
      "inutile": 8237,
      "incroy": 8238,
      "indifférent": 8239,
      "anus": 8240,
      "anno": 8241,
      "anmar": 8242,
      "anions": 8243,
      "analo": 8244,
      "announ": 8245,
      "anthro": 8246,
      "leaf": 8247,
      "leva": 8248,
      "leather": 8249,
      "lection": 8250,
      "levez": 8251,
      "levée": 8252,
      "leader": 8253,
      "lemons": 8254,
      "leaped": 8255,
      "lecture": 8256,
      "lexion": 8257,
      "leisure": 8258,
      "eria": 8259,
      "errat": 8260,
      "ervilles": 8261,
      "errors": 8262,
      "itz": 8263,
      "itée": 8264,
      "itate": 8265,
      "itations": 8266,
      "quo": 8267,
      "quis": 8268,
      "quie": 8269,
      "quaient": 8270,
      "quilles": 8271,
      "quées": 8272,
      "quillage": 8273,
      "aste": 8274,
      "asing": 8275,
      "asli": 8276,
      "aster": 8277,
      "asso": 8278,
      "assur": 8279,
      "asts": 8280,
      "asol": 8281,
      "astro": 8282,
      "astique": 8283,
      "asaki": 8284,
      "deur": 8285,
      "deep": 8286,
      "deaf": 8287,
      "decent": 8288,
      "degre": 8289,
      "decla": 8290,
      "decl": 8291,
      "debate": 8292,
      "dette": 8293,
      "develo": 8294,
      "demeu": 8295,
      "demie": 8296,
      "defend": 8297,
      "devoted": 8298,
      "debt": 8299,
      "degrés": 8300,
      "detai": 8301,
      "omat": 8302,
      "omac": 8303,
      "omach": 8304,
      "ombi": 8305,
      "atre": 8306,
      "athe": 8307,
      "atie": 8308,
      "atif": 8309,
      "ators": 8310,
      "atra": 8311,
      "athed": 8312,
      "atives": 8313,
      "atching": 8314,
      "theless": 8315,
      "theatre": 8316,
      "arc": 8317,
      "arse": 8318,
      "arith": 8319,
      "armes": 8320,
      "aries": 8321,
      "arna": 8322,
      "arrest": 8323,
      "argue": 8324,
      "arian": 8325,
      "arades": 8326,
      "ilia": 8327,
      "ilip": 8328,
      "toe": 8329,
      "tos": 8330,
      "tox": 8331,
      "toy": 8332,
      "toir": 8333,
      "toire": 8334,
      "tory": 8335,
      "tovers": 8336,
      "tower": 8337,
      "towel": 8338,
      "tocks": 8339,
      "neck": 8340,
      "negot": 8341,
      "neither": 8342,
      "veill": 8343,
      "vember": 8344,
      "vembre": 8345,
      "thy": 8346,
      "thus": 8347,
      "lah": 8348,
      "lam": 8349,
      "laine": 8350,
      "laide": 8351,
      "layer": 8352,
      "lavés": 8353,
      "lavage": 8354,
      "teering": 8355,
      "tetan": 8356,
      "jeter": 8357,
      "jeté": 8358,
      "mere": 8359,
      "mely": 8360,
      "melon": 8361,
      "meeny": 8362,
      "measure": 8363,
      "seld": 8364,
      "seille": 8365,
      "selle": 8366,
      "semi": 8367,
      "seins": 8368,
      "seyez": 8369,
      "seize": 8370,
      "seeds": 8371,
      "entres": 8372,
      "entich": 8373,
      "cell": 8374,
      "ceaux": 8375,
      "ception": 8376,
      "orc": 8377,
      "oras": 8378,
      "orus": 8379,
      "orée": 8380,
      "orient": 8381,
      "orgue": 8382,
      "orbite": 8383,
      "ordonna": 8384,
      "aic": 8385,
      "aidé": 8386,
      "aigu": 8387,
      "aibli": 8388,
      "aidée": 8389,
      "esty": 8390,
      "esté": 8391,
      "estin": 8392,
      "estable": 8393,
      "estomac": 8394,
      "alé": 8395,
      "alas": 8396,
      "alien": 8397,
      "altru": 8398,
      "algé": 8399,
      "algi": 8400,
      "aliste": 8401,
      "inging": 8402,
      "ingenious": 8403,
      "urday": 8404,
      "urine": 8405,
      "urges": 8406,
      "urged": 8407,
      "passes": 8408,
      "passing": 8409,
      "passera": 8410,
      "passons": 8411,
      "chais": 8412,
      "chain": 8413,
      "chère": 8414,
      "chés": 8415,
      "chœur": 8416,
      "chande": 8417,
      "chutes": 8418,
      "chland": 8419,
      "chute": 8420,
      "chunk": 8421,
      "chairs": 8422,
      "chèque": 8423,
      "choux": 8424,
      "chirur": 8425,
      "chrét": 8426,
      "audi": 8427,
      "auquel": 8428,
      "auves": 8429,
      "ung": 8430,
      "unami": 8431,
      "uncomfortable": 8432,
      "unlikely": 8433,
      "unhealthy": 8434,
      "unciation": 8435,
      "trin": 8436,
      "trac": 8437,
      "trig": 8438,
      "tristes": 8439,
      "trône": 8440,
      "oté": 8441,
      "otine": 8442,
      "aison": 8443,
      "aisée": 8444,
      "aisance": 8445,
      "aissent": 8446,
      "aissez": 8447,
      "user": 8448,
      "ustrop": 8449,
      "lian": 8450,
      "liar": 8451,
      "lière": 8452,
      "lict": 8453,
      "limit": 8454,
      "limous": 8455,
      "lichée": 8456,
      "limite": 8457,
      "tues": 8458,
      "tués": 8459,
      "tuber": 8460,
      "tuyaux": 8461,
      "bec": 8462,
      "bee": 8463,
      "bead": 8464,
      "beans": 8465,
      "bell": 8466,
      "beard": 8467,
      "behaving": 8468,
      "beyond": 8469,
      "prêtre": 8470,
      "prince": 8471,
      "praise": 8472,
      "practi": 8473,
      "prétend": 8474,
      "pection": 8475,
      "lessen": 8476,
      "irais": 8477,
      "irts": 8478,
      "irregular": 8479,
      "antici": 8480,
      "dif": 8481,
      "dié": 8482,
      "dien": 8483,
      "dique": 8484,
      "dimin": 8485,
      "dimen": 8486,
      "diary": 8487,
      "dictions": 8488,
      "diagon": 8489,
      "rix": 8490,
      "rique": 8491,
      "riot": 8492,
      "riel": 8493,
      "riment": 8494,
      "rival": 8495,
      "rifle": 8496,
      "ricia": 8497,
      "wet": 8498,
      "weld": 8499,
      "versé": 8500,
      "verdict": 8501,
      "ionne": 8502,
      "aviez": 8503,
      "amant": 8504,
      "amic": 8505,
      "amoun": 8506,
      "amused": 8507,
      "ammed": 8508,
      "ampa": 8509,
      "amateurs": 8510,
      "andouille": 8511,
      "compon": 8512,
      "compensé": 8513,
      "compromise": 8514,
      "commission": 8515,
      "comportent": 8516,
      "compelled": 8517,
      "combust": 8518,
      "sume": 8519,
      "sulf": 8520,
      "supé": 8521,
      "suffe": 8522,
      "subir": 8523,
      "suyama": 8524,
      "whites": 8525,
      "edom": 8526,
      "eday": 8527,
      "outer": 8528,
      "outils": 8529,
      "respl": 8530,
      "ressé": 8531,
      "respected": 8532,
      "rescue": 8533,
      "pari": 8534,
      "paran": 8535,
      "parten": 8536,
      "parlais": 8537,
      "parcour": 8538,
      "parfu": 8539,
      "parach": 8540,
      "parvenir": 8541,
      "parvenu": 8542,
      "pardonne": 8543,
      "pardonné": 8544,
      "parasol": 8545,
      "areas": 8546,
      "acé": 8547,
      "acro": 8548,
      "acqui": 8549,
      "access": 8550,
      "acqué": 8551,
      "acron": 8552,
      "acasli": 8553,
      "agan": 8554,
      "aging": 8555,
      "agré": 8556,
      "agers": 8557,
      "agnes": 8558,
      "agissait": 8559,
      "agoras": 8560,
      "fortes": 8561,
      "former": 8562,
      "forty": 8563,
      "forgetting": 8564,
      "forgiven": 8565,
      "forcée": 8566,
      "moe": 8567,
      "moque": 8568,
      "mody": 8569,
      "moves": 8570,
      "moving": 8571,
      "motel": 8572,
      "mosqu": 8573,
      "model": 8574,
      "unemp": 8575,
      "uneasy": 8576,
      "ourg": 8577,
      "ourser": 8578,
      "ims": 8579,
      "imple": 8580,
      "imul": 8581,
      "impat": 8582,
      "imbé": 8583,
      "impoli": 8584,
      "imparti": 8585,
      "éty": 8586,
      "étou": 8587,
      "étin": 8588,
      "étonné": 8589,
      "condo": 8590,
      "conver": 8591,
      "conven": 8592,
      "condit": 8593,
      "contrain": 8594,
      "conform": 8595,
      "conference": 8596,
      "conjug": 8597,
      "apte": 8598,
      "appl": 8599,
      "appla": 8600,
      "appu": 8601,
      "approuve": 8602,
      "aphro": 8603,
      "utre": 8604,
      "alling": 8605,
      "allant": 8606,
      "allong": 8607,
      "adé": 8608,
      "adul": 8609,
      "admin": 8610,
      "advent": 8611,
      "advers": 8612,
      "admets": 8613,
      "aduis": 8614,
      "adressé": 8615,
      "ieuse": 8616,
      "ieusement": 8617,
      "aines": 8618,
      "keeper": 8619,
      "icher": 8620,
      "icien": 8621,
      "ichel": 8622,
      "icace": 8623,
      "icots": 8624,
      "donn": 8625,
      "ster": 8626,
      "stare": 8627,
      "stable": 8628,
      "stations": 8629,
      "stances": 8630,
      "stade": 8631,
      "stacked": 8632,
      "stamp": 8633,
      "stomach": 8634,
      "stimul": 8635,
      "stalling": 8636,
      "sonne": 8637,
      "sonné": 8638,
      "pourrions": 8639,
      "poursuivre": 8640,
      "poursuivi": 8641,
      "loan": 8642,
      "loop": 8643,
      "loving": 8644,
      "loisir": 8645,
      "located": 8646,
      "location": 8647,
      "terais": 8648,
      "termes": 8649,
      "terbr": 8650,
      "terrain": 8651,
      "terfuck": 8652,
      "terror": 8653,
      "abdu": 8654,
      "abuse": 8655,
      "absente": 8656,
      "absence": 8657,
      "sia": 8658,
      "rende": 8659,
      "rented": 8660,
      "rents": 8661,
      "rendit": 8662,
      "rencont": 8663,
      "rendrai": 8664,
      "rencard": 8665,
      "wasted": 8666,
      "désh": 8667,
      "déser": 8668,
      "déses": 8669,
      "dégr": 8670,
      "dépré": 8671,
      "dépense": 8672,
      "dépou": 8673,
      "décour": 8674,
      "déput": 8675,
      "dépassé": 8676,
      "dérou": 8677,
      "défau": 8678,
      "défini": 8679,
      "dégag": 8680,
      "décourage": 8681,
      "dépenser": 8682,
      "démission": 8683,
      "décès": 8684,
      "défie": 8685,
      "dépit": 8686,
      "démocr": 8687,
      "défense": 8688,
      "answers": 8689,
      "sobre": 8690,
      "solit": 8691,
      "soient": 8692,
      "socks": 8693,
      "treats": 8694,
      "treize": 8695,
      "goo": 8696,
      "gov": 8697,
      "goci": 8698,
      "golf": 8699,
      "gosla": 8700,
      "dul": 8701,
      "duo": 8702,
      "dures": 8703,
      "dumb": 8704,
      "durent": 8705,
      "dumber": 8706,
      "ghted": 8707,
      "root": 8708,
      "roast": 8709,
      "robin": 8710,
      "robuste": 8711,
      "noter": 8712,
      "notion": 8713,
      "plé": 8714,
      "plis": 8715,
      "plong": 8716,
      "plats": 8717,
      "plash": 8718,
      "plural": 8719,
      "plomb": 8720,
      "plorable": 8721,
      "hers": 8722,
      "herit": 8723,
      "herbe": 8724,
      "monot": 8725,
      "monté": 8726,
      "montra": 8727,
      "montez": 8728,
      "monkey": 8729,
      "monade": 8730,
      "montré": 8731,
      "llas": 8732,
      "llent": 8733,
      "voque": 8734,
      "voleurs": 8735,
      "desig": 8736,
      "dessous": 8737,
      "dessins": 8738,
      "designers": 8739,
      "pencha": 8740,
      "pensée": 8741,
      "sheer": 8742,
      "code": 8743,
      "coce": 8744,
      "colo": 8745,
      "cock": 8746,
      "coins": 8747,
      "copy": 8748,
      "canard": 8749,
      "cancel": 8750,
      "iente": 8751,
      "nowhere": 8752,
      "nole": 8753,
      "novembre": 8754,
      "tip": 8755,
      "tiest": 8756,
      "tiques": 8757,
      "tigre": 8758,
      "mah": 8759,
      "maquillage": 8760,
      "female": 8761,
      "dansa": 8762,
      "dansé": 8763,
      "plets": 8764,
      "pleins": 8765,
      "pleures": 8766,
      "frame": 8767,
      "frustr": 8768,
      "frites": 8769,
      "frapper": 8770,
      "pers": 8771,
      "perdes": 8772,
      "perdit": 8773,
      "percent": 8774,
      "persion": 8775,
      "perfection": 8776,
      "perplex": 8777,
      "perception": 8778,
      "ills": 8779,
      "illu": 8780,
      "illou": 8781,
      "illent": 8782,
      "illées": 8783,
      "illégal": 8784,
      "prose": 8785,
      "proven": 8786,
      "procé": 8787,
      "propose": 8788,
      "proved": 8789,
      "propul": 8790,
      "proviennent": 8791,
      "proxim": 8792,
      "lude": 8793,
      "lugg": 8794,
      "civ": 8795,
      "cile": 8796,
      "cide": 8797,
      "expos": 8798,
      "exit": 8799,
      "exot": 8800,
      "expres": 8801,
      "exéc": 8802,
      "exister": 8803,
      "expenses": 8804,
      "exagé": 8805,
      "exténu": 8806,
      "exorc": 8807,
      "tenais": 8808,
      "tenue": 8809,
      "tenions": 8810,
      "tends": 8811,
      "tendin": 8812,
      "tentez": 8813,
      "tenden": 8814,
      "tensions": 8815,
      "oko": 8816,
      "oker": 8817,
      "okay": 8818,
      "bol": 8819,
      "boite": 8820,
      "bowed": 8821,
      "quels": 8822,
      "cheated": 8823,
      "chewing": 8824,
      "manus": 8825,
      "manage": 8826,
      "manner": 8827,
      "management": 8828,
      "shin": 8829,
      "shout": 8830,
      "shmallows": 8831,
      "wanting": 8832,
      "derie": 8833,
      "tape": 8834,
      "sombres": 8835,
      "someday": 8836,
      "rédi": 8837,
      "réel": 8838,
      "répare": 8839,
      "réfu": 8840,
      "réfri": 8841,
      "récent": 8842,
      "régi": 8843,
      "réside": 8844,
      "résister": 8845,
      "récit": 8846,
      "réserver": 8847,
      "récompensé": 8848,
      "messed": 8849,
      "mesures": 8850,
      "messages": 8851,
      "ulous": 8852,
      "ultimate": 8853,
      "ulpture": 8854,
      "choo": 8855,
      "cholog": 8856,
      "survie": 8857,
      "surprendre": 8858,
      "surnom": 8859,
      "survenir": 8860,
      "surger": 8861,
      "surround": 8862,
      "surveill": 8863,
      "surplomb": 8864,
      "ports": 8865,
      "portive": 8866,
      "mptions": 8867,
      "serons": 8868,
      "servé": 8869,
      "serions": 8870,
      "seraient": 8871,
      "serrez": 8872,
      "servant": 8873,
      "Marty": 8874,
      "Martin": 8875,
      "Marseille": 8876,
      "saur": 8877,
      "sake": 8878,
      "vend": 8879,
      "vendent": 8880,
      "vends": 8881,
      "venime": 8882,
      "inko": 8883,
      "inkled": 8884,
      "plaire": 8885,
      "places": 8886,
      "plainte": 8887,
      "placé": 8888,
      "bleue": 8889,
      "bleeding": 8890,
      "fog": 8891,
      "fol": 8892,
      "forest": 8893,
      "hima": 8894,
      "journ": 8895,
      "nia": 8896,
      "nirent": 8897,
      "dish": 8898,
      "dissu": 8899,
      "dispu": 8900,
      "diseas": 8901,
      "discourage": 8902,
      "disagree": 8903,
      "disliked": 8904,
      "disappoint": 8905,
      "discrimin": 8906,
      "discharged": 8907,
      "disobey": 8908,
      "disappeared": 8909,
      "disturb": 8910,
      "dispersion": 8911,
      "drew": 8912,
      "lers": 8913,
      "igation": 8914,
      "ignez": 8915,
      "iff": 8916,
      "vire": 8917,
      "vile": 8918,
      "vidu": 8919,
      "vident": 8920,
      "virer": 8921,
      "viole": 8922,
      "anyway": 8923,
      "vrait": 8924,
      "sév": 8925,
      "séance": 8926,
      "séisme": 8927,
      "arriva": 8928,
      "arriving": 8929,
      "arrival": 8930,
      "arrivons": 8931,
      "endings": 8932,
      "grass": 8933,
      "grondé": 8934,
      "grounds": 8935,
      "graines": 8936,
      "tsunami": 8937,
      "temptation": 8938,
      "icious": 8939,
      "icians": 8940,
      "geons": 8941,
      "geyser": 8942,
      "merdé": 8943,
      "pump": 8944,
      "puits": 8945,
      "thermost": 8946,
      "thermom": 8947,
      "thermody": 8948,
      "letic": 8949,
      "opâtre": 8950,
      "opposé": 8951,
      "opatra": 8952,
      "ongles": 8953,
      "dity": 8954,
      "dités": 8955,
      "cram": 8956,
      "crap": 8957,
      "crank": 8958,
      "crains": 8959,
      "crétin": 8960,
      "présom": 8961,
      "prévoir": 8962,
      "précé": 8963,
      "prévision": 8964,
      "préhen": 8965,
      "préserver": 8966,
      "précoce": 8967,
      "biens": 8968,
      "bienvenue": 8969,
      "légen": 8970,
      "homose": 8971,
      "partage": 8972,
      "partager": 8973,
      "particul": 8974,
      "partagent": 8975,
      "laissa": 8976,
      "laisses": 8977,
      "marie": 8978,
      "marath": 8979,
      "marchant": 8980,
      "marvel": 8981,
      "marrant": 8982,
      "marshmallows": 8983,
      "prenne": 8984,
      "prenant": 8985,
      "prennes": 8986,
      "vées": 8987,
      "végét": 8988,
      "buttocks": 8989,
      "previous": 8990,
      "phant": 8991,
      "phants": 8992,
      "phos": 8993,
      "aks": 8994,
      "aking": 8995,
      "akespe": 8996,
      "akhstan": 8997,
      "saisi": 8998,
      "saisit": 8999,
      "saisons": 9000,
      "cking": 9001,
      "touchez": 9002,
      "drag": 9003,
      "drons": 9004,
      "breve": 9005,
      "breast": 9006,
      "breasts": 9007,
      "souper": 9008,
      "soucis": 9009,
      "soupir": 9010,
      "soudure": 9011,
      "southern": 9012,
      "nera": 9013,
      "seemed": 9014,
      "garé": 9015,
      "gardes": 9016,
      "garlic": 9017,
      "garian": 9018,
      "gardons": 9019,
      "mistes": 9020,
      "mists": 9021,
      "misery": 9022,
      "mirent": 9023,
      "carré": 9024,
      "carref": 9025,
      "sorrow": 9026,
      "piest": 9027,
      "mél": 9028,
      "mément": 9029,
      "mécan": 9030,
      "médit": 9031,
      "mépris": 9032,
      "méprise": 9033,
      "méduses": 9034,
      "whenever": 9035,
      "trouva": 9036,
      "trouves": 9037,
      "trouvée": 9038,
      "trouvons": 9039,
      "trouvâmes": 9040,
      "vieilles": 9041,
      "vieillard": 9042,
      "bygones": 9043,
      "talisman": 9044,
      "bonbons": 9045,
      "sentis": 9046,
      "coupent": 9047,
      "couples": 9048,
      "bra": 9049,
      "brave": 9050,
      "brand": 9051,
      "brune": 9052,
      "brille": 9053,
      "brace": 9054,
      "brings": 9055,
      "brisé": 9056,
      "briller": 9057,
      "bruis": 9058,
      "bruck": 9059,
      "brouillard": 9060,
      "essence": 9061,
      "essaim": 9062,
      "needn": 9063,
      "comments": 9064,
      "poudre": 9065,
      "poulet": 9066,
      "nuis": 9067,
      "null": 9068,
      "numbers": 9069,
      "ishment": 9070,
      "hula": 9071,
      "happier": 9072,
      "happiest": 9073,
      "miny": 9074,
      "mines": 9075,
      "minor": 9076,
      "minus": 9077,
      "minine": 9078,
      "négoci": 9079,
      "obé": 9080,
      "obtenir": 9081,
      "obtient": 9082,
      "pont": 9083,
      "insis": 9084,
      "insan": 9085,
      "insist": 9086,
      "inspection": 9087,
      "directement": 9088,
      "portant": 9089,
      "portion": 9090,
      "visité": 9091,
      "shoulder": 9092,
      "earchers": 9093,
      "gum": 9094,
      "gué": 9095,
      "guides": 9096,
      "mbling": 9097,
      "final": 9098,
      "speed": 9099,
      "speeding": 9100,
      "lits": 9101,
      "mug": 9102,
      "corner": 9103,
      "correspon": 9104,
      "fier": 9105,
      "fiée": 9106,
      "fiers": 9107,
      "fièvre": 9108,
      "mordu": 9109,
      "morceaux": 9110,
      "ounan": 9111,
      "puisque": 9112,
      "puisses": 9113,
      "puissante": 9114,
      "courses": 9115,
      "hid": 9116,
      "hiking": 9117,
      "hiér": 9118,
      "cercle": 9119,
      "commettre": 9120,
      "croche": 9121,
      "croyons": 9122,
      "retiré": 9123,
      "appears": 9124,
      "appealed": 9125,
      "appellent": 9126,
      "helpful": 9127,
      "stupé": 9128,
      "vents": 9129,
      "pareille": 9130,
      "paremment": 9131,
      "vaisselle": 9132,
      "riens": 9133,
      "presence": 9134,
      "preserve": 9135,
      "valable": 9136,
      "beside": 9137,
      "besoins": 9138,
      "devil": 9139,
      "devions": 9140,
      "devast": 9141,
      "deviné": 9142,
      "fucked": 9143,
      "fumée": 9144,
      "gender": 9145,
      "genuine": 9146,
      "hook": 9147,
      "hoop": 9148,
      "holic": 9149,
      "hockey": 9150,
      "ferait": 9151,
      "feront": 9152,
      "fertil": 9153,
      "fermée": 9154,
      "ouvez": 9155,
      "mêler": 9156,
      "tropical": 9157,
      "rentres": 9158,
      "selfie": 9159,
      "paycheck": 9160,
      "differs": 9161,
      "bling": 9162,
      "blings": 9163,
      "bliss": 9164,
      "companions": 9165,
      "cule": 9166,
      "cuir": 9167,
      "intact": 9168,
      "connait": 9169,
      "fries": 9170,
      "fried": 9171,
      "fridge": 9172,
      "ideas": 9173,
      "ideal": 9174,
      "menu": 9175,
      "mence": 9176,
      "mensong": 9177,
      "menacé": 9178,
      "ocre": 9179,
      "acheta": 9180,
      "triché": 9181,
      "trialis": 9182,
      "triangle": 9183,
      "mands": 9184,
      "mandat": 9185,
      "allergi": 9186,
      "speaker": 9187,
      "parlerai": 9188,
      "bush": 9189,
      "bussy": 9190,
      "iled": 9191,
      "tyran": 9192,
      "types": 9193,
      "wrapped": 9194,
      "wrinkled": 9195,
      "assemblé": 9196,
      "mettais": 9197,
      "personnellement": 9198,
      "trucs": 9199,
      "trumpet": 9200,
      "viennes": 9201,
      "viendrais": 9202,
      "viendrait": 9203,
      "asks": 9204,
      "asking": 9205,
      "icky": 9206,
      "artres": 9207,
      "artist": 9208,
      "artiste": 9209,
      "jouais": 9210,
      "jouant": 9211,
      "jouet": 9212,
      "malins": 9213,
      "malentendu": 9214,
      "malheur": 9215,
      "maligne": 9216,
      "malsain": 9217,
      "player": 9218,
      "playground": 9219,
      "aching": 9220,
      "offense": 9221,
      "torrents": 9222,
      "noms": 9223,
      "nombres": 9224,
      "wool": 9225,
      "acting": 9226,
      "actions": 9227,
      "bio": 9228,
      "spy": 9229,
      "span": 9230,
      "sphere": 9231,
      "spite": 9232,
      "spicy": 9233,
      "laitiers": 9234,
      "forehead": 9235,
      "center": 9236,
      "habille": 9237,
      "habiles": 9238,
      "veste": 9239,
      "cates": 9240,
      "catif": 9241,
      "catholi": 9242,
      "catalo": 9243,
      "tenter": 9244,
      "tained": 9245,
      "auront": 9246,
      "believable": 9247,
      "backpack": 9248,
      "faisiez": 9249,
      "géants": 9250,
      "oldest": 9251,
      "voyante": 9252,
      "voyagent": 9253,
      "vrez": 9254,
      "mayonnaise": 9255,
      "contradiction": 9256,
      "pétrin": 9257,
      "puts": 9258,
      "singe": 9259,
      "singu": 9260,
      "attente": 9261,
      "attendez": 9262,
      "attendrai": 9263,
      "supper": 9264,
      "supporte": 9265,
      "supportive": 9266,
      "parently": 9267,
      "cloch": 9268,
      "closet": 9269,
      "closest": 9270,
      "patent": 9271,
      "pated": 9272,
      "pattes": 9273,
      "patio": 9274,
      "patriot": 9275,
      "franco": 9276,
      "francs": 9277,
      "boracasli": 9278,
      "standards": 9279,
      "calories": 9280,
      "devra": 9281,
      "career": 9282,
      "lisez": 9283,
      "demandais": 9284,
      "giants": 9285,
      "faciles": 9286,
      "factures": 9287,
      "factory": 9288,
      "hardest": 9289,
      "vitre": 9290,
      "vitam": 9291,
      "connaissons": 9292,
      "regarded": 9293,
      "meets": 9294,
      "coln": 9295,
      "colours": 9296,
      "chienne": 9297,
      "dorm": 9298,
      "dormis": 9299,
      "dormant": 9300,
      "dorén": 9301,
      "déton": 9302,
      "détour": 9303,
      "détendu": 9304,
      "handful": 9305,
      "handled": 9306,
      "handball": 9307,
      "overlooked": 9308,
      "derniers": 9309,
      "efforce": 9310,
      "easiest": 9311,
      "magnitude": 9312,
      "wanna": 9313,
      "mostly": 9314,
      "Chili": 9315,
      "Chartres": 9316,
      "intérie": 9317,
      "intérê": 9318,
      "essaye": 9319,
      "aiderai": 9320,
      "profiter": 9321,
      "profondé": 9322,
      "counting": 9323,
      "travaillez": 9324,
      "questionnaire": 9325,
      "brosse": 9326,
      "passés": 9327,
      "trade": 9328,
      "trahi": 9329,
      "étudia": 9330,
      "rumin": 9331,
      "rumour": 9332,
      "roué": 9333,
      "française": 9334,
      "bérez": 9335,
      "béquilles": 9336,
      "hurle": 9337,
      "hurts": 9338,
      "joy": 9339,
      "joyeux": 9340,
      "jobs": 9341,
      "soirs": 9342,
      "soirées": 9343,
      "buying": 9344,
      "Frances": 9345,
      "Fritz": 9346,
      "empre": 9347,
      "milit": 9348,
      "milieu": 9349,
      "enceinte": 9350,
      "downstairs": 9351,
      "doulou": 9352,
      "doucement": 9353,
      "dino": 9354,
      "ienté": 9355,
      "rainbow": 9356,
      "rers": 9357,
      "assin": 9358,
      "assit": 9359,
      "assister": 9360,
      "assistance": 9361,
      "assaul": 9362,
      "assassin": 9363,
      "importance": 9364,
      "photosy": 9365,
      "photograp": 9366,
      "greatly": 9367,
      "emmener": 9368,
      "larme": 9369,
      "leftovers": 9370,
      "entendez": 9371,
      "accidents": 9372,
      "occupées": 9373,
      "swam": 9374,
      "swinging": 9375,
      "timbre": 9376,
      "pouvant": 9377,
      "pouvions": 9378,
      "boule": 9379,
      "boucle": 9380,
      "fellow": 9381,
      "athl": 9382,
      "athie": 9383,
      "athlete": 9384,
      "athletic": 9385,
      "charme": 9386,
      "chargé": 9387,
      "charges": 9388,
      "Informe": 9389,
      "Inns": 9390,
      "Incroy": 9391,
      "scri": 9392,
      "scow": 9393,
      "scand": 9394,
      "sculpture": 9395,
      "cares": 9396,
      "caillou": 9397,
      "capture": 9398,
      "policier": 9399,
      "enseigne": 9400,
      "jetée": 9401,
      "blessure": 9402,
      "blessures": 9403,
      "nord": 9404,
[...]
