#version: 0.2
p o
po s
a pos
& apos
o u
a i
&apos ;</w>
d e</w>
r e</w>
t h
e n
a n
q u
e s</w>
i n
e s
o n
l e</w>
i s</w>
p a
e r</w>
o n</w>
l a</w>
&apos ;
ou s</w>
n e</w>
m e</w>
j e</w>
e r
t r
a v
o u</w>
e n</w>
th e</w>
y ou</w>
es t</w>
a r
e u
t o</w>
l &apos;</w>
t i
qu e</w>
@ -
@- @</w>
e l
pa s</w>
e d</w>
v ous</w>
c e</w>
o m</w>
e a
c h
in g</w>
i l</w>
t e</w>
r i
e m
a t</w>
c o
i t</w>
s e</w>
a l
en t</w>
T om</w>
p l
ai s</w>
p r
o r
s u
l i
ai t</w>
a s</w>
h e</w>
i l
n o
i n</w>
t re</w>
d i
w h
l es</w>
e z</w>
é t
u n</w>
e t</w>
&apos; t</w>
a i</w>
ai n</w>
n &apos;</w>
a n</w>
eu x</w>
a u
po u
t u</w>
e t
s t
v i
j &apos;</w>
u ne</w>
o f</w>
m o
an d</w>
i t
s o
e v
h o
u s</w>
qu o
an t</w>
a m
v o
th at</w>
co m
f o
f ai
pa r
e re</w>
el le</w>
n ous</w>
l o
&apos; s</w>
s i
ou t</w>
t o
v e</w>
on t</w>
i r</w>
tr ain</w>
av e</w>
on s</w>
ou r</w>
fai re</w>
a s
s on</w>
a t
r o
an s</w>
a g
d o
u s
an g
ou l
su is</w>
p e
d &apos;</w>
ou r
d es</w>
d o</w>
pl us</w>
h ave</w>
k e</w>
a re</w>
a c
è re</w>
qu &apos;</w>
th is</w>
a y</w>
t ;</w>
quo t;</w>
& quot;</w>
w as</w>
a b
t es</w>
a p
c on
w e</w>
r e
f ait</w>
t s</w>
en d
m y</w>
i s
i c
fo r</w>
r ea
l y</w>
pou r</w>
s i</w>
pr o
h i
c &apos;</w>
ch o
s he</w>
no t</w>
g h
d on</w>
ti on</w>
d é
wh at</w>
d ans</w>
on e</w>
t em
g o
ê tre</w>
ai r</w>
ét é</w>
ç a</w>
qu i</w>
c an</w>
y our</w>
u n
m on</w>
b e
b e</w>
th e
t er</w>
p s</w>
m ent</w>
al l
p en
m es</w>
no w</w>
m a
al l</w>
v er
s e
l e
g r
m &apos;</w>
&apos; m</w>
f r
gh t</w>
ét ait</w>
n e
tem ps</w>
b i
b o
vi e</w>
u c
c i
m on
oul d</w>
s ont</w>
p er
s &apos;</w>
eu r</w>
m ai
M ar
e x
è s</w>
it h</w>
mo i</w>
w ith</w>
b u
il s</w>
é e</w>
t out</w>
l u
h is</w>
m e
av ez</w>
ou v
en s</w>
av e
&apos; re</w>
w ant</w>
vo tre</w>
li ke</w>
es s
ave c</w>
th ing</w>
j our
em ent</w>
t u
th er</w>
c u
k now</w>
w or
c a
the y</w>
m i
d u</w>
ê tes</w>
a y
th ere</w>
f f
s es</w>
et te</w>
a d</w>
th in
pou r
cho se</w>
on ne</w>
pe ti
n i
h eu
t en
ho w</w>
h er</w>
p u
ea u</w>
d e
l l</w>
t ed</w>
po r
c ette</w>
t er
u e</w>
r es</w>
quo i</w>
ai de</w>
e l</w>
tr o
d it</w>
d er</w>
a u</w>
s h
i e</w>
c h</w>
hi m</w>
tr ès</w>
v eux</w>
s s
us t</w>
p ri
m an
d ev
i r
s t</w>
av o
r ai
g o</w>
d ay</w>
i m
gr and</w>
ar d</w>
pl a
ou n
it u
in e</w>
f or
a l</w>
il le</w>
ho m
di d</w>
b l
f u
ag e</w>
h as</w>
el l</w>
l er</w>
r es
p i
l d</w>
m ar
il l</w>
Mar y</w>
k ing</w>
p eux</w>
d er
t ou
su r</w>
o d</w>
d n</w>
l ang
g et</w>
s er
end re</w>
tr av
s ais</w>
bi en</w>
b ea
av ons</w>
ti me</w>
ap p
qu el
d y</w>
avo ir</w>
ver y</w>
thin k</w>
mai son</w>
lu i</w>
n o</w>
g ar
m or
o k</w>
m ais</w>
ev er</w>
o ù</w>
li v
s a</w>
b le</w>
&apos; ve</w>
t a
an ce</w>
v oul
mon de</w>
trav ai
ev er
an d
w ill</w>
h ad</w>
an ts</w>
&apos; ll</w>
il l
hom me</w>
r é
g u
n u
g ens</w>
di re</w>
o p
i f</w>
au tre</w>
pour quoi</w>
t é
eu t</w>
a d
peti te</w>
ic i</w>
vo ir</w>
j am
en ts</w>
h u
ar g
w ere</w>
ab out</w>
f a
f e
t é</w>
d em
s or
ou p</w>
î t</w>
d r
c l
ar ri
m a</w>
i re</w>
a tion</w>
a te</w>
qu es
h ere</w>
s eu
pen se</w>
in d</w>
wh o</w>
t h</w>
s o</w>
pou v
o r</w>
k s</w>
so m
fr om</w>
r en
com ment</w>
é co
jam ais</w>
v en
u p</w>
c es</w>
c e
éco le</w>
pa r</w>
s p
com me</w>
st o
t y</w>
bu t</w>
t ous</w>
en f
pla ît</w>
k ed</w>
m ê
par ler</w>
on n
e u</w>
e ar
di dn</w>
wh ere</w>
mê me</w>
mo re</w>
am i</w>
o in</w>
d eux</w>
uc oup</w>
j ust</w>
bea ucoup</w>
m an</w>
g i
en d</w>
b y</w>
wh y</w>
co me</w>
v rai
b es
w ould</w>
t ing</w>
som mes</w>
c r
all er</w>
vrai ment</w>
s em
pr endre</w>
d s</w>
wh en</w>
s a
an y
jour s</w>
tro p</w>
t al
av ait</w>
ti ons</w>
per s
on g</w>
h el
vo itu
bes oin</w>
so me
ti r</w>
en ce</w>
a m</w>
ét ais</w>
lang ue</w>
go od</w>
p h
go ing</w>
r y</w>
en t
tr es</w>
ever y
ai n
é ri
m er
f i
di s
w ay</w>
s el
fo is</w>
pl ea
arg ent</w>
ne ed</w>
e e
ab le</w>
l ai
pe u</w>
er s</w>
quel que</w>
n ée</w>
f em
voitu re</w>
v ais</w>
p ère</w>
b onne</w>
t ell</w>
qu and</w>
g s</w>
d u
av ais</w>
se e</w>
p eut</w>
ea r</w>
co re</w>
mai n
dé j
b on</w>
as t</w>
en core</w>
di ff
pr é
i ère</w>
es s</w>
au s
ch e</w>
tu re</w>
sh ould</w>
&apos; d</w>
ang er</w>
ai me</w>
w i
n ever</w>
be en</w>
ê te</w>
m u
b r
to o</w>
as s
tr ouv
to i</w>
t t
st u
pers onne</w>
w n</w>
r ais</w>
n ouv
c ro
uc h</w>
pr is</w>
m ain</w>
m uch</w>
f ri
an y</w>
si m
g e</w>
l ly</w>
ai d</w>
hel p</w>
enf ants</w>
th an</w>
plea se</w>
i le</w>
pro bl
co r
ay s</w>
l et</w>
S ami</w>
au tres</w>
v u</w>
v a</w>
travai l</w>
lo t</w>
er re</w>
Mar ie</w>
pa ss
on ly</w>
no tre</w>
s ti
ri ght</w>
m in
a ch
j o
ci d
c ould</w>
n er</w>
sim pl
rea lly</w>
l é</w>
o f
e c
e y</w>
simpl ement</w>
ar r
heu re</w>
y eux</w>
wor k</w>
v er</w>
do is</w>
ta ke</w>
sel f</w>
é c
t &apos;</w>
ou ght</w>
nu it</w>
l et
c our
su r
go t</w>
ten ant</w>
g h</w>
ac k</w>
tr ou
tou jours</w>
main tenant</w>
fem me</w>
ne w</w>
m é
f e</w>
f am
probl è
p e</w>
n a
en ti
sp ea
por te</w>
w at
si on</w>
aus si</w>
t on</w>
oun d</w>
en tr
b re</w>
ven ir</w>
so me</w>
ri en</w>
li s
tr i
ques tion</w>
pouv ez</w>
mor t</w>
ca r</w>
voul ez</w>
o l</w>
re gar
qu el</w>
po n
l à</w>
h app
el i
r et
ch i
re e</w>
mu si
lo o
l ais</w>
b li
a f
y s</w>
o c
heu res</w>
f in
déj à</w>
m ère</w>
m er</w>
r s</w>
peti t</w>
f er
end s</w>
fr an
ang lais</w>
T erre</w>
r em
es e</w>
com m
par t</w>
ach et
r ou
r ed</w>
s tr
rea dy</w>
lo ve</w>
j us
s ans</w>
pu is</w>
jour née</w>
c ar
t el
m ust</w>
l a
n ing</w>
der ni
av ant</w>
œ u
travai l
pr es
heu r
bo dy</w>
pr ès</w>
lai ss
ri ez</w>
l ast</w>
f il
co l
seu l</w>
pr em
ai ne</w>
some thing</w>
s ed</w>
ma ke</w>
s ou
l é
c au
t ea
s se</w>
o ther</w>
do es</w>
arri v
ai re</w>
j our</w>
b er</w>
man ière</w>
k es</w>
ea t</w>
diff ic
t ant</w>
f ille</w>
d or
at s</w>
tr y</w>
sor tir</w>
fu l</w>
c k</w>
ai der</w>
par ents</w>
lang u
com bien</w>
ass ez</w>
ma l</w>
j ou
ç ais</w>
t w
w s</w>
so it</w>
s w
r a
mon ey</w>
gi ve</w>
es n</w>
el y</w>
do esn</w>
d onn
ch il
arr ê
é s</w>
pl u
f ac
dé e</w>
d re</w>
t en</w>
pe op
peop le</w>
in s</w>
fran çais</w>
ch er</w>
b eli
c i</w>
tt le</w>
ro w</w>
el les</w>
ai mer
é r
su re</w>
ques tions</w>
h ab
chi en</w>
w ent</w>
or s</w>
i g
ho me</w>
ce la</w>
t a</w>
n ed</w>
is h</w>
hu i</w>
d ing</w>
s en
r ait</w>
pla ce</w>
oc cu
tro is</w>
s ho
m is</w>
l ong</w>
jour d&apos;</w>
c er
au jourd&apos;</w>
pro f
ch em
aimer ais</w>
spea k</w>
s cho
qu i
lo ok</w>
i dée</w>
et s</w>
cho ses</w>
beli ev
trou ve</w>
ai ent</w>
the m</w>
ro om</w>
liv re</w>
b et
any thing</w>
s in
pri se</w>
m is
c t</w>
to ld</w>
s ay</w>
s aid</w>
ni ght</w>
con tr
all é</w>
i er</w>
ch ang
an de</w>
œu r</w>
y ing</w>
u r
s le
po in
li ttle</w>
l ement</w>
derni ère</w>
p ho
c ou
us ed</w>
to day</w>
sti ll</w>
le ave</w>
l s</w>
f ind</w>
d es
ç on</w>
i on</w>
f ir
d û</w>
c lo
tal k</w>
su p
scho ol</w>
man y</w>
h ou
fri end</w>
fo re</w>
dem and
b ack</w>
g ir
eu rs</w>
v re</w>
tw o</w>
rea d</w>
li re</w>
be fore</w>
si ble</w>
s û
s ait</w>
mi eux</w>
in ter
end u</w>
con n
ô t</w>
w ell</w>
w ays</w>
k no
f au
com pl
arri ve</w>
a près</w>
u l
st ar
r ai</w>
pass é</w>
our ri
n g
musi que</w>
l on
l eur</w>
ess ay
dé so
b ro
u ti
trouv é</w>
sem aine</w>
ph one</w>
of f</w>
n ourri
n om</w>
ic h</w>
al ways</w>
u se</w>
dor m
dem ain</w>
cau se</w>
app el
th ought</w>
o ld</w>
nourri ture</w>
hou se</w>
heur eux</w>
fa ther</w>
every thing</w>
arrê ter</w>
ac cid
w ee
qu es</w>
occu p
bo ok</w>
w on</w>
t ête</w>
pr e
vo y
s ouv
s ens</w>
ret ard</w>
pro b
p eur</w>
w an
v ed</w>
qu elle</w>
ma de</w>
le ar
h av
believ e</w>
té lé
ten tion</w>
m at
m anger</w>
m ag
hi sto
ch am
sem ble</w>
pen s
oul dn</w>
no thing</w>
li fe</w>
it y</w>
happ y</w>
entr e
d ed</w>
ch ez</w>
accid ent</w>
E ng
w o
un der
seu le</w>
or y</w>
k ee
in té
ear s</w>
ca me</w>
b us
F ren
par tir</w>
liv res</w>
jus te</w>
entre prise</w>
w ri
s m
pri x</w>
po li
li ve</w>
l ate</w>
fe el</w>
d is</w>
ag ain</w>
Fren ch</w>
B o
w e
v es</w>
m al
g l
g er</w>
a r</w>
tu r
t e
souv ent</w>
p u</w>
n is</w>
j eu
is n</w>
in to</w>
i d</w>
f t</w>
ea s
c oun
s avoir</w>
r u
o se</w>
histo ire</w>
demand é</w>
b ou
wi th
wh ich</w>
wan ted</w>
w as
sle e
ou gh</w>
m ay</w>
lis h</w>
l un
hi er</w>
c le</w>
b or
vi e
problè me</w>
al ly</w>
ti ve</w>
pi è
mo st</w>
il y</w>
fir st</w>
ar y</w>
al one</w>
éc ri
voul ais</w>
tr u
regar der</w>
pu t</w>
g en
v ille</w>
to ok</w>
th ese</w>
t ôt</w>
ri ed</w>
nouv eau</w>
do g</w>
cl as
cham bre</w>
bet ter</w>
a way</w>
J a
Eng lish</w>
it s</w>
to mor
tomor row</w>
lo w
hu r
h ea
h ap
d ét
d in
chem in</w>
au x</w>
al ready</w>
so l</w>
our s</w>
fil les</w>
d ea
ch ance</w>
to r</w>
the ir</w>
let tre</w>
jo b</w>
h ard</w>
g rea
bu y</w>
an c
achet er</w>
st on</w>
prof ess
pho to</w>
par le</w>
ex p
at t
Bo ston</w>
ét aient</w>
with out</w>
th ree</w>
st and</w>
piè ce</w>
en ough</w>
be cause</w>
D an</w>
z e</w>
profess eur</w>
pen ses</w>
ma ti
jeu ne</w>
fam ille</w>
f l
en tre</w>
dorm ir</w>
am ie</w>
vi s
vi ens</w>
pos sible</w>
min u
h ed</w>
d one</w>
cu is
trouv er</w>
m et
en c
all ons</w>
v éri
pen sais</w>
me ill
hab itu
b rea
a de</w>
é tr
v eu
i te</w>
F r
é l
v eut</w>
ou bli
o ver</w>
o ff
le ft</w>
g ro
exp éri
dr en</w>
do wn</w>
cour s</w>
af ter</w>
tou tes</w>
t able</w>
su c
pr ê
pl an</w>
im por
i ce</w>
h e
dev riez</w>
b est</w>
se en</w>
rai son</w>
problè mes</w>
kee p</w>
ev en</w>
em ber</w>
e ff
cro ire</w>
chil dren</w>
as ked</w>
ag er</w>
ser a</w>
poin t</w>
expéri ence</w>
do it</w>
ac cor
w in
thin gs</w>
stu d
sor ry</w>
s itu
situ ation</w>
ren contr
pen ed</w>
p t</w>
nouv elle</w>
na me</w>
l l
k en</w>
dr in
do or</w>
de c
b us</w>
at ed</w>
an te</w>
C h
wee k</w>
s er</w>
pa ys</w>
pa g
h ô
g e
f ro
ét u
véri té</w>
v rai</w>
sto p</w>
so ir</w>
r ess
quel qu&apos;</w>
m ind</w>
i de
ide a</w>
fac ile</w>
ever y</w>
déso lé</w>
diffic ul
c ri
a z
y ez</w>
st er</w>
se cr
prem ière</w>
por t</w>
pl o
m ang
e b
arriv é</w>
y ears</w>
tea cher</w>
sa w</w>
par ti
mo ins</w>
loo king</w>
em s</w>
bo o
é es</w>
t eau</w>
s avais</w>
pl ay</w>
occup é</w>
in st
f ais</w>
com p
au rais</w>
a to
y er</w>
wat er</w>
res t
r ant</w>
p ic
of ten</w>
mé dec
fau t</w>
do ing</w>
cuis ine</w>
bus y</w>
be ing</w>
vi te</w>
ti mes</w>
j u
it al</w>
di c
con se
under stand</w>
travail ler</w>
tou te</w>
t ly</w>
t el</w>
pré f
per du</w>
par ce</w>
médec in</w>
habitu de</w>
f ête</w>
col ère</w>
cer t
Fr ance</w>
étu di
v ent</w>
sû r</w>
re c
o ri
n é</w>
mo ment</w>
mar i</w>
gar çon</w>
e y
comm enc
w al
r ent</w>
p er</w>
op in
mo ther</w>
lo st</w>
impor tant</w>
grea t</w>
fr aid</w>
f en
es ter
ent endu</w>
en ne</w>
c an
au gh
as k</w>
a fraid</w>
tem ent</w>
t eur</w>
o b
no m
ne x
h and
fer ai</w>
fai tes</w>
enf ant</w>
du r</w>
donn é</w>
ai se</w>
y oun
y ester
yester day</w>
wor ld</w>
w r
w ants</w>
t ard</w>
rem ember</w>
p ing</w>
nex t</w>
eu se</w>
do c
d i</w>
c all</w>
so yez</w>
pour rais</w>
po n</w>
o th
m y
m et</w>
langu es</w>
ev en
et tes</w>
de puis</w>
ch at</w>
al i
ver s
si de</w>
prem ier</w>
pl ay
p ed</w>
meill eur</w>
k new</w>
con t
co ld</w>
b ad</w>
an k</w>
ag es</w>
a ke</w>
télé phone</w>
prê t</w>
pe c
opin ion</w>
mag as
c in
étr anger</w>
vo s</w>
v ac
ti on
s ing</w>
l ev
fr ère</w>
f ound</w>
every one</w>
ec t</w>
eas y</w>
e e</w>
diffic ile</w>
dev ons</w>
d uc
d ro
d ou
un i
sup pos
s k
magas in</w>
m s</w>
m ine</w>
k et</w>
hom mes</w>
fu t</w>
ca f
achet é</w>
w ea
so l
s avez</w>
rest au
restau rant</w>
res ter</w>
me et</w>
lo in</w>
in dre</w>
i ght</w>
déj eu
ch é</w>
be g
b ed</w>
an née</w>
accor d</w>
v ou
s ci
m au
in c
h ar
f ast</w>
ex ac
eb a</w>
ea n</w>
ato eba</w>
all ez</w>
a do
T atoeba</w>
youn g</w>
wr ong</w>
wor d</w>
w ai
tru th</w>
th é
slee p</w>
s œur</w>
s mo
mar ried</w>
laiss é</w>
l it</w>
i d
g et
fe w</w>
ear ly</w>
dev rais</w>
d ri
conn ais</w>
com ing</w>
ch ev
c œur</w>
ad vi
U nis</w>
vi eux</w>
t ez</w>
pa ti
oubli é</w>
mo t</w>
gr ande</w>
f in</w>
y et</w>
w ar
v as</w>
tr an
th ose</w>
st ory</w>
st ay</w>
sm all</w>
s an
pr ends</w>
minu tes</w>
lo w</w>
let ter</w>
l ing</w>
l ait</w>
kno ws</w>
inst ant</w>
in for
h ear</w>
fa r</w>
er r
déjeu ner</w>
drin k</w>
doc tor</w>
com prendre</w>
ch an
c all
boo ks</w>
ar ound</w>
ap prendre</w>
an other</w>
voy age</w>
vi vre</w>
ti c
s é
s al
ri che</w>
pouv ons</w>
pe ine</w>
p le</w>
p end
n or
mati n</w>
in tention</w>
fro id</w>
c us
bou lot</w>
I n
él o</w>
y ear</w>
v élo</w>
tal king</w>
st s</w>
so is</w>
s s</w>
s ons</w>
pres que</w>
pl an
pa y</w>
met tre</w>
m ing</w>
m en
li g
k ind</w>
it é</w>
inter es
in gs</w>
f ils</w>
every body</w>
dem ande</w>
cro is</w>
ch ing</w>
c are</w>
ar en</w>
a me</w>
vi sion</w>
r a</w>
poli ce</w>
on ce</w>
n on</w>
m ber</w>
j et</w>
fa ti
commenc é</w>
bi ère</w>
au c
y our
tr ue</w>
ter s</w>
sin ce</w>
ser ez</w>
s how</w>
pr et
par ty</w>
my self</w>
mor ning</w>
jou er</w>
hav ing</w>
h un
fati gu
chev eux</w>
caf é</w>
c at</w>
v in</w>
rou te</w>
quel ques</w>
i se</w>
en vie</w>
wat ch</w>
w on
ti red</w>
secr et</w>
ré pon
ri ons</w>
plu ie</w>
pl eu
p ain</w>
ni ce</w>
mal ade</w>
m il
lear n</w>
ill ed</w>
ho pe</w>
happ en</w>
hap pened</w>
h on
et ing</w>
essay er</w>
d é</w>
c et</w>
c el
any more</w>
a w
vie ille</w>
v ue</w>
s ent</w>
pu is
prob ab
pi an
o l
liv es</w>
lai sse</w>
fo l
ang er
an ces</w>
ai l
Ja pon</w>
wh ile</w>
v it</w>
prob le
proble m</w>
no s</w>
n er
ma tion</w>
lon g
li st
l ea
in vi
i es</w>
h ors</w>
fem mes</w>
fe el
fatigu é</w>
fam ily</w>
es te</w>
coun try</w>
con si
ca l</w>
c ouldn</w>
arg e</w>
appel er</w>
ado re</w>
î te</w>
travail le</w>
so ci
seu lement</w>
ser ait</w>
rea u</w>
par l
p ain
lev é</w>
inté ri
en n
dev rait</w>
clas se</w>
ch ats</w>
bu reau</w>
bo îte</w>
b ri
b elle</w>
your self</w>
uti lis
su ch</w>
si x</w>
sa me</w>
s pe
s hi
rou ge</w>
res pon
r el
pour rait</w>
po is
per son</w>
or s
ne e
m self</w>
loo ks</w>
li kes</w>
l ors
k e
is t</w>
is hed</w>
in tel
ill ez</w>
hi mself</w>
gir l</w>
g ave</w>
f ree</w>
d ays</w>
ch au
c en
at tention</w>
voul ait</w>
ven u</w>
us tr
u re</w>
r ain</w>
préf ér
pens é</w>
long temps</w>
l uc
intéri eur</w>
fu mer</w>
d anger
cho i
ch es</w>
am is</w>
écri t</w>
wri te</w>
w ait</w>
to ge
toge ther</w>
t ats</w>
s po
pa yer</w>
pa u
p eu
ou t
mis s</w>
ma kes</w>
m en</w>
langu age</w>
hav en</w>
gro sse</w>
fri ends</w>
eff or
cu ri
bea uti
an sw
P ar
é ti
vi ent</w>
veu illez</w>
tran s
pian o</w>
o k
ne i
mo ts</w>
mi st
mi di</w>
laiss er</w>
l u</w>
ic i
h er
g g
essay é</w>
en ir</w>
d onne</w>
cert ain
ang e</w>
am our</w>
é g
w ard</w>
v e
té lé</w>
tur ned</w>
tur n</w>
tt en</w>
star ted</w>
some one</w>
pour riez</w>
po pu
pa n</w>
ou ver
no body</w>
n ager</w>
mo indre</w>
mi ght</w>
mar ier</w>
l ess</w>
j eux</w>
infor mation</w>
h ear
get ting</w>
g ag
en semble</w>
dét este</w>
dev rions</w>
chil d</w>
chang e</w>
bi g</w>
b é</w>
b ought</w>
ai ss
î ner</w>
ver s</w>
sen ten
s y
r endre</w>
o t</w>
g are</w>
fen être</w>
fa ce</w>
err eur</w>
ent endre</w>
di tes</w>
con du
ce ci</w>
c ap
bi r
b é
an t
am our
A ustr
wo man</w>
win do
was n</w>
un ti
unti l</w>
t on
stu dy</w>
si ster</w>
se ems</w>
se e
san té</w>
s ous</w>
res s</w>
rea ding</w>
qu er</w>
pri e</w>
mon tre</w>
mau vais</w>
li ght</w>
intel lig
for t</w>
f un</w>
e ful</w>
difficul t</w>
diff er
d ress</w>
ch er
can not</w>
call ed</w>
bro ther</w>
bl ess
beauti ful</w>
b it</w>
b as</w>
b all</w>
at ely</w>
any one</w>
é qui
É tats</w>
v ing</w>
ti s
s et</w>
par a
me eting</w>
main s</w>
m ents</w>
lun ettes</w>
inté ress
es père</w>
d d
co ff
ar t</w>
a ff
wor king</w>
wai ting</w>
vi r
ver re</w>
un der</w>
stu pi
si ck</w>
pouv ait</w>
pois son</w>
n ess</w>
mat ter</w>
mang é</w>
l ed</w>
ho t</w>
hea l
he ard</w>
h ours</w>
gr and
gl as
er ed</w>
ea ch</w>
dé cid
din ner</w>
cin q</w>
c ent</w>
bo y</w>
b at
au tant</w>
a le</w>
G er
équi pe</w>
écri re</w>
vac ances</w>
sur pris</w>
su m
re ct</w>
pré ci
pro ch
peu vent</w>
pend ant</w>
pag no
pagno l</w>
m it</w>
jus qu&apos;</w>
ill age</w>
fil m</w>
f on
es pagnol</w>
d îner</w>
cu t</w>
b al
ai mes</w>
a th
vou dr
tr ying</w>
ten nis</w>
t un
t ain</w>
su jet</w>
rou gh</w>
ri ch</w>
r o</w>
pro pos
pa use</w>
ou s
op en</w>
o wn</w>
n at
mi se</w>
le av
laiss ez</w>
k y</w>
it ed</w>
ic y
i c</w>
hô p
h or
h ate</w>
h and</w>
gir ls</w>
g é
fo od</w>
fin ished</w>
f ish</w>
f el
ey es</w>
ex am
ess ed</w>
effor ts</w>
dis pos
di ed</w>
d et
con tre</w>
coff ee</w>
ch ed</w>
b icy
ar s</w>
ai m
ai e</w>
é pou
un ion</w>
qu a
pau vre</w>
p re</w>
p is
ou i</w>
or din
off ice</w>
o le</w>
li e</w>
i li
hôp ital</w>
ex pl
e i
con cer
ch a
ce p
an i
a tions</w>
0 0</w>
éc ess
wi fe</w>
v illage</w>
u t</w>
té s</w>
tri ed</w>
ti onn
th ir
sw im
suppos e</w>
sti tu
so on</w>
si g
sa c</w>
s enti
pret ty</w>
pe ct</w>
nu mber</w>
n écess
mar i
liv ing</w>
liv ed</w>
l ent</w>
k is
i ds</w>
hô tel</w>
hear t</w>
hea d</w>
h am
h air</w>
gl ad</w>
for get</w>
fi ve</w>
em plo
el se</w>
di x</w>
d augh
bo th</w>
ap an
apan ese</w>
al most</w>
ag ne</w>
Par is</w>
Ja pan</w>
J apanese</w>
si ons</w>
re f
r ê
pri t</w>
plu part</w>
pi e
pen d</w>
ne c
mi enne</w>
l ée</w>
im ag
ex per
bor n</w>
ay la</w>
at tr
appel é</w>
amour eux</w>
L ayla</w>
éti ez</w>
wea ther</w>
w ish</w>
télé vision</w>
thin king</w>
t y
t our</w>
sû re</w>
sur pri
su b
st e
st ation</w>
si ve</w>
sen se</w>
ré union</w>
ri ère</w>
ri te</w>
pu bli
pos er</w>
parl ez</w>
pa per</w>
nécess aire</w>
no ir</w>
mon t
mil k</w>
mer ic
me di
la r</w>
kno wn</w>
jou e</w>
il les</w>
i ti
i di
hur t</w>
fel t</w>
fe u</w>
es se</w>
er a</w>
décid é</w>
der rière</w>
de cid
comp any</w>
ar ti
ap pris</w>
answ er</w>
ai ls</w>
advi ce</w>
T V</w>
we en</w>
w er</w>
u su
si r</w>
se con
s au
r ap
pro pre</w>
pouv ais</w>
p an
ob j
mon tr
lu tion</w>
k ey</w>
intellig ent</w>
fu ture</w>
fin i</w>
fai m</w>
f all
chau d</w>
cha que</w>
ch e
c am
bé bé</w>
bu r
at es</w>
app elle</w>
O h</w>
ç ons</w>
â ge</w>
wal k</w>
vis it</w>
utilis er</w>
th rough</w>
th en</w>
swim ming</w>
soci été</w>
ser i
ri r</w>
pro mise</w>
pre ci
por ter</w>
par lé</w>
pa sse</w>
nu mé
numé ro</w>
le c
h ind</w>
h al
fl eurs</w>
f ell</w>
exper i
end ro
em and</w>
déso lée</w>
d ar
cont ent</w>
con na
clas s</w>
car eful</w>
c al
brea k</w>
bl ack</w>
be hind</w>
be come</w>
b ar
b an
ay ing</w>
ay ed</w>
at eur</w>
arriv ed</w>
ang ry</w>
all emand</w>
ag o</w>
A meric
A l
u p
u m
tri bu
s pr
s av
ri s
ra di
r endu</w>
po s</w>
par t
mo is</w>
mer ci</w>
ma y
lo g
l at
l and</w>
in stitu
ill é</w>
h as
cu l
com prends</w>
as se</w>
al is
ad mi
J o
D i
épou ser</w>
wor ry</w>
wor ks</w>
wor ds</w>
won der</w>
wh ole</w>
w ouldn</w>
w ine</w>
voudr ais</w>
vo l
tri p</w>
ton ight</w>
to m
ti c</w>
ter ri
surpri sed</w>
stud ents</w>
sto re</w>
sou viens</w>
sci enti
s il
ro ad</w>
ri st
rencontr er</w>
rea li
r un
r ing</w>
r ement</w>
qui te</w>
puis se</w>
préfér ée</w>
pr en
pis c
pisc ine</w>
p un
p ped</w>
oth ers</w>
nom br
ne ws</w>
n y</w>
mont agne</w>
mar ché</w>
m ou
k illed</w>
interes ted</w>
hi gh</w>
gu ess</w>
g ame</w>
fi gu
f low
exac tly</w>
er i
endro it</w>
en jo
em b
di st
decid ed</w>
d en
com es</w>
chem ise</w>
c rea
c lu
bu il
bet ween</w>
b lo
b a
ap préci
ain st</w>
ail le</w>
ag ainst</w>
ac t</w>
N o
A n
voul ons</w>
uc k</w>
t est</w>
qua tre</w>
pro pos</w>
pens ez</w>
man teau</w>
m ess
iti é</w>
institu teur</w>
gar çons</w>
fa çon</w>
ess aie</w>
dev en
cl é</w>
ci sion</w>
bless é</w>
a k
2 0
ç u</w>
z ed</w>
y ours</w>
windo w</w>
wat ching</w>
vi ère</w>
us h</w>
u it</w>
to wn</w>
t in
su res</w>
st and
smo king</w>
sin g
ri vière</w>
r un</w>
r as
pon ais</w>
pi er</w>
par fois</w>
o ver
o m
nouv elles</w>
nec ess
lon ger</w>
l augh
ig n
hur ry</w>
he av
hand s</w>
g â
fo o
f avo
en nu
e f</w>
dea th</w>
daugh ter</w>
cr az
cor rect</w>
co st</w>
clo se</w>
choi x</w>
certain s</w>
c ity</w>
be came</w>
ap poin
an g</w>
al ors</w>
M r</w>
E u
. .</w>
è que</w>
â tre</w>
vi v
u i</w>
suc re</w>
su ff
si te</w>
r t</w>
p ê
ordin ateur</w>
o ir</w>
ll ars</w>
li eu</w>
l arge</w>
j a
in d
gar de</w>
f it</w>
en ces</w>
do llars</w>
dev ez</w>
condu ire</w>
com pris</w>
co û
cl és</w>
cel ui</w>
auc un</w>
attr ap
étudi ants</w>
è rent</w>
y es</w>
wi m</w>
vi end
u x</w>
tu res</w>
to p</w>
th ank</w>
ter re</w>
tel e
sum mer</w>
stud ent</w>
star t</w>
some times</w>
sho t</w>
sh or
ser ais</w>
senti ments</w>
s wim</w>
s pend</w>
regar dé</w>
radi o</w>
r er</w>
r ac
po or</w>
pa st</w>
or der</w>
on cle</w>
no on</w>
musi c</w>
mo itié</w>
may be</w>
ma king</w>
luc ky</w>
loo ked</w>
langu ages</w>
l friend</w>
l ar
in t</w>
in es</w>
im porte</w>
heal th</w>
gir lfriend</w>
fi ed</w>
f ire</w>
es prit</w>
end ed</w>
en g
e g
di e</w>
dar k</w>
cu r
craz y</w>
con v
com pu
cl ear</w>
c at
bicy cle</w>
be er</w>
b as
b ab
ap preci
any body</w>
ant age</w>
ag ree</w>
ac tu
ac ti
M on
Jo h
. ..</w>
w ing</w>
thé âtre</w>
th s</w>
tel lement</w>
ta x
sé curi
sécuri té</w>
su s</w>
su n
si st
s on
rencontr é</w>
pren ez</w>
per dre</w>
para pluie</w>
pa ce</w>
m us
m ets</w>
lu mi
lo se</w>
lo gi
ic k
i de</w>
ho sp
f our</w>
f lo
de hors</w>
d el
d an
conn aiss
chang é</w>
ch ap
c ats</w>
bli oth
bi blioth
b eau</w>
av enir</w>
at ten
Eu ro
A h</w>
1 0</w>
éc ou
é li
è res</w>
wri tten</w>
wh e
w er
tu é</w>
thin ks</w>
tel ling</w>
ta tion</w>
suc c
str uc
slee ping</w>
shi rt</w>
s é</w>
s aying</w>
ret ur
re p
ra ther</w>
probab ly</w>
play ing</w>
pi re</w>
parti e</w>
ous ly</w>
nombr eux</w>
nom bre</w>
ni vers
n s</w>
n et</w>
n ear</w>
mé di
mo vie</w>
lun ch</w>
low ed</w>
lors que</w>
list en</w>
leav ing</w>
le il</w>
lat er</w>
ja ponais</w>
idi ot</w>
hun gr
hungr y</w>
hosp ital</w>
ho tel</w>
hal f</w>
gâ teau</w>
g ar</w>
favo rite</w>
f s</w>
f ont</w>
f ine</w>
f er</w>
er min
en se
eas ily</w>
ea ting</w>
donn ez</w>
d rea
d ly</w>
d ance</w>
con f
ce i
cau ght</w>
ca ke</w>
c li
c ked</w>
bo ire</w>
biblioth èque</w>
bab y</w>
b and</w>
ar i
al so</w>
ai rs</w>
I tal
E ar
Di eu</w>
é ren
è te</w>
veu lent</w>
v ê
trou ble</w>
t or
ser vi
sem bl
sa tis
s ent
re w</w>
ra se</w>
pro du
pr in
ph rase</w>
mar che</w>
lumi ère</w>
l es
er ci
el s</w>
di rec
d ent</w>
d anger</w>
conse ils</w>
ci r
ci el</w>
ch ec
c oup</w>
bal le</w>
b les</w>
b es</w>
att endre</w>
a ti
1 9
wh ose</w>
wh at
was h</w>
v en</w>
un k</w>
ti mi
thé ori
théori e</w>
th y</w>
th es</w>
ter noon</w>
tea m</w>
ta king</w>
t ent</w>
su gar</w>
stu me</w>
sto od</w>
st ayed</w>
spea king</w>
ser ai</w>
sa fe</w>
s li
s it</w>
s car
s avait</w>
res se</w>
ren d</w>
r even
publi c</w>
probl ems</w>
pati ent</w>
o pened</w>
mon th</w>
mist ake</w>
minu te</w>
lear ned</w>
lea st</w>
l eurs</w>
ke pt</w>
k fast</w>
it ted</w>
in ess</w>
im medi
il es</w>
ig nor
i tion</w>
i st
heur euse</w>
has n</w>
h at</w>
g ue</w>
g enti
for got</w>
feel ing</w>
f lu
f ic
experi ence</w>
ex pec
et ely</w>
differ ent</w>
der ed</w>
d ont</w>
d on
cou ple</w>
compu ter</w>
compl etely</w>
co stume</w>
co at</w>
clo thes</w>
clo ck</w>
cho ice</w>
brea kfast</w>
bo ys</w>
auc une</w>
at ing</w>
ar d
appreci ate</w>
an im
an e</w>
al s</w>
ac cep
Joh n</w>
Ger man</w>
G od</w>
Ch rist
A r
ê tres</w>
voitu res</w>
vo is</w>
su l
su i
s ac
ress em
ras es</w>
qu it
po m
ph rases</w>
onn es</w>
on es</w>
obj ec
nei ge</w>
ne l</w>
m éri
li es</w>
li bre</w>
l ine</w>
in er</w>
hab ite</w>
h au
for c
des sus</w>
d ge</w>
d ate</w>
ch aus
c tu
ar ro
ar me</w>
al ement</w>
In ter
Ch in
è me</w>
y o</w>
wo men</w>
what ever</w>
w ro
wro te</w>
w ed</w>
v al
u es</w>
tou ch</w>
th day</w>
suc ce
stupi d</w>
str ong</w>
st ed</w>
spe e
smo ke</w>
sle pt</w>
sh ouldn</w>
senten ce</w>
s mar
ressem ble</w>
rea l</w>
r eli
qu é</w>
pro ve</w>
pres ent</w>
pre fer</w>
plu tôt</w>
pic ture</w>
pho to
pan ish</w>
pa y
p é
ok yo</w>
no re</w>
nee ded</w>
necess ary</w>
mar ry</w>
mang e</w>
m oun
m ea
lors qu&apos;</w>
list en
li ked</w>
le gs</w>
ke ys</w>
j ect</w>
invi ted</w>
in side</w>
in g
ig nore</w>
i ons</w>
h our</w>
gen re</w>
gen er
g one</w>
g n
flow ers</w>
flo or</w>
er ai</w>
ei ther</w>
dri ve</w>
deven u</w>
derni er</w>
dea l</w>
dea d</w>
cor rec
conna ît</w>
compl e
co ok</w>
cl ean</w>
chaus sures</w>
chang ed</w>
ca se</w>
bro ke</w>
bo x</w>
bir thday</w>
bi li
beg an</w>
ap par
ain si</w>
af ternoon</w>
admi re</w>
ac k
ac c
T okyo</w>
S panish</w>
Ear th</w>
Austr ali
3 0</w>
v a
uni vers
tic ket</w>
ti es</w>
t ée</w>
t ex
st op
so lu
so leil</w>
répon se</w>
ré sou
ren tr
regar de</w>
r é</w>
probab lement</w>
pag ne</w>
pa pier</w>
nivers aire</w>
n es</w>
mag az
li br
i ez</w>
h it</w>
fr uit</w>
ex c
es ti
emb arr
danger eux</w>
cr u
conse il</w>
ch arge</w>
attrap é</w>
an niversaire</w>
al ie</w>
ai l</w>
ad resse</w>
Austr alie</w>
z z
z o
zo o</w>
whe ther</w>
wer en</w>
wal ked</w>
w in</w>
w ear
wear ing</w>
vê tem
vêtem ents</w>
vi de
us ing</w>
us band</w>
ty pe</w>
ten ir</w>
tal ked</w>
ta kes</w>
ta ken</w>
t ab
suppos ed</w>
su n</w>
stand ing</w>
st ing</w>
spo ke</w>
si bili
sho es</w>
senten ces</w>
see m</w>
secon d</w>
se a</w>
scienti fi
s qu
s and
run ning</w>
ri ver</w>
r ez</w>
pro mis
pro duc
play ed</w>
pen sive</w>
pa ble</w>
oun ds</w>
ou d</w>
o w
nee ds</w>
mist a
low ing</w>
lo ved</w>
lear ning</w>
l o</w>
k ill</w>
k ids</w>
interes ting</w>
in ed</w>
immedi ately</w>
im médi
heav y</w>
hap pen
h y
h usband</w>
h ing</w>
glas ses</w>
glas s</w>
gi ven</w>
gh ts</w>
for ward</w>
feel ings</w>
fac t</w>
f ou</w>
ex pensive</w>
even ing</w>
et y</w>
enjo y</w>
en ty</w>
ea ten</w>
ea ted</w>
e a</w>
danger ous</w>
cu te</w>
cu se</w>
cour age</w>
cou ver
con tribu
con di
chap eau</w>
ch anc
cat ch</w>
bu t
br ing</w>
b â
av antage</w>
ap pe
af faire</w>
N e
J ane</w>
vo ici</w>
vie il</w>
té es</w>
tionn aire</w>
tion al</w>
ti que</w>
ter min
t aille</w>
star s</w>
s ement</w>
résou dre</w>
ri de</w>
r ev
r end
r am
proch ain</w>
per fe
ouver t</w>
on er</w>
mess age</w>
man quer</w>
m as</w>
gu erre</w>
fen êtres</w>
en voy
dorm i</w>
con fi
con c
ch arg
ch ar
cert ain</w>
c er</w>
c anc
b er
au to
att end
arro g
ap pl
ab o
a di
U n
A p
wri ting</w>
wor ked</w>
won der
ur g
um br
umbr el
tr ee</w>
tr e
tr ai
the ory</w>
tea ch</w>
t une</w>
t our
t ears</w>
t al</w>
sy m
stud ying</w>
str ange</w>
st y</w>
st airs</w>
spea ks</w>
smar t</w>
shor t</w>
sh all</w>
see ing</w>
s ound</w>
s now</w>
s end</w>
s c
répon dre</w>
res pect</w>
reali ze</w>
rea son</w>
re qu
re co
re cei
r appeler</w>
qu ick
quick ly</w>
prof es
pl ays</w>
par k</w>
p es</w>
p en</w>
out side</w>
on ed</w>
occup ée</w>
o per
nei gh
moun tain</w>
libr ary</w>
le e
l ation</w>
k ni
k ets</w>
j oin</w>
j eu</w>
in vol
in no
in di
im possible</w>
il ement</w>
ho od</w>
hi ver</w>
hi story</w>
hi gh
gu ys</w>
go o
go es</w>
g ets</w>
fr ont</w>
fin ish</w>
fam ous</w>
fam ili
f un
f av
ey e</w>
exac tement</w>
ex ist</w>
ex cuse</w>
eu ses</w>
eu sement</w>
ent ôt</w>
ent ly</w>
ennu is</w>
en vir
emplo i</w>
embarr ass
em an</w>
dé c
dr unk</w>
des er
d avantage</w>
cr ying</w>
concer t</w>
comm un
com man
clo sed</w>
chec k</w>
c ks</w>
buil ding</w>
bro ken</w>
bi entôt</w>
beg in
b ill</w>
atten d</w>
appoin ted</w>
anc ed</w>
all ée</w>
ad v
ad dress</w>
ab solu
a po
S un
M o
E s
Christ mas</w>
ét age</w>
ver se</w>
ven us</w>
u m</w>
tr em
th er
tax i</w>
t ar
sor t</w>
re gr
qui et</w>
pou voir</w>
pos te</w>
pl ai
pie ds</w>
pati ence</w>
pass er</w>
nat ur
ma te</w>
m é</w>
m ent
m em
m ed</w>
l av
k er</w>
jam bes</w>
j ard
is te</w>
ir s</w>
immédi at
immédiat ement</w>
il o
gr at
fac ilement</w>
ex plo
er g
enn ent</w>
el lement</w>
dé cision</w>
dis cours</w>
difficul tés</w>
d eau</w>
cour se</w>
cour ant</w>
comp te</w>
co in</w>
c eux</w>
b ai
arrê té</w>
appréci e</w>
ani mal</w>
ac ro
ab sent</w>
Ne w</w>
Inter net</w>
ét o
y si
win ter</w>
wee k
week end</w>
w el
w ear</w>
vie w</w>
vi c
usu ally</w>
usu al</w>
us hed</w>
un for
un cle</w>
umbrel la</w>
tro m
tr aff
traff ic</w>
tion ary</w>
ti ce</w>
terri ble</w>
tele vision</w>
t wi
t elle</w>
su gg
str e
st y
st at
spr ing</w>
some where</w>
sol ve</w>
so oner</w>
sing le</w>
si ght</w>
sho p</w>
s éri
s ai
ro ck</w>
re çu</w>
re en</w>
r an</w>
préf ère</w>
pro t
pri ce</w>
pr on
pr inc
pos t</w>
popu lar</w>
pleu rer</w>
plea sed</w>
pl age</w>
ph ysi
par ed</w>
par c</w>
pa s
ol der</w>
o we</w>
ner vous</w>
n one</w>
meill eu
mari é</w>
mar ket</w>
m eur</w>
m ean</w>
le çon</w>
la quelle</w>
kis s</w>
k o</w>
jard in</w>
ir ai</w>
intéress é</w>
inno cent</w>
in tro
in ju
im pres
id ent</w>
hon te</w>
ho ld</w>
her self</w>
h ai
gé ni
go tten</w>
gi ves</w>
gen i
gar d
g un</w>
g am
fu ll</w>
foo t
figu red</w>
fau l
f uck</w>
f at</w>
ex pect</w>
et h</w>
es p
ense ign
end ing</w>
el ec
ear th</w>
ea d</w>
dri ving</w>
dou ble</w>
dor t</w>
dis co
diff éren
dic tionary</w>
dan ser</w>
cu p</w>
consi der</w>
conc entr
con ten
comple te</w>
compl ain
co ol</w>
choi sir</w>
car te</w>
car ry</w>
ca pable</w>
c ré
c ard</w>
blo od</w>
bi ke</w>
ba g</w>
apo logi
an ks</w>
am us
all és</w>
al lowed</w>
ag re
advi sed</w>
actu ally</w>
ab road</w>
S t
S m
&apos; clock</w>
œu fs</w>
ë l</w>
x i
vi es</w>
ver n
t ait</w>
su it</w>
ser v
rê tez</w>
ré us
ré f
res pec
r ar
pré sen
proch aine</w>
pri v
pr u
pr end
pleu voir</w>
or k</w>
o bli
obli g
no v
n i</w>
montr er</w>
mau v
lar mes</w>
k in
i a</w>
genti l</w>
gag né</w>
g ni
for table</w>
fer a</w>
f ou
f all</w>
ex erci
ea ux</w>
dét ails</w>
dé r
don c</w>
do gs</w>
dic tionnaire</w>
dem an
d ess
d enti
d ence</w>
con que</w>
cho col
chan son</w>
c aus
bo y
bl an
bat eau</w>
b lu
b et</w>
b el
b ag
ay ez</w>
arti cle</w>
an n
am ment</w>
ac cus
ab les</w>
Y ork</w>
P ro
O K</w>
F ri
E x
Ar rêtez</w>
è tement</w>
è rement</w>
y en</w>
y ed</w>
wor th</w>
wor se</w>
vide o</w>
vi ol
vern ment</w>
vac ation</w>
under stood</w>
u g
twi ce</w>
tr ust</w>
tr ave
trave l</w>
ti ment</w>
ti ent</w>
ti e</w>
thir ty</w>
th ea
tem p
su ite</w>
spo ken</w>
spee ch</w>
sp ir
so f
sh ar
seri ous</w>
ser as</w>
sci ence</w>
satis fied</w>
s pace</w>
s ong</w>
s low</w>
s eat</w>
retur n</w>
res ul
regar d
r est</w>
pun ctu
pre pared</w>
pr ête</w>
pr essed</w>
pr end</w>
pos t
pos sibili
po ol</w>
po l
pl y</w>
pie ce</w>
pa tr
pa ss</w>
o king</w>
nat ure</w>
mista kes</w>
mis sion</w>
mis sed</w>
met tez</w>
meilleu re</w>
m am
luc k</w>
li k
les son</w>
lee p</w>
l è
k it
kit ch
kitch en</w>
k ers</w>
jour n
is su
invol ved</w>
id enti
ic al</w>
hu man</w>
har dly</w>
ham ed</w>
h é
h onn
gé n
gu y</w>
go vernment</w>
fu lly</w>
fri end
fr app
for tune</w>
for e
fol low</w>
fin ally</w>
figu re</w>
expec ted</w>
exam en</w>
ex ist
eu m</w>
er y</w>
er ing</w>
en em
eg gs</w>
ee p</w>
ear th
du ring</w>
dro it</w>
dis appointed</w>
det ermin
d om</w>
d g
d ad</w>
cro ss
cr y</w>
coun t</w>
consi dered</w>
con o
com fortable</w>
co oking</w>
chanc eux</w>
ce pt</w>
car s</w>
c y</w>
c s</w>
bâ timent</w>
bus iness</w>
b res</w>
b read</w>
b on
au rait</w>
as s</w>
as leep</w>
as hamed</w>
arri ver</w>
appe ar
app le</w>
app ed</w>
an ti
ain ed</w>
ai res</w>
af fai
acro ss</w>
acc used</w>
ac ked</w>
a p</w>
Un ited</w>
Sun day</w>
Sm ith</w>
Mon day</w>
Chin ese</w>
Australi a</w>
Americ a</w>
ô le</w>
é vi
vis it
vi dé
tri es</w>
tr ad
to il
timi de</w>
t at
t an
su per
sor te</w>
sim ple</w>
s pi
s pec
ré par
ri es</w>
ref us
qu it</w>
pê cher</w>
po c
pl e
pl ac
pens er</w>
pa re</w>
p ends</w>
p a</w>
ouv rir</w>
musi ci
magaz ine</w>
li se</w>
li ez</w>
li cen
l le</w>
l is</w>
l in
j et
in ven
in ation</w>
i m</w>
fon c
f is
ex cus
eri a</w>
er ais</w>
envoy é</w>
en te</w>
e f
dr a
donn er</w>
dist ance</w>
dis cu
di v
di plo
deman der</w>
cus ez</w>
cou s
conse illé</w>
con st
compl ètement</w>
ci al</w>
cher che</w>
c ô
c ass
bai ser</w>
au th
as h</w>
an to</w>
al ter
al ong</w>
ain s</w>
No ël</w>
M i
Ex cusez</w>
Euro pe</w>
C o
C an
B ri
éc u</w>
è ne</w>
windo ws</w>
wi se</w>
wh ite</w>
we ight</w>
we d
war ned</w>
w s
ws paper</w>
w ich</w>
vis ited</w>
viend ra</w>
ve get
v écu</w>
v is</w>
up stairs</w>
uni vers</w>
unfor tun
unfortun ately</w>
travail lé</w>
trav el
ti cal</w>
thir sty</w>
th ous
th em
th anks</w>
te eth</w>
te en</w>
te a</w>
t ask</w>
t all</w>
succe e
succee ded</w>
succ ess</w>
su dd
stupi de</w>
squ ir
sp ent</w>
sol di
sk y</w>
sil ent</w>
sig n</w>
sho wer</w>
shi p</w>
sh y</w>
sh ut</w>
seri ously</w>
sembl ez</w>
secr ets</w>
scar ed</w>
sand wich</w>
s por
s ounds</w>
s is</w>
s ever
s cen
ru de</w>
ret our
respon sible</w>
rem o
reco gni
recei ved</w>
rea ch</w>
re port</w>
re g
re e
rai ning</w>
pu l
pro jet</w>
pr acti
pom me</w>
po ir</w>
pl eut</w>
pl enty</w>
pers onnes</w>
per te</w>
pass ed</w>
pain ting</w>
pain ted</w>
pa le</w>
p é</w>
p y
p aid</w>
our ces</w>
on y</w>
oc ca
nov el</w>
ne wspaper</w>
natur al</w>
na tive</w>
n on
n ers</w>
mo ve</w>
mo r</w>
mi li
me dic
medic ine</w>
me ans</w>
man u
lo ves</w>
lo ts</w>
lo ss</w>
lo r</w>
listen ing</w>
lik ely</w>
let ters</w>
laugh ing</w>
la w</w>
la tions</w>
l ap
l ab
journ al</w>
it es</w>
is m</w>
inju red</w>
inc rea
in struc
imag ine</w>
ill s</w>
il ing</w>
il ed</w>
i des</w>
hur ried</w>
hor ri
ho me
hel ped</w>
hel d</w>
h a
gén ér
grea test</w>
gard en</w>
g row</w>
g in
fun ny</w>
fu r
for m</w>
for give</w>
foot ball</w>
fol lowing</w>
fis hing</w>
fi x</w>
fe et</w>
famili ar</w>
f our
f illed</w>
f asse</w>
expl ain</w>
exist ence</w>
es poir</w>
es cap
erg y</w>
er t</w>
enseign ant</w>
enem y</w>
en ergy</w>
el ess</w>
eff ec
ea ts</w>
e qu
dr essed</w>
dou che</w>
dou b
differ ence</w>
dev o
dev ant</w>
det ails</w>
des tin
der s</w>
de pends</w>
de f
de cision</w>
de ci
d ue</w>
d ents</w>
d am
cu sto
cont in
com mon</w>
co sts</w>
cho ose</w>
ch ur
bu tt
bu l
bro wn</w>
br ought</w>
boy friend</w>
bo ttle</w>
blu e</w>
begin ning</w>
bea ch</w>
b s</w>
b out</w>
b ly</w>
b en
aw ake</w>
avo id</w>
at a</w>
ar ea</w>
anim als</w>
am ies</w>
ag ed</w>
accor ding</w>
ab and
a che</w>
U S
Fri day</w>
Al g
A méri
20 1
œ il</w>
î tre</w>
él è
écou ter</w>
é p
é ch
â mes</w>
y o
vidé o</w>
ven ue</w>
to mber</w>
termin é</w>
sur viv
sui v
sty lo</w>
st es</w>
sou hai
sor s</w>
som met</w>
si onn
servi ce</w>
s port</w>
réf lé
réflé ch
ro man</w>
ro be</w>
respon s
rentr er</w>
re ti
rap port</w>
rap id
r ab
pré par
propos ition</w>
pro vi
pr ess
pos ition</w>
por tun
popu lation</w>
pers on
or g
or d</w>
op portun
occa sion</w>
na tional</w>
n ement</w>
mus ée</w>
mou rir</w>
montr ez</w>
mil li
mauv aise</w>
man qu
man che</w>
man ager</w>
m el
m b</w>
lun di</w>
lu m
lo i</w>
l y
l am
in t
im pl
gu es</w>
gr es
g é</w>
g ent
f eu
f as
f ar
er n
em porter</w>
em br
e vi
cô té</w>
confi ance</w>
col lec
co pi
ci pa
ci eux</w>
chan ter</w>
ca deau</w>
c elle</w>
b ar</w>
au t</w>
at ure</w>
at ti
ang es</w>
am éli
am bi
al ité</w>
ain es</w>
ai r
R us
J u
C on
B ra
ég alement</w>
é ni
é ner
â che</w>
z y</w>
y e</w>
wor st</w>
wor ried</w>
wonder ful</w>
wo re</w>
wee ks</w>
wed ding</w>
wat ched</w>
was te</w>
war m</w>
w yer</w>
w ar</w>
w ake</w>
w a
vo lun
vi vent</w>
vi site</w>
ver ed</w>
ve illé</w>
ve ill
va se</w>
v é
v end
v aut</w>
up set</w>
univers ity</w>
uni verse</w>
trou ver
tro l</w>
tre es</w>
trav ers</w>
trans late</w>
tr eated</w>
tou ched</w>
to ys</w>
tic s</w>
ti f</w>
thea ter</w>
th rew</w>
ter ed</w>
tele phone</w>
tel y</w>
tal ks</w>
t ment</w>
t end
t aller</w>
sur ance</w>
sup por
sup pl
su spe
suspe ct</w>
stre et</w>
stop ped</w>
ste m</w>
star ting</w>
sou l</w>
som me
somme il</w>
so lution</w>
so li
so ld</w>
sk i
sin gs</w>
sin ger</w>
si ze</w>
si an</w>
sh eep</w>
sever al</w>
ser ved</w>
sel ves</w>
scen e</w>
sav ent</w>
s ell</w>
s co
s ays</w>
run s</w>
ru les</w>
ro r</w>
ri re</w>
rev oir</w>
res te</w>
rel a
ref used</w>
rea sons</w>
re fu
rai ns</w>
r ely</w>
qu ar
punctu al</w>
pré si
prot ect</w>
promis es</w>
pro per
pro ject</w>
pri ces</w>
po wer</w>
po i
plan et</w>
pic tures</w>
pi zz
photo s</w>
ph ilo
philo so
perfe ct</w>
per su
per mission</w>
per hap
perhap s</w>
pay é</w>
parti es</w>
part i</w>
par viens</w>
p y</w>
p ping</w>
p ir
ouver te</w>
oul eur</w>
ori ty</w>
or able</w>
o pen
o me</w>
o lution</w>
ne ar
n et
n am
mus eum</w>
mon ths</w>
mo vies</w>
mo on</w>
mi le</w>
mem ory</w>
me ant</w>
mat ters</w>
mar cher</w>
mai l</w>
m om</w>
m itted</w>
m age</w>
m ac
log y</w>
lo ws</w>
licen se</w>
li st</w>
leav es</w>
le g</w>
le g
laugh ed</w>
lai re</w>
la zy</w>
la wyer</w>
la ke</w>
l ous</w>
l end</w>
kni fe</w>
kis sed</w>
kin ds</w>
kee ps</w>
jus tice</w>
it ting</w>
ind a</w>
in sul
im pressed</w>
ill ing</w>
ig n</w>
ici ous</w>
ic ken</w>
ic ation</w>
i ent</w>
i an</w>
hy po
hun dr
hundr ed</w>
hu it</w>
hon est</w>
home work</w>
hom as</w>
hi de</w>
heal thy</w>
happen ing</w>
hand le</w>
h ang
gu it
gro wing</w>
gro s</w>
grand mother</w>
grand father</w>
gr ound</w>
gr ou
gam es</w>
g ho
fu rent</w>
forc ed</w>
foo ds</w>
fon d</w>
fi ght</w>
fe c
fai sons</w>
fai led</w>
fa ster</w>
f uc
f ly</w>
f ie</w>
f ear</w>
expl i
exerci se</w>
es pace</w>
ent end
enn em
enf ance</w>
embarrass ed</w>
em ents</w>
el ls</w>
e il</w>
e ight</w>
e er</w>
dé çu</w>
duc ed</w>
drin king</w>
dri ver</w>
drea m</w>
dr ank</w>
div or
dispos e</w>
dis cus
direc tion</w>
diff ér
di sh
der ing</w>
de e
dd le</w>
d hood</w>
cu e</w>
cro w
cr as
cour ag
coun tries</w>
cor ri
condi tion</w>
con grat
commenc er</w>
co ws</w>
chur ch</w>
chil dhood</w>
cher ch
ch icken</w>
canc er</w>
ca tion</w>
c ated</w>
c arri
bur st</w>
bou te
bor row</w>
bo ther</w>
bo at</w>
bi z
bi te</w>
bea u
be d
b u</w>
b right</w>
b it
b ack
av er
av ance</w>
ar ds</w>
ar ch
apologi ze</w>
ap pro
améli or
all ait</w>
ali ve</w>
al ity</w>
agre ed</w>
ag gres
ag ent</w>
ad mitted</w>
acti vi
ac ted</w>
ac cept</w>
abo ve</w>
ab ili
T homas</w>
St ates</w>
S pain</w>
L on
L inda</w>
K ate</w>
J im</w>
Ger many</w>
Eng land</w>
Bo b</w>
Americ ans</w>
1 1</w>
étudi er</w>
é tions</w>
è de</w>
y ons</w>
vo lon
vis age</w>
ver ti
v ing
v ement</w>
us an</w>
tom bé</w>
ti ves</w>
ti n</w>
ti en</w>
th i
ta to
sym bo
sur prise</w>
sup er</w>
suff is
su me</w>
str u
sig ni
si on
si eurs</w>
sel on</w>
s y</w>
re l</w>
re comm
rapid ement</w>
rai sons</w>
r ang</w>
préfér é</w>
produ it</w>
pr ess</w>
po ids</w>
plu sieurs</w>
pl ans</w>
pic k
pi ed</w>
patr on</w>
pa t
pa ri
ouver nement</w>
oubli e</w>
ori gin
on d</w>
o li
nor mal</w>
mu l
mor al</w>
mi gn
mari age</w>
m b
la c</w>
l arg
jeu nes</w>
invi té</w>
intéress ant</w>
in qui
in a</w>
ic k</w>
i vent</w>
i si
i que</w>
honn ête</w>
gu il
gi ving</w>
gar age</w>
g ér
g ouvernement</w>
g au
fic ation</w>
fer iez</w>
fau te</w>
ennem i</w>
eb all</w>
dét ermin
dé sor
dé couver
discu ter</w>
dis tribu
di rect</w>
di manche</w>
cu re</w>
cri min
cri me</w>
cor respon
cor ps</w>
copi es</w>
conn u</w>
con struc
con clu
comm en
com pag
ch ers</w>
ch anger</w>
ch all
bo is</w>
ban que</w>
as sist
arrog ant</w>
anc y</w>
an ci
am p</w>
ai ment</w>
ag it</w>
a .
U ni
T u
S usan</w>
Q u
M .</w>
H o
Ch ar
C om
201 3</w>
0 00</w>
étudi ant</w>
éto iles</w>
éni ent</w>
é cl
è g
y al</w>
with in</w>
wh i
wel come</w>
we ir
we i
wal ks</w>
wai ted</w>
w n
w illing</w>
w ears</w>
vou lo
voulo ir</w>
volun te
vers ation</w>
v ach
vach es</w>
us es</w>
us eful</w>
u pon</w>
tun nel</w>
tu m
tum n</w>
tu er</w>
trem bl
travel ing</w>
trav er
tr uck</w>
tr ic
tom b
toil et</w>
tis h</w>
ti z
th row</w>
th rea
th ough</w>
th ers</w>
terri bly</w>
tel ls</w>
tea ching</w>
ta le</w>
t ory</w>
t ons</w>
t asse</w>
sy stem</w>
sup port</w>
suffis amment</w>
succe ed</w>
succ ès</w>
sub ject</w>
su it
stop ping</w>
sto ries</w>
st ate</w>
st ar</w>
squir rel
squirrel s</w>
some body</w>
soldi ers</w>
so c
soc cer</w>
sm ells</w>
sm aller</w>
slee py</w>
sk ir
sk in</w>
sing ing</w>
si tive</w>
si ez</w>
sh are</w>
sh a
sel ling</w>
se c
se ar
scientifi c</w>
sal t</w>
sa f
s mile</w>
s low
s even</w>
s che
sche du
s at</w>
s ant</w>
ro b
ri d</w>
reven ir</w>
retur ned</w>
resul ts</w>
respons able</w>
res ted</w>
rep ai
rem erci
rem ar
regr et</w>
recogni ze</w>
re gu
rar ely</w>
rai n
r ound</w>
r i</w>
r and
qu ake</w>
pu zz
propos al</w>
pro pr
propr es</w>
pro gr
princ esse</w>
pres ident</w>
pr oud</w>
pr eu
pou ss
por tes</w>
por tait</w>
pon d</w>
poli c
polic eman</w>
po e
play ers</w>
pl ain
pi gg
pigg y</w>
physi cal</w>
per mis</w>
per anto</w>
pe in
pe ci
par ked</w>
pa ying</w>
p ushed</w>
p ush</w>
p us</w>
p sy
p in</w>
ow es</w>
oun ded</w>
oun ce</w>
ou rite</w>
or m
or anges</w>
or ange</w>
opportun ity</w>
on g
on de</w>
off er</w>
off en
o is
non sense</w>
neigh b
n ez</w>
n eu
n a</w>
mu r
mo od</w>
mo der
mea l</w>
me an
mat h</w>
mar teau</w>
man que</w>
mal heur
malheur eusement</w>
ma d</w>
m ée</w>
m p</w>
m our
lon ely</w>
lo sing</w>
listen ed</w>
li er</w>
li ed</w>
lear ly</w>
le an
l ines</w>
l i</w>
l ever</w>
l eman</w>
k ind
kind ness</w>
jou é</w>
issu e</w>
intro du
inter est</w>
inc ed</w>
in conv
inconv énient</w>
im um</w>
im prove</w>
ill ness</w>
il li
ig ner</w>
ici al</w>
hu ge</w>
ho li
ho le</w>
hi ding</w>
hel ps</w>
hea d
hau sted</w>
har der</w>
happen s</w>
ham mer</w>
gu ard</w>
goo ds</w>
go ld</w>
gent leman</w>
gener ation</w>
g ie</w>
g ath
friend ly</w>
for ever</w>
fol lowed</w>
fo ol</w>
flow er</w>
fir m</w>
fir ed</w>
fin ite</w>
feu illes</w>
fer mé</w>
fer ais</w>
fav ourite</w>
faul t</w>
fall u</w>
fall ing</w>
fai sait</w>
f f</w>
exc ited</w>
ex tr
ex hausted</w>
ex cel
ex am</w>
evi dence</w>
every where</w>
et er</w>
escap e</w>
es ts</w>
err eurs</w>
envir on
en ter</w>
en ly</w>
en gag
elec ted</w>
ei gh
earth quake</w>
ea si
e br
désor mais</w>
dé si
dé li
dé cl
dro p</w>
drin ks</w>
do wn
do ors</w>
do m
dis pu
dis gu
difficul ty</w>
di g
di a</w>
devo irs</w>
dev oir</w>
determin ed</w>
destin ation</w>
deser ve</w>
des k</w>
den y</w>
del icious</w>
deci de</w>
d ata</w>
d anced</w>
d ai
cul ture</w>
cru el</w>
cous in</w>
cour t</w>
conv inced</w>
contr at</w>
contr act</w>
con versation</w>
con trol</w>
con duc
comm ence</w>
com pos
co p
co lor</w>
cl ou
cl ever</w>
cl ai
cin é
cin em
chocol ate</w>
che ese</w>
chang ing</w>
ch in
ch ante</w>
cer em
cel ebr
caus ed</w>
car ds</w>
can dy</w>
cam era</w>
call ing</w>
cal m</w>
c é
c learly</w>
c ents</w>
butt on</w>
but ter</w>
buil t</w>
bro thers</w>
bo ss</w>
bl ame</w>
bir d</w>
believ ed</w>
bed room</w>
bea t</w>
bea r</w>
be ef</w>
be coming</w>
ban an
b un
b ons</w>
b att
b ank</w>
b ad
aw a</w>
aver age</w>
au tumn</w>
au g
at ta
arri ver
ar rested</w>
ar ms</w>
ar gu
ar bre</w>
appoin tment</w>
ap pr
any where</w>
ang les</w>
and s</w>
an xi
an u
am az
all ais</w>
aim é</w>
ai ses</w>
affai res</w>
ad verti
ad mis</w>
ad d</w>
ac tive</w>
absolu tely</w>
ab sur
ab ly</w>
a tive</w>
a head</w>
T ur
R e
Ital y</w>
H i</w>
Es peranto</w>
Bri tish</w>
Bra z
5 0</w>
é cur
écur eu
yo to</w>
voy ez</w>
voy ager</w>
vir us</w>
ving t</w>
viend rai</w>
vi ve</w>
v ont</w>
v in
v el
v an
trad uc
to tal</w>
ti di
ti ci
ther mo
th é</w>
th es
te ch
t ante</w>
su sp
stat ue</w>
st ea
sil en
si è
sent i</w>
sau f</w>
s no
s cr
s avons</w>
réus si</w>
ré alis
ro m
ri se</w>
rend ez</w>
rencontr ée</w>
ren contre</w>
remerci er</w>
reli gi
re jo
rac on
rac le</w>
r èg
r ue</w>
r hu
r appelle</w>
quo tidi
quel les</w>
quel conque</w>
py ram
pu r
prê ter</w>
prési dent</w>
pron on
profes sion
pro mess
promess es</w>
prin temps</w>
pri son</w>
pr un
pr ati
poi son</w>
po t</w>
ple in</w>
pl es</w>
pizz a</w>
pick poc
ph ones</w>
perfe c
pa ge</w>
pa ck</w>
ou x</w>
op tions</w>
onn é</w>
onn a</w>
objec tive</w>
o t
o s</w>
o is</w>
ni e</w>
net to
na tions</w>
n itu
my st
mor c
mo yen</w>
min imum</w>
mi racle</w>
mati ques</w>
man i
ma j
ma ch
m our</w>
m eu
lu re</w>
lo cal</w>
lis te</w>
le quel</w>
l ou
k il
k a</w>
jo lie</w>
j e
inté rê
instruc tions</w>
in spir
in flu
impres sion</w>
imag ination</w>
il à</w>
il ler</w>
hu meur</w>
grou pe</w>
gr ap
gr an
go l
ge ons</w>
gar s</w>
fu ton</w>
fr on
fi x
excus es</w>
esp ér
entr ée</w>
enn es</w>
embr ass
em prun
dé pend</w>
dis ent</w>
différen ce</w>
di es</w>
di am
di ag
dev enir</w>
des cri
den i
cro it</w>
coû t</w>
contin u
construc tion</w>
conna ître</w>
conf is
com por
cl ass
ci ble</w>
chang es</w>
chall en
cap it
c re
c it
c is
biz ar
bas eball</w>
b one</w>
b le
b ac
au tour</w>
au l</w>
ato mi
at te
arch it
appel ez</w>
anim aux</w>
ang ers</w>
an nu
an ak
al ph
af in</w>
ad ap
ad a</w>
accus é</w>
ac tion</w>
ac cent</w>
Y ou
S h
S al
P aul</w>
N ations</w>
N ancy</w>
M at
K yoto</w>
Ital ie</w>
Fr an
Es pagne</w>
D é
Can ada</w>
C ath
A k
19 8
19 7
û t</w>
étr ange</w>
éto ile</w>
ét at</w>
éren ce</w>
éner gie</w>
é lec
é cono
youn ger</w>
y g
x ty</w>
wonder ing</w>
wo od</w>
win ning</w>
wi de</w>
wh ale</w>
weir d</w>
wea l
wea k</w>
we e</w>
was hing</w>
was hed</w>
w ned</w>
w it
w is
w ind</w>
w il
voul u</w>
vou d
voud riez</w>
vo is
vo ilà</w>
vo ice</w>
veget ables</w>
val id</w>
v ely</w>
v eau</w>
v al</w>
un less</w>
ug ly</w>
tw enty</w>
tt les</w>
trou bles</w>
travail l
trans lations</w>
tran qu
tr adi
tr a
ton gue</w>
tionn é</w>
ti re</w>
thous and</w>
them a
thema tics</w>
th r
th ick</w>
ter ms</w>
ten u</w>
ten ed</w>
tem per
temper ature</w>
tech no
tea ux</w>
te en
tax es</w>
tato es</w>
t ors</w>
t ail</w>
symbo l</w>
sym pa
sw ea
sw e
sun ny</w>
sun der
sui vre</w>
sugg est</w>
sudd enly</w>
su ici
str eng
ste p</w>
st aying</w>
spr ead</w>
spor ts</w>
spo t</w>
spe cial</w>
sp ending</w>
sp ell</w>
sou ci
son gs</w>
son ge</w>
sol ved</w>
sol d
sof a</w>
soci ety</w>
so in</w>
so if</w>
so ft</w>
slow ly</w>
sli pped</w>
skir t</w>
sig ne</w>
si xty</w>
sho wed</w>
sh el
shel f</w>
sh ed</w>
sh ame</w>
ser ont</w>
sen sitive</w>
sel y</w>
sel fish</w>
se x</w>
se par
scienti sts</w>
schedu le</w>
sav ed</w>
sand wi
san g</w>
sal ad</w>
s te</w>
s our
s et
s ave</w>
s age</w>
s ad</w>
ré p
règ les</w>
ru mor</w>
ru meur</w>
ru le</w>
ru ined</w>
ro se</w>
ro s</w>
ro o
ris k</w>
ri ty</w>
ri t</w>
ri ghts</w>
ri ce</w>
rhu me</w>
res té</w>
res ident</w>
requ est</w>
repai red</w>
remo ved</w>
rem ind</w>
rel ated</w>
reg ard</w>
rea ched</w>
re qui
re cherche</w>
rai sed</w>
rai ned</w>
rai ent</w>
ra ce</w>
r ons</w>
r on
r ank</w>
qui conque</w>
qu ement</w>
pun ished</w>
présen ter</w>
pré sent</w>
proper ly</w>
promis ed</w>
pro ved</w>
pro m
pro che</w>
princ ess</w>
pres sure</w>
pre pare</w>
pre gn
post card</w>
possibili ty</w>
pos e</w>
pon ctu
pom mes</w>
poli tical</w>
poli te</w>
pol lution</w>
poe m</w>
po tatoes</w>
plea sure</w>
plan e</w>
pic ni
picni c</w>
philoso ph
philosoph y</w>
ph en
phen o
pheno men
phenomen on</w>
pen c
peci ally</w>
pass word</w>
pass port</w>
part ment</w>
parl ent</w>
pari e</w>
para ti
par o
par fait</w>
pain t</w>
pa cked</w>
p ty</w>
p ie</w>
p ean</w>
p ea
p ants</w>
p ai
out ons</w>
open ing</w>
op ér
obj ect</w>
o ds</w>
no te</w>
no se</w>
ni que</w>
neighb ors</w>
na tion
n t</w>
musici an</w>
mo ved</w>
mi sunder
mi ddle</w>
mar re</w>
magaz ines</w>
mach ine</w>
ma thematics</w>
m ess</w>
m es
lè ve</w>
lo cked</w>
lo ck</w>
ll em
li ghts</w>
leg al</w>
lean ed</w>
lab or
l ess
l en
l ay</w>
kni ves</w>
kis sing</w>
kee ping</w>
k ly</w>
ju g
ju dge</w>
j ec
j ea
jea lous</w>
ir ed</w>
introdu ce</w>
intro duced</w>
int ended</w>
inst ead</w>
inc lu
in surance</w>
in k</w>
in e
ine ers</w>
in de
impl i
imag iner</w>
im age</w>
idi o
identi al</w>
ic ated</w>
i or</w>
horri ble</w>
hor se</w>
holi day</w>
ho l</w>
ho b
hob by</w>
high ly</w>
high er</w>
her o</w>
hel lo</w>
head ache</w>
hau t</w>
happ iness</w>
hang ing</w>
ha dn</w>
h es</w>
h ell</w>
h eat</w>
h ang</w>
guit ar</w>
guil ty</w>
gu ide</w>
gu ests</w>
gr oup</w>
go d</w>
gi ant</w>
gho sts</w>
gen cy</w>
gau che</w>
gath ered</w>
gag ner</w>
g rew</w>
g reen</w>
g onna</w>
g lo
fuc king</w>
fran kly</w>
fran ch
fr es
fore ign</w>
for gotten</w>
for ce</w>
fl at</w>
fin alement</w>
fer me</w>
fer ence</w>
fe ed</w>
fall en</w>
fai th</w>
fai lure</w>
f us
f ree
f lies</w>
ex iste</w>
ev olution</w>
ev il</w>
ess es</w>
es pecially</w>
es ome</w>
equ al</w>
enti re</w>
eng ineers</w>
en y</w>
en tered</w>
em pty</w>
em ment</w>
el ling</w>
el led</w>
eg g</w>
eff ect</w>
ea se</w>
e duc
e cono
econo my</w>
découver t</w>
dé ci
dé but</w>
du re</w>
dra w</w>
dr y</w>
doub ts</w>
doc teur</w>
dish es</w>
dis count</w>
des pi
des c
deni ed</w>
dee ply</w>
de vi
de par
de l</w>
de cl
de b
dd en</w>
daugh ters</w>
d y
d res</w>
d ouleur</w>
d ness</w>
d est</w>
d ating</w>
d a</w>
cur tain</w>
crow d</w>
cross ed</w>
cri sis</w>
crea ted</w>
crea te</w>
crea m</w>
cr ush</w>
coû ts</w>
cou pe</w>
correc tement</w>
conv ain
contribu tor</w>
concer ned</w>
commen ça</w>
comm itted</w>
com mer
com ic</w>
co ward</w>
co ver</w>
co t
co ok
co hol</w>
clu b</w>
cinem a</w>
ci tiz
charg ed</w>
char ac
ch on</w>
cerem ony</w>
cen tu
ce ful</w>
cap tain</w>
cam pagne</w>
c les</w>
c as
bur ned</w>
bu g</w>
brea th</w>
br û
br ush</w>
br ain</w>
boute ille</w>
bor ro
bor ing</w>
bor ed</w>
boo k
bo ttles</w>
bo ard</w>
bl ind</w>
bizar re</w>
bir ds</w>
bicy cl
bi o
believ es</w>
beli ef</w>
beg in</w>
beau ty</w>
bea ting</w>
be tr
be l</w>
be have</w>
bad ly</w>
b ill
b all
b al</w>
aw esome</w>
av ail
avail able</w>
att ends</w>
att acked</w>
ath le
arti f
arr ête</w>
ar a
appear ance</w>
appar eil</w>
ap parti
ann ées</w>
ang le</w>
an tly</w>
am ong</w>
alter native</w>
alis m</w>
al cohol</w>
air port</w>
aim ait</w>
aggres sive</w>
aff ord</w>
adv antage</w>
ad u
ac y</w>
abili ty</w>
a. m</w>
a part</w>
You Tu
Y u
W ar</w>
Uni on</w>
US A</w>
T he</w>
Rus sian</w>
R es
Pro mettez</w>
P resident</w>
Lon don</w>
In dia</w>
I s
Euro pean</w>
D is
Chin a</w>
C ar
Braz il</w>
Améri que</w>
Americ an</w>
A llem
œu f</w>
ét e
ét ang</w>
él ev
écureu ils</w>
éch ou
é ro
éro port</w>
é qu
é nor
é go
é che
éche c</w>
è le</w>
â le</w>
y é</w>
y th
vrai e</w>
vi de</w>
vend re
vendre di</w>
ve ille</w>
v endre</w>
v ari
uti le</w>
tu de</w>
trom p
tranqu ille</w>
tou che</w>
tom ne</w>
to tal
th ro
ter ai</w>
ten d</w>
tal ent</w>
t âche</w>
t ter
t eurs</w>
t ais</w>
t aire</w>
séri eux</w>
suici de</w>
su ic
suic id
suicid é</w>
str ic
str ai
sto ck</w>
sp é
sor t
so r</w>
so ir
so i
ser ve</w>
sem aines</w>
sec tion</w>
se pt</w>
se i
scientifi que</w>
sal le</w>
sa le</w>
sa che</w>
s ante</w>
s ance</w>
répar er</w>
réfléch ir</w>
ré sul
ré si
ré s
ri c</w>
reven u</w>
retour ner</w>
rem et
refu se</w>
re pas</w>
r ôle</w>
r us
r ont</w>
r is</w>
r av
r age</w>
r ag
qu ée</w>
qu ences</w>
pê ché</w>
pé n
psy chi
pré sent
prom esse</w>
produ ire</w>
pro men
preu ve</w>
prend rai</w>
pr ouv
pr ennent</w>
pos s
por té</w>
plan ète</w>
plan ning</w>
pi geons</w>
pau v
par tout</w>
par lait</w>
par avant</w>
pa ct</w>
pa ci
p tion</w>
p et</w>
ouv rez</w>
ou se</w>
op pos
onn er</w>
off ic
o s
o re</w>
o d
no ise</w>
ng let
nglet erre</w>
ner veux</w>
n age</w>
mé tr
musi cal</w>
mul ti
morc eau</w>
mon di
mo bi
mobi le</w>
mi e</w>
mer veill
mati ère</w>
mat ch</w>
mar ch
mam an</w>
mai ne</w>
ma jo
m ille</w>
m ic
m at</w>
lo ver</w>
li èrement</w>
li ss
li c</w>
li c
li ber
lav er</w>
lai res</w>
lai d</w>
l ors</w>
l an
ju m
jou ets</w>
je ans</w>
is me</w>
inven tion</w>
intérê t</w>
indi quer</w>
in sist
impres sionn
im patient</w>
im pact</w>
il lu
il la</w>
ig ne</w>
hu mour</w>
hu mili
ho o
has ard</w>
h â
h eur</w>
gag ne</w>
g or
g le</w>
franch ement</w>
fr ères</w>
for me</w>
fo ot</w>
fil ms</w>
fic es</w>
fer mer</w>
fai te</w>
expli quer</w>
exac t</w>
ex press</w>
ex ig
ex em
ev ine</w>
ess enti
es ty</w>
embrass er</w>
eff et</w>
e an
déc ouvrir</w>
dé tru
dé s
dé part</w>
dé b
donn a</w>
do ivent</w>
dispos ez</w>
différ ent</w>
di ct</w>
dev int</w>
dess ert</w>
demand a</w>
dem i</w>
cuis iner</w>
cuis in
cro y
cr u</w>
cr av
crav ate</w>
cr af
cop ine</w>
convain c
conten te</w>
consi dér
con science</w>
con sci
compag nie</w>
co pain</w>
cir cu
ciné ma</w>
chocol at</w>
chi ens</w>
ch air</w>
cep tion</w>
cen sé</w>
cass é</w>
ca st
c ité</w>
c entre</w>
c as</w>
br as</w>
bicycl ette</w>
bi g
b onnes</w>
avo cat</w>
av is</w>
auto ri
au tomne</w>
au riez</w>
au paravant</w>
as sure</w>
as sume</w>
as se
arriv ée</w>
arri ère</w>
ar bres</w>
ar a</w>
apparti ent</w>
anc es
an us</w>
an tes</w>
an k
amélior er</w>
amour euse</w>
ambi tion</w>
am bul
al es</w>
aim ez</w>
ai mer</w>
ai es</w>
ai der
ag ue</w>
ac compl
a î
a éroport</w>
S o
S e
S ach
S M
R o
K o
K ing</w>
J ean
D evine</w>
C ap
An ne</w>
A ngleterre</w>
1 0
ô tre</w>
ô mes</w>
î tr
évi ter</w>
étudi e</w>
éli bat
élibat aire</w>
ég lise</w>
é v
é ment</w>
é cras
è se</w>
z er
zer o</w>
yth ag
your selves</w>
y side</w>
y p
y ens</w>
x u
x ante</w>
wri ter</w>
wor n</w>
wor kers</w>
wo l
wo ke</w>
wis dom</w>
whi ch
which ever</w>
whe el</w>
wh om</w>
wh is
wh er
wher ever</w>
wei gh
weal thy</w>
wea pon</w>
we b
web site</w>
war n</w>
war ds</w>
wal king</w>
wa sting</w>
w le
w arri
warri or</w>
volunte ered</w>
vo te</w>
vo ie</w>
viv ant</w>
visit er</w>
vin cible</w>
vic tory</w>
vic ti
vi t
vi sions</w>
vi ously</w>
ver ty</w>
ven ait</w>
v ues</w>
v ain</w>
v able</w>
ur in
univers ité</w>
under standing</w>
un known</w>
un dance</w>
u lations</w>
u ko</w>
u its</w>
tw el
tu r</w>
tu ally</w>
tt a</w>
tru sted</w>
trad u
tr yside</w>
tr unk</w>
tr ente</w>
tr eat</w>
tr apped</w>
tou ri
to ward</w>
to oth
to it</w>
tion ed</w>
tin y</w>
timi d</w>
tic kets</w>
tic ing</w>
tic ally</w>
ti ous</w>
ti onne</w>
ti ger</w>
thous ands</w>
thir d</w>
thi ef</w>
thes is</w>
ther n</w>
them selves</w>
th under</w>
th ful</w>
tex t</w>
tex t
ter m</w>
ter ing</w>
ter ais</w>
tea chers</w>
tar get</w>
tan tes</w>
tab li
tabli shed</w>
tab l
ta tions</w>
t ère</w>
t et
t es
t ear</w>
t ches</w>
t au
tau ght</w>
t all
tall est</w>
swe et</w>
sw ear</w>
surviv ors</w>
sur vive</w>
sur face</w>
suppor ted</w>
super market</w>
sudd en</w>
sub way</w>
stu ff</w>
stu dies</w>
stu died</w>
streng th</w>
stre ets</w>
strai ght</w>
str on
stron ger</w>
str angers</w>
str anger</w>
sto ok</w>
sto l
stol en</w>
sti ck</w>
ste pped</w>
stat us</w>
st or
stor m</w>
st one</w>
st ered</w>
spi der</w>
spec tat
spe ci
sp ic
sp ends</w>
souv enir</w>
sou ff
sou ci</w>
sor tes</w>
soli d</w>
sold ats</w>
sol u</w>
soi xante</w>
soci al</w>
so yons</w>
so i</w>
sm iling</w>
sm ell</w>
sli p</w>
sk in
skin ny</w>
sist ers</w>
sil ly</w>
sibili ty</w>
si us</w>
shor ter</w>
sho pping</w>
sho ck</w>
sha king</w>
sh oul
sh ou
sh it</w>
sh ine</w>
seu ls</w>
servi ces</w>
ser ies</w>
sem ents</w>
sem bles</w>
secr et
se curi
securi ty</w>
sco pe</w>
sci ences</w>
scho lar</w>
scar y</w>
sc is
scis sors</w>
sav ing</w>
sal ary</w>
saf ety</w>
sac ri
sacri fices</w>
sa ka</w>
s ée</w>
s tri
s si
s ses</w>
s our</w>
s oul
s l
s itting</w>
s ins</w>
s even
seven ty</w>
s en</w>
s eas
s am
s ain
s Ap
sAp p</w>
ré veillé</w>
ré jou
réjou is</w>
roo ms</w>
ro scope</w>
ro pes</w>
ro of</w>
ro le</w>
ro cks</w>
ro bo
robo t</w>
ri er</w>
ri di
ridi cu
ri deau</w>
ret ar
resul t</w>
respon sibility</w>
respon d</w>
res ources</w>
res our
res ist</w>
res ist
resist ance</w>
res cu
rescu ed</w>
requi res</w>
rep eat</w>
rep air</w>
rem pl
rem ained</w>
rem ain</w>
religi on</w>
rela x
regu lar
regular ly</w>
ref lec
recomm end</w>
rec ently</w>
reali zed</w>
reali ty</w>
re faire</w>
re connaiss
re comman
re ci
rar ement</w>
rab b
rabb its</w>
ra w</w>
r ty</w>
r eur</w>
r ends</w>
r as</w>
r are</w>
quit ter</w>
q u</w>
puzz le</w>
psychi c</w>
prê ts</w>
prépar er</w>
pru den
propos ed</w>
profession al</w>
profes sor</w>
prof it</w>
produc ts</w>
produc t</w>
prob able</w>
pro ving</w>
pro té
pro pri
pro per</w>
priv ate</w>
pri ved</w>
pri son
pri ses</w>
pret ti
pres sions</w>
pres sion</w>
pres er
pres en
pregn ant</w>
preci ous</w>
practi cal</w>
pr êtes</w>
pr il</w>
pr even
preven ted</w>
pr ai
prai sed</w>
pr ac
pour ed</w>
pou le</w>
post po
postpo ne</w>
pos tale</w>
por table</w>
poli tique</w>
pol i</w>
po w
po verty</w>
po et</w>
po ems</w>
po che</w>
plea sant</w>
plan ation</w>
plai sir</w>
pl ain</w>
pickpoc kets</w>
pic ked</w>
pi erre</w>
pi c</w>
ph ar
phar mac
peti tion</w>
peti tes</w>
persu ade</w>
pers pec
pers onn
pers ever
persever ance</w>
perfec tly</w>
per mit</w>
pend ent</w>
penc il</w>
pe anu
peanu ts</w>
pass ée</w>
pas se
parti cu
par les</w>
par don</w>
pain ful</w>
pa th</w>
pa pa</w>
p âle</w>
p ills</w>
p il
org ani
or o
or dered</w>
oper ation</w>
oper ate</w>
op ed</w>
onn ement</w>
on line</w>
on gs</w>
on aire</w>
om i</w>
ok o
oko ham
okoham a</w>
offic er</w>
od d</w>
occup er</w>
occu r
occu pe</w>
oc ean</w>
ob viously</w>
ob serve</w>
o wer</w>
o w</w>
o il</w>
o es</w>
o cr
nu ts</w>
nu mb
nu lle</w>
nouv el</w>
nombr euses</w>
no tice</w>
no r</w>
nitu re</w>
netto yer</w>
ner ve</w>
necess ar
necessar ily</w>
near ly</w>
near est</w>
na p</w>
n av
n ag
métr o</w>
mou th</w>
mor gue</w>
moder n</w>
mo s
misunder standing</w>
mista ken</w>
mic roscope</w>
mi stook</w>
mes ure</w>
mer s</w>
mer cy</w>
ment al</w>
men songe</w>
mea ls</w>
me th
me d
med al</w>
me cs</w>
me chan
mati c</w>
mat eri
manu al</w>
man aged</w>
mam mal</w>
mal a
mala die</w>
majo rity</w>
maj or</w>
ma thé
ma ster</w>
ma r</w>
m outons</w>
m i</w>
m ez</w>
m ember</w>
m eat</w>
lé gu
lum bus</w>
lon gues</w>
log ist</w>
log ical</w>
lo vely</w>
lo ses</w>
lin k</w>
li ters</w>
li on</w>
li n</w>
li king</w>
li gen
ligen te</w>
li fe
life time</w>
lev el</w>
let ting</w>
larg er</w>
lap top</w>
la dy</w>
l ying</w>
l our
l oud</w>
l em
l au
l ately</w>
l as
l and
l ack</w>
kno wle
kno ck</w>
k ilo
k id</w>
ju dg
jo ke</w>
j el
j ail</w>
j ack</w>
it self</w>
it er</w>
ir on</w>
ir a</w>
invi tées</w>
inter net</w>
inter national</w>
intellig ence</w>
intel ligente</w>
inqui ète</w>
ing ing</w>
inde pendent</w>
ind us
increa sed</w>
in ée</w>
in é</w>
in vincible</w>
in tend</w>
in san
in k
in géni
in gu
in come</w>
in ce</w>
impor tantes</w>
im mor
il legal</w>
ignor ed</w>
ignor ance</w>
i x</w>
i tive</w>
i sts</w>
i ster</w>
i res</w>
i ko</w>
i ff
iff el</w>
i dé
i dea
hypo thesis</w>
hun g</w>
hu mor</w>
hu man
hou ses</w>
hor reur</w>
hon ey</w>
ho ping</w>
ho pin</w>
hi te</w>
her oin</w>
heav ily</w>
har v
hand some</w>
hand ed</w>
hab it</w>
hab it
h i</w>
h ates</w>
h at
hat sApp</w>
h a</w>
gér er</w>
gu essed</w>
gu er
grand ma</w>
gran des</w>
gr adu
gr a
goo d
good b
goodb ye</w>
gol d
go û
go tta</w>
glo bal</w>
gi ft</w>
gh ting</w>
geni uses</w>
geni us</w>
gener ally</w>
gar der</w>
g ri
g liss
g es</w>
g ay</w>
g as</w>
g al
fur ther</w>
fur niture</w>
fu tur</w>
fu el</w>
fro mage</w>
friend ship</w>
fr équ
fr uits</w>
fr ay
four n
fou le</w>
for ms</w>
for ec
forec ast</w>
for bi
forbi dden</w>
flu ent</w>
fl ying</w>
fin ger</w>
fi ghting</w>
fi el
fiel d</w>
feel s</w>
fav orable</w>
faul ts</w>
fai thful</w>
fai r</w>
fac es</w>
f oun
f al
f ab
explo sion</w>
expl ained</w>
exam ination</w>
ex trem
ex pressions</w>
ex planation</w>
ex change</w>
every day</w>
even tually</w>
ev ents</w>
ev ent</w>
ev ed</w>
ev ant</w>
eu s</w>
eu r
eu e</w>
et eria</w>
esti mat
es tablished</w>
er ror</w>
er as</w>
er ait</w>
environ ment</w>
entr er</w>
entr ance</w>
enti rely</w>
ent ends</w>
enn ad</w>
enjo ys</w>
engag ement</w>
end ure</w>
end orm
enc y</w>
enc ed</w>
emplo yed</w>
em pêcher</w>
el en</w>
el ect</w>
eigh teen</w>
effor t</w>
effec tive</w>
ef fray
ec tion</w>
easi er</w>
ear lier</w>
ea s</w>
e fully</w>
décid a</w>
dé f
dy nam
duc k</w>
du ty</w>
du rant</w>
dro wned</w>
dro ve</w>
dro pped</w>
dro its</w>
dro ite</w>
dr aw
dr a</w>
down town</w>
doub t</w>
do w</w>
do l
do cu
dist ingu
disgu sting</w>
discus sed</w>
disco vered</w>
dis appear
dis ait</w>
direc tor</w>
dic ted</w>
diag no
di so
di se</w>
di rty</w>
di al
determin ation</w>
det ec
despi se</w>
deser ves</w>
des ire</w>
depar ture</w>
denti st</w>
demand ed</w>
de vient</w>
de prived</w>
de finite</w>
de ed</w>
de cor
de cei
dam aged</w>
dai ly</w>
d ried</w>
d ear</w>
curi os
cul tures</w>
cu red</w>
cross ing</w>
crimin al</w>
cre dit</w>
cras hed</w>
coû te</w>
coun tryside</w>
cou rir</w>
cou cher</w>
corri ger</w>
correc tly</w>
cook ies</w>
contr ary</w>
cont act</w>
consi dé
conn ai
congrat ulations</w>
congrat ul
conduc t</w>
condu is
conclu sions</w>
concer n</w>
concentr ate</w>
con sac
comple x</w>
complain ts</w>
complain ing</w>
compl icated</w>
comp ter</w>
comm ent
comm and</w>
col li
col le
co vered</w>
clou ds</w>
clo sely</w>
clas ses</w>
clai rement</w>
citiz ens</w>
circu m
ci ation</w>
cho sen</w>
chev al</w>
cher cher</w>
che er</w>
challen ge</w>
ch u
ch ess</w>
ch eating</w>
ch a</w>
certain ly</w>
certain es</w>
cert aine</w>
centu ry</w>
celebr ate</w>
ce iling</w>
car efully</w>
can ap
canap é</w>
call s</w>
cal me</w>
cal cu
caf eteria</w>
ca che</w>
ca b</w>
c élibataire</w>
c y
c leaned</w>
c ed</w>
c ash</w>
bri ll
br an
borro wed</w>
bor der</w>
bo it</w>
blan ket</w>
blan c</w>
bl onde</w>
bl ing</w>
big ger</w>
bes ides</w>
ben ef
bel ongs</w>
bel ong</w>
beg ins</w>
bea ten</w>
be hav
be es</w>
be cue</w>
be comes</w>
batt le</w>
bat tre</w>
bar king</w>
bar ely</w>
bar becue</w>
bag s</w>
bac ks</w>
b our
b ound</w>
b loo
b is
b illi
b i</w>
b an</w>
b am
az ak
ay uko</w>
av ed</w>
auto ris
auth ority</w>
aug men
au rions</w>
au nt</w>
atti tude</w>
att ack</w>
atomi c</w>
ati n</w>
at eurs</w>
asse oir</w>
as te</w>
as sum
as si
as hed</w>
as h
artif icial</w>
arrog ance</w>
arriv es</w>
arriv ent</w>
archit ect</w>
ar m</w>
appl es</w>
app ear</w>
apologi zed</w>
ap prove</w>
ap petite</w>
anxi ous</w>
answ ered</w>
and ra</w>
anc é</w>
anak a</w>
an ta</w>
amus ant</w>
ambul ance</w>
amaz ing</w>
am ent</w>
alph ab
alphab et</w>
ali bi</w>
al o
al im
al ent
al cool</w>
ain ing</w>
aim ed</w>
ai ll
ag s</w>
ag ement</w>
ag awa</w>
adv anced</w>
ad mit</w>
ad dressed</w>
ad dicted</w>
ad ded</w>
activi ty</w>
accep ter</w>
accep ted</w>
accep table</w>
ac id</w>
absolu ment</w>
ab y
ab undance</w>
ab sor
a x
a tor</w>
a side</w>
a partment</w>
a jou
a ce</w>
Yu k
YouTu be</w>
Y okohama</w>
W hite</w>
W hatsApp</w>
US B</w>
T ower</w>
T ony</w>
T his</w>
T anaka</w>
S un</w>
S ou
Re petition</w>
R I
P ythag
P eter</w>
P er
P a
O saka</w>
N or
N a
Mi ke</w>
Mar s</w>
Mar ia</w>
M y
M ennad</w>
M ayuko</w>
M ag
L u
L atin</w>
K en</w>
J ones</w>
J im
J av
J ack
Ital ian</w>
Is ra
I to</w>
H it
H en
H elen</w>
H ar
G reen</w>
G rand
E iffel</w>
Com m
Co lumbus</w>
Christ op
Char les</w>
Ch ri
Can adi
C hopin</w>
B u
B ar
Australi an</w>
Ap par
An k
Améri c
Allem agne</w>
Alg eria</w>
A pril</w>
A fri
6 0</w>
4 0</w>
20 0
19 1
1 8
1 5</w>
1 50</w>
, 000</w>
étudi ante</w>
ét er</w>
éri e</w>
énor me</w>
élè ves</w>
élè bre</w>
éli cit
él u</w>
ég al</w>
éch app
é veillé</w>
é puis
é ment
é lo
é cr
écr is</w>
è vre</w>
è tes</w>
è ce</w>
â ce</w>
z one</w>
yp ti
y enne</w>
voudr ait</w>
volon té</w>
vois ins</w>
vo lution</w>
vo lu
vo it</w>
viol ent</w>
vi tal</w>
vi sible</w>
vi ons</w>
vi ennent</w>
ven ge
ven ez</w>
vel op
v us</w>
v illes</w>
v endu</w>
v ali
v ague</w>
urg ent</w>
urg ence</w>
uni que</w>
tu e</w>
tri ce</w>
tre fois</w>
trans por
trai té</w>
tradu ire</w>
tr ac
total ement</w>
tor ture</w>
tor t</w>
tomb ée</w>
to ri
ti ques</w>
ti ll
ti ens</w>
ter ie</w>
ter a</w>
ten ez</w>
tabl eau</w>
tab les</w>
t euse</w>
t ap
t ants</w>
sé par
sympa thi
sur g
suppl ément
suiv i</w>
sugg es
suff it</w>
su spec
sty le</w>
sti c</w>
stea k</w>
st an
souhai te</w>
sou tien</w>
sou d
sor tie</w>
soir ée</w>
silen cieux</w>
signi fie</w>
sig n
si enne</w>
serv i</w>
ser s</w>
senti ment</w>
sent ez</w>
sen tir</w>
sen sible</w>
secon d
se l</w>
scientifi ques</w>
sau v
satis fait</w>
sal on</w>
sal aire</w>
sai sir</w>
s pati
s lav
s it
s ez</w>
s cri
résul tats</w>
répon du</w>
réfléch i</w>
réalis er</w>
ré vé
ré solu</w>
ré s</w>
ré gu
ré ellement</w>
ré du
ré c
ru m
ro pe</w>
ri ches</w>
ret our</w>
rest ée</w>
ress ources</w>
respec ter</w>
rencontr és</w>
rem ède</w>
rejo indre</w>
regard ez</w>
r ay
r at
r ange</w>
quit té</w>
qu és</w>
qu ali
pu re</w>
pu ll</w>
pré venu</w>
propos es</w>
pro mettre</w>
prin cipa
pr ou
possibili té</w>
pos ter</w>
por tée</w>
popu laires</w>
popu laire</w>
poli tici
poin ts</w>
pleu v
pla fond</w>
pl u</w>
pl ait</w>
pic k</w>
pic al</w>
pi que</w>
peu ple</w>
peti ts</w>
perspec tive</w>
per man
passe port</w>
pass ez</w>
pass age</w>
par la</w>
paci fi
p tions</w>
p air</w>
ouv rit</w>
oubli ez</w>
ou tr
ou l</w>
oro logi
origin al</w>
ori es</w>
org an
ordin aire</w>
or tu
or e
or c
opin ions</w>
on ique</w>
ois eau</w>
occup és</w>
objec tif</w>
o de</w>
ni veau</w>
neu f</w>
nation ale</w>
na tives</w>
n é
n ent</w>
n aiss
mé d
multi lin
multilin gu
mon ie</w>
mo ire</w>
mo b
mob iles</w>
mil es</w>
mign onne</w>
mi en</w>
mi d
meu bles</w>
mathé matiques</w>
mat ure</w>
mat ins</w>
mari és</w>
mar r
mar k
mark eting</w>
mag ni
m ét
m è
m enti
m ans</w>
ll esse</w>
liv er</w>
li p
li a</w>
let tres</w>
k er
ju ry</w>
jo li</w>
jo gg
jogg ing</w>
jam be</w>
j i</w>
is tr
is es</w>
is er</w>
ir ez</w>
inter ru
inter dit</w>
in ées</w>
in te</w>
in stru
in fec
in f
in dé
in cid
impor tante</w>
ign ers</w>
ic ations</w>
i vre</w>
i ers</w>
hé ros</w>
hâ te</w>
hab its</w>
h en
h all</w>
génér ation</w>
grand s</w>
gr é</w>
gr âce</w>
genti llesse</w>
g re
g er
fu me</w>
fro ide</w>
fr ais</w>
for te</w>
fonc tionne</w>
fon d
fol le</w>
fo ss
fo i</w>
fi é</w>
fi le</w>
fai ts</w>
f us</w>
f re
f le</w>
f es
f ant
extr a</w>
exerci ce</w>
ev e</w>
eur re</w>
espér anto</w>
eri ez</w>
er gi
envoy er</w>
envir on</w>
entr et
entr al</w>
ense igner</w>
enf in</w>
end er</w>
en ver
en tation</w>
en fu
en courag
el ler</w>
ec te</w>
détru it</w>
détermin ation</w>
dér ange</w>
décl ar
déci der</w>
déc é
dr ag
dom mage</w>
do s</w>
divor ce</w>
dist ant</w>
dispos es</w>
dis par
di ri
di rait</w>
di rai</w>
d èle</w>
d us</w>
d ant</w>
cur ren
cro yez</w>
cro ient</w>
cri se</w>
craf t</w>
cr ay
cou teau</w>
cou pé</w>
cor pus</w>
cor de</w>
connaiss ez</w>
connaiss ait</w>
connai sse</w>
condu it</w>
con sum
con stitu
con spir
con fu
compor tement</w>
compl i
commun ication</w>
com porte</w>
co chon</w>
cl air</w>
ci v
cher ches</w>
chau ff
chau de</w>
cham pagne</w>
cham p</w>
ch al
ch ac
chac un</w>
certain ement</w>
cau ses</w>
car tes</w>
car ac
ca te</w>
c élèbre</w>
c ée</w>
c o</w>
c k
c arr
c and
bri o
br ac
bon jour</w>
bon heur</w>
blo g</w>
ble u</w>
bl in
bl ement</w>
bi en
ban des</w>
ba se</w>
b eurre</w>
b at</w>
b ars</w>
av aient</w>
auto mobile</w>
au trefois</w>
au rai</w>
au di
attrap e</w>
att endu</w>
assist ant</w>
arrê t</w>
appel l
ap prends</w>
ap er
an cho
amus er</w>
am me</w>
alter natives</w>
all ergi
alim ents</w>
ali en</w>
al ty</w>
al liez</w>
ag res
ado p
ad or
ad di
ac ide</w>
ab str
a x</w>
a st
a o
a h</w>
a der</w>
W i
W ar
U nivers
T i
T h
So leil</w>
Sal ut</w>
SM S</w>
S a
Ro yal</w>
Qu els</w>
P r
P ortu
P al
M us
M is
M il
L a</w>
Ko be</w>
Inter national</w>
In vite</w>
H um
E n
D u
D e
Chri sti
C rea
C or
C entral</w>
B e
B C</w>
A t
A s
3 00</w>
2 .
1 00</w>
œu rs</w>
û mes</w>
ô me</w>
î mes</w>
ê t</w>
étu de</w>
éti t</w>
ét ant</w>
ét aire</w>
ét ab
ér é</w>
ér il</w>
élev és</w>
égo ï
ég age</w>
écono mie</w>
écl ata</w>
éc ar
é po
épo que</w>
é nom
énom ène</w>
é an</w>
â me</w>
â ché</w>
z ing</w>
z i
z en</w>
ypti an</w>
yg ones</w>
y ond</w>
y el
yel low</w>
y ait</w>
xi ème</w>
wr ink
wrink led</w>
wr apped</w>
wol f</w>
wo ol</w>
wo ods</w>
wit ness</w>
wit n
win gs</w>
win ds</w>
wil d
wi dow</w>
wi der</w>
wh ites</w>
wh en
when ever</w>
wel d</w>
weigh s</w>
wei gh</w>
war s</w>
war ming</w>
wan ting</w>
wan na</w>
wai st</w>
wa sted</w>
w re
wre ck</w>
w ound</w>
w im
w et</w>
w are</w>
w all</w>
véri table</w>
vou liez</w>
vol can
vol ant</w>
vo lé</w>
vo leur</w>
vo ix</w>
vis er</w>
vir g
virg in</w>
vie ws</w>
victi m</w>
vi ous</w>
vi oli
violi n</w>
vi enne</w>
veu illes</w>
ver sion</w>
ver rou
ver ing</w>
venge ance</w>
ven iez</w>
vel ous</w>
veget ari
vari ous</w>
val ue</w>
val u
valu able</w>
vac ations</w>
v y</w>
v ember</w>
v ated</w>
utilis é</w>
utilis ez</w>
uti lise</w>
urin ating</w>
urg es</w>
urg ed</w>
ur day</w>
uni forms</w>
un shot</w>
un likely</w>
un ks</w>
un healthy</w>
un gar
ungar ian</w>
un g</w>
un employed</w>
un easy</w>
un comfortable</w>
un ciation</w>
um p
ul ti
ulti mate</w>
ug gl
u rel</w>
u ine</w>
té nu
té mo
twel ve</w>
tw are</w>
tur ns</w>
tter y</w>
tru sting</w>
tru m
trum pet</w>
tru c</w>
trouver as</w>
trouv ent</w>
trouv ait</w>
trou bl
tro l
tro isi
troisi ème</w>
tric ity</w>
traver ser</w>
travail les</w>
trav els</w>
transpor ted</w>
trans lation</w>
trai ter</w>
trai te</w>
traduc tions</w>
traduc tion</w>
tr iste</w>
tr ez</w>
tr eats</w>
tr ea
tr ap</w>
tr ade</w>
touri sts</w>
tou ché</w>
tou cher</w>
tor r
torr ents</w>
tooth ache</w>
tom be</w>
to y</w>
to wards</w>
to w
to vers</w>
to ss
to ol</w>
to ma
to ire</w>
to e</w>
to cks</w>
tion nel</w>
tic les</w>
ti m
ti li
tili z
ti ght</w>
ti g
threa tened</w>
threa t</w>
thr one</w>
thir teen</w>
thea tre</w>
th us</w>
th ence</w>
th eless</w>
text book</w>
tex ting</w>
tet anus</w>
terri blement</w>
termin er</w>
tend ency</w>
tend ance</w>
ten té</w>
ten te</w>
ten ait</w>
temp ted</w>
temp tation</w>
tem per</w>
teen ager</w>
teen ag
teenag ers</w>
techno logy</w>
te book</w>
tat too</w>
ta te</w>
t less</w>
t les</w>
t led</w>
t le</w>
t ings</w>
t ends</w>
t aste</w>
t ary</w>
t ains</w>
t age</w>
t ack</w>
sû rement</w>
séri eusement</w>
séri e</w>
sé ché</w>
sympathi ze</w>
sy st
syst ème</w>
swea ty</w>
sw inging</w>
sw eep</w>
sw am</w>
surviv al</w>
surpri sing</w>
surg ery</w>
sur veill
sur r
suppor tive</w>
suppl ies</w>
sup porter</w>
sun sc
sunsc reen</w>
suiv ant</w>
suit case</w>
suit able</w>
sugg ère</w>
suff ered</w>
suff er</w>
succ ess
sub jec
su y
stu r
sto mac
stomac h</w>
ste ps</w>
ste ering</w>
star ing</w>
stand s</w>
stand ards</w>
st ly</w>
st ers</w>
st er
ster fuck</w>
st are</w>
st ard</w>
st ances</w>
st amp</w>
st all
stall ing</w>
st ain</w>
st acked</w>
ss age</w>
squir rel</w>
squ are</w>
spé ci
spr ang</w>
spic y</w>
spi te</w>
spee ding</w>
spectat ors</w>
spea ker</w>
spati al</w>
sp y</w>
sp in
sp here</w>
sou thern</w>
sou rire</w>
sou ri
sor tez</w>
sor row</w>
some day</w>
som bre</w>
soldi er</w>
sol dering</w>
sof tware</w>
sof tly</w>
so w</w>
so cks</w>
smar ter</w>
sm iled</w>
sm ashed</w>
sli d</w>
sl ain</w>
ski pped</w>
ski p</w>
ski ing</w>
sk illed</w>
sin k</w>
sin gu
silen ci
si mu
si eur</w>
si e</w>
si a</w>
si a
shoul der</w>
sho ws</w>
sho w
sho ot</w>
sho o
shoo ting</w>
sho e</w>
sho cked</w>
shar pen</w>
shar p</w>
sha ken</w>
sh u
sh mal
shmal lows</w>
sh in
sh eer</w>
sh ap
set tled</w>
set backs</w>
servi ettes</w>
seri ez</w>
ser ver</w>
ser t</w>
separ ate</w>
sen sé</w>
sembl ant</w>
sembl ait</w>
sel dom</w>
see ds</w>
secret ary</w>
secon ds</w>
secon de</w>
seas ons</w>
sear ching</w>
sear ch</w>
se xu
se parati
separati sts</w>
se em
seem ed</w>
scr at
scrat ching</w>
sco w</w>
scienti st</w>
scar f</w>
sau ver</w>
sandwi ches</w>
sal ted</w>
sal ade</w>
sain t</w>
sac red</w>
sa ke</w>
s pu
s pare</w>
s pan</w>
s oun
soun ding</w>
s onn
s its</w>
s est</w>
s ends</w>
s ea
s col
scol ded</w>
s ank</w>
s ain</w>
rés il</w>
répon ds</w>
ré gi
ré col
ré alité</w>
rus se</w>
ru g</w>
ru b
rub b
rubb ish</w>
ro pé
ro pl
ropl ets</w>
ro ot</w>
ro ll
ro ast</w>
rist es</w>
ris ques</w>
ris que</w>
ris ks</w>
ris ked</w>
ri z</w>
ri fle</w>
reven ge</w>
rev olution</w>
retar ded</w>
rest ez</w>
respec ted</w>
resour ceful</w>
res tes</w>
res idential</w>
res cue</w>
requ ired</w>
ren ted</w>
remet tre</w>
rem in
reli eved</w>
reli ef</w>
reli able</w>
relax ed</w>
rela tion
rel evant</w>
regu lar</w>
regr et
regar ded</w>
reconnaiss ante</w>
recomm ended</w>
recogni zed</w>
reco very</w>
reci pe</w>
recei ve</w>
rec ev
rec ent</w>
rea k</w>
rea ds</w>
re war
re tired</w>
re ques
re pro
re por
re place</w>
re plac
re gi
re fres
re duced</w>
re di
rap ide</w>
rain bo
rainbo w</w>
rai sins</w>
racon ter</w>
ra tional</w>
r ush</w>
r oup</w>
r ly</w>
r ings</w>
r ever
r ays</w>
r appelez</w>
r app
r al</w>
quit te</w>
qui d</w>
quar ter</w>
qua kes</w>
qu in
quin ze</w>
qu eue</w>
qu anti
pê che</w>
pén étr
pyram ids</w>
pur pose</w>
pun is
punis h
punish ment</w>
pun i</w>
pul ses</w>
puis siez</w>
puis sance</w>
publi que</w>
pu ts</w>
pu ri
pu mp</w>
pu ll
préfér erais</w>
pré vu</w>
pré vois</w>
pré cis
pruden te</w>
pru dent</w>
provi ding</w>
proté ger</w>
proper ty</w>
pronon cer</w>
pron unciation</w>
pron ounce</w>
progr ess
progr amme</w>
prof onde</w>
produc tive</w>
produc ed</w>
produ its</w>
probab ili
pro of</w>
pro mo
pro mets</w>
priv é</w>
prison er</w>
prin ts</w>
prin ted</w>
pri ori
pretti est</w>
pret ending</w>
pret ended</w>
pret end</w>
preser ve</w>
presen ta
pres idential</w>
pres ence</w>
prend ra</w>
pre vious</w>
practi ce</w>
prac ticing</w>
pr of</w>
pr aise</w>
pour vu</w>
pou n
poss ède</w>
pos ted</w>
ponctu el</w>
pon ents</w>
politici an</w>
pois on
poison ous</w>
poc ket</w>
po ème</w>
po x</w>
po wer
po or
plu ral</w>
pleu re</w>
plea sures</w>
play ground</w>
play er</w>
plai sante</w>
plac es</w>
pl ash</w>
pl ant</w>
piè ces</w>
pie ces</w>
pian ist</w>
pi ti
pi sto
pi ri
pi est</w>
physi que</w>
philoso p
philosop hi
philosophi e</w>
ph énomène</w>
person ality</w>
person al</w>
perman ent</w>
per s</w>
per mettre</w>
per due</w>
per cent</w>
pens ent</w>
pend u
pein ture</w>
pea ceful</w>
pea ce</w>
pe int</w>
pay check</w>
patr a</w>
pati ents</w>
pass ing</w>
parti cipa
parti ci
parti ally</w>
parl ons</w>
par s</w>
par ole</w>
par mi</w>
par fai
parfai tement</w>
pain tings</w>
pa used</w>
pa tent</w>
pa st
pa l</w>
pa c
p éri
p ée</w>
p ture</w>
p it
p int</w>
p ill</w>
p ful</w>
p eau</w>
p .
ow ever</w>
over looked</w>
oun t</w>
ou ter</w>
ou ons</w>
orm ous</w>
ori ze</w>
organi zed</w>
ordin ary</w>
or ld</w>
or dres</w>
or dre</w>
or ders</w>
or dering</w>
or as</w>
oppos ite</w>
oper a</w>
on to</w>
oli c</w>
ol dest</w>
ok ay</w>
ois eaux</w>
off ended</w>
ocr acy</w>
occur red</w>
occu r</w>
oc éan</w>
oblig ed</w>
oblig ations</w>
objec ts</w>
objec tion</w>
obj ets</w>
ob s
o patra</w>
o o
oo gle</w>
o ls</w>
o be
obe y</w>
numb ers</w>
nu l</w>
nor th</w>
no yé</w>
no where</w>
no tes</w>
no tebook</w>
ni er</w>
neigh bor
neighbor hood</w>
neigh bo
neighbo r</w>
nei ther</w>
nee dn</w>
ne go
nego ti
ne g
ne es</w>
ne ck</w>
nat urel</w>
naiss ance</w>
na sty</w>
na ked</w>
n ôtre</w>
n ted</w>
n ine</w>
n ick
nick name</w>
n ar
nar row</w>
n ais</w>
n ail</w>
n ai
nai ve</w>
mê mes</w>
mét é
méri te</w>
mé moire</w>
mé dic
myst ery</w>
musici en</w>
mur mu
mur der</w>
mu m</w>
moun tains</w>
mon y</w>
mon te</w>
mon key</w>
mo yenne</w>
mo ving</w>
mo ves</w>
mo vement</w>
mo stly</w>
mo e</w>
mo del</w>
mis ery</w>
min y</w>
milli onaire</w>
mign ons</w>
mid night</w>
meth od</w>
merveill eux</w>
ment i</w>
men tir</w>
men tion</w>
men er</w>
mem orize</w>
mean ings</w>
mean ing</w>
mea sure</w>
me ets</w>
me eny</w>
mauv aises</w>
mati que</w>
marr on</w>
mar velous</w>
mar shmallows</w>
mar k</w>
man ner</w>
man agement</w>
man age</w>
mal gré</w>
mai ent</w>
mai d</w>
ma to
ma tions</w>
ma stered</w>
ma p</w>
ma dness</w>
m pic</w>
m ouv
m essed</w>
m ere</w>
m ement</w>
légu mes</w>
lé g
ly mpic</w>
ly fish</w>
ly cée</w>
lu gg
lugg age</w>
loo p</w>
lon gs</w>
log ie</w>
lo ving</w>
lo cated</w>
lo an</w>
lo ad
lis s</w>
lig nes</w>
li zed</w>
li gh
li en</w>
li ct</w>
li ar</w>
les quelles</w>
len tement</w>
lem ons</w>
lee ding</w>
lea ther</w>
lea ped</w>
lea f</w>
lea der</w>
lea d</w>
le opatra</w>
le i
lei sure</w>
le f
lef tovers</w>
laugh ter</w>
lau gh</w>
lab or</w>
la tor</w>
la p</w>
l âche</w>
l t</w>
l as</w>
l &apos;
knowle dge</w>
kno cked</w>
kilo s</w>
kee per</w>
k ward</w>
k nees</w>
k n
k id
kid ding</w>
jum ped</w>
jou ent</w>
jo y</w>
jo king</w>
jo kes</w>
jo ined</w>
jo ie</w>
jo bs</w>
jel lyfish</w>
j ette</w>
j ets</w>
j ean</w>
j al
j ac
jac ket</w>
it ate</w>
it alism</w>
issu es</w>
is land</w>
ir regular</w>
ir oned</w>
invi tés</w>
interes ts</w>
inter rom
insul ting</w>
inst antly</w>
inspir ed</w>
inspir ation</w>
inju ry</w>
ingéni eurs</w>
in timi
in suff
in geni
ingeni ous</w>
in corri
incorri gi
impli qué</w>
immor tal</w>
immedi ate</w>
im proving</w>
im proved</w>
im patience</w>
im pati
im p
ill top</w>
ill ard</w>
idea s</w>
ic s</w>
ic ate</w>
hur ts</w>
hun ch</w>
humili ated</w>
hu maine</w>
horri fied</w>
hor ror</w>
hon or
hon ey
honey moon</w>
hon esty</w>
ho l
ho ever</w>
hi re</w>
hi le</w>
hi king</w>
hi d</w>
heur euses</w>
her it
her e
hel pful</w>
heav ens</w>
hear t
hear ing</w>
hea ded</w>
he els</w>
harv est</w>
har m</w>
har dest</w>
hap piest</w>
hap pier</w>
hand led</w>
hand ful</w>
hal f
half way</w>
hai r
habitu é</w>
h its</w>
h illtop</w>
h ill</w>
h ers</w>
h en</w>
h ated</w>
génér alement</w>
génér al</w>
géni e</w>
guit are</w>
gu im
gro w
grea tly</w>
gre es</w>
grap es</w>
gra b</w>
gr ounds</w>
gr ass</w>
gr ade</w>
gor ge</w>
gl ory</w>
gi ants</w>
gho st</w>
gh tened</w>
gg le</w>
gg est</w>
gener al</w>
gen uine</w>
gen oux</w>
gar lic</w>
gam bling</w>
gal ax
g yptian</w>
g unshot</w>
g née</w>
g ne</w>
g la
g as
gas p
fun ds</w>
fuc ked</w>
fron ti
fri ghtened</w>
fri es</w>
fri ed</w>
fri dge</w>
fres h</w>
free dom</w>
foun d
fore head</w>
forc é</w>
forc er</w>
for êt</w>
for ty</w>
for ts</w>
for given</w>
for getting</w>
for est</w>
for ces</w>
fol lows</w>
fo lie</w>
fo g</w>
fo c
flu ently</w>
fl avo
flavo r</w>
fl at
fl ash
fl ags</w>
fin ir</w>
fin an
finan cial</w>
fi f
fi er</w>
fi dèle</w>
fer tiliz
fer red</w>
fem ale</w>
fel low</w>
fe e
favo r</w>
fau x</w>
fau tes</w>
fas hi
far m</w>
fant ômes</w>
fall ait</w>
fal se</w>
fai sais</w>
fai rly</w>
fai l</w>
fai ble</w>
fac tory</w>
fab ri
fa te</w>
fa ke</w>
f reak</w>
f ous</w>
f ounded</w>
f light</w>
f leur</w>
f le
f ed</w>
extrem ely</w>
explo de</w>
expli qu
experi ences</w>
experi enced</w>
expec ting</w>
expec tations</w>
excel lent</w>
excel l
exam ple</w>
exam ined</w>
ex pri
ex penses</w>
ex it</w>
ex cept</w>
ev ing</w>
eu xième</w>
eu ropé
estimat ed</w>
esti mate</w>
essenti al</w>
ess ez</w>
ess ay</w>
esp èce</w>
escap ed</w>
err ors</w>
er o
er gency</w>
er able</w>
environ mental</w>
envir onnement</w>
entr é</w>
enti ssage</w>
enti er</w>
ense ig
enjo yed</w>
endorm i</w>
end ur
end ra</w>
end ings</w>
en vy</w>
en us</w>
en ted</w>
en ormous</w>
en ess</w>
en courage</w>
en coun
encoun ter</w>
emprun ter</w>
emplo y
embarrass ing</w>
em pêché</w>
em o
em ergency</w>
em erg
elec tricity</w>
el sius</w>
el oped</w>
el e
ele ph
eigh ty</w>
effec ts</w>
ee k</w>
educ ated</w>
easi est</w>
earth quakes</w>
ear ed</w>
ear chers</w>
ea ses</w>
ea led</w>
ea ger</w>
e ine</w>
e ille</w>
e fit</w>
e es</w>
e eny</w>
e dic
e d
dét ec
dé mé
dé goû
duc ted</w>
du mber</w>
du mb</w>
drea ms</w>
drea ming</w>
draw ing</w>
dra wings</w>
dr esses</w>
down stairs</w>
dou é</w>
dou te</w>
donn ées</w>
donn ent</w>
dom mag
dol ls</w>
divor ced</w>
distribu ted</w>
distingu ish</w>
diso be
disobe yed</w>
discus s</w>
disco very</w>
disco ver</w>
disappear ed</w>
dis liked</w>
dis eases</w>
dis courage</w>
dis charged</w>
dis agree</w>
diri ge
direc teur</w>
diplo mat</w>
din gs</w>
dig ital</w>
différen ces</w>
différ ents</w>
difficul ties</w>
differ ences</w>
diff ers</w>
dic tion</w>
diam ond</w>
dial ect</w>
di ty</w>
di stur
di sor
di ses</w>
di ra</w>
di pl
di eting</w>
di et</w>
di ary</w>
di able</w>
dg es</w>
devo ted</w>
deven us</w>
dev raient</w>
dev in
dev il</w>
dev eloped</w>
dev ast
devast ated</w>
dev ait</w>
det ail
detail ed</w>
dess inées</w>
descri be</w>
desc end
des tro
des ig
der i
del ayed</w>
def eated</w>
def eat</w>
dee p</w>
decid ing</w>
dec ent</w>
deb t</w>
deb ate</w>
dea f</w>
de grees</w>
de cep
decep tive</w>
de bout</w>
dd ly</w>
dam age</w>
d war
d ust</w>
d un
d le</w>
d euxième</w>
d eli
d &apos;
custo ms</w>
custo mers</w>
custo med</w>
curios ity</w>
curi ous</w>
cul ation</w>
cru tches</w>
crow ded</w>
cro ss</w>
cri tique</w>
cri tical</w>
cray on</w>
cr ap</w>
coû té</w>
couver ture</w>
cour amment</w>
coun tless</w>
coun ting</w>
cou teaux</w>
cou per</w>
cou pable</w>
correc ted</w>
correc te</w>
cor ner</w>
contribu teur</w>
contribu te</w>
contr ôle</w>
conten ted</w>
cont ain</w>
constitu ent</w>
const antly</w>
conspir acy</w>
conse quences</w>
connaiss ance</w>
connaiss ais</w>
conn ue</w>
congratul ate</w>
confis cated</w>
confi dence</w>
conf érence</w>
concentr er</w>
con su
con stru
con som
con gé</w>
con fir
con ference</w>
con fec
compos ed</w>
complain t</w>
compl et</w>
compl ain</w>
comp elled</w>
comp ani
compani ons</w>
commun ity</w>
commun ism</w>
commer ce</w>
comman de</w>
comm un</w>
comm ents</w>
com promise</w>
com ponents</w>
com par
com fort</w>
com bus
collec ted</w>
colle ge</w>
col ours</w>
col labor
co ts</w>
co py
co ins</w>
clu sterfuck</w>
clou dy</w>
clo set</w>
clo sest</w>
cli mb</w>
cli ent</w>
class room</w>
clai ms</w>
cl oud</w>
cl ari
cl ap</w>
civ il</w>
cit o
circum stances</w>
cir culation</w>
cir const
ci vi
ci ties</w>
cho o
cho ir</w>
chin ois</w>
chi eving</w>
chau ss
charg es</w>
charac ters</w>
charac ter</w>
chap ter</w>
chanc euse</w>
chan teuse</w>
chan teur</w>
chan sons</w>
chal eur</w>
ch ée</w>
ch unks</w>
ch ons</w>
ch eated</w>
ch ea
ch airs</w>
ch air
chair person</w>
ch ain</w>
cen ter</w>
caus é</w>
cast le</w>
cass er</w>
carri ère</w>
carri ed</w>
carr ying</w>
carac tère</w>
car es</w>
car eer</w>
capit aine</w>
cap ture</w>
cap ital</w>
canc el</w>
ca pa
c ried</w>
c rain
c rai
c ouleur</w>
c esse</w>
c ement</w>
c elles</w>
c ally</w>
c ab
cab b
c a</w>
but tocks</w>
but ter
bus h</w>
bur n</w>
bun ch</w>
bul let</w>
bu ying</w>
brû lé</w>
brill ante</w>
bri dge</w>
brea sts</w>
brea ks</w>
brea king</w>
br un
br uit</w>
br u
br ings</w>
br ave</w>
br a</w>
bou ton</w>
bor del</w>
bo wed</w>
bo w
bo m
bloo dy</w>
blo cked</w>
bless ée</w>
bless er</w>
blan kets</w>
bl on
bl ings</w>
bl es
bl am
bl ack
black board</w>
bit ter</w>
bit ing</w>
bis cu
bir th</w>
bill ets</w>
bill et</w>
bicy cles</w>
bi ggest</w>
betr ayed</w>
betr ay</w>
bes ide</w>
benef its</w>
ben efit</w>
believ able</w>
behav ior</w>
begin ners</w>
beg gars</w>
beau té</w>
bea d</w>
be yond</w>
be ings</w>
be having</w>
be ard</w>
be ar
bear ing</w>
be ans</w>
bat ter
bat h</w>
bas ed</w>
bar ks</w>
banan as</w>
banan a</w>
ball s</w>
bal eine</w>
ba stard</w>
ba ked</w>
b œuf</w>
b ygones</w>
b ounce</w>
b lowing</w>
b low</w>
b liss</w>
b leeding</w>
b ing</w>
b in
b ath
b are</w>
ay ant</w>
aw kward</w>
aw are</w>
av ions</w>
av ion</w>
auth or</w>
augmen té</w>
audi ence</w>
au té</w>
au teur</w>
attr acted</w>
attend ons</w>
attend ais</w>
atte int</w>
atte indre</w>
athle tic</w>
athle te</w>
at urday</w>
assum ptions</w>
ass é</w>
ass is</w>
ass au
as surance</w>
as su
as pir
as ks</w>
as king</w>
arti st</w>
arriv ing</w>
arriv al</w>
arr est</w>
argu ing</w>
arg ue</w>
ar ticles</w>
ar se</w>
ar ed</w>
ar eas</w>
appr entissage</w>
appl ying</w>
appel ée</w>
appe ars</w>
app étit</w>
app ing</w>
app ealed</w>
ap prend</w>
ap porte</w>
any way</w>
answ ers</w>
ann oun
ang ed</w>
ances tors</w>
an no
ambi tious</w>
am used</w>
am ount</w>
am ical</w>
all u
all ey</w>
al lows</w>
al ist</w>
al ert</w>
aimer ait</w>
aim ée</w>
ail les</w>
ai sé</w>
ai ro</w>
agres si
aggres sion</w>
ag ir</w>
ag i</w>
affai rs</w>
advi se</w>
adverti sing</w>
adverti sements</w>
adv ance</w>
ado les
admi red</w>
adi es</w>
adap t</w>
ad viser</w>
ach ète</w>
ach ing</w>
acc ess</w>
ac é</w>
ac h</w>
ac customed</w>
ac a
absur d</w>
abstr act</w>
absolu te</w>
abo ie</w>
abo ard</w>
abili té</w>
aband onner</w>
aband oned</w>
ab use</w>
ab ord</w>
ab ic</w>
ab ducted</w>
a woke</w>
a wn</w>
a the
Y ear</w>
Y 2
Y2 K</w>
W orld</w>
W hoever</w>
V o
V enus</w>
Univers ity</w>
Un believable</w>
U r
U S</w>
Tur key</w>
T r
S uc
S u
S ee</w>
S aturday</w>
Res earchers</w>
R em
Qu e
Pythag oras</w>
P en
P ee
O lympic</w>
O c
No vember</w>
Mon days</w>
Mo scow</w>
Mag ic</w>
M ay</w>
M an
M al
M ac
Lon dres</w>
L O
Jean ne</w>
Jack son</w>
Ja ponais</w>
J une</w>
J ouons</w>
Isra el</w>
In deed</w>
In de</w>
H ungarian</w>
H owever</w>
H i
H ey</w>
H a</w>
Ger mans</w>
G roup</w>
G oogle</w>
F ill</w>
E gyptian</w>
D égage</w>
D roplets</w>
Con tin
Christop her</w>
Ch ine</w>
Ch il
Cath olic</w>
Cap italism</w>
C ro
C leopatra</w>
C hile</w>
C elsius</w>
C airo</w>
B ye</w>
B ur
B résil</w>
Ar abic</w>
Appar ently</w>
An d</w>
Améric ains</w>
Alg érie</w>
Alg eri
Afri ca</w>
A chieving</w>
4 000</w>
2 8</w>
œu vre</w>
ô ne</w>
ï ne</w>
ï de</w>
í o</w>
ê mement</w>
év ér
évér ance</w>
év è
étudi é</w>
étudi ent</w>
étu des</w>
étr angers</w>
étr ang
éti tion</w>
éte indre</w>
ét end</w>
ét end
ét ag
étag ère</w>
éri c
ér o</w>
ér ez</w>
ér ature</w>
épuis é</w>
épou sé</w>
ép ing
ép ais</w>
élè ve</w>
élec tr
électr onique</w>
égoï ste</w>
ég ard</w>
ég alité</w>
écou té</w>
écou tez</w>
écou tes</w>
écou te</w>
échou é</w>
é volution</w>
é prou
éprou ve</w>
é pic
é n
é di
é chec
échec s</w>
é a</w>
ç ois</w>
ç o
z éro</w>
z om
z art</w>
y u
yu an</w>
y ser</w>
y ou
y d
yd ne
ydne y</w>
y azak
yazak i</w>
y ach
yach ts</w>
x yg
x for
xfor d</w>
x emb
xemb our
xembour g</w>
wat ch
w ton</w>
vé cut</w>
voul ut</w>
voul aient</w>
volon taire</w>
volon t
vo ler</w>
vo l</w>
viv ez</w>
viv ait</w>
vit esse</w>
vit am
vir gin
viol ence</w>
vin ce</w>
vic toire</w>
vi té</w>
vi o
vio let
vi ez</w>
vi ande</w>
ver res</w>
ver dict</w>
ven ues</w>
ven ons</w>
velop pé</w>
val eur</w>
vac u
v é</w>
v ez</w>
v esti
v at
vat ar</w>
v ar
v alis
v aiss
uti les</w>
us er</w>
us cri
ur man
up iter</w>
uni qu
un es</w>
u te</w>
u res</w>
témo in</w>
télé phones</w>
ty r
tyr an
ty pes</w>
tw right</w>
tu t</w>
tu eux</w>
tu ber
tuber cu
tter bro
tterbro t</w>
trouver ez</w>
trom per</w>
trom bone</w>
tro pical</w>
tro pho
tro le</w>
tri o
trio tis
tri bun
tribun al</w>
tri angle</w>
tri alis
trembl ement</w>
travaill ons</w>
travail lais</w>
trans luc
trans fu
transfu sions</w>
tradi tions</w>
tradi tion</w>
tr ous</w>
tr ou</w>
tr ici
trici a</w>
tr ag
tour ner</w>
tou ristes</w>
tou ch
tomb a</w>
to x
to wer</w>
to mi
ti tre</w>
ti fs</w>
ti endra</w>
thro po
thes da</w>
thermo st
thermost at</w>
thermo dynam
th èse</w>
th ou
tex te</w>
ter ro
ter mine</w>
ter me</w>
tend in
ten tation</w>
ten sions</w>
temp ête</w>
temp érature</w>
tem por
te ph
teph en</w>
tato ri
tatori al</w>
tat ou
tar te</w>
tap is</w>
tal on</w>
tal is
talis man</w>
t èrent</w>
t z</w>
t sun
tsun ami</w>
t s
ts ch
tsch land</w>
t onne</w>
t i</w>
t at</w>
t as</w>
t and
tand is</w>
t act</w>
sû rs</w>
sû res</w>
séri euse</w>
sé quences</w>
sé jour
sympa th
symbo le</w>
sy n
suy am
suyam a</w>
suspec te</w>
susp ici
susp ic
suspic ion</w>
surviv ants</w>
surveill ance</w>
sur vi
sur er</w>
suppos és</w>
supplément aire</w>
super marché</w>
sul fu
sugges tions</w>
su d</w>
stupi des</w>
struc ture</w>
stric t</w>
str uit</w>
str at
stan bu
stanbu l</w>
st ati
stati sti
st an</w>
st able</w>
ssi ère</w>
ss ent</w>
spr int</w>
spi ri
spec tion</w>
sour ce</w>
souhai tez</w>
souhai ter</w>
souff le</w>
soud ain
soudain ement</w>
souci er</w>
souci e</w>
sou tenu</w>
sou p
sort is</w>
sort i</w>
sor tons</w>
solu ble</w>
sol ent</w>
so laire</w>
so ch
sno b</w>
sk i</w>
siè ge</w>
siè cles</w>
siè cle</w>
sit ue</w>
sist ance</w>
sin es</w>
simu lation</w>
silenci euse</w>
signi fication</w>
signi fic
si ment</w>
si lia</w>
si este</w>
serv ant</w>
ser ré</w>
ser ons</w>
ser mon</w>
sent ait</w>
sembl ent</w>
sem i</w>
sel ler</w>
sel fie</w>
sei ze</w>
se ille</w>
se cours</w>
se c</w>
sc ène</w>
sc and
sau ter</w>
sau ce</w>
sal ons</w>
sac ré</w>
sa di
sa ches</w>
s œurs</w>
s u</w>
s pa
s ources</w>
s onné</w>
s giving</w>
s ents</w>
s ence</w>
s cul
scul pture</w>
s car</w>
s br
sbr uck</w>
s ap
s an</w>
s ag
sag esse</w>
rê ves</w>
rê ve</w>
réus si
rési denti
rép étition</w>
régu lièrement</w>
récol te</w>
réc emment</w>
ré veille</w>
ré sistance</w>
ré pu
ré pare</w>
ré monie</w>
ré g
ré fu
ré es</w>
ré con
ré cl
récl am
ru min
ru es</w>
ron y
ro ïne</w>
ro wn</w>
ro i</w>
ro di
rodi sia
rist ina</w>
ridicu lis
ri x</w>
ri val</w>
ri go
ri el</w>
ri ch
retour n
ret é</w>
respons abilité</w>
rentr ée</w>
rentr é</w>
rencontr ons</w>
ren voy
ren om
ren con
rempl i</w>
rem on
remon ter</w>
rem ise</w>
regret table</w>
regr ette</w>
regard ant</w>
regard a</w>
regar des</w>
refus é</w>
refu ge</w>
re viendra</w>
re trouvé</w>
re présent
re prise</w>
re prendre</w>
re passer</w>
re jet
re cherch
re charg
recharg ea
re and
rav i</w>
rapp elles</w>
rap porte</w>
ram assé</w>
rai ne</w>
radi um</w>
rac es</w>
ra ti
r ée</w>
r use</w>
r ur
r il</w>
r ho
r erais</w>
quotidi enne</w>
quotidi en</w>
ques tionnaire</w>
quar ante</w>
qua siment</w>
qu o</w>
qu ir
qu ez</w>
qu arti
quarti er</w>
péri ode</w>
pénétr er</w>
pé trole</w>
puri fication</w>
publi é</w>
publi cité</w>
pu tain</w>
psy cho
présen té</w>
présen te</w>
préf ères</w>
préci pit
préci eux</w>
pré voyez</w>
pré visions</w>
pré venue</w>
pré occu
préoccu pa
pré hen
pru dents</w>
prot ection</w>
promen er</w>
promen ade</w>
profession nel</w>
profes sions</w>
pro se</w>
pro ph
pro mis</w>
pro jets</w>
priv il
prin ce</w>
pri rent</w>
pri mé</w>
preu ves</w>
pres se</w>
pres cri
prend rais</w>
prem iers</w>
prati quement</w>
prati que</w>
pouv aient</w>
pouss é</w>
pouss er</w>
pou sse</w>
pos é</w>
pos itive</w>
pos es</w>
por ts</w>
por tion</w>
por tez</w>
por terai</w>
popu lar
pon du</w>
pon aises</w>
poli ci
po ète</w>
po ni
po ll
poll o</w>
po ker</w>
po ig
poig née</w>
pleu rait</w>
ple ine</w>
plain tes</w>
plac é</w>
pl orable</w>
pl at
pl as
pl aire</w>
pizz eria</w>
pir ate</w>
pickpoc ket</w>
photo syn
photo grap
pho sp
ph on</w>
ph on
persu ader</w>
persu ad
person nel</w>
pers évérance</w>
per sion</w>
per d</w>
per ception</w>
pens ées</w>
pend ante</w>
pen sait</w>
pe indre</w>
pauv reté</w>
pauv res</w>
pati o</w>
pat is</w>
pass a</w>
pas sion</w>
pas ses</w>
particu lièrement</w>
parti ra</w>
part is</w>
paro v</w>
para sol</w>
par te</w>
par liez</w>
par ess
par eil</w>
par donn
par an
paran o
par am
par ach
parach ute</w>
pan talon</w>
pain s</w>
pag es</w>
pa triotis
pa m
pa go
pa chin
pachin ko</w>
p éril</w>
p èse</w>
p tem
p neu
p ne
pne u</w>
ouver tes</w>
ouv re</w>
outr age</w>
oun es</w>
oun an</w>
oubli er</w>
ou illes</w>
ou ette</w>
ou b</w>
ot tes</w>
orologi ques</w>
ori ko</w>
or o</w>
or es
or d
ord an</w>
opér ation</w>
opportun ité</w>
op k
opk ins</w>
op hy
ophy si
onn aise</w>
on z
on ies</w>
on ia</w>
on go</w>
on dé
on dance</w>
om è
ol d
old man</w>
ol ber
olber t</w>
ok o</w>
ok er</w>
offen se</w>
occup ées</w>
oc ío</w>
oc re</w>
oc a</w>
oblig ée</w>
ob u</w>
ob jet</w>
ob in
obin son</w>
o xyg
o sau
o lives</w>
o ise</w>
nu méri
nu ages</w>
nouv eaux</w>
no ire</w>
nitu de</w>
ni ques</w>
ni cot
nicot ine</w>
ni a</w>
ner veu
ne ig
n és</w>
n ue</w>
n uc
n son</w>
n sbruck</w>
n esty</w>
n es
n ation</w>
n ant</w>
n aie</w>
mété orologiques</w>
méd aille</w>
mé th
mé s</w>
my sti
mu g</w>
mouv ement</w>
mour ut</w>
mou sines</w>
mor te</w>
montr ent</w>
mondi ale</w>
mondi al</w>
mon ter</w>
mon naie</w>
mo teur</w>
mo tel</w>
mo quer</w>
mis éri
minu it</w>
min istr
ministr ation</w>
milli ers</w>
mili a</w>
mi rent</w>
mi f
mif ère</w>
mi el</w>
met tr
mess ages</w>
mer de</w>
men u</w>
men sion</w>
mem bre</w>
mel on</w>
me c</w>
may onnaise</w>
mat éri
mat inée</w>
mat es</w>
mari ée</w>
mar ath
marath on</w>
manu el</w>
manqu ez</w>
manqu ent</w>
manqu ait</w>
mani pul
mani fes
mang ez</w>
mang ent</w>
man uscri
man qué</w>
man ques</w>
mam mifère</w>
mal adies</w>
mai sons</w>
magni fi
mag nitude</w>
mag ici
ma ître</w>
ma ths</w>
ma soch
m ène</w>
m nesty</w>
m m</w>
m emb
lé ger</w>
lé es</w>
long ue</w>
logi que</w>
lo yer</w>
lo yal</w>
lo y
lo ween</w>
lo mb</w>
lo ge</w>
lo cation</w>
ll y
lip se</w>
lig ne</w>
liber té</w>
li tres</w>
li p</w>
li mousines</w>
lec ture</w>
le j
lej andra</w>
lap ins</w>
lang age</w>
lai ent</w>
la ïde</w>
la tin</w>
la h</w>
l une</w>
l ton</w>
l ave</w>
kil t</w>
kil omè
kil ea
kilea ks</w>
ker villes</w>
k raine</w>
k ara
ju re</w>
ju pe</w>
ju ge</w>
jou eurs</w>
jo indre</w>
jet er</w>
jet a</w>
jal oux</w>
j ong</w>
j ban</w>
j az
jaz z</w>
j au
it ées</w>
is é</w>
is sons</w>
is sion</w>
is sez</w>
is sait</w>
is i</w>
ir ait</w>
ir ais</w>
ir ac
irac ul
invi tée</w>
invi tation</w>
intéress és</w>
inté resse</w>
interru p
inter section</w>
inter ro
inter nationale</w>
inter cep
inter action</w>
intellig ents</w>
int act</w>
instru ments</w>
infor mations</w>
influ ences</w>
influ ence</w>
inf anti
infanti le</w>
indus trialis
indi que</w>
indi cation</w>
incorrigi ble</w>
inclu sion</w>
incid ent</w>
inc ess</w>
inc en
inc al
incal cul
incalcul able</w>
in tu
in time</w>
in spection</w>
in solent</w>
in obu</w>
in o</w>
in justice</w>
in con
in comp
in col
incol n</w>
in av
in able</w>
imp sons</w>
imag inable</w>
im parti
illu sions</w>
illu sion</w>
ign it</w>
ig t</w>
ig ni
idé es</w>
idio te</w>
ick Dis
ickDis play</w>
ici el</w>
ic as
icas so</w>
ic ace</w>
i o</w>
i fi
hé roïne</w>
hypo thèse</w>
hy dro
hydro g
hu ètes</w>
hu mi
hu mains</w>
hu la</w>
hoo p</w>
honn eur</w>
ho p</w>
ho mo
ho c
hoc key</w>
histo ri
histo ires</w>
hi ma</w>
hi lip</w>
heur té</w>
hau te</w>
har i
har amp</w>
hand ball</w>
ham med</w>
ham bur
hambur ger</w>
habitu er</w>
habitu ellement</w>
habit ait</w>
hab ill
h éri
h stan</w>
h rodisia
h o</w>
géni es</w>
gé ante</w>
guer rier</w>
gu ère</w>
gu m</w>
gu ides</w>
gu eu
gueu le</w>
gu ch
guch i</w>
grat u
grand i</w>
grand -</w>
gol f</w>
go v</w>
go slav
gla ce</w>
gi g
genti lle</w>
ge yser</w>
gar ettes</w>
gar dé</w>
gar der
garder ai</w>
g ê
g ou
g ez</w>
g el
g an</w>
g al</w>
fronti ère</w>
frapp é</w>
frapp e</w>
frapp a</w>
fran ç
fran cs</w>
fr ustr
fr ed</w>
fr ame</w>
fourn it</w>
fourn ir</w>
for tun
for mu
for mer</w>
fonc tionné</w>
fo o</w>
flu ores
fl uc
fin anci
fin al</w>
fi ère</w>
fi an
fi able</w>
feu ille</w>
fer ions</w>
fatigu ée</w>
fas ses</w>
fas cin
fall ut</w>
fac tures</w>
fac ture</w>
f ûmes</w>
f ê
f élicit
f âché</w>
f ts</w>
f r</w>
f fr
f esti
festi val</w>
f aus
faus se</w>
f at
fat al</w>
f ans</w>
ey mar</w>
extr êmement</w>
expl or
expl ication</w>
exper t</w>
exig é</w>
exem ple</w>
excus er</w>
excell ence</w>
exc ès</w>
exam ine</w>
ex pos
ex orc
ex o
ex h
ex e</w>
ex clu
ex ception</w>
ev in</w>
europé enne</w>
eu tschland</w>
eu ros</w>
essay ez</w>
essay a</w>
ess ai
esp ea
espea re</w>
es sion</w>
es cor
es ch
esch ato
es cal
ern ard</w>
er ra
er ont</w>
er ons</w>
er lin</w>
er ie</w>
enver rai</w>
entret enir</w>
entr aî
entr a</w>
entr a
entra îner</w>
enti ère</w>
enti t</w>
enseig né</w>
ennu yeux</w>
ennu y
enn y</w>
end rix</w>
end or
en visage</w>
en vis
en vers</w>
en va
en té</w>
en reg
en non</w>
en lève</w>
en ez</w>
en dommag
en ce
emprun te</w>
emplo yer</w>
emb les</w>
em mène</w>
em ent
em bre</w>
el t</w>
el son</w>
el fast</w>
el et</w>
ei ch
eich elt</w>
effray é</w>
eff icace</w>
ea gan</w>
e ût</w>
e x</w>
e ons</w>
e illes</w>
e ill
e book</w>
e B
eB ay</w>
dési re</w>
dés as
déli cieux</w>
déjeu né</w>
déf i</w>
décé dé</w>
découver te</w>
déclar é</w>
déb arr
dé s</w>
dé pêché</w>
dé pêcher</w>
dé pourvu</w>
dé pensé</w>
dé passer</w>
dé nu
dé laïde</w>
dé gr
dé fil
dé cor
dé con
décon ne</w>
dé ch
du res</w>
du o</w>
dri an</w>
dr ôle</w>
dou tes</w>
dor s</w>
dor ment</w>
donn ée</w>
docu ments</w>
docu ment</w>
do tes</w>
do maine</w>
do igt</w>
do g
dist ances</w>
dispu ter</w>
dispos ent</w>
dispos ais</w>
dispar u</w>
discu té</w>
dis su
dis poni
dis persion</w>
dis crimin
din osau
din gue</w>
dig ne</w>
différen te</w>
difficul té</w>
diffic iles</w>
diff ère</w>
dic tions</w>
dic tatorial</w>
diag on
di vers
di rent</w>
di mension</w>
di ez</w>
di eu</w>
deven ue</w>
dev iner</w>
dev ais</w>
descri ption</w>
des tin</w>
des igners</w>
derni ères</w>
der born</w>
denti ste</w>
de la</w>
de dans</w>
dd hi
dan us</w>
d ès</w>
d rew</w>
d ez</w>
d ette</w>
d at</w>
cé rémonie</w>
cy mb
cy ber
cur ry</w>
cul ti
cuisin ière</w>
cuisin ier</w>
cu l</w>
cré é</w>
cré dit</w>
cro is
cri tiques</w>
crai gn
cr ème</w>
couver t</w>
cous ins</w>
courag eux</w>
cour te</w>
cou ps</w>
cou ples</w>
cou pa</w>
cou le</w>
cou ché</w>
correspon d</w>
correspon d
cor des</w>
convainc u</w>
contr ari
contr aire</w>
contr a
contra diction</w>
continu é</w>
continu er</w>
conten ts</w>
cont ex
cont ac
const amment</w>
conse ille</w>
conse illa</w>
consci ent</w>
connaiss ent</w>
conna îtr
conn us</w>
conn ait</w>
confu sion</w>
condi tions</w>
conclu sion</w>
concer ne</w>
con vient</w>
con ver
con ven
con tient</w>
con séquences</w>
con struit</w>
con serv
con nec
con jug
con do
con cl
concl u</w>
compli qué</w>
commer ci
comment aires</w>
comment aire</w>
commen ç
comm ission</w>
combus tion</w>
com prennent</w>
com pens
com patis</w>
colli sions</w>
collec tion</w>
collabor ative</w>
col onies</w>
col line</w>
coff re</w>
co lo
co de</w>
co ck
cock tail</w>
cli mato
clari fication</w>
cl av
cl aus
claus tropho
cito yens</w>
cis eaux</w>
circonst ances</w>
cir rho
ci tri
ci garettes</w>
ci eusement</w>
cho isi</w>
cho c</w>
chin oise</w>
cherch ait</w>
che wing</w>
chauss ettes</w>
chang ements</w>
cham bres</w>
challen ger</w>
cha el</w>
ch â
ch ouette</w>
ch ir
ch ard</w>
ch ant</w>
ch aise</w>
cer veau</w>
cat alo
cass ée</w>
cas ino</w>
cand inav
cam pus</w>
cam p</w>
cam ion</w>
cal ories</w>
cal es</w>
ca th
ca le</w>
ca cher</w>
c oul
c ou</w>
c on</w>
c is</w>
c enti
c el</w>
c ali
c aca
caca huètes</w>
bé né
bus te</w>
bus sy</w>
bun tu</w>
brio che</w>
bri tan
bri l
brac elet</w>
br onz
boy cot
boute illes</w>
bou tique</w>
bou che</w>
bor d</w>
bor ac
borac as
boracas li</w>
bo t
bo ivent</w>
blu ff
blon des</w>
bli n</w>
biz arr
bizarr ement</w>
biscu its</w>
bi got</w>
be c</w>
bas ket</w>
bar a</w>
bam a</w>
bag ages</w>
b û
b rai
b in</w>
b arri
barri ca
b arr
b ande</w>
b a</w>
azak hstan</w>
az a</w>
ay oko</w>
ay ne</w>
av ril</w>
av ou
av id</w>
av eu
av ancé</w>
autoris é</w>
autori té</w>
au to</w>
au rez</w>
au ra</w>
au près</w>
attrap er</w>
atti rer</w>
atta qués</w>
atomi que</w>
ati ves</w>
ati f</w>
ath y</w>
at mo
at a.
ata. gov</w>
assist ance</w>
assi se</w>
as tro
as surer</w>
as parov</w>
as kervilles</w>
as ka</w>
as ak
asak i</w>
arrê tée</w>
arrog ants</w>
arro se</w>
arriver ait</w>
arriv és</w>
arriv ait</w>
ari th
archit ecte</w>
ara h</w>
ar o</w>
ar es</w>
ar danus</w>
ar ai
arai gnée</w>
ar ab
appréci ent</w>
appro che</w>
appl ications</w>
appl au
appel ons</w>
appar u</w>
appar tement</w>
appar ence</w>
ap porter</w>
ap hrodisia
ant ages</w>
annu lée</w>
ank sgiving</w>
ani que</w>
ani mation</w>
ani guchi</w>
ang é</w>
and range</w>
ances co</w>
anak o</w>
an thropo
an que</w>
an mar</w>
an alo
amélior é</w>
amus ante</w>
am éric
am pa</w>
am itié</w>
am ic
am en
am bo
am ak
amak o</w>
allu mer</w>
allergi es</w>
all ées</w>
all as</w>
alis me</w>
alis ation</w>
ali for
alent ours</w>
al tru
al loween</w>
al as</w>
ak ongo</w>
ak espeare</w>
ak agawa</w>
aiss er</w>
aimer ions</w>
aim ons</w>
aider a</w>
ai rement</w>
ai mais</w>
ai maient</w>
ai des</w>
ag asaki</w>
aff ir
aff i
ador ent</w>
admi rab
addi tion</w>
ad vers
ad ul
ad orable</w>
ad ministration</w>
ad il</w>
actu ellement</w>
actu elle</w>
actu ari
activi té</w>
ach è
accid ents</w>
accep té</w>
ac rony
ac ifi
ac er</w>
ac ebook</w>
ac cu
aby le</w>
aby l
absur de</w>
aband onn
ab sen
ab ondance</w>
ab lement</w>
ab eilles</w>
ab at
ab ah</w>
a que</w>
a pa
a S
aS C
aSC RI
aSCRI P
aSCRIP T</w>
Yuk io</w>
Yuk awa</w>
Wi kileaks</w>
War craft</w>
W ayne</w>
V ince</w>
V er
Ur anus</w>
Uni es</w>
U kraine</w>
U buntu</w>
Tu fts</w>
Ti bet</w>
Th anksgiving</w>
T rang</w>
T im</w>
T ickDisplay</w>
T ed</w>
T aro</w>
T aniguchi</w>
St eve</w>
St ampa</w>
Sh ounan</w>
Sh inobu</w>
Sh akespeare</w>
Se con
Sal z
Sach s</w>
Sach iko</w>
Sa to</w>
S ydney</w>
S tephen</w>
S pot</w>
S onia</w>
S impsons</w>
S candinav
S ayoko</w>
S arah</w>
S andra</w>
S am</w>
S ally</w>
S abah</w>
S D</w>
Res nais</w>
RI C</w>
R ome</w>
R ocío</w>
R obinson</w>
R ick</w>
R h
R even
R eichelt</w>
R eagan</w>
R A
RA M</w>
Pr incess</w>
Portu gal</w>
Per mettez</w>
Par k</w>
Par donnez</w>
Pal ais</w>
Pa tricia</w>
