#version: 0.2
p o
d e</w>
po s
a pos
& apos
a i
o u
&apos ;</w>
a n
e n
r e</w>
i n
q u
t h
e s</w>
l a</w>
p a
l e</w>
e s
o n
o n</w>
t i
e r
i s</w>
t r
th e</w>
qu e</w>
e r</w>
@ -
@- @</w>
i s
j e</w>
e n</w>
n e</w>
l &apos;</w>
c e</w>
pa s</w>
es t</w>
e u
p l
ou s</w>
m e</w>
an d</w>
e m
a r
i l</w>
a v
e l
o u</w>
f o
c h
y ou</w>
c a
i t
p r
t o</w>
e d</w>
s u
en t</w>
i n</w>
a l
in g</w>
t e</w>
f ai
i l
c o
s e</w>
v i
l es</w>
a i</w>
v ous</w>
r e
t re</w>
ti on</w>
o m</w>
u n</w>
i t</w>
is h</w>
o f</w>
ai n</w>
&apos ;
a u
o r
F in
ai s</w>
a t</w>
T om</w>
a s</w>
fo r</w>
pl u
é t
m a
tr ain</w>
pa r
e t
j &apos;</w>
fai t</w>
n &apos;</w>
t u</w>
su is</w>
plu s</w>
l i
d i
m o
g r
a m
r i
p e
n o
c i
eu x</w>
ou r</w>
s o
s i
a l</w>
t s</w>
w h
ou r
co m
a b
an g
s t
on t</w>
h o
ch o
e t</w>
po u
d es</w>
è re</w>
v o
ca n</w>
on s</w>
c on
a n</w>
a s
i r</w>
e z</w>
a c
v e</w>
Fin n
w e
p er
a re</w>
ai t</w>
s on</w>
o r</w>
qu o
Finn ish</w>
vi e</w>
ét é</w>
el le</w>
u s
a p
qu &apos;</w>
pr o
u n
ou t</w>
an t</w>
t em
a g
y our</w>
u ne</w>
p s</w>
e v
f i
l o
fai re</w>
a t
p en
n ous</w>
av e</w>
m ent</w>
gr and</w>
h e</w>
qu i</w>
tem ps</w>
l and</w>
m on
s er
fo r
th e
i f</w>
Fin land</w>
a tion</w>
d &apos;</w>
ê tre</w>
d u
h ave</w>
e x
&apos; s</w>
e a
quo t
et te</w>
quot ;</w>
i d
& quot;</w>
s &apos;</w>
th at</w>
m ai
g en
l y</w>
c ette</w>
r es
m an
b e</w>
b e
f r
t o
s ont</w>
c u
an s</w>
it y</w>
s i</w>
é e</w>
cho se</w>
s eu
t er
po r
it u
no t</w>
&apos; t</w>
en d
i ère</w>
j our
ang u
d o
c ou
t er</w>
m es</w>
l angu
r o
e c
th er</w>
au tre</w>
i c
m on</w>
t h</w>
pou r</w>
d é
mon de</w>
g h
s es</w>
s e
ch il
l u
ca tion</w>
t es</w>
g l
en ce</w>
we d
par t</w>
S wed
t a
E n
ou v
m ê
k e</w>
mê me</w>
a y</w>
Swed ish</w>
h i
an ce</w>
gen s</w>
a ti
w or
vo tre</w>
em ent</w>
c es</w>
for ma
l e
gl ish</w>
En glish</w>
s o</w>
n e
ag e</w>
u r
w it
en t
v er
mai son</w>
forma tion</w>
ai r</w>
ar y</w>
on e</w>
l er</w>
pe ti
i m
h eu
d o</w>
ser vi
in formation</w>
in e</w>
wit h</w>
h e
p eu
av o
a d
mo i</w>
ap pl
l d</w>
t out</w>
th is</w>
avo ir</w>
d it</w>
o p
pl o
av e
m &apos;</w>
il l</w>
f fi
m e
tr o
mo re</w>
av ai
b i
a d</w>
d e
è s</w>
n u
pl a
d ans</w>
man ière</w>
c &apos;</w>
v r
en ts</w>
ave c</w>
tr es</w>
ho m
ét ait</w>
t en
com me</w>
g e</w>
gh t</w>
fr om</w>
seu le</w>
un i
plo y
ar ri
al so</w>
m i
b u
langu e</w>
st u
c h</w>
l é</w>
res id
c e
am il
w ill</w>
pen se</w>
po in
b o
t ed</w>
il s</w>
n ée</w>
ea u</w>
b y</w>
l in
ar d</w>
ç a</w>
an ts</w>
d is
w as</w>
ou n
f amil
g i
ai n
itu re</w>
f in</w>
us t</w>
on al</w>
e du
al l</w>
em ploy
g o
s s
t u
p u
cho o
ai de</w>
a u</w>
t ou
chil d</w>
pr i
w e</w>
a te</w>
d u</w>
k ing</w>
d er</w>
di re</w>
al th</w>
re g
er s</w>
m y</w>
quo i</w>
it e</w>
tr ès</w>
peti te</w>
er re</w>
pou r
h ou
ab out</w>
wh at</w>
s he</w>
fo is</w>
n i
ti es</w>
h as</w>
d r
per s
I n
b l
qu el
on ne</w>
au tres</w>
ab le</w>
ti ons</w>
d er
d em
s choo
y s</w>
h el
tr avai
jour s</w>
g u
p i
f em
cou n
resid ence</w>
heu r
d ay</w>
qu es
f in
e u</w>
e l</w>
f u
hom me</w>
peu t</w>
edu cation</w>
d s</w>
T erre</w>
d on</w>
eu r</w>
o ther</w>
he alth</w>
p u</w>
t ous</w>
the re</w>
ca re</w>
b le</w>
poin t</w>
o d</w>
m ais</w>
ar i
av ez</w>
par ler</w>
f f
con t
the y</w>
per m
en tr
s t</w>
is e</w>
wh en</w>
lu i</w>
en ti
es s</w>
av ais</w>
wor k</w>
l l</w>
bi en</w>
dé j
pe u</w>
co re</w>
no w</w>
es s
en core</w>
v eux</w>
v en
m u
stu d
h ab
ex am
en f
jour née</w>
k k
m in
ar g
servi ces</w>
î t</w>
av ons</w>
m ust</w>
end re</w>
ac t</w>
schoo l</w>
s el
j am
s ais</w>
pa r</w>
l ais</w>
d ev
ci al</w>
a f
ne ed</w>
li v
ic i</w>
al ly</w>
e ar
wh o</w>
s in
av ait</w>
pla ît</w>
il le</w>
c y</w>
ti me</w>
&apos; m</w>
jam ais</w>
il l
w ant</w>
tr ou
our r
d eux</w>
ai ment</w>
ci pa
t é
h is</w>
s a</w>
n ourr
nu it</w>
nourr iture</w>
r el
m ère</w>
enf ants</w>
vr aiment</w>
ffi ce</w>
an d
ho w</w>
famil y</w>
p le</w>
m or
lo w
b er</w>
por t</w>
t el
b r
plu part</w>
re e</w>
w el
perm it</w>
j our</w>
r é
appl i
so m
ê tes</w>
trou ve</w>
s em
p h
fem me</w>
j o
en tre</w>
arg ent</w>
ca l</w>
tou jours</w>
m uni
v ou
v is
quel que</w>
u se</w>
r en
l ing</w>
servi ce</w>
pou v
s pe
re ad</w>
h er</w>
mai n
In fo
é co
pro vi
wh e
p eux</w>
tro is</w>
éco le</w>
li ke</w>
ang er</w>
su r
pro bl
c our
y eux</w>
hel p</w>
dr en</w>
a ch
o ù</w>
pa ss
g et</w>
b es
su p
co me</w>
ri ght</w>
en s</w>
ê te</w>
tr ouv
th ing</w>
appl y</w>
M ary</w>
v u</w>
tr y</w>
n er</w>
Info Finland</w>
o in</w>
as s
th in
som mes</w>
ev er
bes oin</w>
chil dren</w>
su r</w>
muni cipa
déj à</w>
ma y</w>
o c
i re</w>
g o</w>
é r
k now</w>
r s</w>
con tr
al lé</w>
&apos; re</w>
si on</w>
m a</w>
pr em
l a
heu re</w>
ang lais</w>
travai l</w>
s ing</w>
co r
pr e
v er</w>
k i</w>
c er
f a
pour quoi</w>
pa ge</w>
exam ple</w>
entr e
b li
l ed</w>
v a</w>
en d</w>
ati ons</w>
as t</w>
vo ir</w>
h u
an y</w>
o m
t ing</w>
hab itu
r ou
pers onne</w>
g s</w>
cou p</w>
be au
re ce
pr is</w>
c ri
ho me</w>
the ir</w>
t ard</w>
k s</w>
i r
t y</w>
g h</w>
H el
s ti
in ter
entre pr
s hi
p ère</w>
y ing</w>
pe ine</w>
cho ses</w>
ti onal</w>
op le</w>
c ro
tro p</w>
por te</w>
pe ople</w>
habitu de</w>
cont act</w>
o w
si m
Hel sin
so me</w>
main ten
d ed</w>
ar r
a ys</w>
so it</w>
rece i
n ouv
n o</w>
fr an
c r
oc cu
a me</w>
it s</w>
i c</w>
at ed</w>
ti z
l à</w>
to i</w>
pr endre</w>
l ai
s or
pl ement</w>
peti t</w>
i g
qu and</w>
b s
ser a</w>
ci tiz
vi ce</w>
cu l
l ev
t e
ma n</w>
hi m</w>
beau coup</w>
au s
ach et
o k</w>
arri v
al l
ç ais</w>
on g</w>
mi gr
u s</w>
seu l</w>
s ouv
i on</w>
ent al</w>
ai d</w>
t on</w>
fran çais</w>
d ing</w>
al low
Helsin ki</w>
w i
ta ke</w>
sim plement</w>
es e</w>
por t
kk i
ap p
whe re</w>
ven ir</w>
ques tion</w>
f e
be en</w>
souv ent</w>
langu age</w>
we bs
po n
heur es</w>
reg ar
g ar
c i</w>
appli cation</w>
O ffice</w>
ic h</w>
c t
lin kki
fin d</w>
t &apos;</w>
am i</w>
u p</w>
com p
par ti
i es</w>
reg is
on n
di d</w>
bu t</w>
u e</w>
th an</w>
ver y</w>
pass é</w>
end u</w>
wh ich</w>
ques tions</w>
shi p</w>
p er</w>
ai ne</w>
pla ce</w>
mainten ant</w>
employ ment</w>
co l
b on</w>
t ête</w>
s tr
ear s</w>
m ar
r ais</w>
o l
pr es
hou sing</w>
al i
nu m
eu rs</w>
com pl
com m
heur eux</w>
l able</w>
ea r</w>
aus si</w>
t ur
s itu
par ents</w>
y ears</w>
recei ve</w>
it é</w>
c l
avai lable</w>
a m</w>
K e
pr é
d ec
M ari
s ans</w>
m em
j eu
vo iture</w>
n ing</w>
mor t</w>
ac ti
vr es</w>
thin k</w>
e f
m ain</w>
Ke la</w>
pri x</w>
ma ke</w>
fo re</w>
d n</w>
coun try</w>
av ant</w>
com ment</w>
v ent</w>
probl è
pi è
webs ite</w>
ph one</w>
no tre</w>
a y
vou l
u p
m er</w>
m arri
li vres</w>
cu r
l is
Mari e</w>
t en</w>
man y</w>
jeu ne</w>
g e
ea se</w>
b us
mu si
l ity</w>
g an
ai me</w>
p it
an s
travai l
so cial</w>
piè ce</w>
trouv é</w>
so ci
ca tional</w>
c lu
é ri
liv re</w>
l ement</w>
h ad</w>
be fore</w>
al ler</w>
re qu
f ille</w>
el i
ch e</w>
we re</w>
so me
j us
f er
allow ance</w>
w ou
s hou
i e</w>
ci d
c an
occu p
go od</w>
m anger</w>
arriv é</w>
ter n
as k</w>
&apos; ve</w>
ri en</w>
pro f
prem ière</w>
dem ain</w>
ch i
v eu
R e
pl ease</w>
pen s
or gan
w ay</w>
si an</w>
se con
m er
r ait</w>
he re</w>
c lin
k ed</w>
&apos; ll</w>
ev er</w>
ci le</w>
ver s
stud y</w>
lev é</w>
l s</w>
jo b</w>
di ffi
t é</w>
su b
oun d</w>
ever y
U n
municipa lity</w>
gen cy</w>
b onne</w>
sup port</w>
peu vent</w>
ain ing</w>
ti fi
id ée</w>
ati onal</w>
wou ld</w>
wi th
t el</w>
con n
shou ld</w>
s po
pa y</w>
p ho
R us
o f
gar ç
fi r
C h
sti tu
st ar
sem aine</w>
sel f</w>
on ly</w>
d û</w>
c entre</w>
per i
em s</w>
af ter</w>
y oun
pit al</w>
ma t
der n
ét ais</w>
r em
hom mes</w>
d wel
an née</w>
y ez</w>
dern ière</w>
œ u
ne w</w>
in to</w>
hu i</w>
s Finnish</w>
jour d&apos;</w>
in st
entrepr ise</w>
au jourd&apos;</w>
re tard</w>
prof es
d re</w>
t al
si ble</w>
or s</w>
youn g</w>
f e</w>
el les</w>
an de</w>
w r
h is
du r
do is</w>
cro is</w>
ang e</w>
t a</w>
s h
b en
v es</w>
an y
spe a
pri v
or m
o ff
m is
ar e
situ ation</w>
pouv ez</w>
im migr
Rus sian</w>
t w
j ust</w>
ow n</w>
in ess</w>
g is
chi en</w>
é s</w>
or y</w>
ma l</w>
f il
ca l
c ity</w>
ben ef
ad vice</w>
pu bli
le ave</w>
c t</w>
ac cor
V an
wh y</w>
se e</w>
po li
pen ses</w>
mi eux</w>
me di
a de</w>
su ch</w>
pho to</w>
f au
t ment</w>
per son</w>
di dn</w>
dem and
b as
ati on
S er
v ais</w>
th rou
l un
Van ta
so yez</w>
pa y
l é
l ine</w>
famil le</w>
di ff
v ing</w>
qu elle</w>
pr ès</w>
nouv eau</w>
ma ti
es Finnish</w>
di es</w>
o b
n ed</w>
in s</w>
end s</w>
ag re
s se</w>
l ast</w>
a du
œu r</w>
v ed</w>
tr aining</w>
th ese</w>
pl an</w>
u su
tw o</w>
s avais</w>
p e</w>
m é
m ents</w>
li re</w>
do ct
d ary</w>
num ber</w>
j ou
it es</w>
ec t</w>
c en
Un is</w>
l eurs</w>
fem mes</w>
dé so
do es</w>
dis ab
an ted</w>
et tre</w>
ass ez</w>
achet er</w>
throu gh</w>
regar der</w>
in clu
go ing</w>
d es
ce la</w>
ca ll</w>
b re</w>
ap poin
ag es</w>
ren contr
pa ys</w>
d y</w>
d is</w>
ac cid
tr i
to o</w>
the m</w>
secon dary</w>
s û
s ou
s avoir</w>
re ad
mu ch</w>
in stitu
Vanta a</w>
E spo
B o
ta x</w>
stu dies</w>
musi que</w>
mo st</w>
m s</w>
j eux</w>
i ties</w>
bus iness</w>
b a
wor king</w>
tr e
s ait</w>
priv ate</w>
p éri
S ami</w>
w ays</w>
vo cational</w>
v re</w>
inst ant</w>
el y</w>
arr ê
publi c</w>
k e
th o
fir st</w>
f ri
E U</w>
we e
usu ally</w>
un der</w>
tifi ca
sur ance</w>
lai ss
em er
tel l</w>
par le</w>
is ion</w>
ex péri
en c
demand é</w>
can not</w>
ai re</w>
0 0</w>
w at
up per</w>
pri e</w>
pen sais</w>
organ is
on line</w>
jus te</w>
ch a
au x</w>
arri ve</w>
accid ent</w>
th or
tern ity</w>
t ain</w>
li ve</w>
employ er</w>
employ e
dwel ling</w>
vers ity</w>
tu re</w>
pr et
o ffice</w>
li fe</w>
expéri ence</w>
al ways</w>
with out</w>
to ire</w>
t led</w>
sem ble</w>
s k
sor ti
probl ems</w>
n om</w>
lo t</w>
gi ve</w>
cu is
ca r</w>
c k</w>
si ve</w>
l on
é tr
lo o
déj eu
d ays</w>
c re
b et
Espo o</w>
s ame</w>
pos sible</w>
our s</w>
is h
il ity</w>
emer gency</w>
wel l</w>
ter s</w>
im port
his toire</w>
el ec
clin ic</w>
th ree</w>
mem ber</w>
m is</w>
k es</w>
tr ans
peu r</w>
langu es</w>
l ong</w>
déjeu ner</w>
c lo
at t
tem ent</w>
n ever</w>
for m</w>
fau t</w>
entrepr en
enti tled</w>
doct or</w>
acti vi
a près</w>
se cur
r endu</w>
o ld</w>
comp any</w>
y ear</w>
regis ter</w>
op en</w>
l et</w>
ar ge</w>
an cy</w>
ac k</w>
&apos; d</w>
voul ez</w>
u l
travail ler</w>
ti on
su re</w>
s pou
n on</w>
ma de</w>
garç on</w>
en ces</w>
dur ing</w>
sorti r</w>
r es</w>
is t
ch er</w>
F ren
w n</w>
tou tes</w>
tifica te</w>
st o
s a
requ ir
n ame</w>
le ar
déso lé</w>
adu l
Fren ch</w>
v ue</w>
ten tion</w>
se e
s ens</w>
s ci
r a
qu es</w>
ou ght</w>
in gs</w>
i er</w>
diff er
cuis ine</w>
ch ance</w>
b or
Re gis
F r
v ér
us ed</w>
m al
lo cal</w>
in come</w>
hi er</w>
f ur
citiz en</w>
au thor
ai ent</w>
achet é</w>
ac h</w>
ô t</w>
stud ent</w>
i ti
ai se</w>
seu lement</w>
sel ling</w>
rel i
problè me</w>
fo l
f ree</w>
de pen
d onn
ain s</w>
spea k</w>
r ent</w>
pa g
p re</w>
o v
l it
in surance</w>
import ant</w>
id enti
h ô
fo re
cou ld</w>
ch em
activi ties</w>
T E</w>
té lé
secur ity</w>
s y
s ho
s al
ma g
e p</w>
th s</w>
th er
provi ded</w>
pers ons</w>
on i
ev en</w>
d orm
ch ez</w>
cen tres</w>
ca use</w>
ati ve</w>
an other</w>
so ir</w>
seu r</w>
read y</w>
provi des</w>
o kk
mo t</w>
et s</w>
e y</w>
de g
con si
pen sion</w>
marri age</w>
b an
arrê ter</w>
appoin tment</w>
a r</w>
profes seur</w>
g n
cour s</w>
ch ev
wor k
vr ai</w>
res ter</w>
m id
la w</w>
étr anger</w>
vér ité</w>
t ea
re ally</w>
r ai
pu is</w>
pour rais</w>
peri od</w>
ent endu</w>
c k
a k
0 .
vi vre</w>
dem ande</w>
we ver</w>
v or
tr ation</w>
t ant</w>
qu i
qu el</w>
occup é</w>
liv ing</w>
ho wever</w>
el op
do it</w>
U ni
v é
v ille</w>
rencontr é</w>
r u
prem ier</w>
me ill
gh ts</w>
col ère</w>
chev eux</w>
té lé</w>
trouv er</w>
si c</w>
po n</w>
fu l</w>
fa cile</w>
cri min
C ity</w>
soci ation</w>
por ts</w>
in té
go t</w>
ce p
agre ement</w>
K okk
w as
vi e
t ôt</w>
problè mes</w>
mo ther</w>
k in
et tes</w>
ent ly</w>
e as
diffi cul
d res
bi r
vo y
s an
rel ated</w>
r y</w>
quel qu&apos;</w>
p aid</w>
of ten</w>
lo ok</w>
hi gh
di vor
cl as
ch an
ba sic</w>
ar t</w>
I m
ro ad</w>
pr it</w>
o la</w>
le ast</w>
h en
cer tificate</w>
c ard</w>
c ar
be g
J a
C entre</w>
u re</w>
str u
parti r</w>
ma ternity</w>
l eur</w>
c in
bas ed</w>
é es</w>
v e
un employment</w>
ta x
reli gi
provi de</w>
lon g
li br
h app
fu ge
f ils</w>
f ac
differ ent</w>
deg ree</w>
ad di
Im migr
A r
u ti
st on</w>
o ver</w>
mon ths</w>
ess ay
coun selling</w>
contr act</w>
bo dy</w>
Bo ston</w>
0 2
whe ther</w>
ou th</w>
o per
et y</w>
ec tion</w>
dorm ir</w>
an i
al s</w>
w s</w>
ven u</w>
res pon
ou gh</w>
mat ters</w>
il it
fore ig
fai tes</w>
fa ther</w>
c el
am our</w>
vi ens</w>
ta ts</w>
ri ez</w>
par t
mon ey</w>
inter pret
inclu de</w>
gr anted</w>
es ti
end ed</w>
comm enc
Kokk ola</w>
vou lais</w>
v ari
some thing</w>
n ess</w>
mo ment</w>
marri ed</w>
fur ther</w>
elop ment</w>
com mon</w>
bo ok</w>
Immigr ation</w>
vi ol
veu t</w>
uni versity</w>
r ental</w>
pour rait</w>
o mi
l ent</w>
d ites</w>
ch arge</w>
c ti
Ser vice</w>
9 .
ét u
tel e
t le</w>
s œur</w>
om en</w>
mo ins</w>
fin an
fil les</w>
es prit</w>
e i
wr it
tele phone</w>
te gr
n er
k en</w>
h ours</w>
ge ther</w>
ear ly</w>
dec ision</w>
c us
al is
P ar
É tats</w>
tho se</w>
st e
schoo ls</w>
r ed</w>
pro b
mid i</w>
fer ai</w>
en g
citiz en
ai mer
accor d</w>
y our
pre par
pouv ons</w>
poli ce</w>
per du</w>
lo ve</w>
l o</w>
exam in
divor ce</w>
d et
cour ses</w>
benef it</w>
at ing</w>
appli ed</w>
ab road</w>
ti mes</w>
so is</w>
m it
identi ty</w>
high er</w>
co ver
bo o
b ou
b ers</w>
b ack</w>
al ity</w>
E m
vi r
p tion</w>
p an
ni ght</w>
im porte</w>
hô pital</w>
g re
f un
ever y</w>
dres s</w>
diffi cile</w>
b ro
b as</w>
app el
S o
your self</w>
ri ghts</w>
rel ation
langu ages</w>
fai s</w>
appl ying</w>
étu di
we b</w>
to gether</w>
tal k</w>
su c
pu l
lu m</w>
in v
in tegr
h av
gr ou
con omi
com bien</w>
R ov
6 .
stud ents</w>
si de</w>
s af
re c
pers onal</w>
per man
n ational</w>
le g
l ettre</w>
in t</w>
in dre</w>
immigr ants</w>
hou se</w>
hab ilit
bu y</w>
sti ll</w>
so l</w>
si ons</w>
ro w</w>
ro om</w>
pro c
pl an
in g
i d</w>
fol low
be cause</w>
b eli
author ities</w>
aimer ais</w>
L o
tr ies</w>
spou se</w>
s ports</w>
s pital</w>
s m
ré pon
re habilit
pre hen
l u</w>
k no
fr ère</w>
compl et
ch am
uni ver
s en
pa ti
of f</w>
ne e
n ec
gu id
em i</w>
ea d</w>
bo th</w>
t y
re fuge
prehen sive</w>
pos e</w>
mé dec
meill eur</w>
m ed</w>
lit tle</w>
fu mer</w>
f ound</w>
es n</w>
em ber</w>
do esn</w>
be ing</w>
any thing</w>
Regis ter</w>
Lo cal</w>
w ent</w>
thin gs</w>
ter ed</w>
st ay</w>
mal ade</w>
l or
ill s</w>
gi r
f ati
fati gu
conomi c</w>
ch ang
au r
é cr
vi eux</w>
un der
st ate</w>
s s</w>
o ffi
no m
médec in</w>
lun ettes</w>
li ties</w>
lai sse</w>
integr ation</w>
f are</w>
e b
commenc é</w>
com prehensive</w>
bu s</w>
b elle</w>
al ready</w>
ag er</w>
ac cep
N ational</w>
Em ploy
ét aient</w>
we en</w>
vis it</w>
uti lis
star t</w>
spe ci
rehabilit ation</w>
rai son</w>
nouv elle</w>
nec ess
fri end</w>
en ough</w>
dev rait</w>
d in
crimin ation</w>
col l
chil d
at o
as y
an t
tion Finnish</w>
s ay</w>
ou t
op in
mo ving</w>
mem bers</w>
m it</w>
jou er</w>
gu ar
d ét
asy lum</w>
ad v
Ja pon</w>
H e
wat er</w>
w ar
s le
s ed</w>
res t
r is
par ce</w>
n ur
municipa l</w>
loo king</w>
f l
de ci
coun t</w>
He alth</w>
y outh</w>
tr u
tr a
t eau</w>
s aid</w>
re as
pay er</w>
no ti
mo ve</w>
j et</w>
foreig n</w>
fatigu é</w>
coun tries</w>
cont in
citizen ship</w>
ca se</w>
bir th</w>
bet ween</w>
benef its</w>
Employ ment</w>
A d
5 .
1 9
wh o
w omen</w>
vi ces</w>
tr ic
sû r</w>
s ec
pens é</w>
on ce</w>
municipa lities</w>
follow ing</w>
eu r
es t
donn é</w>
com prendre</w>
ap prendre</w>
Fr ance</w>
E conomic</w>
D is
voul ait</w>
u ro
to ld</w>
th é
qu ali
pro gr
pr ê
p m</w>
k i
k et</w>
j a</w>
conn ais</w>
citiz ens</w>
b re
ai der</w>
D ev
sk ills</w>
l ess</w>
l ait</w>
j ect</w>
interpret er</w>
fi cation</w>
employe e</w>
e ach</w>
e a</w>
consi der
compl e
cham bre</w>
ch ange</w>
Rov ani
E du
z e</w>
v ite</w>
télé phone</w>
tur n</w>
to day</w>
ro it</w>
pens ez</w>
no s</w>
min is
me ans</w>
m ental</w>
in t
i le</w>
every one</w>
disab led</w>
d ou
d en
chem in</w>
ch at</w>
ca ses</w>
ca me</w>
am oun
ad dress</w>
ab ic</w>
G er
Ar abic</w>
w in
vari ous</w>
us eu
su m
stru c
pos i
p ing</w>
o bli
min u
m ari
l l
gr o
f ête</w>
eu se</w>
d one</w>
d ental</w>
con di
c are
b est</w>
at ory</w>
A s
0 1
veu lent</w>
sû re</w>
par ent</w>
obli g
ma king</w>
l ate</w>
is su
in tention</w>
f en
employe es</w>
e qu
con se
cer t
c le</w>
beli e
au rais</w>
an te</w>
amoun t</w>
Edu cation</w>
E uro
su ite</w>
si ties</w>
si g
s ent</w>
pro per
or der</w>
opin ion</w>
mati n</w>
j a
i ons</w>
fe el</w>
entrepren eur</w>
eb a</w>
du e</w>
comple te</w>
cha ts</w>
c et</w>
ato eba</w>
al one</w>
T atoeba</w>
Rovani emi</w>
th ought</w>
sci ences</w>
san té</w>
s ts</w>
pro ch
necess ary</w>
mo indre</w>
in di
g ent</w>
every thing</w>
en n
ei ther</w>
do or</w>
d ri
com ing</w>
bu il
au tant</w>
au c
écr it</w>
voy age</w>
ti l</w>
requir ed</w>
re ct
pre gn
o th
m au
l at
l and
i de</w>
ho od</w>
guid ance</w>
f i</w>
clas se</w>
ch ec
c ed</w>
adul t</w>
ac count</w>
Dev elopment</w>
1 2</w>
w on</w>
v en</w>
v ac
ti ve</w>
t eur</w>
st om
see k
se ar
s ent
relation ship</w>
o pen
k a
ist ance</w>
il y</w>
id ea</w>
happ y</w>
garç ons</w>
fr o
ex peri
er r
disab ility</w>
d ant</w>
cover ed</w>
clin ic
c œur</w>
boo ks</w>
ang er
ag ne</w>
1 0</w>
0 9</w>
tou te</w>
resid ent</w>
pu t</w>
pré f
pro du
oun ds</w>
no thing</w>
ne i
laiss er</w>
inter es
immigr ant</w>
g et
f t</w>
examin ation</w>
ent endre</w>
en ne</w>
employ ed</w>
em ents</w>
e at</w>
do cu
dev ez</w>
d ent</w>
bet ter</w>
belie ve</w>
ave l</w>
are a</w>
all ez</w>
ag ain</w>
accor ding</w>
a way</w>
Ser vices</w>
w er</w>
su jet</w>
st and</w>
sin g
si b
s er</w>
rest aur
rem ember</w>
r endre</w>
quel ques</w>
pr acti
op port
off ers</w>
lor s
lo ca
libr ary</w>
l dn</w>
gi ven</w>
at ely</w>
ain en</w>
. fi</w>
wee k</w>
wee k
vé lo</w>
to ok</w>
ser ait</w>
s ever
pouv ait</w>
ou bli
long temps</w>
lo w</w>
ke ep</w>
inté ri
ig n
h ur
do wn</w>
con du
ci el</w>
ch au
be come</w>
at es</w>
ap pro
ap pen
ain ed</w>
addi tion</w>
a z
As sociation</w>
î ner</w>
w anted</w>
utilis er</w>
travail le</w>
situ ations</w>
si x</w>
sever al</w>
sal ary</w>
regis tration</w>
proper ty</w>
n at
m ettre</w>
li eu</w>
it ed</w>
gr ande</w>
de puis</w>
cu stom
ch ing</w>
a do
So cial</w>
L a
K au
ér o</w>
wh ile</w>
w ish</w>
vis ion</w>
vi de
un til</w>
ter re</w>
st oni
s é
s au
rou te</w>
restaur ant</w>
pro pre</w>
pr is
ob tain</w>
me et
m b
l et
is sion</w>
is n</w>
intéri eur</w>
fu t</w>
en ir</w>
d anger
cro ire</w>
ch é</w>
am ie</w>
Ger man</w>
E stoni
D an</w>
writ ten</w>
w o
viol ence</w>
univer sities</w>
ta kes</w>
t or
stud ying</w>
st ation</w>
s pa
rou ge</w>
religi on</w>
pres que</w>
po is
pl ay</w>
mon th</w>
m en
l ab
er c
el s</w>
at tention</w>
N or
Estoni an</w>
v al
spe cial</w>
ser ai</w>
pu is
organ ise</w>
n ative</w>
mon t
lear n</w>
is to</w>
int ended</w>
h ard</w>
finan cial</w>
famil ies</w>
f our</w>
dis crimination</w>
cri me</w>
con cer
an ces</w>
adv ance</w>
adul ts</w>
D i
1 8</w>
uni on</w>
ten d</w>
sm all</w>
pen dant</w>
num éro</w>
leg al</w>
l it</w>
is t</w>
essay er</w>
do g</w>
di rect
dev rais</w>
d îner</w>
ci r
bor n</w>
ban k</w>
as ked</w>
al i</w>
L i
v ali
tre at
to mor
tomor row</w>
t able</w>
se par
s ex
regis tered</w>
re au</w>
r a</w>
prê t</w>
progr am
par fois</w>
pan ish</w>
nur se</w>
mar ket</w>
m ing</w>
m en</w>
m ang
jus qu&apos;</w>
in f
for t</w>
ex t</w>
eli gi
ec ted</w>
cul tur
contin u
b é
b s</w>
b ab
ap pris</w>
S panish</w>
Kau ni
Ch in
vo s</w>
v in</w>
un ity</w>
tea cher</w>
t ly</w>
so l
sear ch</w>
prepar atory</w>
pag no
pagno l</w>
o ds</w>
m ine</w>
i ce</w>
fac il
es pagnol</w>
du r</w>
d ate</w>
chec k</w>
ch er
bu reau</w>
bab y</w>
H o
vie ille</w>
vali d</w>
v as</w>
tr avel</w>
tem por
t our
sex u
ri che</w>
pr ends</w>
posi tion</w>
par ty</w>
om ali</w>
mit ted</w>
m et</w>
le ft</w>
l le</w>
kin d</w>
h un
h and
gr ounds</w>
get ting</w>
f eu</w>
ex erc
es ter
er al</w>
do ing</w>
ca f
ass istance</w>
ar ound</w>
ar d
ain st</w>
ai ss
ag ainst</w>
a tre</w>
S omali</w>
C on
0 4
î te</w>
â ge</w>
treat ment</w>
ta ken</w>
sum mer</w>
sto p</w>
some one</w>
s avez</w>
p ic
p ain</w>
me et</w>
mati c</w>
mat ter</w>
laiss é</w>
ho spital</w>
h er
for med</w>
edu ca
dr in
der ly</w>
clinic s</w>
ci es</w>
ch es</w>
c esFinnish</w>
bo îte</w>
T r
La pl
vo l
u m</w>
star ting</w>
saf ety</w>
s enti
pouv ais</w>
pl ac
pe c
par tment</w>
p t</w>
organis ed</w>
musi c</w>
mont agne</w>
m ent
liv ed</w>
la r</w>
i v
ho li
guar di
fe w</w>
end roit</w>
em and</w>
edu cational</w>
e Finnish</w>
dis cus
difficul t</w>
cul ture</w>
complet ed</w>
ca tions</w>
c er</w>
c ec
bl ess
b ur
am our
am is</w>
all emand</w>
Euro pe
2 .
y s
y er</w>
was te</w>
thé or
t our</w>
t in
ste m</w>
ser ez</w>
se en</w>
pr in
o k
noti ce</w>
medi cal</w>
m il
lo st</w>
lo in</w>
liv es</w>
lab our</w>
l es
fin i</w>
fi ve</w>
fi el
depen ds</w>
cec i</w>
ca pa
Kauni ainen</w>
Chin ese</w>
Ch il
y c
who se</w>
wel fare</w>
w al
vide o</w>
under stand</w>
tra ffi
théor ie</w>
sur pris</w>
sub ject</w>
st at
sor ry</w>
sh or
sec re
s end</w>
qu ality</w>
pres ent</w>
pon ais</w>
nouv elles</w>
n orm
mor ning</w>
min d</w>
m y
l ation</w>
in struc
in iti
in depen
gre at</w>
fr aid</w>
fen être</w>
f el
ev en
enf ant</w>
en cy</w>
e y
di plo
d enti
cr is
co sts</w>
cer tain</w>
b el
at h</w>
as sociation</w>
a fraid</w>
Uni on</w>
w ants</w>
us ing</w>
un employed</w>
ter m</w>
t i</w>
s ous</w>
s mo
re co
pla y
p un
mo ts</w>
minu tes</w>
mainten ance</w>
lear ning</w>
ka tu</w>
i al</w>
h on
g g
en vie</w>
en nu
eligi ble</w>
educa tionFinnish</w>
dé cid
cris is</w>
bus y</w>
b al
Europe an</w>
3 0</w>
vo lun
vi cti
ur gent</w>
t or</w>
soci été</w>
r ement</w>
pr im
pl i
pay ment</w>
pati ent</w>
p ur
p ed</w>
ow ned</w>
or din
occup ée</w>
nee ds</w>
n é
lin gs</w>
ish ed</w>
hi gh</w>
h an
ffi ci
f y</w>
f leurs</w>
ex ac
est ab
d on
comp et
comp an
compan ies</w>
co de</w>
cert ains</w>
buil ding</w>
ari es</w>
a ff
S u
Lapl and</w>
Ad minis
A n
ç on</w>
x i
ter ing</w>
ten ancy</w>
t ez</w>
st er</w>
spou ses</w>
some times</w>
so on</w>
sa w</w>
pré ci
pro t
pr ise</w>
or ig
occu pa
n ext</w>
mu l
m ange</w>
le m</w>
hav ing</w>
h appen
gr ant</w>
fro id</w>
fo od</w>
direct ly</w>
chau d</w>
ce Finnish</w>
bas is</w>
ar s</w>
am es</w>
ag ement</w>
Uni versity</w>
M in
A l
é cri
wor ld</w>
ur ch</w>
télé vision</w>
tr av
ter min
su ffici
s is
s how</w>
re ct</w>
qu er</w>
proc ess</w>
prob lem</w>
pregn ancy</w>
pois son</w>
po pul
pl eu
perman ently</w>
ouv er
off er</w>
ner ship</w>
mon tre</w>
ja ponais</w>
institu tes</w>
i k
hel d</w>
er ed</w>
entr al</w>
en semble</w>
ec ts</w>
dev riez</w>
dev ons</w>
compl è
co ld</w>
cal led</w>
a le</w>
T a
Min is
In tern
Finn s</w>
0 9.
y et</w>
wr ite</w>
w ard</w>
ti e</w>
sup pose</w>
su per
su n
sin ce</w>
s w
s ons</w>
ren d</w>
refuge e</w>
re f
r ac
perman ent</w>
p sy
o l</w>
norm ally</w>
n é</w>
main s</w>
long er</w>
jo int</w>
gi on</w>
fi x
fe e</w>
eas y</w>
e d
d ro
cultur al</w>
consider ed</w>
c ess
br ing</w>
bou lot</w>
b ad</w>
al ong</w>
C oun
z er
té s</w>
tur ned</w>
tric t</w>
suc re</w>
spea king</w>
reas on</w>
préf ér
mo is</w>
mang é</w>
m useu
fai rs</w>
experi ence</w>
ent ed</w>
det er
complè tement</w>
co p
clo se</w>
chem ise</w>
ch e
c li
c ent</w>
bre a
au gh
arr y</w>
ap pe
amour eux</w>
P ro
L u
Fin land
E quality</w>
A p
y ester
yester day</w>
wor ds</w>
vis it
vir on
trans port</w>
tr ade</w>
th ir
ta king</w>
s et</w>
ri ère</w>
requ ire</w>
regar ding</w>
recei ved</w>
pro m
por ted</w>
popul ation</w>
po l
parti e</w>
pa ternity</w>
ou s
ma ge</w>
m et
let ter</w>
j u
inter national</w>
institu teur</w>
ill ness</w>
h ors</w>
g é
g er</w>
fu ll</w>
fil m</w>
fi re</w>
fi ci
fa r</w>
f on
exerc ise</w>
es te</w>
err eur</w>
ec tive</w>
décid é</w>
der rière</w>
d ance</w>
cour ant</w>
contr ac
condi tions</w>
compet ence</w>
bé b
béb é</w>
b ed</w>
at tend</w>
arr ang
ag ree</w>
T he</w>
Minis try</w>
E E
étudi ants</w>
é qui
work place</w>
vis a</w>
uni ties</w>
u t
tre ated</w>
th ni
sub mit</w>
servi cesFinnish</w>
s pr
s p
resid ents</w>
re z</w>
quali fication</w>
pro ve</w>
po s</w>
opport unities</w>
mau vais</w>
ma kes</w>
lu m
lis h
k new</w>
hel ter</w>
gu erre</w>
fa ce</w>
f lo
f ast</w>
estab lish
es ses</w>
el derly</w>
der ni
danger eux</w>
cont ains</w>
caf é</w>
av enir</w>
ar ing</w>
T ur
P er
H ou
EE A</w>
A ct</w>
équi pe</w>
wor d</w>
we a
w ai
vi ent</w>
v a
ti c</w>
th re
ten n
tenn is</w>
t ai
super vis
su s</w>
sle ep</w>
seek er</w>
secon d</w>
s avait</w>
re turn</w>
re port</w>
r ai</w>
proch aine</w>
prob ab
perm ission</w>
out side</w>
oun d
oper ation</w>
occupa tional</w>
n ager</w>
mag as
loca ted</w>
li ght</w>
iti é</w>
inté res
initi al</w>
ill ed</w>
grou p</w>
g y</w>
f all
employ ers</w>
de ath</w>
d ai
cour se</w>
com muni
com es</w>
cir cu
cin q</w>
choo l</w>
child hood</w>
beg in
b at
ar ily</w>
ai m
ad vis
M e
F amil
écri re</w>
é pou
é g
with in</w>
w ait</w>
vo te</w>
vi a</w>
tru th</w>
tempor ary</w>
tel lement</w>
tal king</w>
t ained</w>
speci fi
s av
ri r</w>
requ est</w>
reg ul
pro pos</w>
pl es</w>
per formed</w>
pag es</w>
p ai
organis es</w>
open ing</w>
nom bre</w>
n or
n a</w>
meet ing</w>
libr aries</w>
li c
k o
ho b
h and</w>
h al
g are</w>
fri ends</w>
flo or</w>
es père</w>
deci de</w>
de b
d a
cri ption</w>
con tre</w>
cha que</w>
c tion</w>
ass ess
ar ti
appel er</w>
agre ed</w>
ado re</w>
Ta x</w>
M on</w>
é ti
wr ong</w>
vo is</w>
ver s</w>
us tr
ti ck
th em
suffici ent</w>
st a
sib ility</w>
s pen
répon dre</w>
respon sible</w>
religi ous</w>
r ap
par l
né cess
nom br
mi ght</w>
mar che</w>
magas in</w>
lo gi
lo an</w>
lis t</w>
lev el</w>
lat er</w>
issu es</w>
interes ted</w>
instruc tions</w>
im medi
il les</w>
i a</w>
hel ps</w>
gr y</w>
gr and
ex pec
drin k</w>
der ation</w>
d é</w>
d en</w>
ci ties</w>
cal ly</w>
c s</w>
bless é</w>
b lo
b ic
are as</w>
app elle</w>
Par is</w>
J o
In formation</w>
I t
F e
3 2
zer land</w>
y si
wit zerland</w>
wat ch</w>
tr ue</w>
th en</w>
star ted</w>
soci ations</w>
so r</w>
ser ais</w>
s é</w>
répon se</w>
refuge es</w>
r ê
proc ess
plu ie</w>
plan ning</w>
pi ed</w>
pen sive</w>
parti cipa
p ê
p ä
oubli é</w>
mo itié</w>
loo ks</w>
li e</w>
l arge</w>
kno ws</w>
indepen d
inclu des</w>
i ez</w>
h ear</w>
h ar
grou ps</w>
fai m</w>
f av
ex pensive</w>
every body</w>
es se</w>
entrepren eur
e g
dwel lings</w>
des sus</w>
cor rect</w>
capa ble</w>
cal cul
ca t</w>
c ing</w>
c ine</w>
c il</w>
b ought</w>
ap préci
any one</w>
an k</w>
allow ed</w>
ai e</w>
ab les</w>
a w
S witzerland</w>
Fr i</w>
1 6</w>
1 5</w>
è rent</w>
y Finnish</w>
tifi cation</w>
ti red</w>
tax ation</w>
t ory</w>
sw im
sur es</w>
su spe
stat us</w>
si ck</w>
sexu al</w>
ru les</w>
qu atre</w>
pou voir</w>
por ter</w>
pass port</w>
pa per</w>
oth ers</w>
occup ancy</w>
o ver
nécess aire</w>
no on</w>
nee ded</w>
n ers</w>
mé di
li am
le av
im um</w>
ill ez</w>
i mag
gro sse</w>
gen eral</w>
g ni
fix ed</w>
fici ency</w>
fi le</w>
f re
f ill</w>
f er</w>
ev ents</w>
ennu is</w>
em b
em a</w>
elec tr
e ff
dét este</w>
difficul tés</w>
d ont</w>
d ers</w>
co ver</w>
co st</w>
c ision</w>
bu d
author ity</w>
auc un</w>
ar en</w>
an n
al ors</w>
al co
ai ls</w>
af ter
O ffi
M on
Ho spital</w>
E mer
C om
3 1
1 1</w>
0 00</w>
writ ing</w>
vi end
ustr ali
tu s</w>
to im
tel li
ta te</w>
si on
shor t</w>
s ement</w>
ro ss</w>
puis se</w>
pi an
ph ysi
par ental</w>
pa sse</w>
ou i</w>
oblig ations</w>
no ir</w>
nat ure</w>
my self</w>
man agement</w>
ma ter
la w
l ée</w>
l &apos;
k ou
it able</w>
ish ing</w>
is te</w>
in telli
ill age</w>
ho ld</w>
happen ed</w>
happ en</w>
h or
gu e</w>
for ts</w>
e qui
e e</w>
diplo matic</w>
dev elopment</w>
cour t</w>
conn aiss
con f
circu m
bic y
begin ning</w>
b ière</w>
b eau</w>
b all</w>
auc une</w>
as sociations</w>
as se</w>
ap pr
alis ed</w>
ai r
W el
S up
S tu
O r
J an
Emer gency</w>
Bo ard</w>
A ustrali
9 5.
8 3
wi fe</w>
w on
vi v
v it
u i</w>
ter ve
tel y</w>
swim ming</w>
st ations</w>
shi ps</w>
sh ar
sel ves</w>
s our
s il
r as
po pu
ous ly</w>
o t</w>
ni ce</w>
nei gh
ne w
ne ar
mari er</w>
mar i</w>
ma j
lu tion</w>
lors que</w>
l è
l arg
indi vi
in forma
in d
i x</w>
ho pe</w>
gl as
gir ls</w>
gir l</w>
g â
g ag
for ms</w>
f la
f all</w>
ex ten
en ter</w>
en se
e p
dri ving</w>
dai ly</w>
conse ils</w>
co ff
choo se</w>
cel ui</w>
c entr
b er
ation Finnish</w>
any more</w>
an ni
al most</w>
ac k
T h
M o
Famil y</w>
C entral</w>
1 8
1 7</w>
é cou
è res</w>
yc ling</w>
y h
wo man</w>
veu illez</w>
ver re</w>
ur es</w>
to mb
tax es</w>
t est</w>
secre t</w>
s li
ri ons</w>
reco gni
pr ic
p ain
no tification</w>
n et
n ation
mul ti
mis sion</w>
lors qu&apos;</w>
laiss ez</w>
k u
k is
in es</w>
ic k
i .
hô tel</w>
h am
go ver
go ods</w>
g ave</w>
for get</w>
ev ent</w>
er y</w>
entrepreneur ship</w>
en sure</w>
em on
e ping</w>
du l
dis pos
derni er</w>
de f
d onne</w>
cou ldn</w>
conn a
chan son</w>
bud s
bal le</w>
ay la</w>
ab use</w>
Wel fare</w>
Sup port</w>
S t
Per sian</w>
M i
L ayla</w>
Adminis tration</w>
épou ser</w>
è que</w>
wor ks</w>
win do
wea ther</w>
vac ances</w>
u pon</w>
traffi c</w>
t t
sup ported</w>
sub si
spr ing</w>
separ ate</w>
resid ing</w>
read ing</w>
r ain</w>
pour riez</w>
pos t</w>
plac es</w>
ph ar
phar ma
perm its</w>
per dre</w>
pe ct</w>
participa te</w>
ordin at
on es</w>
no body</w>
new spa
n s</w>
n ings</w>
mis s</w>
man teau</w>
m self</w>
lum ière</w>
linkki Finnish</w>
li kes</w>
is ions</w>
institu te</w>
indivi du
in vol
in con
il lé</w>
il ities</w>
i. e
i.e .</w>
hu man</w>
hi mself</w>
h au
fa çon</w>
f ont</w>
f ish</w>
essay é</w>
equi p
el se</w>
déso lée</w>
di x</w>
di vi
di c</w>
d ish</w>
cou ple</w>
cont ent</w>
co û
ci v
c lé</w>
c king</w>
c ess</w>
bo y</w>
att end
ap an
apan ese</w>
an te
ai mes</w>
Tur k
R o
N e
M useu
K ur
J apanese</w>
Finland Finnish</w>
Fe deration</w>
A u
A gency</w>
7 .
5 0</w>
2 0</w>
webs ites</w>
vou dr
vi t</w>
v illage</w>
them selves</w>
t ary</w>
su l
su i
su ff
stu pi
senti ments</w>
sci enti
re al</w>
ra di
r ist
pric es</w>
poli ti
po lit
pl ine</w>
pian o</w>
pe au</w>
parl ez</w>
pa n</w>
p es</w>
p d
pd f</w>
our t</w>
organis ations</w>
onn es</w>
on g
offi cial</w>
neigh b
mon tr
mai l</w>
lo se</w>
liam ent</w>
l ly</w>
it al</w>
in cre
immedi ately</w>
id s</w>
ic ant</w>
i or</w>
his tory</w>
hav en</w>
gr ound</w>
fun d</w>
fu ture</w>
fu lly</w>
fi ed</w>
fe el
f ishing</w>
eu re</w>
er ing</w>
entrepren eurs</w>
ent y</w>
elec tions</w>
ef forts</w>
ear nings</w>
dec isions</w>
d ge</w>
d anger</w>
consi der</w>
coff ee</w>
child birth</w>
bi g</w>
au to
ati ves</w>
assess ment</w>
ans wer</w>
all ons</w>
a att
U u
O s
Nor dic</w>
M a
Kur dish</w>
It ali
Intern et</w>
En ter</w>
C lin
A dul
6 0</w>
1 6.
04 0.
02 0.
. .</w>
è te</w>
è me</w>
who le</w>
wai ting</w>
viron ment</w>
victi m</w>
v ê
ti ful</w>
sy stem</w>
st y
soci ety</w>
si onal</w>
si ck
sick ness</w>
requir es</w>
r un</w>
qu é</w>
qu it
program me</w>
prim ary</w>
pi e
pe di
par a
o t
nombr eux</w>
museu ms</w>
mon it
les sor</w>
ish es</w>
institu tion</w>
i an</w>
ho mes</w>
hel pline</w>
gâ teau</w>
guardi an</w>
gi ves</w>
gi onal</w>
facil ement</w>
ex penses</w>
er a</w>
equ al</w>
en ro
elec tion</w>
dur ation</w>
docu ments</w>
docu ment</w>
di ed</w>
cu t</w>
con fi
com prends</w>
chang é</w>
ch arg
cer emon
c é
buds man</w>
bi bli
b les</w>
b es</w>
b ar
arriv ed</w>
ant age</w>
al ement</w>
aff ect</w>
addi tional</w>
Li br
Hou sing</w>
Dis trict</w>
Di eu</w>
C ourt</w>
C er
2 01
éti ez</w>
was n</w>
vo la</w>
vie w</w>
vers aire</w>
un it</w>
tr ac
tea ching</w>
suspe ct</w>
sup pl
sub mitted</w>
sis ter</w>
sing le</w>
ser i
se ems</w>
saf e</w>
s ati
sati s
re fer
re a</w>
psy cho
profes sional</w>
pi r
pedi ments</w>
part nership</w>
par lé</w>
pa u
pa re</w>
p é
oth èque</w>
ob j
nei ge</w>
n ment</w>
mau v
ma tely</w>
leav ing</w>
le ge</w>
l&apos; l&apos;</w>
jou e</w>
jo in</w>
in to
in d</w>
im pediments</w>
ho t</w>
he ard</w>
hal f</w>
h ead</w>
fla ts</w>
fiel d</w>
f un</w>
f it</w>
equip ment</w>
e ful</w>
din ner</w>
de hors</w>
d Finnish</w>
condu ire</w>
comm unity</w>
com pu
coll ective</w>
clu bs</w>
civ il</w>
c tions</w>
c eux</w>
bro ther</w>
brea k</w>
bibli othèque</w>
beau tiful</w>
b it</w>
att endre</w>
appro xi
anni versaire</w>
an im
am ong</w>
al th
ac tu
a partment</w>
V o
Regis tering</w>
Par liament</w>
P or
O p
O m
Me tro
M oni
L angu
En ter
E x
Coun cil</w>
Clin ic</w>
2 0
02 95.
z ed</w>
v ang
vang eli
vangeli cal</w>
us es</w>
ur ed</w>
u t</w>
u es</w>
ty pe</w>
tro bo
trobo thni
tr ying</w>
to wn</w>
ti esFinnish</w>
thin king</w>
ther ap
ther an</w>
tem ents</w>
sé cur
sécur ité</w>
su itable</w>
st ory</w>
spen d</w>
sig n</w>
si ma
seek ers</w>
respon sibility</w>
res ide</w>
relation ships</w>
regar de</w>
regar d
re ti
re cre
pä iv
program mes</w>
pri ce</w>
pre ci
polit an</w>
plu tôt</w>
pi er</w>
pens er</w>
parti al</w>
pa use</w>
orig in
noti fy</w>
ne l</w>
n ear</w>
n ames</w>
n a
mor t
meill eure</w>
medi cine</w>
mag az
m ou
m as</w>
linkki The</w>
le gis
law yer</w>
l an
kno wn</w>
ke y</w>
k un
is ure</w>
is es</w>
im médi
il es</w>
i di
hur t</w>
holi days</w>
hab ite</w>
h air</w>
guar ante
gr ow
fin ished</w>
famil i
f low
exten sion</w>
eu vola</w>
e br
do m
dis cours</w>
dev en
deci ded</w>
d or
cou ver
concer ning</w>
clas s</w>
cl ear</w>
cel ebr
ca m
c ted</w>
c ked</w>
bo ire</w>
ay ez</w>
appel é</w>
ant sFinnish</w>
ac qu
ab o
ab ility</w>
V A
Uu sima
S y
R es
Por tu
Os trobothni
N o
Lu theran</w>
J u
E vangelical</w>
7 1
ê tres</w>
y es</w>
us eful</w>
ty ö
tri p</w>
tr ai
tick et</w>
th es</w>
terve ys
t un
sen se</w>
see k</w>
s ai
rist mas</w>
ri ch</w>
rencontr er</w>
reas ons</w>
re im
reim bur
radi o</w>
r un
r entr
r end
qu ite</w>
qu ick
préfér ée</w>
process ing</w>
pre vi
pr en
pl eur
par ties</w>
ow ner</w>
ordinat eur</w>
or ity</w>
no te</w>
no re</w>
n ement</w>
mai str
ma te</w>
legis lation</w>
le isure</w>
kin ds</w>
inf lu
ig nore</w>
he art</w>
h ate</w>
h as
gover nment</w>
fl at</w>
fiel ds</w>
fel l</w>
ey es</w>
ex cep
er ai</w>
ense ign
e f</w>
discus s</w>
dis t
deter min
de du
custom ers</w>
condi tion</w>
con fir
comp te</w>
com pens
clo thes</w>
clo sed</w>
cho ix</w>
cha peau</w>
ch aus
care ful</w>
c tu
c ent
bi es</w>
be came</w>
b on
b and</w>
ari an</w>
approxi mately</w>
accep ted</w>
Uusima a</w>
Swed en</w>
M ar
D ay</w>
Chil d</w>
Ch ristmas</w>
C ross</w>
C ol
9. 5
1 12</w>
y m
wor ked</w>
win ter</w>
w ise</w>
volun tary</w>
us h
ur y</w>
uni cipa
u it</w>
u ary</w>
tri ed</w>
toim isto</w>
tho do
thodo x</w>
ter ri
ter ms</w>
t ments</w>
supervis or</w>
subsi dy</w>
su d
st af
staf f</w>
smo ke</w>
sho p</w>
sh are</w>
ser v
s ac
ré union</w>
ré sou
recogni tion</w>
r appeler</w>
prot ection</w>
pro pos
pret ty</w>
poli cy</w>
pa s
onn é</w>
ob tained</w>
ne ws</w>
mo d
mi enne</w>
meet ings</w>
medi cation</w>
mater ial</w>
ma y
lun ch</w>
lo gis
lo cation</w>
la quelle</w>
jo bs</w>
it to</w>
inter est</w>
ing ing</w>
independ ently</w>
in er</w>
immigr antsFinnish</w>
hob bies</w>
heur euse</w>
gu ide</w>
gu ese</w>
gr a
gl ad</w>
finan cing</w>
fin ding</w>
fav or
exac tly</w>
ex tr
even ing</w>
eu ses</w>
eu ro
ent ation</w>
en tered</w>
en jo
em plo
e ption</w>
dé r
dou ble</w>
di e</w>
d eli
d augh
d ar
cul ation</w>
clo ck</w>
ci ally</w>
chaus sures</w>
ch ar
c ès</w>
c le
c es
bu ying</w>
beg in</w>
ay ed</w>
av antage</w>
appoin tments</w>
ain si</w>
ag o</w>
ad ver
ad mi
aatt i</w>
a ke</w>
W h
R ed</w>
Portu guese</w>
Ostrobothni a</w>
Or thodox</w>
O h</w>
Metro politan</w>
M unicipa
M A</w>
Langu age</w>
Ja pan</w>
G u
Dis crimination</w>
Ch urch</w>
Cer tificate</w>
A h</w>
0 5
. ..</w>
ä ä
work ers</w>
week ends</w>
week days</w>
war ds</w>
vê tements</w>
vé ni
véni ent</w>
vo itu
voitu res</w>
v ak
thir d</w>
t k
sur pris
sub j
su gg
sto re</w>
st op
spo ken</w>
si a
ser ve</w>
scienti fi
sau na</w>
s ection</w>
ris is</w>
rece ption</w>
re gion</w>
quali fi
prom ise</w>
proch ain</w>
pres cription</w>
practi cal</w>
pr ess
pl ai
pi re</w>
pass er</w>
part ner</w>
pa l
p is
ouver nement</w>
or i
op isto</w>
on ic</w>
offi ces</w>
off ered</w>
near est</w>
min imum</w>
mil k</w>
me ant</w>
mauv aise</w>
maistr aatti</w>
m ess
ll ars</w>
l ou
l ar
into x
incon vénient</w>
immédi a
immédia tement</w>
ign or
i kk
hou sing
he av
h a</w>
gen re</w>
gen der</w>
g ouvernement</w>
fuge e</w>
fel t</w>
fe at
f s</w>
ex per
esti mon
enn ent</w>
en vironment</w>
el lement</w>
do llars</w>
divi ded</w>
diff ér
dev rions</w>
d re
cr u
cor respon
contrac eption</w>
compu ter</w>
cho ice</w>
ch urch</w>
ch ed</w>
beg ins</w>
b ri
b ill</w>
b ack
as ts</w>
arrê té</w>
ar ts</w>
ar ly</w>
ap preci
ain es</w>
after noon</w>
af fairs</w>
VA L
VAL MA</w>
T V</w>
Sy stem</w>
S chool</w>
Re fugee</w>
P op
N u
K i
Jo h
In surance</w>
C risis</w>
A rea</w>
A mer
A f
8 0
3 5
3 00</w>
1 0
01 6.
y r
work er</w>
wee ks</w>
wal k</w>
w ine</w>
voul ons</w>
voudr ais</w>
volun te
vis u
v ary</w>
us band</w>
ul ation</w>
tion ary</w>
thre at
t elle</w>
t ask</w>
t as
sy m
st and
specifi c</w>
sem bl
se x</w>
sa c</w>
s éri
s helter</w>
résou dre</w>
requir ement</w>
re cor
r al</w>
quick ly</w>
pro ficiency</w>
previ ous</w>
po wer</w>
pleur er</w>
pl enty</w>
pho to
para pluie</w>
p a</w>
organis ation</w>
opport unity</w>
occu pied</w>
o re
nat ur
mort g
mortg age</w>
mo ved</w>
mar ché</w>
m arry</w>
loo ked</w>
lo gy</w>
lis ten</w>
lev els</w>
l av
kou lu
itu s</w>
issu e</w>
inv ited</w>
intéres s
ig n</w>
i rs</w>
i des</w>
ho it
he aring</w>
hand le</w>
h y
h usband</w>
h ind</w>
h ai
gr an
gr ade</w>
for m
facil ities</w>
f ou</w>
es ts</w>
es pe
es k
er ation</w>
electr onic</w>
eas ed</w>
dr u
deb t</w>
de al</w>
d roit</w>
d i</w>
d avantage</w>
custom er</w>
cor rec
continu ous</w>
contin ue</w>
com man
co pi
cl és</w>
circum cision</w>
ch ers</w>
ceremon y</w>
care fully</w>
c ré
c arri
bu t
bl ack</w>
be hind</w>
at er</w>
as ed</w>
arrang ed</w>
ar ro
an gry</w>
af for
af faire</w>
af fai
ad minis
acti v
ac cus
ab or
Y outh</w>
W or
Vo cational</w>
T u
Re gion</w>
Pop ulation</w>
P ol
Om budsman</w>
Offi ces</w>
Museu m</w>
Moni N
Itali an</w>
Col lege</w>
Chil dren</w>
C ard</w>
Af fairs</w>
Adul t</w>
A m
A id</w>
4 .
y o</w>
wou ldn</w>
wor ry</w>
won der</w>
windo w</w>
v el
us h</w>
tur es</w>
tu m
tum n</w>
tr ap
tomb é</w>
to p</w>
to m
ti que</w>
the atre</w>
ten ir</w>
tel ev
telev ision</w>
t oni
toni ght</w>
t estimon
t ent</w>
surpris ed</w>
sty lo</w>
sto dy</w>
smo king</w>
si r</w>
ser ved</w>
s es
ré us
ri ed</w>
res our
ras es</w>
r ented</w>
quot a</w>
provi der</w>
prepar ed</w>
pregn ant</w>
popu lar</w>
po m
ph rases</w>
per s</w>
pa st</w>
pa ss</w>
p ped</w>
p il
ound ation</w>
ol der</w>
ok yo</w>
o s</w>
o king</w>
n i</w>
n et</w>
minu te</w>
mer ci</w>
maj ority</w>
m ets</w>
li mit
le il</w>
l ec
l ea
kk i</w>
k illed</w>
it Finnish</w>
is m</w>
is ed</w>
inv it
intelli gent</w>
ing Finnish</w>
inf o</w>
individu al</w>
indi ca
ind us
in side</w>
im prove</w>
hu m
housing Finnish</w>
ho l
h é
gu ess</w>
gu al</w>
gra des</w>
g ame</w>
g am
g Finnish</w>
for ce</w>
fen êtres</w>
f oun
exam en</w>
exac tement</w>
eli hood</w>
el ess</w>
eas ily</w>
eas es</w>
don c</w>
dis crimin
des cri
da mage</w>
d ence</w>
con struc
con que</w>
complet ely</w>
comm it
co oking</w>
chang ed</w>
ca s
c lai
bo ys</w>
bl ing</w>
beg an</w>
b un
au tumn</w>
at or</w>
arr ange</w>
any body</w>
alco ho
ag ent</w>
ach e</w>
a th
a sun
a si
V i
T okyo</w>
S helter</w>
P o
MoniN et</w>
C V</w>
016. 32
, 000</w>
è rement</w>
y st
y ours</w>
wi m</w>
we ar</w>
wat ching</w>
w ed</w>
victi ms</w>
vi dé
us er</w>
tri culation</w>
traffi cking</w>
tra di
tr ative</w>
tifica tes</w>
ti ent</w>
thor ity</w>
ther e
th ank</w>
te ch
tai lle</w>
sup pos
subj ects</w>
str ong</w>
sor t</w>
sle eping</w>
si ze</w>
si a</w>
shar ed</w>
sh all</w>
sen ior</w>
sel l</w>
se cu
sav ent</w>
s wim</w>
refer ral</w>
re fu
re comm
r é</w>
probab ly</w>
pro mis
pris es</w>
pr u
pr end
pos t
pos er</w>
po or</w>
pla ying</w>
pie ds</w>
pay ments</w>
par k</w>
pa ying</w>
pa pier</w>
p ér
ow nership</w>
origin al</w>
oper ations</w>
om en
oc ca
oblig ed</w>
o ik
oik eu
ni fi
ne y</w>
nation ality</w>
man quer</w>
lo b
liv elihood</w>
la st
l augh
kno w
jam bes</w>
j ä
j et
ir ai</w>
i ght</w>
hur ry</w>
holi day</w>
ho tel</w>
han ds</w>
gir l
g arian</w>
fr app
f ou
f ine</w>
f asse</w>
expec ted</w>
examin ations</w>
ex pli
ex change</w>
every day</w>
eu sement</w>
establish ed</w>
espe cially</w>
er ais</w>
ent ing</w>
elec ted</w>
dom esti
di rec
daugh ter</w>
dar k</w>
d le</w>
d ents</w>
d eau</w>
d at
cri mes</w>
cr az
copi es</w>
consider ation</w>
con v
com pris</w>
ck y</w>
cher che</w>
can cel
ca ss
c ks</w>
c em
c arry</w>
bu l
bo x</w>
bl an
bir th
bicy cle</w>
bel ong</w>
av er
at ure</w>
at trap
appréci e</w>
appe al</w>
am ment</w>
am ies</w>
alcoho l</w>
ai l</w>
ag ed</w>
adver ti
ad d</w>
a la</w>
Turk ish</w>
Stu dent</w>
M r</w>
Libr ary</w>
L eg
Joh n</w>
In ter
In stitu
F ri
Enter prise</w>
D e
Ch ris
Au thority</w>
Ad vice</w>
8 16.
ô le</w>
ç u</w>
â tre</w>
vo ting</w>
ven us</w>
trou ble</w>
tric ity</w>
tr adu
ti ö</w>
therap y</w>
tel ling</w>
te ach</w>
tax i</w>
t wi
t ors</w>
su n</w>
stu me</w>
sou viens</w>
so lu
sho t</w>
sho es</w>
shi r
seri ous</w>
ser as</w>
s ite</w>
s it</w>
s cre
ré f
run ning</w>
rel atives</w>
re gional</w>
re es</w>
pê cher</w>
pur pose</w>
préf ère</w>
profes sion</w>
probab lement</w>
pro mo
pres sion</w>
pr on
pos sib
pl e
physi cal</w>
pharma cy</w>
pers on
par en
pag ne</w>
pa ce</w>
orig in</w>
nor mal</w>
n y</w>
n es</w>
n am
mo vie</w>
me al</w>
may be</w>
mar ital</w>
ma triculation</w>
m i</w>
lu cky</w>
logis t</w>
lic ence</w>
land lor
know le
ke pt</w>
j eu</w>
invol ved</w>
inv esti
investi g
inter view</w>
in fo
idi ot</w>
i m</w>
i ble</w>
hou se
ho s
hi p</w>
her self</w>
h our</w>
gé n
glas s</w>
girl friend</w>
fr ont</w>
flow ers</w>
feat ures</w>
f our
ex plo
even ings</w>
ess aie</w>
es tate</w>
equ ally</w>
eng th</w>
elec tricity</w>
el o
ea si
dri ve</w>
dr a
donn ez</w>
domesti c</w>
dist ance</w>
dis eases</w>
dis cu
de al
d y
cu stody</w>
craz y</w>
coun sel
contr i
conse il</w>
conna ît</w>
con centr
com mod
co stume</w>
co ok</w>
co in</w>
cl ari
cin ema</w>
chang es</w>
care Finnish</w>
ca u
ca ts</w>
ca t
c é</w>
c u</w>
bor row</w>
be er</w>
b ai
au tor
as to</w>
as ema</w>
arri ver</w>
arrang ements</w>
appreci ate</w>
appr enti
appli cations</w>
ann ées</w>
am é
all ée</w>
al u
ag ue</w>
affai res</w>
accep t</w>
abo ve</w>
Su omen</w>
Ro man
Pol ish</w>
Par ish</w>
N on</w>
Leg al</w>
Jan uary</w>
Australi e</w>
3 .
1 3</w>
09. 83
02 9.5
0 1</w>
ét o
é ch
è ne</w>
work places</w>
webs it
was h</w>
w er
vo ici</w>
visit ing</w>
vie il</w>
vidé o</w>
vi ère</w>
ven ue</w>
vari ety</w>
vac cin
v ä
v ing
v i</w>
v ar
ur gen
un able</w>
tu é</w>
tro m
tri bu
trans l
tk into</w>
ti ce</w>
tho od</w>
thin ks</w>
ther n</w>
terveys asema</w>
termin é</w>
tea m</w>
tea chers</w>
t ée</w>
suc cès</w>
str e
st ance</w>
sor y</w>
sor te</w>
so sia
so ld</w>
shir t</w>
separ ately</w>
sent ences</w>
sem ents</w>
se as
se a</w>
sci ence</w>
sa ying</w>
s qu
s ound</w>
s even</w>
s and
ri vière</w>
res ul
res semble</w>
rem ov
recei ving</w>
rec ycling</w>
re tour
re t
re ques
re pres
re ach</w>
ra ther</w>
r on
pul sory</w>
pré par
pres chool</w>
pre fer</w>
practi ce</w>
pr ête</w>
pos te</w>
politi cal</w>
pl as
peti tion</w>
pers onnes</w>
pen sion
pau vre</w>
pati ence</w>
parti cu
part i</w>
paren thood</w>
par ts</w>
p é</w>
op tions</w>
onn aire</w>
on str
on ed</w>
on cle</w>
nur ses</w>
natur al</w>
n al</w>
mit h</w>
mess age</w>
man ager</w>
m é</w>
lo ved</w>
limit ed</w>
li ez</w>
li bre</w>
lev er</w>
lear ned</w>
le quel</w>
l ess
l ap
l am
ke ys</w>
k il
j e
is ts</w>
intox icant</w>
interes ting</w>
inst ead</w>
in o
in j
im possible</w>
i tion</w>
i cal</w>
hun gry</w>
hos pit
hi ver</w>
he alth
h onn
h it</w>
gén ér
guarante e</w>
gr adu
gar de</w>
gam bling</w>
g y
g er
g ar</w>
fr uit</w>
foreig ners</w>
for got</w>
feel ing</w>
favor ite</w>
f al
ex pl
ex pi
euro s</w>
eu e</w>
esk us</w>
enti al</w>
enseign ant</w>
enc ed</w>
en voy
en te</w>
emb arr
ec ti
e h
dev ant</w>
determin ed</w>
deter mine</w>
dem onstr
dem and</w>
dem an
danger ous</w>
d ead</w>
cur rent</w>
cour age</w>
cou ples</w>
contri bu
construc tion</w>
conn ection</w>
con stitu
com pulsory</w>
coll ection</w>
ci eux</w>
ci er</w>
ces hip</w>
cer tificates</w>
cau ght</w>
car te</w>
cal ling</w>
ca pital</w>
ca p
ca ke</w>
bre ak
break fast</w>
br inging</w>
birth day</w>
bi le</w>
be hav
ba g</w>
b â
b in
b il
aver age</w>
at en</w>
arro g
ar me</w>
appro pri
ap par
an ti
an g</w>
an ced</w>
an ceFinnish</w>
al tern
agre ements</w>
ac commod
a se</w>
a ar
S un
S tate</w>
S ci
Rus sia</w>
Ne w</w>
M y
Fri day</w>
F oundation</w>
F ore
Amer ic
4 0</w>
35 8</w>
2 8
016.32 2.
œ il</w>
î tre</w>
ë l</w>
ét age</w>
â mes</w>
y en</w>
wh at
week end</w>
websit eFinnish</w>
w ing</w>
w ar</w>
vir asto</w>
viend ra</w>
ve illé</w>
v is</w>
v ement</w>
us iness</w>
un k</w>
un eration</w>
twi ce</w>
tur ns</w>
trav el
tr an
tou ch</w>
thé âtre</w>
there fore</w>
th é</w>
th ough</w>
testimon ial</w>
ten te</w>
ten ste
tenste in</w>
tech no
t on
t lement</w>
t ex
suc ce
su gar</w>
su bs
sto od</w>
stand ing</w>
st or
st ayed</w>
speci alised</w>
sou hai
som me
somme il</w>
sim ple</w>
si gn
schoo l
s on
s now</w>
s mar
s c
réf lé
réflé ch
resour ces</w>
requir ements</w>
remov al</w>
rem uneration</w>
regul ations</w>
refu se</w>
re ali
rap id
qui et</w>
päiv yst
pu p
pro ject</w>
pre pare</w>
posi tions</w>
port Finnish</w>
pol i</w>
pli ed</w>
per f
pass ed</w>
par c</w>
pan kki</w>
pai red</w>
oper ate</w>
open ed</w>
on er</w>
o is
num er
newspa pers</w>
newspa per</w>
n eu
n esses</w>
multi cultural</w>
mis take</w>
mil li
mari é</w>
man u
man qu
main tained</w>
ma ster</w>
lis ten
linkki Ministry</w>
li itto</w>
li es</w>
li cen
le çon</w>
larg er</w>
ki o</w>
ki el
k ä
k it
kit ch
k er</w>
k au
j ard
inter net</w>
informa l</w>
ill ing</w>
hu it</w>
hob by</w>
hi king</w>
has n</w>
h ja
gre at
gr at
go es</w>
glas ses</w>
gag né</w>
g é</w>
g one</w>
g in</w>
g ames</w>
fe es</w>
f lu
f illed</w>
ey e</w>
exam ples</w>
er ve</w>
entre Finnish</w>
entr ance</w>
ent ôt</w>
enro l</w>
enjo y</w>
eng en</w>
em br
ear ned</w>
e con
e ch
e ating</w>
don ner</w>
di ces</w>
di c
deven u</w>
des tin
deg rees</w>
d el
cu se</w>
cr af
cop y</w>
cop y
confi ance</w>
con st
complet ing</w>
co at</w>
che ap
ch engen</w>
cent ury</w>
can cer</w>
calcul ated</w>
ca ted</w>
c ô
c ts</w>
c les</w>
c elle</w>
bro ke</w>
bro ch
br es</w>
boo king</w>
bicy cl
bi entôt</w>
back ground</w>
au t</w>
au rait</w>
au n
at ti
as su
ar ds</w>
appoin ted</w>
an tes</w>
an nu
an katu</w>
an cies</w>
amé li
all és</w>
al ité</w>
ai rs</w>
ai res</w>
ai ds</w>
adminis tration</w>
ad res
acti ve</w>
ach ed</w>
ab solu
ab ly</w>
a ts</w>
Tr ans
S mith</w>
S chengen</w>
Rov ala</w>
Roman ian</w>
P resident</w>
Mon day</w>
Jan e</w>
J une</w>
J or
G od</w>
E ar
B usiness</w>
Am éri
Adminis trative</w>
9 2.
4 9
2 5</w>
0 6</w>
é p
ä n
â che</w>
what ever</w>
wed ding</w>
was h
w w
w ro
wro te</w>
volunte er</w>
vo lution</w>
vis ite</w>
ving t</w>
ve ill
v end
v aut</w>
univer s</w>
u u
u lar</w>
té es</w>
tro l</w>
tro du
trav ers</w>
trans mitted</w>
trans fer</w>
tom ber</w>
to il
ti en</w>
ther wise</w>
the a
tempor arily</w>
t une</w>
t ti</w>
t ab
sy st
sup plement</w>
sud den
sudden ly</w>
sub stance</w>
su it</w>
stupi d</w>
sti pul
sta ying</w>
st ed</w>
speci alis
spe ec
speec h</w>
spa ce</w>
sol ve</w>
so leil</w>
sig nifi
shou ldn</w>
sexu ally</w>
sent ence</w>
sel ler</w>
see m</w>
s pi
s et
s car
ré par
rou tes</w>
ri re</w>
ri de</w>
res te</w>
res pect</w>
reg ular</w>
recre ation</w>
re voir</w>
r ound</w>
r ing</w>
r ate</w>
r ar
qualifi cations</w>
qu eue</w>
päivyst ys</w>
pré sen
profes sions</w>
produ cts</w>
prin temps</w>
pren ez</w>
pr end</w>
po ir</w>
play ed</w>
pic ture</w>
par viens</w>
par ishes</w>
pa re
p i</w>
ob serve</w>
o therwise</w>
ni e</w>
museu m</w>
mo bile</w>
met tez</w>
me an</w>
magaz ines</w>
ma tion</w>
m oun
lob al</w>
li ked</w>
leg alised</w>
le gs</w>
larg est</w>
lai re</w>
kun ta</w>
ko ti
kitch en</w>
k a</w>
jour nal</w>
jard in</w>
it y
is i
intelli gen
influ ence</w>
indepen dent</w>
in trodu
in stru
i ent</w>
hun ting</w>
house hold</w>
hospit als</w>
hon te</w>
heav y</w>
h at</w>
h ard
guid ed</w>
guardi an
gro s</w>
go t
gi e</w>
gen cies</w>
g ets</w>
fur ent</w>
fun ds</w>
for ward</w>
fo ot
fl ex
fil ms</w>
fer a</w>
fai sons</w>
f am
f act</w>
expec ting</w>
ex pect</w>
ex cus
esti v
es pace</w>
er gy</w>
enti re</w>
enn emi</w>
end ing</w>
emplo i</w>
embarr ass
ech tenstein</w>
dé sor
dé cision</w>
du s</w>
du re</w>
discus sion</w>
disab ilities</w>
dis pose</w>
di g
dev elo
det ai
denti st</w>
dat a</w>
d ans
cre denti
cont ac
con su
con clu
commit ted</w>
cle an</w>
cho is
cher ch
ce l</w>
ca deau</w>
bun al</w>
bicycl ette</w>
bi ke</w>
ban king</w>
bai ser</w>
b le
b ag
at ta
arti cle</w>
ar ch
appen dices</w>
anim aux</w>
ani mal</w>
améli or
all ait</w>
admi re</w>
accommod ation</w>
ab sent</w>
ab and
a Finnish</w>
Th ai</w>
Sun day</w>
Pro ficiency</w>
P en
O y</w>
Ne w
M at
Li echtenstein</w>
Intern ational</w>
Helsin ki
Ear th</w>
E s
E l
Dis ab
Coun selling</w>
Ap plied</w>
6 3
2 4</w>
2 2</w>
œu fs</w>
étudi er</w>
ég alement</w>
è de</w>
ä iti
z z
y ons</w>
y l
x imum</w>
wor th</w>
won der
wer en</w>
we aring</w>
wal ked</w>
w in</w>
vé cu</w>
vo lon
viol ent</w>
vi vent</w>
vi es</w>
val ue</w>
vac ancies</w>
v on
v ey</w>
uu tus</w>
usu al</w>
us ée</w>
uni vers
ul ti
u mb
umb rel
tre e</w>
tr ust</w>
to virasto</w>
to t
ti ves</w>
ti mi
threat en
thni c</w>
th ou
th an
ten ant</w>
tas ks</w>
tal ked</w>
t au
sur vey</w>
suppos ed</w>
su iv
str i
star s</w>
st ing</w>
st airs</w>
spo ke</w>
sour ce</w>
sol ved</w>
sle pt</w>
sk ill</w>
sk i
si eurs</w>
ser ves</w>
sem bles</w>
sel on</w>
see ing</w>
s port</w>
s en</w>
s ch
ru le</w>
ri ver</w>
respon s
rentr er</w>
ra se</w>
ra ha</w>
r i</w>
r eu
r an</w>
pun ctu
pré si
pré sent
produ it</w>
pro position</w>
pro hi
prem ises</w>
pos it</w>
plu sieurs</w>
plo matic</w>
pleu voir</w>
play grounds</w>
plas tic</w>
pla ys</w>
ph rase</w>
perm itFinnish</w>
pal vel
pa tr
p ping</w>
p air</w>
or k</w>
or is
or der
offi cer</w>
occa sion</w>
o w</w>
o s
o d
ni fication</w>
ne go
nego ti
musi ci
mu ut
mis sions</w>
min or</w>
mid dle</w>
mi gn
mar cher</w>
man che</w>
ma ximum</w>
ma ch
m enti
lè ve</w>
lu kio</w>
lo ans</w>
lin ikk
linikk a</w>
lin en</w>
li er</w>
landlor d</w>
l ength</w>
knowle dge</w>
k linikka</w>
k ill</w>
k ids</w>
iti esFinnish</w>
interes ts</w>
independ ence</w>
in spe
in no
in her
in en</w>
in ed</w>
in e
il ité</w>
ic ants</w>
i vent</w>
i als</w>
hu man
han muut
h ea
guardian ship</w>
gu es</w>
grow th</w>
gr es
gr ants</w>
gi ving</w>
g au
fur n
fre ely</w>
foun ded</w>
for mer</w>
for ced</w>
fon cti
fol low</w>
fol k</w>
feel ings</w>
famili ar</w>
fam ous</w>
fall u</w>
f ying</w>
f ear</w>
f as
f ar
ex ist</w>
ex ist
ex em
ex cuse</w>
ex am</w>
ev alu
et er
ester n</w>
es poir</w>
er sFinnish</w>
eng ine</w>
eng age</w>
enc esFinnish</w>
easi er</w>
e thnic</w>
e aux</w>
e aten</w>
dé li
dé couver
du ty</w>
dr a</w>
dorm i</w>
dor t</w>
do w
discu ter</w>
dis trict</w>
dis tribu
difficul ties</w>
detai led</w>
det ails</w>
depen ding</w>
de posit</w>
d it
d g
d ess
d ay
d able</w>
cô té</w>
cu te</w>
credenti als</w>
cre dit</w>
cover s</w>
cor ri
consi dér
conn ected</w>
concer t</w>
con sent</w>
compl i
comm er
com petition</w>
com pag
co pe</w>
clas ses</w>
ci de</w>
celebr ated</w>
cat ch</w>
carri ed</w>
car s</w>
car ds</w>
ca used</w>
c used</w>
c entral</w>
c ement</w>
bro ken</w>
br ought</w>
bou te
bi z
beli ev
be coming</w>
b u</w>
av a</w>
ar i</w>
apprenti ceship</w>
ans w
allow anceFinnish</w>
ag it</w>
affor dable</w>
advis able</w>
adres se</w>
ad mitted</w>
ad ded</w>
activ ity</w>
accus é</w>
ac tion</w>
a hanmuut
Y ork</w>
Q u
O hja
No ël</w>
Municipa lity</w>
L än
Inter pret
H i
G re
Fore ign</w>
Euro pe</w>
El derly</w>
Di plomatic</w>
Com m
Chris ti
C an
5 00</w>
05 0.
étudi ant</w>
ér er</w>
écou ter</w>
é tions</w>
é ren
é ner
äiti ys
ä jä
z o
zo o</w>
y ö
y tt
work Finnish</w>
wh om</w>
we gi
wegi an</w>
war m</w>
vou lo
voulo ir</w>
visu al</w>
vis ited</w>
vi et</w>
ver se</w>
vaccin ations</w>
v at
ut ch</w>
us é</w>
un its</w>
un garian</w>
un for
un cle</w>
umbrel la</w>
u ri
u m
u k
ty pes</w>
tu er</w>
trouv er
travail lé</w>
trav er
tot al</w>
ton gue</w>
tick ets</w>
ti s
ti n</w>
throu gh
through out</w>
the ory</w>
than ks</w>
terri ble</w>
ten u</w>
techno logy</w>
t sFinnish</w>
t ears</w>
t ation</w>
t ar
t Finnish</w>
sur viv
suff is
stupi de</w>
stre et</w>
str ange</w>
stop ping</w>
ste ward</w>
sta tement</w>
st y</w>
st er
spea ks</w>
sour ces</w>
sor s</w>
some where</w>
so p
so oner</w>
so lution</w>
smar t</w>
sm aller</w>
sig ned</w>
si ght</w>
shor ter</w>
see king</w>
sec tor</w>
sa le</w>
s avons</w>
ro ck</w>
reti rement</w>
res pec
rel ating</w>
regul ated</w>
reali ze</w>
re venir</w>
re tur
rapid ement</w>
r it
r er</w>
pur cha
purcha se</w>
provi ders</w>
pro pri
pres identi
presidenti al</w>
pr eu
pou ss
pos sibility</w>
port ait</w>
por tes</w>
pleu t</w>
pl y</w>
ph il
phil o
peri ods</w>
pen sions</w>
pe in
particu lar</w>
par o
p en</w>
ouver t</w>
oubli e</w>
ori entation</w>
open s</w>
off ering</w>
off ence</w>
numer ous</w>
num bers</w>
no v
no ise</w>
net to
necess arily</w>
n ine</w>
n d</w>
moun tain</w>
monit or</w>
mati cally</w>
mar teau</w>
man que</w>
magaz ine</w>
lin k</w>
lin gFinnish</w>
li k
lat est</w>
la c</w>
l ors</w>
l is</w>
l i</w>
l ead</w>
ku is
kou lu</w>
k ni
k eskus</w>
k ans
jo b
issu ed</w>
is é</w>
is s
ir ed</w>
institu tions</w>
inno cent</w>
inj ured</w>
info .fi</w>
inclu ded</w>
in ti
in sul
in form</w>
imag ine</w>
imag in
i ze</w>
hor ri
hom eless</w>
ho me
h ap
gu ys</w>
gu re</w>
gro w</w>
g ain</w>
fun eral</w>
for tune</w>
foot ball</w>
flex ible</w>
fin ish</w>
fi gure</w>
fer ais</w>
fau l
fall en</w>
fai sait</w>
experi enced</w>
ex hi
ex cel
ex ce
et ing</w>
es ca
er min
ent sFinnish</w>
enro l
en vir
en ergy</w>
em ent
e m</w>
e ding</w>
désor mais</w>
dé si
dé pen
dé cou
dy info.fi</w>
dru g</w>
dr y</w>
dr unk</w>
doct ors</w>
doct eur</w>
discrimin ated</w>
dis pu
dis cre
differ ence</w>
dic tionary</w>
di vision</w>
det ec
des k</w>
den i
deal ing</w>
de voir</w>
de vices</w>
de partment</w>
de fin
custom s</w>
cultur es</w>
cu e</w>
craf ts</w>
cr ying</w>
cour ag
cor ps</w>
confir med</w>
compens ation</w>
communi cation</w>
commenc er</w>
comm ission</w>
comm ence</w>
cli ents</w>
ci als</w>
cho col
chan te</w>
ch anger</w>
cas h</w>
capa city</w>
cal end
c ents</w>
c and
broch ure</w>
bo is</w>
bil in
bi o
bel ong
be comes</w>
b right</w>
b out</w>
b ons</w>
au g
as te</w>
as ing</w>
arri ver
appropri ate</w>
an to</w>
an ta</w>
allow s</w>
all itus</w>
alis ation</w>
ai ses</w>
ai med</w>
ai lle</w>
ai l
ai kuis
ahanmuut tovirasto</w>
advis ed</w>
actu ally</w>
ach es</w>
ac cess</w>
a po
V er
Un ited</w>
U S
U N
Turk u</w>
Tr avel</w>
T ri
Stu dyinfo.fi</w>
So viet</w>
Sci ences</w>
S et
O K</w>
Nor wegian</w>
Mo ving</w>
Ma ahanmuuttovirasto</w>
M ental</w>
M an
M B</w>
M .</w>
L in
Ju ly</w>
Jor vi</w>
Info pankki</w>
I s
Helsinki Finnish</w>
H ungarian</w>
G lobal</w>
Espo on</w>
De partment</w>
D utch</w>
C o
C enter</w>
2 7
0295. 020.
&apos; clock</w>
étr ange</w>
éto iles</w>
é vit
y li
windo ws</w>
wi de</w>
wel come</w>
w ich</w>
w ages</w>
vou d
von ta</w>
vo yez</w>
vo ice</w>
viron mental</w>
viend rai</w>
vi dence</w>
ver i
ve h
veh ic
ve get
vari es</w>
va cation</w>
v ont</w>
v an
ush ed</w>
urgen tly</w>
under stood</w>
un less</w>
tu tkinto</w>
tu ki</w>
tu ition</w>
tre at</w>
trans lation</w>
to ys</w>
to wards</w>
tion sFinnish</w>
ti met
ti m</w>
ti di
th ers</w>
tem per
tau ght</w>
t end
t aining</w>
sur g
suffis amment</w>
su us
st ates</w>
som met</w>
so i
so f
sli p</w>
sil ent</w>
sil en
si è
si ez</w>
ser t</w>
sel ected</w>
secre ts</w>
se at</w>
sch edu
sau f</w>
satis fied</w>
sand wich</w>
san te</w>
s we
s hu
s he
s ev
s ap
rê tez</w>
réus si</w>
ré s
ré alis
ru m
ro m
ri cu
res ear
rend ez</w>
ren contre</w>
reimbur sement</w>
regul arly</w>
regis tr
regard less</w>
regar dé</w>
reg ard</w>
ref ers</w>
recre ational</w>
re cherche</w>
r up
r est</w>
r appelle</w>
quo tidi
quel les</w>
quel conque</w>
qu ar
pup ils</w>
pun ish
psycho logist</w>
prê ter</w>
prot ect</w>
pron on
progr es
process ed</w>
pro of</w>
pro jet</w>
pro che</w>
prim arily</w>
practi se</w>
pr un
pr ou
pr ess</w>
pr ati
poin ts</w>
po ol</w>
po ids</w>
ple in</w>
plac ed</w>
pl eased</w>
pl ans</w>
pl ain
pis cine</w>
photo s</w>
per form</w>
pare il</w>
pa ck
p tions</w>
ou x</w>
or tti</w>
or i</w>
on gs</w>
offi cials</w>
off en
o we</w>
net work</w>
ner vous</w>
near ly</w>
n one</w>
n ez</w>
mor al</w>
montr ez</w>
montr er</w>
monit or
mis sed</w>
ment Finnish</w>
men tion</w>
mem ory</w>
medi ation</w>
mat ti
mari age</w>
man d
mal a
mag ed</w>
m b</w>
lin ks</w>
lin gual</w>
let ters</w>
l asts</w>
kis s</w>
ke e
kau pun
iti ve</w>
it o
is me</w>
inté rê
interpret ation</w>
informa tionFinnish</w>
indus tri
in qui
im pli
il à</w>
il ler</w>
il la</w>
ig ner</w>
identi fication</w>
id ence</w>
ic tim</w>
hum eur</w>
hou ses</w>
honn ête</w>
hom as</w>
health y</w>
hab it
h id
h az
guardi ans</w>
grow ing</w>
grou pe</w>
gradu ate</w>
gr i
got ten</w>
g ust</w>
g ured</w>
g un</w>
fu ck</w>
fri end
fr on
for table</w>
fin ally</w>
fin al</w>
fi gured</w>
fer mé</w>
fe ed
feed back</w>
fall s</w>
fac tors</w>
f eu
f at</w>
exist ence</w>
ex c
et h</w>
esti mate</w>
es pér
entr ée</w>
enn es</w>
embr ass
em prun
el u
el l</w>
ei ght</w>
eh en</w>
eff ect</w>
ec ember</w>
ear th</w>
ea ts</w>
dét ermin
dét ails</w>
dé cl
docu ment
do gs</w>
direc tion</w>
diff éren
di manche</w>
di cti
dicti onnaire</w>
develo p</w>
dev enir</w>
destin ation</w>
descri be</w>
deman der</w>
def ects</w>
de vo
de l</w>
day time</w>
dans er</w>
d un</w>
d ness</w>
cur ricu
cu ri
cu p</w>
cti ve</w>
crimin al</w>
coun ts</w>
contrac ts</w>
cont ain
conna ître</w>
conn u</w>
con vers
con trol</w>
communi ties</w>
comm en
co ol</w>
clu b</w>
cin é
cin es</w>
cheap er</w>
chan n
cancel led</w>
can cel</w>
ca st
ca pit
c esse</w>
bor der</w>
bo y
bo t
bo ard</w>
blo od</w>
bel ongs</w>
behav i
b read</w>
b lu
b its</w>
b et</w>
b b
av ance</w>
auto matically</w>
au tour</w>
au s</w>
att ends</w>
at te
arch it
appro ved</w>
appli es</w>
appl icant</w>
appel ez</w>
apo logi
ap ple</w>
anim als</w>
ang es</w>
am o</w>
am matti
am bi
alco ol</w>
aim é</w>
aim ait</w>
ai m</w>
ag o
after wards</w>
activi tiesFinnish</w>
acqu ire</w>
ach el
accor dance</w>
accep ts</w>
accep table</w>
abor tion</w>
a fin</w>
a ce</w>
a as
W ar</w>
Vanta an</w>
V ictim</w>
V aas
Un it</w>
Un employment</w>
UN H
UNH C
UNHC R</w>
Tri bunal</w>
T homas</w>
St ates</w>
St ar
Set tlement</w>
S h
Res idence</w>
Regis try</w>
Re gional</w>
P r
Or gan
Op en</w>
Ohja amo</w>
New C
NewC o</w>
Municipa l</w>
Me di
Ma ster</w>
M u
M ission</w>
Län si</w>
K o
J e
Institu tion</w>
G r
Fr an
D é
D u
D ecember</w>
C a
Australi a</w>
Ar rêtez</w>
6 5</w>
31 0.
2 nd</w>
2 8</w>
1 5
1 4</w>
02 5.
- même</w>
û t</w>
ét at</w>
é qu
é ni
é cur
écur eu
é cl
è g
ä l
ä ki</w>
yh tiö</w>
y o
y ers</w>
wor st</w>
wor se</w>
wor ried</w>
wh ite</w>
wh er
wh en
when ever</w>
w ishes</w>
w id
w a
voy ager</w>
voud riez</w>
vo is
vo ilà</w>
vis its</w>
vis age</w>
ver sities</w>
ven tion</w>
va se</w>
v rir</w>
v eau</w>
v am
unfor tun
unfortun ately</w>
un married</w>
tu al</w>
tre es</w>
travail l
tran qu
tradi tional</w>
tr em
toil et</w>
to s</w>
tin gu
ti se</w>
ti ment</w>
thou san
thousan ds</w>
thir ty</w>
thea tres</w>
tem p
te aux</w>
t ended</w>
t an
t ais</w>
sym bo
surg ery</w>
sur prise</w>
sup er</w>
sui vre</w>
sud den</w>
succe e
succee ded</w>
str ic
stop ped</w>
sto ve</w>
st ances</w>
specialis t</w>
sosia ali
so li
so in</w>
sig ne</w>
sho wer</w>
sho ps</w>
seu dun</w>
servi ceFinnish</w>
seri ously</w>
ser ont</w>
sel ection</w>
se where</w>
scre en
scientifi c</w>
san g</w>
sal es</w>
s te</w>
s ong</w>
s no
s low</w>
s ki</w>
s hel
s cho
ru de</w>
ro be</w>
ris ks</w>
ris k</w>
ri al</w>
reu nification</w>
respons able</w>
res té</w>
reques ted</w>
rel y</w>
recor d</w>
recomm ended</w>
re çu</w>
re pair</w>
re l</w>
re jo
re du
re consideration</w>
rap port</w>
rai sons</w>
rac ist</w>
r hu
r ents</w>
qui conque</w>
qu it</w>
qu ement</w>
päiv ä
publi c
pu bl
prési dent</w>
préfér é</w>
pré sent</w>
promis es</w>
pro pr
propr es</w>
pro ce
press ed</w>
pres cri
port é</w>
por ting</w>
pon ctu
pom mes</w>
poli cies</w>
pol ite</w>
po ck
play ground</w>
pl ant</w>
pie ce</w>
ph as
per te</w>
per su
per hen
perhen euvola</w>
per for
pe o
pay é</w>
patr on</w>
parti ally</w>
part ments</w>
par lent</w>
pa t
p è
p iste</w>
p in
p Finnish</w>
ouv r
out door</w>
op pos
on de</w>
ol s</w>
o my</w>
nu e</w>
no r</w>
neighb our
n on
multi ple</w>
mou rir</w>
mo yen</w>
mis takes</w>
mil i
me als</w>
mati ques</w>
mater ials</w>
man i
man age</w>
main tain</w>
mach ine</w>
ma p</w>
m ér
m ée</w>
m ur
m es
m arr
m Finnish</w>
lun di</w>
lu ck</w>
lou d</w>
loca tions</w>
lo ves</w>
lo ts</w>
lo ss</w>
lo sing</w>
ll em
listen ing</w>
lik ely</w>
li ghts</w>
less ons</w>
les son</w>
le ep</w>
last en
la ws</w>
l our
l ise</w>
l em
kee ps</w>
jus tice</w>
ju g
jour ney</w>
jeu nes</w>
it self</w>
it er</w>
it ems</w>
it ance</w>
it age</w>
ir a</w>
inv ent
intéress ant</w>
interpret ing</w>
inher itance</w>
ing le</w>
ind a</w>
incre ase</w>
in tend</w>
im pres
im paired</w>
im isto</w>
il ing</w>
il i
id en</w>
hé ro
hy po
hu ol
hol ds</w>
his tor
hi re</w>
haz ard
hazard ous</w>
hau t</w>
hard ly</w>
ham ed</w>
gé ni
gu y</w>
gu it
gl is
gen ti
gen i
gen er
gau che</w>
gag ner</w>
g or
g ne</w>
g es</w>
g a
fre ed
freed om</w>
fore hand</w>
finan ces</w>
fin alement</w>
fi x</w>
fav our
fai r
f ound
f ly</w>
excep tion</w>
exam s</w>
ex tended</w>
ex iste</w>
ex hau
et us</w>
et ery</w>
establish ment</w>
est ö
ess ential</w>
err eurs</w>
equ ate</w>
equ ality</w>
envoy é</w>
ent end
enrol ment</w>
eng ine
eng agement</w>
en tering</w>
en em
en Finnish</w>
em porter</w>
el sewhere</w>
el ess
eg gs</w>
ec tions</w>
ec ting</w>
ear th
e k</w>
e as</w>
dépen d</w>
découver t</w>
dru gs</w>
drin ks</w>
dre am
dr es</w>
dr ed</w>
dow n
dou b
discre tionary</w>
dis h
dis appointed</w>
difficul ty</w>
di rect</w>
dedu ctions</w>
dec eased</w>
da maged</w>
d ée</w>
curricu lum</w>
cro ss</w>
cro ss
cro it</w>
cr y</w>
counsel lingFinnish</w>
coun tr
cou s
cou pe</w>
correc tement</w>
convers ation</w>
conv ain
continu ing</w>
contain ers</w>
cont ents</w>
con stru
con s
com fortable</w>
clinic sFinnish</w>
circum stances</w>
ci ous</w>
chois ir</w>
chil dr
chann els</w>
chan ter</w>
chan ceux</w>
ch on</w>
cert ain
ca te</w>
ca che</w>
c ycling</w>
c entreFinnish</w>
bâ timent</w>
bus in
brea ks</w>
br û
bo at</w>
bo asts</w>
bl ement</w>
bilin gual</w>
belong ing</w>
be forehand</w>
bat ter
bat eau</w>
ban ks</w>
ban an
ba r</w>
b our
b lin
b ill
b ility</w>
b an</w>
avo in</w>
avo id</w>
attrap é</w>
at ten
ass ist
ass is
as leep</w>
as hamed</w>
arti cles</w>
arr ête</w>
ar re</w>
ar bre</w>
appe ar
app ed</w>
ap parti
any where</w>
ang le</w>
ang ers</w>
an c
am us
am p</w>
all s</w>
alis m</w>
al low</w>
al ai
ain t</w>
ag ing</w>
aff ected</w>
adverti sements</w>
ado p
ad or
ad equate</w>
ad ap
achel or</w>
ac y</w>
ac ross</w>
ac ked</w>
ac cused</w>
ac cu
a ma
a di
Y ou
Uni versities</w>
Trans port</w>
Th u</w>
So ite</w>
S econ
S E
Pen sions</w>
P u
P at
O c
Nor way</w>
N ov
Mi ehen</w>
M ulti
M id
L on
L inda</w>
K ate</w>
Jo int</w>
J im</w>
I cel
Helsin gin</w>
H ak
H O
En g
E L
Disab led</w>
Con trac
C u
C em
Bo b</w>
Au gust</w>
Americ a</w>
A sun
A llem
A ir
6 5
4 7
4 3
3 9
2 3</w>
19 9
19 4
1 6
1 00</w>
040. 80
0 s</w>
œu f</w>
î tr
ét e
éch ou
é lic
é lec
é gl
è le</w>
ää tiö</w>
ä estö
â le</w>
yc led</w>
y side</w>
y e</w>
wo re</w>
we ight</w>
wat ched</w>
wash ing</w>
war ned</w>
vr aie</w>
visu ally</w>
visit ation</w>
vis ions</w>
vide os</w>
vi ons</w>
vi ennent</w>
vi de</w>
ver a</w>
vend re
vendre di</w>
ve ille</w>
vak uutus</w>
vak o
v endre</w>
v ely</w>
v aches</w>
uti lise</w>
uti le</w>
ush allitus</w>
us an</w>
up stairs</w>
uni ons</w>
under standing</w>
u te</w>
tri cal</w>
transl ated</w>
tranqu ille</w>
tr o</w>
tr ic</w>
tou che</w>
timi de</w>
tifi ed</w>
ti f</w>
ti cs</w>
threat ens</w>
thir sty</w>
th row</w>
th es
ter ai</w>
ten th</w>
temper ature</w>
te eth</w>
te en</w>
te a</w>
tax able</w>
tab l
ta le</w>
t âche</w>
t ons</w>
t ext</w>
t ests</w>
t ent
t arg
t all</w>
t ait</w>
séri eux</w>
sé par
sup ports</w>
sup portFinnish</w>
sugg es
suffici ently</w>
suc cess</w>
subs cription</w>
su perm
superm ar
star ts</w>
st es</w>
squ ir
specifi ed</w>
sp é
sp ent</w>
son ge</w>
sol di
sk y</w>
sk in</w>
sib lings</w>
shu t</w>
sh y</w>
sem aines</w>
seas onal</w>
sear ching</w>
se pt</w>
scientifi que</w>
sci encesFinnish</w>
school sFinnish</w>
scar ed</w>
sal le</w>
s ounds</w>
s low
s est</w>
s cen
s age</w>
s ache</w>
réfléch ir</w>
ré veillé</w>
ré sul
ré p
ro man</w>
rhu me</w>
retour ner</w>
resul ts</w>
resul t</w>
resid ed</w>
resear ch</w>
res tric
res pe
res ol
rem o
rem ar
rel ative</w>
reg ret
ref us
rect ly</w>
reco gn
rec ycled</w>
rec ently</w>
reas on
reason able</w>
re venu</w>
re pe
re pas</w>
re par
re pai
re j
re ached</w>
r ôle</w>
r èg
r ue</w>
r am
r aining</w>
r ain
qu ée</w>
qu ences</w>
pê ché</w>
pé n
pur ch
punish ment</w>
publ ished</w>
pu s</w>
psy chi
présen ter</w>
provi ding</w>
propos ed</w>
promo te</w>
promis ed</w>
produ ire</w>
pro men
pris on</w>
prin cipa
preu ve</w>
prepar ing</w>
prem i
pr ouv
pr il</w>
pr event</w>
pr ev
pr ennent</w>
port able</w>
pom me</w>
pois on</w>
po t</w>
plan ned</w>
pl ea
pl eFinnish</w>
pl age</w>
pic tures</w>
pharma cies</w>
ph ones</w>
person ally</w>
perf ect</w>
per us
peo pleFinnish</w>
pension ers</w>
parti cul
part ners</w>
par tout</w>
par lait</w>
par ish</w>
par avant</w>
pain ting</w>
pain ted</w>
pa th
pa cked</w>
pa ck</w>
p per</w>
ouv rir</w>
oris o
or ange</w>
or al</w>
oper ative</w>
oper ating</w>
op ér
op pil
onn a</w>
on ym
okk e
nu s</w>
nov el</w>
neighb our</w>
nam ese</w>
na e
nae co
n euvola</w>
n es
n av
n age</w>
mor c
morc eau</w>
mon di
mo vies</w>
mo ves</w>
mo tor</w>
mo r</w>
mer veill
mem ber
member ship</w>
medi cines</w>
marri ages</w>
mar re</w>
man ner</w>
mal heur
mai ne</w>
ma man</w>
m äki</w>
m our
m ne</w>
m ille</w>
m eu
m el
m ea
logi cal</w>
lo i</w>
lo ck</w>
lin na</w>
lin es</w>
li èrement</w>
li c</w>
lav er</w>
laugh ing</w>
lar mes</w>
lai s
lai res</w>
l end</w>
kun tou
koti kunta</w>
ke ino
k t</w>
k ol
k ar
jou é</w>
jo lie</w>
it yFinnish</w>
ish Finnish</w>
is ée</w>
is tes</w>
ir es</w>
investig ation</w>
intérê t</w>
intéres sé</w>
individu als</w>
incre ased</w>
inclu ding</w>
in s
in katu</w>
immedi ate</w>
im pro
im pression</w>
il ma</w>
ig ne</w>
id on</w>
ic s</w>
hur ried</w>
huol to</w>
hun dred</w>
hum our</w>
hon est</w>
ho sts</w>
heu r</w>
hel ped</w>
has ard</w>
h â
h it
gy naeco
great est</w>
grand -</w>
gr ap
gr am
go al</w>
gl et
glet erre</w>
gen t
ge ons</w>
gar s</w>
gar den</w>
gar age</w>
g agne</w>
fun ny</w>
for me</w>
for give</w>
fon d</w>
fo ot</w>
fo ods</w>
fil ed</w>
fer ti
fer me</w>
fe et</w>
fau te</w>
fair ly</w>
fai te</w>
fa ster</w>
f us
f estiv
extr em
expli quer</w>
expl ain</w>
expi res</w>
experi ences</w>
exper tise</w>
exper t</w>
exhi bi
exce ed</w>
ex press</w>
ex act</w>
ev ant</w>
et ushallitus</w>
et namese</w>
et er</w>
er t</w>
ep tives</w>
entr y</w>
enem y</w>
end orm
en ter
en fin</w>
emer gencies</w>
embrass er</w>
electr ic</w>
elec trical</w>
eff et</w>
earth qu
e vidence</w>
décou vrir</w>
dé tru
dé part</w>
dé ci
dé but</w>
dé b
dro p</w>
dro its</w>
dri ver</w>
dres sed</w>
donn a</w>
do ivent</w>
divor ced</w>
dispos ez</w>
discus sed</w>
dis play</w>
dis par
dis mis
dis ent</w>
dis ease</w>
dis count</w>
différ ent</w>
di al
di a</w>
devo irs</w>
dev int</w>
dev in
demand a</w>
dem i</w>
deli ver</w>
def ect</w>
dedu cti
deducti ble</w>
deb ts</w>
d om</w>
d ly</w>
d ea
d ad</w>
cus ez</w>
cuis in
cu re</w>
ct Finnish</w>
cro y
cr u</w>
coû t</w>
countr yside</w>
coun ting</w>
cor rectly</w>
copy rights</w>
cop ine</w>
contrac eptives</w>
cont ain</w>
consider ing</w>
condu cted</w>
condu ct</w>
con tente</w>
con fu
compag nie</w>
communi cations</w>
comm un
com pos
com pare</w>
com par
clo sest</w>
cl ou
citizen sFinnish</w>
ci ble</w>
childr enFinnish</w>
chi ens</w>
charg es</w>
charg ed</w>
char ac
ch ino
ch all
ch a</w>
cass é</w>
care er</w>
calend ar</w>
cal ls</w>
ca s</w>
ca le</w>
ca dem
c y
c o</w>
c lear
c is
c a</w>
buil t</w>
bu yer</w>
bro wn</w>
br ill
br as</w>
boy friend</w>
boute ille</w>
bot tle</w>
bo okke
blu e</w>
blo ck</w>
biz arre</w>
bir ds</w>
bi gg
be have</w>
be ach</w>
ban ian</w>
b onnes</w>
b ly</w>
b ite</w>
b it
b ear</w>
aw ake</w>
av u
av is</w>
auto mne</w>
aug ment
au riez</w>
au paravant</w>
att ach</w>
at ors</w>
as se
as s</w>
as h
arriv ée</w>
arri ère</w>
ar m</w>
apparti ent</w>
an xi
an ds</w>
amélior er</w>
amour euse</w>
altern atives</w>
altern ative</w>
al ter
al lais</w>
al es</w>
al ent
al a
ak u</w>
ak a</w>
air port</w>
air aus
ain ts</w>
aim ez</w>
ai mer</w>
ai es</w>
ai der
affor d</w>
ad a</w>
ach ing</w>
ac ts</w>
ac ted</w>
ab sur
a î
a stu
a ster</w>
a partments</w>
You Tu
Y rit
W here</w>
W estern</w>
W ed</w>
Vi etnamese</w>
V äestö
V A</w>
U pper</w>
Tr ade</w>
T yö
T o
Su omen
St ation</w>
S usan</w>
S al
Regis tration</w>
Op etushallitus</w>
My yr
Mar ch</w>
L e
Ki ven
K or
Institu te</w>
Icel and</w>
I n</w>
Hou se</w>
Hi gh</w>
HO A
HOA S</w>
Ger many</w>
Ex cusez</w>
Eng land</w>
Comm unity</w>
Can ada</w>
C ro
C i
B u
Ar t</w>
An gleterre</w>
Améri que</w>
Al banian</w>
Air port</w>
Adul ts</w>
A pril</w>
A ctFinnish</w>
9. 49
9.49 7.
9 0</w>
80 0.
8 28
8 .
7 7.
7 3</w>
7 0</w>
7 01</w>
63 4.
6 4</w>
4 1
201 6</w>
201 3</w>
2 5
2 00</w>
1 7
1 1
0295. 025.
020. 634.
0 800.
0 4</w>
ô tre</w>
ô mes</w>
évit er</w>
étudi e</w>
éner gie</w>
égl ise</w>
écureu ils</w>
écr as
écl at
é ment</w>
é lo
é che
éche c</w>
äl vi
älvi ä</w>
ä h
zz a</w>
z y</w>
ytt ö
yr am
yo to</w>
yh te
y ens</w>
y den
y al</w>
x ante</w>
ww w
www .
wor th
wonder ful</w>
wo od</w>
with held</w>
wit nesses</w>
wh i
we i
we b
war s</w>
wal ks</w>
wal king</w>
w illing</w>
w an
w ake</w>
vo ie</w>
viv ant</w>
visit er</w>
vir us</w>
vie ws</w>
vi ve</w>
ver o</w>
ven ait</w>
val id
vako ti</w>
v ues</w>
v in
us tice</w>
up set</w>
up pi</w>
univers ité</w>
univer se</w>
uni la</w>
un document
undocument ed</w>
ul garian</w>
u its</w>
tun nel</w>
tri ps</w>
transl ations</w>
trans late</w>
trac ks</w>
tr ente</w>
tou ched</w>
to w
to tal
timet ables</w>
ti re</w>
ti ques</w>
threaten ing</w>
thre w</w>
thre ats</w>
tho ds</w>
therap ist</w>
them ati
themati cs</w>
the ater</w>
ter ais</w>
tegr ation</w>
te en
tal o</w>
tal ks</w>
ta tive</w>
t wel
t us
t eurs</w>
t es
t at
t asse</w>
t aller</w>
t ains</w>
syst ems</w>
sur face</w>
sum ers</w>
sui cid
suicid é</w>
sugg est</w>
su m</w>
su b</w>
sty le</w>
stru ct
str ai
stipul ates</w>
stat ue</w>
souv enir</w>
sou thern</w>
sou l</w>
sou ff
sou ci</w>
sosia al
sor tes</w>
some body</w>
soi xante</w>
so yons</w>
so lu</w>
so if</w>
so i</w>
sli gh
sligh tly</w>
ski ing</w>
sing ing</w>
sing er</w>
sin s</w>
sin gs</w>
sim il
sho ws</w>
she ep</w>
sev e
seve re</w>
seu ls</w>
ses sions</w>
sent i</w>
sembl ez</w>
sel ect</w>
secu re</w>
screen ings</w>
schedu le</w>
scen e</w>
sav ed</w>
s si
s it
s cope</w>
s ays</w>
s at</w>
s ance</w>
s airaus
répar er</w>
ré si
ré jou
réjou is</w>
règ les</w>
run s</w>
ru bb
rubb ish</w>
ro le</w>
ri isi
ri er</w>
ri di
restric tions</w>
resid ential</w>
res ides</w>
res erve</w>
res er
repai rs</w>
rencontr ée</w>
rem pl
rem er
rem ain</w>
religi ons</w>
reli ably</w>
rel evant</w>
rel ations</w>
regar ded</w>
reg re
regre t</w>
ref used</w>
ref er</w>
recogn ised</w>
re fl
re faire</w>
re connaiss
re comman
re ci
rar ement</w>
rai sed</w>
rai l
rail way</w>
rac y</w>
rac le</w>
rac ism</w>
ra con
r us
r ons</w>
r ise</w>
r ends</w>
r as</w>
r ange</w>
r ab
quit ter</w>
quali fying</w>
purch ased</w>
punctu al</w>
pun ished</w>
psycho therapy</w>
psychi a
prépar er</w>
pru den
profes sion
prof it</w>
prob able</w>
pro té
pro j
priv ately</w>
priv acy</w>
prin ted</w>
pres sure</w>
pres id
presid ent</w>
prend rai</w>
pr êtes</w>
pou le</w>
pos s
port ée</w>
politi que</w>
po ols</w>
plan ète</w>
plan et</w>
plai sir</w>
plac ement</w>
pl em
pic k
pi zza</w>
pi erre</w>
peti tes</w>
pers onn
perm is</w>
per hap
perhap s</w>
pe d
pati ents</w>
pass ée</w>
particul arly</w>
part ly</w>
par les</w>
par king</w>
par enting</w>
pain t</w>
pa pa</w>
pa le</w>
pa ct</w>
p âle</w>
p yram
p in</w>
ouver te</w>
out ons</w>
ordin ary</w>
or ial</w>
or anges</w>
onn ement</w>
on ner</w>
on d</w>
on Finnish</w>
om i</w>
om budsman</w>
ol ds</w>
ol d
occup e</w>
occu per</w>
obj ective</w>
obj ecti
o sa
o ir</w>
o il</w>
nur sing</w>
nu lle</w>
nouv el</w>
nombr euses</w>
netto yer</w>
ner veux</w>
ner he
nei ther</w>
ne g
neg ative</w>
n ations</w>
n ag
mul ated</w>
mo st
mo on</w>
mo itus</w>
mo der
min or
mi racle</w>
mi le</w>
met al</w>
mes ure</w>
me thods</w>
me an
mati l
manu al</w>
mand atory</w>
malheur eusement</w>
mala die</w>
maj or</w>
ma thé
ma thematics</w>
ma sho
ma r</w>
ma m
m usée</w>
m outons</w>
m om</w>
m ic
m ec
mec s</w>
lé gu
lu t</w>
lo ad</w>
lis te</w>
linkki S
linkki National</w>
linkki City</w>
lin eFinnish</w>
licen se</w>
lic ts</w>
li m
li ed</w>
li able</w>
lem an</w>
leg ally</w>
leav es</w>
le g</w>
laugh ed</w>
la zy</w>
la ke</w>
la h
l ish</w>
l en
kol o</w>
kni fe</w>
kk o</w>
kis sed</w>
k y</w>
k riisi
k or
k o</w>
k ers</w>
ju m
jou ets</w>
j el
j an
ity is
ish aku</w>
inv ité</w>
interpret ers</w>
instruc ted</w>
inspe ction</w>
inqui ète</w>
ing éni
indus try</w>
indica te</w>
in keino
in formed</w>
in door</w>
import antes</w>
imagin ation</w>
imag iner</w>
im pressed</w>
im pact</w>
im i</w>
ill nesses</w>
il moitus</w>
il lu
il ed</w>
idi o
ic ken</w>
ic k</w>
i zed</w>
i z
i que</w>
i mage</w>
i h
i can</w>
hu mili
horri ble</w>
hor r
home work</w>
hol ding</w>
high ly</w>
hi de</w>
hea d
happen ing</w>
hand led</w>
ham masho
h ang
h alls</w>
h all</w>
gu il
gu er
great ly</w>
grat ul
grand mother</w>
grand father</w>
gran des</w>
go û
go ld</w>
go l
gent leman</w>
gener ally</w>
gen til</w>
gar der</w>
ga ther
g le</w>
g in
g ained</w>
furn iture</w>
fun c
fu ton</w>
fro mage</w>
fr équ
fr ères</w>
fr uits</w>
fr ay
four n
found ations</w>
foreig ner</w>
follow ed</w>
fir m</w>
fil ing</w>
fi ght</w>
fi e</w>
feu illes</w>
fer mer</w>
famili ar
fal ling</w>
fai th</w>
fai led</w>
f illing</w>
f f</w>
extrem ely</w>
extr a</w>
exhibi tions</w>
exhau sted</w>
excus es</w>
excep t</w>
excel lent</w>
ex clu
eu t</w>
eu s</w>
esti ma
establish ments</w>
estab lish</w>
ess ed</w>
er n
ep y</w>
entr er</w>
ent ends</w>
enf ance</w>
enc ing</w>
en ceFinnish</w>
embarrass ed</w>
em pêcher</w>
em ment</w>
em as</w>
eless ness</w>
el ä
el ls</w>
el inkeino
el en
ef fray
ec te</w>
eb all</w>
ea tre</w>
e conomic</w>
e .
décl ar
décid a</w>
dur ant</w>
dro ite</w>
drin king</w>
dre am</w>
dra w</w>
dr ank</w>
dou che</w>
do ors</w>
divi de</w>
dis tingu
dis counts</w>
dis ait</w>
différ ence</w>
differ ently</w>
di am
di ag
dev elop
detec tor</w>
det ached</w>
des p
des ire</w>
des c
deni ed</w>
den o
deci des</w>
de vient</w>
de cor
d an
d a</w>
cur r
cuis iner</w>
cru el</w>
cro w
cre ated</w>
cre ate</w>
cr it
coû te</w>
cover ing</w>
cover age</w>
cous in</w>
cou rir</w>
cou cher</w>
corri ger</w>
correspon ds</w>
conv in
contr at</w>
conn ections</w>
conn ai
confir m</w>
conf licts</w>
conf is
condu is
con sis
con science</w>
con sci
con sac
con gratul
comp ter</w>
commen ça</w>
comm ent
coll at
co ws</w>
co operative</w>
co operation</w>
clear ly</w>
clai rement</w>
cl ass
ciné ma</w>
cin emas</w>
child care</w>
cher cher</w>
chec k
chang ing</w>
chan c
ch icken</w>
ch ant</w>
cert aines</w>
cert aine</w>
centr esFinnish</w>
car er</w>
can di
cal me</w>
caf és</w>
cadem ic</w>
ca uses</w>
ca mer
bus es</w>
bur st</w>
buil d
bookke eping</w>
bo tt
bo ther</w>
bo it</w>
blan c</w>
bl ems</w>
behavi our</w>
be l</w>
be half</w>
be d
bat tre</w>
b ound</w>
b is
b id
b att
b ac
avai ent</w>
av an
au rions</w>
au l</w>
ation sFinnish</w>
ati n</w>
at ur
asun to
assu me</w>
assist ant</w>
asse oir</w>
ass ist</w>
ass ess</w>
asi la</w>
as king</w>
arrog ant</w>
arriv ent</w>
arriv al</w>
arri age</w>
ar tifi
ar bres</w>
appl icants</w>
apologi ze</w>
ap pareil</w>
ap e</w>
ang les</w>
an us</w>
an ci
am matil
am bul
alter ation</w>
ali ve</w>
al im
ai dFinnish</w>
ag gres
adv anced</w>
ad mis</w>
ad er</w>
accep ter</w>
ac cent</w>
absolu ment</w>
ab s
a su
a per
a p</w>
a jou
a ja</w>
a h</w>
a ffi
a cademic</w>
a .
YouTu be</w>
Wor ld</w>
W ilma</w>
W est</w>
Väestö liitto</w>
Vaas a</w>
V ir
US A</w>
U ll
To gether</w>
Th eatre</w>
T ue</w>
T ikk
T am
Secon dary</w>
S te
S pain</w>
S ingle</w>
S hel
R ead</w>
P lan
P aul</w>
P asila</w>
O l
Nu or
Nov ember</w>
N uppi</w>
N ations</w>
N ancy</w>
N a
Museu mFinnish</w>
Multi lingual</w>
Mi elen
Mari a</w>
Man nerhe
M other</w>
M arriage</w>
Kiven kolo</w>
K älviä</w>
K yoto</w>
J ustice</w>
In tegration</w>
Hak unila</w>
H om
H er
H U
Finn vera</w>
Finland English</w>
F or
Es pagne</w>
Enter prises</w>
En vironmental</w>
E i
Ch ar
Cem etery</w>
C ul
C re
C or
C hi
B ulgarian</w>
B ar</w>
B C</w>
An ti
Améri c
Americ ans</w>
Allem agne</w>
A K</w>
A 1</w>
828 7.
8 2
8 1</w>
8 0</w>
6. 6
4 5
4 00</w>
20 2</w>
2 7</w>
2 6</w>
19 17</w>
1 50</w>
1 17</w>
09.83 9.
04 4.
ö ö
ö n
éto ile</w>
ét er</w>
ét ang</w>
ér é</w>
ér ence</w>
ég al</w>
écr is</w>
éch app
é veillé</w>
é puis
é nor
énor me</w>
é ment
é lè
élè ves</w>
é lu</w>
é conomi
è vre</w>
ç o
ä t
â ce</w>
z ing</w>
youn ger</w>
yli opisto</w>
yhte ishaku</w>
yh den
yhden ver
yhdenver tai
yden hoit
y é</w>
y th
y enne</w>
y ed</w>
with holding</w>
win ning</w>
wid ow</w>
wher eas</w>
web page</w>
we ir
we ars</w>
we alth</w>
we alth
we ak
wai ted</w>
w il
vä en
väen opisto</w>
voul u</w>
voudr ait</w>
vor ce</w>
volon té</w>
vois ins</w>
vo it</w>
vir a</w>
viol ently</w>
vi enne</w>
vi c
ver rai</w>
ver on
ver o
ven ez</w>
vehic le</w>
vam mai
valid ity</w>
v us</w>
v endu</w>
v elop
us ers</w>
uri la</w>
urgen ce</w>
univer si
universi tiesFinnish</w>
uni que</w>
un sure</w>
u toimisto</w>
u g
té ri
työ väenopisto</w>
tu r</w>
tu de</w>
tru ck</w>
trom p
tri ce</w>
tre fois</w>
travel ing</w>
trans lat
translat or</w>
trai té</w>
tradu ire</w>
tr op
tr au
tow ns</w>
tou cher</w>
total ement</w>
tor ture</w>
tor t</w>
tomb ée</w>
toim in
to oth
tis h</w>
tin katu</w>
ti ps</w>
ti onn
ti ens</w>
threaten ed</w>
th ro
th ous
thous and</w>
th ly</w>
terve ydenhoit
terri bly</w>
termin ated</w>
termin ate</w>
ter a</w>
ten ez</w>
ten ants</w>
tel s</w>
tel ls</w>
targ et</w>
tal y</w>
tal ent</w>
tabl eau</w>
t ère</w>
t ings</w>
t ato
t aire</w>
symbo l</w>
sym path
sy ll
syll ab
syllab us</w>
surviv ors</w>
sur r
suppl ément
suppl ies</w>
supervis ed</w>
suiv i</w>
suff it</w>
succe ed</w>
su spi
su o
stu ki</w>
stu died</w>
str eng
stor ies</w>
ste ps</w>
st oc
stoc k</w>
st ar</w>
squir rel
squirrel s</w>
spr ead</w>
spen ding</w>
specifi cally</w>
speci fy</w>
spe ct
souhai te</w>
sou tien</w>
sou d
sou ci
sosiaali -</w>
sosiaal ito
sosiaalito imisto</w>
sorti e</w>
sop hi
soldi ers</w>
sol da
solda ts</w>
so ph
soph y</w>
so ir
soir ée</w>
so c
soc cer</w>
sm ells</w>
sle epy</w>
sk ir
simil ar</w>
silen cieux</w>
signifi e</w>
si us</w>
si enne</w>
sho wed</w>
shar es</w>
sh ed</w>
ses sion</w>
serv i</w>
senti r</w>
sent ez</w>
sen si
sec r
seas ons</w>
se l</w>
sau v
satis fait</w>
sap utoimisto</w>
sand wi
sal t</w>
sal on</w>
sal aire</w>
sal ad</w>
sai sir</w>
s äätiö</w>
s y</w>
s wit
s pon
s mile</w>
s esFinnish</w>
s cr
s ave</w>
s am
s al</w>
résul tats</w>
répon du</w>
réfléch i</w>
réalis er</w>
ré vé
ré solu</w>
ré s</w>
ré gu
ré es</w>
ré ellement</w>
ré du
rum eur</w>
ru ined</w>
ro se</w>
ro b
ro ad
ri v
ri tish</w>
ri d</w>
ri ches</w>
retur ning</w>
rest ée</w>
respec ter</w>
respe ct
resol ved</w>
res training</w>
res ted</w>
res sources</w>
repres en
represen tative</w>
repe at</w>
repar atory</w>
rencontr és</w>
ren cy</w>
remo ved</w>
remer cier</w>
rem ède</w>
rem in
rejo indre</w>
rej ected</w>
regard ez</w>
redu ce</w>
recor ded</w>
recomm end</w>
recogni ze</w>
reco very</w>
re turned</w>
re tour</w>
re present</w>
re place</w>
re paired</w>
re kis
rekis ter
re fund</w>
rar ely</w>
rai sing</w>
ra z
ra ce</w>
r il
r ay
r av
r are</w>
r ang</w>
r ains</w>
r aient</w>
r age</w>
r ag
quit té</w>
qu és</w>
qu in
q u</w>
public ly</w>
pu zz
psychia tric</w>
prê ts</w>
pré venu</w>
prou d</w>
propri et
propriet or
proprietor ship</w>
propos al</w>
proper ly</w>
prom esses</w>
prom esse</w>
prohi bits</w>
produ ct</w>
probl em
prob ation
probation ary</w>
pro mettre</w>
pris on
prin cesse</w>
pri or</w>
prepar es</w>
prepar ation</w>
post graduate</w>
possib ilité</w>
possib ilities</w>
pos ter</w>
pos itive</w>
pos es</w>
popu laires</w>
popu laire</w>
pon se</w>
pon d</w>
poli cem
policem an</w>
pol lution</w>
po che</w>
plem entation</w>
play ers</w>
plan e</w>
pl u</w>
pl eas
pleas ant</w>
pl ait</w>
pick pock
pi que</w>
pi gg
pigg y</w>
pi geons</w>
philo sophy</w>
philo sophi
ph é
ph en
phen omen
peu ple</w>
peti ts</w>
perm it
perf ec
per cent
percent age</w>
per anto</w>
pe re</w>
pass ez</w>
pas se
parti ci
par la</w>
par ks</w>
par ked</w>
par ie</w>
par fait</w>
palvel u</w>
pa th</w>
p ushed</w>
p ush</w>
p to
p ill</w>
ow es</w>
ow aste</w>
over time</w>
ouvr it</w>
ouv rez</w>
oun ce</w>
oubli ez</w>
ordin aire</w>
order ed</w>
or sFinnish</w>
or o
opin ions</w>
op etus</w>
onym ous</w>
oni que</w>
oni cally</w>
on lineFinnish</w>
om s</w>
ois eau</w>
oikeu saputoimisto</w>
occupa tion</w>
occup és</w>
occu r</w>
objecti f</w>
ob taining</w>
ob served</w>
o la
ola Finnish</w>
o be
nu clear</w>
non sense</w>
ni veau</w>
ni que</w>
ni c</w>
ni a</w>
neu f</w>
net works</w>
neighbour ing</w>
negoti ate</w>
n it
n ent</w>
n aiss
mé tro</w>
my st
musici an</w>
musi cal</w>
mu s</w>
monitor ed</w>
monit ors</w>
mon thly</w>
mon ie</w>
mo od</w>
mo ire</w>
mo del</w>
mign onne</w>
mic ro
mi en</w>
meu bles</w>
men songe</w>
medi a</w>
me ets</w>
mati ère</w>
mati la</w>
mathé matiques</w>
mat ch</w>
mari és</w>
mar ked</w>
mar k
man aging</w>
main ly</w>
ma th</w>
ma d</w>
m ét
m è
m 2</w>
lè bre</w>
lun d</w>
lu re</w>
low er</w>
lon gues</w>
lon ely</w>
loca lity</w>
loca lities</w>
listen ed</w>
linkki Helsinki</w>
linkki Espoo</w>
lin ja</w>
lin g
ling sFinnish</w>
liam ent
li tres</w>
li on</w>
li mit</w>
li ik
li gn
li ct</w>
li ber
let tres</w>
leg es</w>
le dFinnish</w>
law yers</w>
last enn
lastenn euvola</w>
lai ent</w>
la ki</w>
l yc
l or</w>
kriisi päivystys</w>
koulu tus</w>
kor k
kork ea
kk aus</w>
kk ari</w>
kis sing</w>
kin gFinnish</w>
kin dness</w>
kans alai
ka huolto</w>
k m2</w>
k an
ju dge</w>
job seeker</w>
jo li</w>
je al
jam be</w>
j ac
iv il</w>
it em</w>
is er</w>
is ation</w>
ir on</w>
invol ves</w>
inv ite</w>
intox icants</w>
inter rup
inter dit</w>
intelligen ce</w>
inst ance</w>
indi quer</w>
incre asing</w>
in ées</w>
in vention</w>
in sur
in cid
in ary</w>
impres si
import ante</w>
im plementation</w>
im patient</w>
ilit ate</w>
il legal</w>
i or
i o
héro s</w>
hâ te</w>
human ities</w>
hu ge</w>
hon our</w>
hon es
hones ty</w>
ho st</w>
ho le</w>
hid ing</w>
he ating</w>
he at</w>
har der</w>
happen s</w>
happ iness</w>
han g</w>
ham mer</w>
h i</w>
génér ation</w>
gu ests</w>
gu ard</w>
gre w</w>
gran ds</w>
gr é</w>
gr âce</w>
gr own</w>
gg ing</w>
gen eration</w>
gather ed</w>
g éri
g érer</w>
g née</w>
g aining</w>
g .</w>
func tional</w>
fun ding</w>
fu tur</w>
fu s</w>
fu me</w>
fro ide</w>
friend ly</w>
fran ch
fr ais</w>
four th</w>
foun ding</w>
fou le</w>
form at</w>
fore ver</w>
for te</w>
for es
fores try</w>
for cing</w>
for cement</w>
for c
foncti onne</w>
fol le</w>
fo ol</w>
fo i</w>
flow er</w>
fir ed</w>
fi ces</w>
festiv als</w>
ferti lity</w>
fer iez</w>
fem ale</w>
fe els</w>
fe deration</w>
favour ite</w>
faul t</w>
fai ts</w>
fac tory</w>
fac ilitate</w>
f élic
f ts</w>
f ought</w>
f ant
f ab
exten sive</w>
exper ts</w>
exc ited</w>
ex pres
ex ig
every where</w>
every man</w>
evalu ate</w>
eur re</w>
eu vonta</w>
et é</w>
espér anto</w>
esca pe</w>
es us</w>
es te
es pè
es cor
er ityis
er iez</w>
er ci
er ait</w>
envoy er</w>
envir on</w>
entr et
enti t
enti e</w>
ent u
ense igner</w>
en tres</w>
en lund</w>
en fu
en forcement</w>
en ess</w>
en dur
en coun
en ables</w>
emplo y</w>
ement Finnish</w>
elinkeino toimisto</w>
electr onically</w>
el sius</w>
ei gh
ef fort</w>
ed it
econ omy</w>
earthqu ake</w>
ear lier</w>
e. g.</w>
e ing</w>
e di
détru it</w>
dér ange</w>
déci der</w>
dé çu</w>
dé s
dé cé
dwel lingsFinnish</w>
dur es</w>
du ties</w>
dres ses</w>
dou leur</w>
do s</w>
dismis sal</w>
discus sions</w>
disab ledFinnish</w>
dis tur
dis tric
dis solved</w>
dis gu
dis e</w>
dis covered</w>
direct or</w>
dig ital</w>
di ri
di rait</w>
di rai</w>
des sert</w>
des ired</w>
des erve</w>
des cription</w>
depen dent</w>
depen d</w>
deno min
den y</w>
demonstr ate</w>
deli very</w>
deli cious</w>
deci ding</w>
de pu
de fe
d ating</w>
d anced</w>
cé lèbre</w>
curr ently</w>
cur rency</w>
cu s</w>
cro yez</w>
cro ient</w>
crit er
cr ise</w>
cr av
crav ate</w>
coû ts</w>
coun cil</w>
cou teau</w>
cou pé</w>
correspon d
cor de</w>
copy right</w>
convin ced</w>
continu ously</w>
continu es</w>
contac ting</w>
consis ts</w>
conse illé</w>
connaiss ez</w>
connaiss ait</w>
connai sse</w>
confu sion</w>
condu it</w>
concer ned</w>
concer n</w>
con sul
con serv
con do
compet ent</w>
compens ate</w>
com prises</w>
com porte</w>
collat eral</w>
coll ected</w>
coll ect</w>
col or</w>
col leges</w>
col lege</w>
co t
co pain</w>
co ok
co chon</w>
co ast</w>
cli ent</w>
cle an
cl air</w>
citizen Finnish</w>
ci an</w>
chocol ate</w>
chocol at</w>
cho sen</w>
chev al</w>
cher ches</w>
check list</w>
che ese</w>
chau ff
chau de</w>
cham p</w>
ch al
ch air</w>
ch air
ch ac
chac un</w>
certain ement</w>
ceremon ies</w>
cem eter
cast les</w>
car tes</w>
car ac
cand y</w>
camer a</w>
cam ps</w>
cam pagne</w>
calcul ate</w>
cal m</w>
ca ble</w>
c lever</w>
c la
c elles</w>
but ton</w>
but ter</w>
busin esses</w>
build ings</w>
buil d</w>
bu rial</w>
bu g</w>
bro thers</w>
bre ast</w>
br uary</w>
br u
br an
bott les</w>
bor ro
bon jour</w>
bon heur</w>
bo w</w>
bo t</w>
bo ss</w>
blo cks</w>
blin d</w>
ble u</w>
ble eding</w>
blan ket</w>
bl ame</w>
bir d</w>
bin ding</w>
bi owaste</w>
bi en
bi d</w>
bes ides</w>
believ ed</w>
belie f</w>
bed room</w>
beau ty</w>
be ef</w>
be at</w>
bas eball</w>
ban des</w>
ba se</w>
b ying</w>
b eurre</w>
b ad
aw a</w>
avo cat</w>
aur ai</w>
au trefois</w>
au th
attrap e</w>
attend ing</w>
att endu</w>
ati an</w>
at eurs</w>
asun not</w>
ass ists</w>
as sure</w>
arrê t</w>
arriv ing</w>
arriv es</w>
ar rested</w>
ar gu
appel l
appear ance</w>
ap prends</w>
ap ed</w>
ant ly</w>
answ ers</w>
ann oun
and Finnish</w>
an i</w>
an cial</w>
amus ant</w>
ammatti korkea
ammatil linen</w>
ambul ance</w>
ambi tion</w>
am user</w>
am a</w>
allow ances</w>
alim ents</w>
al o</w>
al o
al liez</w>
al ise</w>
aikuis lukio</w>
ai tos</w>
ai st
ag esFinnish</w>
ag ency</w>
ag eFinnish</w>
advis ory</w>
ado les
acqu ired</w>
accu mulated</w>
accid ents</w>
ac counting</w>
ac compl
absolu tely</w>
ab ilité</w>
ab et
aar t
a tri
a mat
a head</w>
a gres
a cide</w>
a ci
Y u
Wor k</w>
Wh en</w>
V al
U VA</w>
Tikk urila</w>
Tam pere</w>
T el</w>
T an
Suomen linna</w>
Star ting</w>
So leil</w>
Ser vi
Sal ut</w>
S un</w>
S ports</w>
S port</w>
S ou
S ho
S en
S ach
S a
S M
Res ponse</w>
R ight</w>
R enlund</w>
R I
Qu els</w>
Pro blems</w>
Plan ner</w>
P reparatory</w>
P al
Organ isation</w>
O matila</w>
Nu poli</w>
Mid summer</w>
Mat kahuolto</w>
Mannerhe im</w>
M is
M et</w>
Le ague</w>
Lapl andFinnish</w>
L et</w>
L UVA</w>
Kokk olaFinnish</w>
Ke hit
K ing</w>
K am
K O
Je an
J our
Itali e</w>
Is ra
In dia</w>
In comes</w>
I taly</w>
I M
I D</w>
Hom elessness</w>
Hel Met</w>
H on
H i</w>
H all</w>
H aart
Gu id
Finn ish
Fin ancial</w>
Fe bruary</w>
F un
F estiv
F ac
Es peranto</w>
En vironment</w>
E aster</w>
Di vorce</w>
Dev ine</w>
Cul ture</w>
Cro atian</w>
Con tin
Ci tiz
Christi an</w>
C ivil</w>
C entreFinnish</w>
C elsius</w>
C ar
C af
B ritish</w>
B raz
B e
B ar
B achelor</w>
Asun not</w>
Ap p</w>
An onymous</w>
An ne</w>
Amer ican</w>
Al ger
Ad vis
A t
A le
A gencies</w>
A c
92. 4
9 9</w>
71 .
7 6
7 4</w>
6 71
5 10</w>
5 0
4 th</w>
4 8
3 0
201 7</w>
2 95.
16. 117</w>
1 9</w>
1 16.117</w>
1 .
1 ,
04 5.
0 0
. A
œ ur
œur s</w>
û mes</w>
öö l
ô me</w>
î mes</w>
ê t</w>
étudi ante</w>
étu de</w>
éti t</w>
ét ant</w>
ét aire</w>
ét ab
économi e</w>
éclat a</w>
é v
é ro
éro port</w>
é po
épo que</w>
é oro
é lev
é go
égo ï
é car
é an</w>
è tes</w>
äitiys raha</w>
â me</w>
â ché</w>
zer o</w>
z one</w>
z es</w>
ym pä
yl ä</w>
yhdenvertai suus
y g
y ard</w>
y ait</w>
xi ème</w>
x ty</w>
x ed</w>
x ation</w>
worth while</w>
wor n</w>
wonder ing</w>
win d</w>
wh is
wh ale</w>
wel l
well ness</w>
weir d</w>
wei gh
wealth y</w>
wea k</w>
we e</w>
wash ed</w>
war m
war ded</w>
w estern</w>
w age</w>
vér itable</w>
vou liez</w>
vol ant</w>
vo lé</w>
vo lu
vo leur</w>
vo ja</w>
vo ix</w>
vo cation</w>
vit a
vita e</w>
vi ez</w>
vi ct
vict ory</w>
veu illes</w>
veri fy</w>
veri fied</w>
ver rou
ver ok
verok ortti</w>
ven tions</w>
ven iez</w>
ven ge
veget ables</w>
vat alo</w>
val voja</w>
val u
vac ant</w>
v é</w>
v u
v illes</w>
v enti
v ain</w>
v ague</w>
utilis é</w>
utilis ez</w>
us tries</w>
ur ban</w>
up bringing</w>
under age</w>
un ta</w>
un paid</w>
um mi</w>
ul f</w>
uk o</w>
ug ly</w>
u st
u rel</w>
té nu
té mo
twel ve</w>
tw enty</w>
tur vatalo</w>
tu t</w>
tu ber
tuber cu
tru c</w>
trouver as</w>
trouv ent</w>
trouv ait</w>
trou bles</w>
tro isi
troisi ème</w>
tri esFinnish</w>
tri al</w>
tre pren
traver ser</w>
travel ling</w>
travail les</w>
trans fer
trai ter</w>
trai te</w>
tradu ctions</w>
tradu ction</w>
tradi tion</w>
tr iste</w>
tr ez</w>
tr eats</w>
tr ains</w>
tr ained</w>
tr ain
tour ism</w>
tou ché</w>
tom be</w>
to mi
to it</w>
to ber</w>
ti v
ti m
ti lle</w>
ti lation</w>
ti l
thre at</w>
tho lic</w>
thes is</w>
th us</w>
th r
th od</w>
th ick</w>
th i
tex t
terveys seu
terveydenhoit aja</w>
terri blement</w>
termin er</w>
termin ation</w>
ter rac
terrac ed</w>
ter ie</w>
ter Finnish</w>
tent é</w>
tend ance</w>
ten ait</w>
tem ia</w>
tem ber</w>
tax ed</w>
tax ationFinnish</w>
tato es</w>
tai l</w>
ta tions</w>
ta p</w>
t äjä
t ti
t ours</w>
t euse</w>
t est
test am
t ante</w>
sû rement</w>
séri eusement</w>
séri e</w>
sé ché</w>
syst ème</w>
sym pto
sympto ms</w>
swit ch</w>
suspi ci
suspe cted</w>
sur veill
supervis orsFinnish</w>
supervis ors</w>
sup porter</w>
sun ny</w>
suiv ant</w>
sui cide</w>
sugges tions</w>
sugg ère</w>
suff er</w>
suc cess
sub mit
submit ting</w>
su it
stu s</w>
stri ves</w>
stre ets</w>
strai ght</w>
str ong
strong ly</w>
str ength</w>
str angers</w>
stor es</w>
stom s</w>
stitu tion</w>
stipul ated</w>
sta v</w>
st ol
stol en</w>
st le</w>
st ep</w>
st en</w>
st ea
st ad
ss é</w>
ss istance</w>
ss age</w>
squ are</w>
spé ci
spo t</w>
sp ell</w>
sou rire</w>
sou ri
sou l
sor ting</w>
sor tez</w>
son gs</w>
som bre</w>
soli d</w>
sof a</w>
so le</w>
so ft</w>
sno w
slow ly</w>
sli pped</w>
skir t</w>
sk as
silen ci
sig ning</w>
si xty</w>
si eur</w>
si es</w>
sho pping</w>
shi pFinnish</w>
shel f</w>
sh ame</w>
sh a
sha king</w>
seu rs</w>
set tled</w>
ses .fi</w>
serv ant</w>
ser ver</w>
ser s</w>
ser iez</w>
ser ies</w>
separ ated</w>
senti ment</w>
sensi tive</w>
sen sé</w>
sen sible</w>
sembl ant</w>
sembl ait</w>
sel y</w>
sel fish</w>
secre cy</w>
secon de</w>
scientifi ques</w>
scienti sts</w>
scho lar
sav ing</w>
sau ver</w>
satis factory</w>
sal aries</w>
sal ade</w>
sairaus vakuutus</w>
saf ely</w>
sac ri
sacri fices</w>
sa ou
sa ka</w>
s ses</w>
s por
s pati
s onn
s ites</w>
s co
s ain</w>
s ad</w>
s App</w>
rés il</w>
répon ds</w>
ré gl
ré col
ré alité</w>
rus se</w>
ru mor</w>
rou p</w>
ron o
ro oms</w>
ro bot</w>
ris ques</w>
ris que</w>
ridi cul
ri z</w>
ri deau</w>
ri ce</w>
retur ne
rest ez</w>
reser ved</w>
res tes</w>
repres ents</w>
ren e
rene w</w>
rem ind</w>
rem ettre</w>
rem ained</w>
reli ef</w>
reli able</w>
rel a
reimbur sements</w>
reimbur se</w>
rehabilit ationFinnish</w>
registr ations</w>
regis tering</w>
refuge esFinnish</w>
reconnaiss ante</w>
rec ent</w>
re vo
re tired</w>
re tain</w>
re présent
re cru
recru it
re covering</w>
re con
rap ide</w>
rain bow</w>
racon ter</w>
ra w</w>
ra ffi
ra al
r ont</w>
r inging</w>
r ati
r appelez</w>
r ank</w>
quit te</w>
quin ze</w>
qualifi es</w>
qu ities</w>
pê che</w>
pén étr
pé enne</w>
päivä raha</w>
pur poses</w>
pup il</w>
punctu ality</w>
pun i</w>
puis siez</w>
puis sance</w>
publi que</w>
pu re</w>
pu ll</w>
préfér erais</w>
pré vu</w>
pré vois</w>
pruden te</w>
pru dent</w>
proté ger</w>
prot ec
protec tionFinnish</w>
pronon cer</w>
prom ets</w>
progr ess
prof onde</w>
produ its</w>
proce dures</w>
proc esses</w>
problem sFinnish</w>
pro vin
pro secu
pro per</w>
pro min
priv é</w>
prin ts</w>
prin cess</w>
prescri ptions</w>
pres enting</w>
prend ra</w>
practi ces</w>
pr of</w>
pr even
preven tion</w>
pr el
prel im
prelim inary</w>
pour vu</w>
post po
postpo ne</w>
post card</w>
possib ly</w>
poss ède</w>
pos ted</w>
pos tale</w>
port ent</w>
port ant</w>
por tion</w>
por tement</w>
ponctu el</w>
poli klinikka</w>
po ème</w>
po w
po tatoes</w>
po em</w>
pleu re</w>
plea sure</w>
plan ation</w>
plai sante</w>
pl ain</w>
piè ces</w>
pir ation</w>
pin ä</w>
pil u
pic nic</w>
pic k</w>
pi e</w>
pi cal</w>
pi c</w>
phé nom
phénom ène</w>
physi que</w>
physi cally</w>
philosophi e</w>
phenomen on</w>
phas es</w>
person nel</w>
pers pe
perm ettre</w>
perfor ming</w>
perfor man
performan ce</w>
perfec tly</w>
per secu
per due</w>
pens ent</w>
pein ture</w>
ped ago
pe t</w>
pe int</w>
pe er</w>
pe an
pe ace</w>
pay slip</w>
passe port</w>
pass word</w>
pass ports</w>
pass age</w>
paro le</w>
parl ons</w>
par s</w>
par mi</w>
par liament
parliament ary</w>
par fai
parfai tement</w>
pan el</w>
palvel u
pack ages</w>
pa tional</w>
pa ci
pa ble</w>
p ée</w>
p y
p ty</w>
p id
p hab
phab et</w>
p el
p ants</w>
ow er</w>
oun g</w>
oun ding</w>
ou tre
ou ons</w>
os ks</w>
organis ing</w>
order ing</w>
or dres</w>
or dre</w>
or as</w>
or a
ora ha</w>
oppil aitos</w>
opin to
oper ator</w>
op tion</w>
on z
on y</w>
on o
om p
old est</w>
ol k</w>
ol esk
olesk elu
ol ence</w>
ok o
oko ham
okoham a</w>
ois eaux</w>
oikeu s</w>
occup ants</w>
occu r
oc éan</w>
oc racy</w>
oc ery</w>
oblig ation</w>
oblig ated</w>
obj ets</w>
ob ject</w>
o ts</w>
o me</w>
nu l</w>
no yé</w>
no se</w>
ni ghts</w>
ni er</w>
neu vonta</w>
neighb ours</w>
neighb ors</w>
nation ale</w>
nat urel</w>
naiss ance</w>
n ôtre</w>
n ä
n ar
mê mes</w>
mét éoro
mér ite</w>
médi ca
mé moire</w>
musici en</w>
mu tual</w>
mu tilation</w>
most ly</w>
mor gue</w>
monitor ing</w>
mon te</w>
moder n</w>
mo yenne</w>
mo thers</w>
mo s
mo b
mob iles</w>
mign ons</w>
micro scope</w>
mi d</w>
merveill eux</w>
menti r</w>
menti oned</w>
ment i</w>
men er</w>
mea sures</w>
me thod</w>
me chan
me at</w>
mauv aises</w>
mat k
mat ins</w>
mat in
marr on</w>
mark eting</w>
mar k</w>
man s</w>
man aged</w>
man Finnish</w>
mal gré</w>
mai ent</w>
mag nifi
ma ture</w>
m ä</w>
m p</w>
m ouv
m ise</w>
m ilit
m ess</w>
m ement</w>
m at</w>
légu mes</w>
lyc ée</w>
lon gs</w>
logi ques</w>
logi e</w>
lob bying</w>
lo ver</w>
lo cked</w>
ll esse</w>
lis ted</w>
linkki TE</w>
linkki Rovala</w>
linkki Regional</w>
linkki R
linkki Lapland</w>
linkki Central</w>
linkki Association</w>
linkki A
lign es</w>
licen ces</w>
li fe
li bat
libat aire</w>
li ability</w>
les quelles</w>
len tement</w>
lea ther</w>
le asing</w>
lasten valvoja</w>
lap top</w>
landlor ds</w>
lai d</w>
l äh
l âche</w>
l in</w>
l ay</w>
l aun
laun dry</w>
l as</w>
l are</w>
l ad
l ack</w>
kuntou tus
ku ja</w>
ko ti</w>
knowle dg
kni ves</w>
kil om
ki osks</w>
ke eping</w>
ka temia</w>
k y
k ur
k ly</w>
k ir
k er
k b</w>
k ag
jou ent</w>
jo ki</w>
jo ined</w>
jo ie</w>
jeal ous</w>
je ans</w>
je an</w>
jac ket</w>
j ette</w>
j en</w>
j al
it és</w>
it ti
it on</w>
iss ant</w>
is to
is sait</w>
is k
is ing</w>
is ez</w>
is a</w>
invit és</w>
invit ées</w>
invit ation</w>
invent ory</w>
inv in
invin cible</w>
introdu ced</w>
introdu ce</w>
inter rom
inter action</w>
intelligen te</w>
instruc tion</w>
ingéni eurs</w>
ing ly</w>
industri alisation</w>
indica tes</w>
incre as
in ts</w>
in te
in sis
in qu
in fertility</w>
in euvonta</w>
in capacity</w>
impli qué</w>
im us</w>
im patience</w>
im p
ill ard</w>
il itiesFinnish</w>
il ia</w>
il an</w>
ik o</w>
ignor ance</w>
ign ers</w>
i rez</w>
i ghts</w>
i ca
hu maine</w>
horr eur</w>
hor se</w>
hoit oraha</w>
ho ping</w>
ho pin</w>
ho o
ho idon</w>
histor ical</w>
high est</w>
heur euses</w>
her o</w>
hel lo</w>
hel l</w>
head ache</w>
he ater</w>
har m</w>
hang ing</w>
hand ling</w>
hal lin
habitu é</w>
h o</w>
h ad
had n</w>
génér alement</w>
génér al</w>
gé nie</w>
gynaeco logist</w>
gy ms</w>
guit are</w>
guit ar</w>
guil ty</w>
guarante ed</w>
gu im
gu ides</w>
gre en</w>
gre ater</w>
gran ting</w>
gr ocery</w>
gor ge</w>
go od
go d</w>
gi ant</w>
gh ting</w>
gh ly</w>
genti llesse</w>
gen u
gen oux</w>
gen ital</w>
g ér
g out
g onna</w>
g hosts</w>
g ed</w>
g as</w>
g as
furn ished</w>
fun ded</w>
fun ction</w>
fu cking</w>
fron ti
friend ship</w>
fre e
franch ement</w>
fran kly</w>
fore ca
for êt</w>
for gotten</w>
for cé</w>
for cer</w>
for bid
forbid den</w>
fon d
follow s</w>
fo lie</w>
flu ent</w>
fla g</w>
fir es</w>
fin s</w>
fin ir</w>
fin ance</w>
fi é</w>
fi er</w>
fi d
fid èle</w>
fi cations</w>
ff el</w>
fer ence</w>
fe ed</w>
favor able</w>
faul ts</w>
fau x</w>
fau tes</w>
fant ômes</w>
famili esFinnish</w>
fall ait</w>
fal se</w>
fai sais</w>
fai r</w>
fai lure</w>
fai ble</w>
facil itiesFinnish</w>
fac es</w>
fac ed</w>
fab ri
f requ
f ous</w>
f lies</w>
f leur</w>
f es
expres sions</w>
explo sion</w>
expli qu
expi red</w>
exerc ises</w>
exerc is
exam ine</w>
ex planation</w>
ex pire</w>
ex i
ex erci
exerci ce</w>
ex e
exe cu
ev il</w>
ev entsFinnish</w>
eu xième</w>
et c</w>
estima ted</w>
esti mation</w>
este iden</w>
establish ing</w>
espè ce</w>
es sion</w>
es ome</w>
ep tive</w>
ep tember</w>
envir onnement</w>
entr é</w>
enti rely</w>
enti er</w>
enter prise</w>
ent en
ent ails</w>
enn ad</w>
engine ers</w>
engine er</w>
endorm i</w>
end om
end er</w>
encoun ter</w>
en y</w>
en ez</w>
en ef
enef its</w>
en courag
en cour
emprun ter</w>
emb ass
embass y</w>
em pêché</w>
em pty</w>
em o
em i
em ented</w>
em ed</w>
em ail</w>
eligi bility</w>
ei j
eg g</w>
eff ective</w>
ef s</w>
ed nes
ea m</w>
e volution</w>
e ply</w>
e ine</w>
dé mé
dé goû
dé f
du es</w>
dro w
dri ed</w>
dra wn</w>
dr aw
doub ts</w>
dou é</w>
dou te</w>
donn ées</w>
donn ent</w>
dom mage</w>
distur b</w>
dispos es</w>
dish es</w>
discrimin ate</w>
disab ilitiesFinnish</w>
dis tus</w>
dis es</w>
diri ge
direct eur</w>
diplo ma</w>
différen ces</w>
différ ents</w>
diffi c
diff ers</w>
diag no
di verse</w>
di ra</w>
di pl
di et</w>
di able</w>
di abet
deven us</w>
dev raient</w>
dev ait</w>
determin es</w>
dess inées</w>
descri bes</w>
des ig
des er
depu ty</w>
demonstr ations</w>
demand ing</w>
del ayed</w>
defin ite</w>
defin es</w>
dec lare</w>
dec lar
deb out</w>
deal t</w>
de par
de eply</w>
daugh ters</w>
d ustries</w>
d its</w>
d euxième</w>
d d
d ates</w>
d aire</w>
d &apos;
cé libataire</w>
curi os
cur tain</w>
cur ed</w>
cu pational</w>
crow d</w>
cross ed</w>
criter ia</w>
cri tique</w>
cre am</w>
cr ush</w>
cr it</w>
cr ay
cr ai
coû té</w>
couver ture</w>
cour ses.fi</w>
cour amment</w>
coun triesFinnish</w>
coun ted</w>
cou teaux</w>
cou per</w>
cou pable</w>
cou leur</w>
correc te</w>
cor por
cook ies</w>
contribu tor</w>
contribu teur</w>
contr ôle</w>
contr ari
continu ed</w>
consul tation</w>
consu mer</w>
constitu ent</w>
constitu ency</w>
conse quences</w>
connaiss ance</w>
connaiss ais</w>
confi denti
confi dence</w>
conf érence</w>
conf lict</w>
conclu sions</w>
concentr er</w>
con ver
con sum
con som
con gé</w>
